#version: 0.2
ä ¸
Ġ t
Ġ a
i n
h e
e r
ã Ģ
o n
ç ļ
çļ Ħ
ä º
r e
Ġt he
Ġ s
o r
a t
e n
a n
Ġ w
Ġ o
ãĢ Ĥ
e s
i t
Ġ c
i s
ä »
æ ľ
å ı
e d
å ¤
Ġ f
a l
n d
a r
Ġ p
in g
å ħ
Ġ b
o u
è ¿
Ġo f
Ġ in
æ ĺ
Ġa nd
ä ½
i c
Ġ m
å Ī
Ġt o
å Ĳ
ä ¹
å ľ
å ®
a s
i on
Ġ d
â Ģ
l e
ä¸ Ģ
æ Ī
æĺ ¯
å °
o m
Ġ h
ç Ķ
äº Ĩ
Ġ T
ç »
è ¯
å Ľ
æ Ĺ
i l
Ġ S
en t
å ¹
ä¸ į
å į
å Ĭ
æ Ŀ
ãĢ ģ
Ġ A
å Ń
Ġ C
æ ĸ
r o
Ġt h
e l
s t
Ġ l
ä ¼
åľ ¨
Ġ re
æľ ī
Ġ I
äº º
æ ī
c t
e t
Ġ n
å ĩ
è ®
å Ĩ
Ġ e
å ¾
o l
å ¼
a m
å ·
Ġ 1
Ġ M
é ĩ
i d
Ġ g
è Ģ
å ¸
å ¥
v e
u r
u t
è¿ Ļ
o t
a d
Ġf or
ä¸ Ń
Ġ is
ĥ ½
. .
Ġ B
c h
å¤ §
Ġ on
Ġ P
u s
å º
at ion
o w
i g
a y
i m
ä¸ º
l y
v er
c e
æ ķ
å ¯
Ġ y
Ġ 2
ä¸ ª
æ Ģ
å¹ ´
å Į
æĪ ĳ
è µ
å İ
Ġb e
æ Ń
è ¡
é Ģ
Ġ (
å Ĵ
ç İ
ç §
ç ľ
ç Ľ
ĠT he
è §
âĢ ľ
âĢ Ŀ
ç ī
i r
Ġ H
å ¿
æ ²
æ ł
it h
Ġs t
ä» ĸ
é Ĺ
t er
è ĩ
Ġ R
å ±
0 0
åĴ Į
æĿ ¥
Ġ D
ä¸ Ĭ
å ½
Ġ W
æ °
æ Ĭ
é ģ
æ Ķ
Ġ F
r a
Ġw ith
u n
å ĳ
åĽ ½
ç º
é Ŀ
ä» ¥
u l
æĹ ¶
Ġth at
Ġy ou
é Ļ
åĪ °
Ġ L
åĩ º
å ĵ
æ ³
Ġa s
è ´
he r
æ ĥ
å° ±
¦ ģ
æ ŀ
ä¼ ļ
' s
s e
åŃ ¦
Ġa l
è ¦ģ
er s
Ġa n
g e
Ġ N
ä½ ł
Ġ E
Ġ it
Ġ G
æ ĭ
Ġw as
ç ¬
åľ °
æ µ
ç «
çĶ Ł
i f
åĲ İ
is t
ä¹ Ł
es t
Ġw h
è ¾
an d
e m
å ī
éģ ĵ
æ İ
åı ¯
è ĥ½
é ĺ
Ġp ro
r i
il l
t h
ä ¿
ä¹ ĭ
äº İ
Ġc on
a c
u m
æ ¯
ç Ĳ
o p
o d
ä¸ ĭ
ç Ŀ
Ġ he
è ½
åŃ Ĳ
çĶ ¨
æĪ Ĳ
r om
ç Ń
å¯ ¹
é Ĥ
a b
Ġ "
ä» ¬
åı ĳ
Ġ or
Ġa t
at e
èĩ ª
å ¦
Ġc om
è¿ ĩ
æ Ħ
Ġa re
Ġ v
ä½ ľ
Ġ O
es s
e w
è¯ ´
p p
å Ł
Ġd e
a k
it y
o re
Ġ J
Ġb y
å¤ ļ
o c
ç Ħ
å® ¶
æ Į
é ĥ½
é ¢
o s
å¤ ©
re s
l d
è¡ Į
çĿ Ģ
ig h
ç ®
or t
m ent
èĢ Į
q u
æĸ ¹
æ ¸
é ķ
ç Ĥ
å¥ ½
ä¹ Ī
çĦ ¶
Ġf rom
i es
Ġs e
a in
é ĥ
å¾ Ĺ
ç Ł
éĤ £
0 1
æ ´
ç¬ ¬
Ġe x
ar t
è ·
i v
ä ¾
Ġ ,
æ ¬
an t
åĪ Ĩ
æ² ¡
å° ı
çİ °
éĿ ¢
æ³ ķ
è¿ ĺ
ä¸ İ
å¼ Ģ
è Ĥ
ç» ı
Ġh a
Ġs u
æ ±
ä¸ ļ
p e
æľ ¬
Ġ r
å¿ ĥ
æ Ľ
åĬ ¨
çľ ĭ
çĲ Ĩ
ç ½
ä¸ »
åħ ¶
al l
éĩ Į
u d
Ġ U
åĬ Ľ
i ve
ĠI n
é Ľ
ar d
è ī
è °
en d
é «
Ġc h
åħ ¬
è ¢
æľ Ī
å §
äº ĭ
æĹ ¥
å £
é« ĺ
u st
é £
ç ¥
éĥ ¨
ou r
çŃ ī
a g
n t
åİ »
e ar
æī Ģ
åī į
å Ģ
å¦ Ĥ
ç ©
Ġ âĢľ
i al
å ģ
æ Ļ
å· ¥
å ķ
è ĭ
ç ¾
éķ ¿
Ġs h
ä¸ ī
å® ļ
é ļ
éĹ ´
Ġ K
igh t
è¿ Ľ
è Ĭ
ç Ļ
ä½ ĵ
ĠS t
ä¸Ģ ä¸ª
èµ ·
é ¡
Ġha ve
u re
å® ŀ
o g
el l
åĲ Į
å Ŀ
Ġp l
æ ģ
æľ Ģ
Ġ k
æĸ ĩ
Ġ u
è º
Ġ us
in e
ou t
Ġn ot
Ġ le
çĤ ¹
æī ĭ
b er
.. ..
åħ ¨
as t
p t
ic h
æľ º
o k
a ge
o st
ct ion
ãĢ ĭ
ãĢ Ĭ
i a
r ou
Ġc an
Ġw e
Ġth is
åĲ į
æĹ ł
åĨ ħ
è ¶
om e
è¢ «
ç ķ
ç ģ
å »
ç§ į
g h
i p
ç ±
æĥ ³
ç ¨
æ ı
p er
èº «
å½ ĵ
åį ģ
åĮ ĸ
èĢ ħ
id e
æĢ §
Ġw or
ç ł
ä½ Ĩ
Ġa b
a re
Ġ çļĦ
at ed
è ģ
äº Ľ
è Ī
åı ª
Ġ 3
çĶ µ
ä½ į
ç ¤
éĩ į
äº Į
on g
Ġ V
ç Ī
ãĢĤ âĢĿ
åĲ Ī
å° Ĩ
è Ħ
i an
ou ld
åı Ĭ
ç ³
åħ ¥
çī ©
æĸ °
æĦ ı
am e
è Ĳ
Ġh as
åĬ ł
æķ Ļ
i re
å¤ ĸ
å¹ ¶
æ į
è ĥ
f f
æŃ ¤
r y
i e
ĠT h
ac k
Ġh is
ar y
åº ¦
æĥ ħ
å¾ Ī
å¤ ´
u b
e ct
åĽ ł
æĺ İ
Ġ j
åĮ º
p l
ic e
æķ °
ic al
) ,
or m
åĪ ¶
å¸ Ĥ
äº §
ĠC h
æ° ´
éĢ ļ
ä¸ ¤
¥ ¿
c c
çŁ ¥
æł ·
é Ķ
t her
æ²¡ æľī
åħ ³
i z
s o
er e
çī ¹
æ¬ ¡
Ġa d
è ¥¿
u e
å· ±
éĩ ı
ä» İ
a p
as s
é ¦
Ġcom p
é ľ
Ġyou r
å· ²
c l
Ġal l
å ¢
Ġ æĪĳ
æ Ł
å» º
Ġw ill
Ġw he
èĩª å·±
åĨ Ľ
âĢ ĵ
ç ¼
æŃ £
: âĢľ
i k
é ©
a v
åº Ķ
Ġ Y
åĵ ģ
Ġc l
æ ¶
ou s
æ° Ķ
âĢ Ķ
f er
Ġ en
ç ´
è® ¾
or d
Ġ un
è į
é »
æ° ĳ
å¹ ³
çĽ ¸
ç¾ İ
an s
åľ º
in d
æ¯ Ķ
ç ĥ
ç³ »
ç¥ ŀ
æ ·
ĠR e
æĪ ĺ
Ġthe ir
ä» £
Ġwh ich
Ġb ut
9 9
ä¸ ľ
Ġ -
åı £
Ġ äºĨ
Ġn e
ab le
Ġcon t
çĽ ®
å ĸ
åĳ ĺ
èī ²
is h
ion s
k s
ä» Ģ
o ok
ä» »
ig n
é ħ
im e
ul t
æĸ ¯
æŀ ľ
d u
Ġm e
Ġg o
Ġ im
Ġd o
è İ
çĶ ±
ç® ¡
çľ Ł
æĶ ¿
it e
m er
é Ĵ
Ġt e
è¡ ¨
ä»Ģ ä¹Ī
ç ²
æİ ¥
æµ ·
on e
åĽ ŀ
è Ļ
Ġal so
é ĵ
en ce
å± ±
Ġin t
å® ī
Ġw ere
i b
æľ Ł
a ct
r u
åĪ ©
Ġ ä¸į
è· ¯
èĢ ģ
ĠI t
éĩ ĳ
ation s
åı¯ ä»¥
ak e
ä½ ¿
f orm
Ġo ut
è® ¡
ou nt
é ª
æı Ĳ
åŁ º
åĬ ¡
ç ¦
ç Ĺ
ç« ĭ
Ġ 4
Ġm ore
a il
èĩ ³
p ort
al ly
æ ¡
ä¸ ĸ
å¸ ¸
ä¿ ¡
ç ĸ
Ġre s
åĵ Ī
é Ł
as e
å¥ ¹
Ġ ç¬¬
åį Ĺ
an ce
a ch
ç ĭ
æĽ ´
Ġwh o
åĽ Ľ
o v
åĲ ĳ
Ġu p
Ġon e
è® ©
ç¨ ĭ
ç§ ĳ
è¯ Ŀ
æľ ¯
a ce
éĹ ¨
ç» Ļ
è £
å± ķ
Ġa r
å¼ ı
å ²
éĹ ®
çĽ ´
åİ Ł
çİ ĭ
ç ¡
å° Ķ
Ġthe y
ä¹ ¦
ow n
on d
Ġm an
Ġ !
i le
ä¿ Ŀ
ä»ĸ ä»¬
ver s
Ġa pp
c es
er v
å¸ Ī
æĪ ĸ
an g
ç» ĵ
è½ ¦
åħ ī
å ŀ
æī ĵ
or y
Ġp er
å¥ ³
Ġ ä½ł
é£ İ
Ġy ear
it ion
en s
å° ĳ
ĠH e
ent s
Ġ Ð
æĦ Ł
åı Ī
Ġab out
Ġ ãĢĤ
Ġs o
å£ °
æ ®
æ »
å¤ Ħ
åĮ Ĺ
t e
åĪ «
èµ Ħ
æī į
ar k
è§ ģ
å¤ ª
Â ·
å¼ º
r ic
n e
Ġ 5
re e
Ġp art
l l
æ ¼
ver y
åĨ į
å Ķ
è¯ ¥
ĠU n
å°± æĺ¯
ter n
e p
çĻ ½
Ġo ther
c k
' t
åŁ İ
åħ ĥ
Ġn ew
ç» Ł
å½ ±
at er
åı ĺ
res s
el y
è¿Ļ ä¸ª
Ġh ad
åĩ ł
Ġre c
Ġt r
åģ ļ
ou nd
or s
åı ¸
Ġit s
r it
å½ ¢
ä¸Ń åĽ½
æĪĳ ä»¬
çľ ¼
ä¸ ĩ
è§ £
Ġs p
l ic
æĬ Ĭ
æ´ »
ir st
! âĢĿ
il d
ä¼ ł
æĢ »
é© ¬
è¯ Ń
in t
åħ ĭ
v el
é¢ ĺ
ç© º
Ġd is
p h
Ġ qu
ol d
o b
éĺ Ł
re at
çº ¿
æ Ĥ
ç± »
æ º
æĶ ¾
o se
w n
çķ Į
çº §
åķ Ĭ
éĻ ¢
å Ħ
å¾ ·
Ġs c
åħ Ī
äº Ķ
ay s
é ¾
æĬ Ģ
ç» Ħ
Ġs a
ing s
Ġ ro
å ¨
Ġe v
æł ¼
Ġ âĢĵ
Ġ åĲ
æµ ģ
ik e
0 2
åı Ĺ
) .
åı °
ä» ¶
ç« ł
æĶ ¶
å Ļ
Ġbe en
Ġwor k
äº ¤
.. .
Ġp e
æŀ Ĺ
å® Į
Ġa g
å¼ ł
1 0
èĬ Ĥ
cl ud
at es
ç¤ ¾
çł Ķ
Ġ her
åŀ ĭ
åį ķ
Ġo ver
æ ĳ
w o
Ġp re
è Į
o ve
n g
he d
åĦ ¿
ä¸ ĵ
o y
f ter
o ol
æĮ ĩ
å¸ ¦
x t
Ġt ime
ĠS e
å£ «
Ġs ome
9 8
è´ ¨
? âĢĿ
æ¸ ħ
è¿ Ĳ
ol l
çĲ ĥ
Ġ ä¸Ģ
åĢ Ļ
æ £
.... ..
Ġan y
å·² ç»ı
Ġ 6
åĲ Ħ
è ±
op le
Ġd es
00 0
éĢ ī
è¾ ¾
æľ į
ad e
Ġf irst
è¾ ¹
å¯ ¼
Ġm y
å® ¹
é Ń
è§ ī
ä¸į æĺ¯
Ġa cc
æĮ ģ
ä½ ķ
Ġthe re
ä¾ ¿
Ġs pe
- -
Ġk n
Ġof f
Ð ¾
Ġpro v
ĠTh is
äºĨ ä¸Ģ
æ ¢
nd er
ic k
è® º
å ĥ
ou gh
èģ Ķ
Ġbe c
ation al
Ġo ur
è§ Ĩ
æŃ »
éŁ ³
on s
åį ´
Ġthe m
ç¬ ĳ
Ġin clud
èµ °
è® ¤
ç± ³
æĭ ī
ĠA s
ç® Ĺ
èĭ ±
çŁ¥ éģĵ
am p
Ġcom m
å§ ĭ
ç Ĭ
å¿ «
æ² »
on t
ä¹ Ĳ
æģ ¯
ur n
é¾ Ļ
çİ° åľ¨
Ð °
åĽ ¾
ç§ °
æĿ ¡
å·¥ ä½ľ
åı į
å¸ ĥ
åĻ ¨
åħ ±
ç½ ĳ
æł ¡
Ġ if
Ġint o
æł ĩ
Ġwhe n
ç© ¶
æį ®
å ĺ
l es
ç« Ļ
çľ ģ
çī ĩ
åķ Ĩ
w e
Ġw ould
è§ Ħ
ä¿ ®
f t
æĹ¶ éĹ´
åį İ
åı ·
éĿ ŀ
åĬ Ł
at h
æ¸ ¸
ç ª
éĽ Ĩ
æ Ĵ
è ħ
æ ¨
åı Ĥ
o od
è½ ¬
åĪ Ļ
l and
è® °
Ġf e
ç Į
Ġ ?
åħ¬ åı¸
rou gh
r am
æĹ¶ åĢĻ
ä½ ı
æ ļ
is s
æĿ ĳ
çĻ ¾
ĠC om
us e
æĿ İ
éĢ ł
éļ ¾
åĳ ¨
åĮ ħ
Ġ æĺ¯
a w
èĬ ±
èµ Ľ
æ ¹
è ĳ
Ġ $
Ġ è¿Ļ
ç¦ »
u al
Ġpl ay
è¿ ŀ
è° ĥ
æ¯ ı
ä» Ĭ
æ ¥
Ġ '
Ġ =
æĶ ¹
åĳ ½
æĢ Ŀ
å® ĥ
å· ŀ
åħ ·
å¤ ĩ
åĩ Ĩ
è£ ħ
äº ļ
ĠD e
it ed
å¹ ¿
åĥ ı
ĠN ew
ä¹ ī
1 2
ĠW e
Ġth an
ç² ¾
m an
é ¥
i ous
èĢ ĥ
Ġpe ople
Ġt ra
i o
èĤ ²
as ed
Ġa m
Ġt wo
åŃ Ĺ
ĠW h
åĽ ¢
æ± Ĥ
æĬ ¥
æķ ´
é¢ Ĩ
åĬ ŀ
éľ Ģ
æł ¹
Ġ 7
ĠA r
åĩ »
c ed
Ġc o
åİ Ĩ
9 7
åį ³
Ġl ike
ĠA l
ç ħ
Ġh ow
çĪ ±
æĹ ı
é¦ ĸ
çģ «
çŁ ³
i ew
æĢ İ
Ġg et
if ic
re d
è¿ ĳ
å ¡
Ġin d
æĺ Ł
çłĶ ç©¶
æŃ ¥
le ct
çī Ī
oc k
æ ħ
in k
rou nd
ç ı
Ġad d
it ies
or n
åı ¤
Ġu nder
ç½ Ĺ
åıĳ å±ķ
mer ic
ä¸ Ķ
çĹ ħ
ç®¡ çĲĨ
çļĦ äºº
Ð µ
ç® Ģ
æĶ ¯
éļ ı
åĪ Ľ
c ial
ur ing
æ¼ Ķ
åĽł ä¸º
çº ¦
è¡ Ģ
è ¨
w ard
è¨ Ģ
æº Ĳ
åı ĸ
j ect
Ġin ter
Ġs he
er t
. "
Ġs erv
ol og
Ġa ct
Ġf l
ic s
Ġb et
Ġ ra
ch ool
é¡ ¹
Ġwh at
è§ Ĥ
é£ ŀ
åº ľ
Ġpro du
å¤ į
åı ²
Ġ åľ¨
å¢ ĥ
Ġm ost
åĪ° äºĨ
al s
Ð ¸
h ip
c om
Ġa fter
éĿ Ĵ
Ġ 8
Ġb u
ä» ·
å ĭ
æŀ Ħ
r an
Ġb l
Ġyear s
æ· ±
å± ŀ
i ed
if e
è¶ Ĭ
è¿ĺ æĺ¯
åŃ ĺ
éĢ Ł
åĨ ³
Ġm ay
æķ Ī
æĪ ·
å ł
ç ¿
) ;
Ġcon s
åĵĪ åĵĪ
Ġon ly
g et
è® ®
t s
ĠA meric
or k
2 0
Ġth rough
i vers
æĸ Ļ
Ġn o
æŀ ģ
b s
ot h
é» ĳ
å¹ ²
ĠP ro
è¿ ľ
he n
re n
èİ ·
Ġc ol
è ı
è¿Ľ è¡Į
ĠL e
9 6
en er
Ġat t
Ġre g
è¯ Ĩ
il y
çļĦ ä¸Ģ
å¼Ģ å§ĭ
ĠC an
ĠM ar
å§ Ķ
1 1
éĺ ³
ç ¢
Ġj ust
ub lic
5 0
æĢİ ä¹Ī
åı¯ èĥ½
æĿ Ģ
æ± Ł
è® ¸
ç¤ º
åİ ¿
at ing
æŃ ¦
åĪ Ĺ
Ġp r
p s
ri b
çģ µ
è¯ ķ
æĿ ĥ
is e
åĮ »
Ġne ed
Ġsa id
Ġs y
Ġl oc
ä½Ĩ æĺ¯
ç» ´
Ġe m
ĠA n
è¯ ģ
Ġ 0
åĨ ľ
f ul
æĺ ĵ
èĲ ¥
et h
çº ¢
è½ »
ic t
ä»ĸ çļĦ
Ã ©
ç¡ ®
u g
åħ Ń
id ent
ment s
ul ar
åĲ ¬
Ġp o
ãĢ Į
ãĢ į
æĺ ¾
Ġus e
å¦Ĥ æŀľ
g an
å¿ ħ
n ing
å¤ ±
æ³ ¨
æ¶ Ī
Ġwhe re
å± Ģ
æ¨ ¡
Ġre l
è¾ ĥ
Ġin c
éĻ ħ
Ġst ud
ro w
ĠS h
ä¼ ģ
Ġhe l
Ġre t
éĹ® é¢ĺ
m s
ç½ ®
ä¹ ł
çİ ¯
å¾ Ģ
æľ ª
r ing
åĽ½ å®¶
Ġ |
æĹ ©
å¾ ®
Ġp h
t t
Ġw ell
äº ĳ
æĬĢ æľ¯
è¶ ³
åħ «
ers on
form ation
Ġ &
å® ¢
èµ· æĿ¥
æĪ ¿
f ore
å¤§ åŃ¦
æľ Ľ
æµ İ
èĲ ½
u p
Ġ å¥½
3 0
æĬ ¤
Ġsu pp
ä¸» è¦ģ
è¿Ļ äºĽ
èģ Į
Ġre m
ä¸Ń çļĦ
ç§ ¯
i x
æ² ³
Ġ1 0
åĪ Ĵ
äºº çļĦ
Ð ½
Ġin v
ä¸ĸ çķĮ
al e
å¼ ķ
å¤ Ł
Ġ 9
ow er
ĠY ou
it t
ä½¿ çĶ¨
el f
ou se
åħ µ
Ġse c
éĺ ¿
u res
æ» ¡
è· Ł
ç» Ī
he s
ä¹Ł æĺ¯
Ġd if
Ġsu ch
çİ ĩ
an y
Ġm ake
åį Ĭ
a u
Ġim p
Ġb ack
åı Į
æĸ Ń
æ® µ
åħ °
æİ ¨
ä» ĭ
a z
at ive
çĥ Ń
Ġs et
Ġas s
äº ²
æīĢ ä»¥
åĨ µ
åį ¡
é» Ħ
a use
å® Ŀ
, "
æŁ ¥
é ¸
æĸ ½
y s
ä½ İ
os s
ç» Ń
åĵ į
ä¾ Ľ
ä¼ Ĺ
en ces
ä¹ĭ åĲİ
è¶ ħ
a h
éĻ ¤
Ġman y
Ñ Ģ
æĪ ı
ä¹ Ŀ
è¿Ļ æł·
ĠE x
Ġthe se
Ġf in
åĲ §
è± ¡
Ġp ol
åĪ ļ
ä¼ģ ä¸ļ
è§ Ĵ
çĶ »
åį ĥ
ç´ ł
Ġf am
st em
è´ ¹
åı ¶
vel op
o h
èĪ ¬
ç¬¬ ä¸Ģ
äº ¬
åº ķ
éĺ ²
in s
it s
æī ¾
æľ Ŀ
Ġf il
æĬ ķ
ç³» ç»Ł
å® ĺ
as h
Ġm od
åĬ ¿
i el
9 4
ä¼ ĺ
é¦ Ļ
é£ Ł
åľ Ł
èĻ ½
åĩº æĿ¥
å¢ ŀ
éķ ĩ
å· ´
c ess
æĢ ģ
i er
Ġa c
Ġ ent
æĽ ¾
d ay
éª Į
é ²
t on
åĳ ¢
a ir
ä¸ ĥ
pe ct
il ity
c y
åĳ Ĭ
åħ »
åĸ ľ
å¤§ çļĦ
æ Ĳ
ou n
Ġp res
Ġ å°±
å± Ĥ
çĶ ·
æĺ¯ ä¸Ģ
ĠF or
u nd
Ġus ed
Ġthe n
at a
å± ħ
Ġ åķĬ
Ġhel p
Ġh im
e y
Ñ Ĥ
æ¡ Ī
çĬ ¶
èĦ ¸
ul l
è Ĵ
èĭ ı
Ġin st
âĢĶ âĢĶ
e ver
Ġm em
åİ ĭ
ak ing
ow s
ç¼ ĸ
å¸ Ŀ
Ġar t
/ /
s s
èį ¯
Ġe very
ĠC l
Ġm ed
ib le
T he
Ġin formation
ç» Ĩ
i ence
Ġc ould
Ġ æľī
èī º
Ġ <
w ay
ic es
å¤ «
ar s
åĪ Ŀ
éħ į
ĠS c
e k
ĠH ow
i ent
çª ģ
æĪĲ ä¸º
Ġ {
åĪ »
ç» Ŀ
v en
åĽ ´
t y
d er
a x
9 5
Ñ ģ
in ce
è´ £
æİ §
çħ §
Ġ end
æķĻ èĤ²
åį «
åĬ ©
Ġs er
ç¾İ åĽ½
ç»ı æµİ
Ġs m
in es
ire ct
ra ct
ĠA nd
u ch
am es
Ġn um
åĪ ĩ
in ess
Ġtr ans
Ġm ade
éĥ½ æĺ¯
t en
ç¤¾ ä¼ļ
éľĢ è¦ģ
" ,
èĩªå·± çļĦ
å® ¤
ĠA d
as on
æĻ ®
æľį åĬ¡
Ġh igh
ivers ity
an ge
è¯ ·
äº ī
ĠB e
p r
u es
Ġc all
Ġ ...
Ġo wn
Ġex per
éĵ ģ
Ġl ook
éĻ Ī
æŃ Į
Ġ }
è¯ Ħ
æĻ ¯
åŁ Ł
ist s
åī ĳ
is hed
è¿ĺ æľī
åĨ Ļ
ĠO n
le t
æķ ħ
å° ¼
Ġag ain
åı ĭ
n er
we en
æİ Ĵ
i et
ĠAmeric an
åħ ļ
Ġ [
åħ¶ ä»ĸ
ä» ¤
æī ¿
èĩ ´
1 5
éŃ Ķ
ot her
Ġsu b
çł ´
éĻ Ĳ
ä¸Ĭ çļĦ
åī §
Ġfor m
å½ ķ
is ion
åŃ ©
ä¼ ¼
ä¸į è¿ĩ
Ġg u
Ð¾ Ð
oll ow
p en
åħ¶ ä¸Ń
çļ ĩ
r al
è Ľ
al th
ä¸ ¾
åĢ ¼
æµ ĭ
Ġkn ow
å¿ µ
g ram
è´ Ł
Ġde c
åį ĩ
Ġm in
çº ª
Ġch ar
åĲĮ æĹ¶
Ġc re
e x
ç ĵ
Ġp op
è®¾ è®¡
Ġc ount
ri v
Ġde f
Ġw ant
Ġ .
Ġbe ing
Ġe ar
Ġ ed
t ing
Ġ *
ä»¥ åıĬ
å¥ ĩ
Ġs ur
Ġ Z
ç» ĩ
ä¾ ĭ
èĮ ĥ
Ġ ~
ver n
æ ĵ
åĲ ĥ
Ġn ow
å ©
æ ¦
iz e
æĽ ²
c o
éĢļ è¿ĩ
æ¬ ¢
è¿Ļ ä¸Ģ
çķ Ļ
ä¿¡ æģ¯
ç Ĩ
ction s
ä¼ ¤
åĵ ª
å Ĥ
å¯ Ĩ
åħ ´
o ot
é º
Ġc ent
b le
éĢ Ĥ
Ġl ong
Ġdif fer
ä¾ Ŀ
æľ ¨
ar ch
Ġst art
Ġbet ween
åĨ ·
ä¹Ł ä¸į
éħ Ĵ
æ± ī
Ġde velop
åĽ Ń
Ġg r
Ġb us
at ure
ä» ħ
èĻ½ çĦ¶
ut ion
ce pt
æĶ¿ åºľ
at her
åŃ¦ çĶŁ
Ġbe fore
ra ph
Ġ Q
ur y
ĠI nd
us ic
Ġw ay
el s
ĠB l
Ġe ff
éĥ¨ åĪĨ
æ ¤
ĠC ol
è Ĺ
an k
ĠI s
éĩ ĩ
Ġsh ould
ĠI f
åį ı
Ġm on
ç¾ ¤
ç« Ł
Ġwor ld
æĶ »
Ġ éĥ½
Ġle ad
äº§ åĵģ
æ³ ¢
or th
å® Ĺ
Ġd uring
æĿ Ĳ
Ġf ound
, âĢľ
Ġv ar
ä¹ İ
ter s
å¿ Ĺ
Ġ ä¹Ł
iv es
å¥ ĸ
Ġse e
Ġ very
iel d
Ġev en
Ġc ar
ou th
u c
Ġte am
å¨ ģ
åıª æĺ¯
Ġb el
ä» ½
er n
ch n
c on
æĢ ķ
Ġp erson
Ġa v
Ġa ut
éĻ Ĩ
v iew
è¯ »
æ¸ ©
åĨ ²
Ġp ublic
a j
Ġin s
éĶ Ļ
èĳ Ĺ
Ġd id
åıĳ çİ°
ĠP l
æ² ¹
è¯´ éģĵ
Ġf ind
æĸĩ åĮĸ
c ent
Ġc ur
1 6
ag es
åľ £
çĭ ¬
Ġdes ign
od e
Ġcl ass
Ġr ight
åĿ ĩ
è¿Ļ ç§į
l ed
åı «
ç¦ ı
ĠS p
Ġ çľĭ
æ¸ ¯
æĭ ¿
a ve
Ġwh ile
l ine
m in
å° ½
Ġc he
æīĢ æľī
ç ŀ
en e
Ġsy stem
Ġspe c
éĴ ±
at t
åĵ ¥
åį °
å· ®
at ch
éĽ ·
Ġre qu
et s
æ¸¸ æĪı
Ġd et
olog y
ĠThe re
Ġ est
èĭ ¥
u ally
è¯ ¾
çļĦ æĹ¶åĢĻ
Ġd on
å® ³
ĠP h
Ġl ife
ĠUn ited
åı ¦
Ġgo od
å¼ Ĥ
re nt
åī ¯
ion al
rou p
åº §
æĻ ļ
Ġinclud ing
æĭ ħ
æĥħ åĨµ
Ġim port
Ġs im
9 3
Ġex t
ĠT r
çº ³
ä¸į èĥ½
ĠUn iversity
id er
1 8
ĠE ng
ĠC on
= "
çĶŁ æ´»
æĥ Ĭ
Ġcomm un
åĢ Ĵ
Ġf ollow
us s
im es
Ġd own
Ġl ar
Ġs ign
Ġprov ide
ç»Ħ ç»ĩ
Ġre ad
an n
Ġbec ause
Ġb est
éĺ µ
æĭ ¬
é ¼
éĤ£ ä¹Ī
ĠS he
Ġth ree
å¸ ®
Ġd ist
Ġth ose
it al
éĻ ©
å¸ Į
Ġdo es
Ġex p
b ers
æ´ ¾
ç´ §
Ġs chool
1 4
åĩº çİ°
åĪ ĺ
ç» §
èĤ ¡
Ġg ener
) ãĢĤ
çļĦ æĺ¯
Ġre p
çİ ©
Ġsupp ort
g er
æ ½
ä½ľ ä¸º
le y
ä¸ª äºº
01 0
Ġb ook
ut e
åĲ Ĺ
è° ¢
o x
ä¸į åĲĮ
iv ing
Ġg reat
Ġt er
le ase
i ver
l ish
èĥ½ å¤Ł
æŃ ¢
åŁº æľ¬
éĩį è¦ģ
Ġch ild
v ed
v ent
Ġb r
ar m
Ġ1 2
Ġm uch
Ġf un
Ġb oth
Ġw rit
çĪ ¶
Ġpro gram
is m
å¼ Ł
m ber
çı Ń
g g
åŃ¦ æł¡
å ³
ä½ł ä»¬
è¿Ļ ä¹Ī
æ¥ ¼
å¾ ĭ
Ġe ach
æį ¢
èĢĮ ä¸Ķ
ant s
in a
çī Į
Ġsh ow
1 3
æ¯ į
and s
re ad
æĸ Ĺ
æ¥ ļ
Ġc are
oh n
é¢ Ħ
Ġ äºº
ire d
ur al
Ġl ast
è¿Ļ éĩĮ
æĮ ī
Ġm ark
èĩª çĦ¶
ç ĳ
Ġ2 0
ä½ Ļ
o ad
ĠB ut
iz ed
çļ ®
Ġret urn
åĮħ æĭ¬
ro ss
äºĭ æĥħ
ĠCom m
æľī äºĽ
Ġp ass
ä¹ ħ
Ġt y
Ġd ay
ak es
çĽ´ æİ¥
çĸ Ĺ
Ġv al
éĢ ģ
ç» ĥ
å Ĺ
å½± åĵį
al k
2 5
åİĨ åı²
åį ļ
å¥ ¥
çĦ¶ åĲİ
Ġv is
éĵ ¶
Ġh ome
Ġ è¯´
çİ ī
ist ory
çŃ ĸ
ä¹ °
ĠT e
ä¸į ä¼ļ
èĥ Į
r on
æĿ ¿
Ġt ake
æ ¿
çĽ ĳ
åį ł
Ġde p
å¯ Į
èĦ ĳ
æ¯ ķ
Ġn ame
ã ģ
å° Ħ
Ġbus iness
ĠThe y
ä¸Ń å¿ĥ
æł ¸
Ġdiffer ent
è ŀ
Ġa round
Ġs ame
9 0
1 7
ä¸ ¥
åĽ½ éĻħ
ĠA ll
ical ly
en n
Ġr un
è° ģ
Ġl a
Ġl ist
-- --
Ġm ain
ä¸Ģ èĪ¬
èĤ ī
è¯ į
åľ° æĸ¹
ur ch
äºº æ°ĳ
al ity
Ġnum ber
i qu
ä¸ Ŀ
æ£ Ģ
æıĲ ä¾Ľ
ä¹ ¡
åŃ© åŃĲ
Ġprov id
å² Ľ
é¡ ¿
Ġhe re
åĩº çīĪ
Ġd irect
Ġ æ²¡
éĻ į
n ess
ä¸¤ ä¸ª
ä¸ĵ ä¸ļ
ä¸Ģ äºĽ
å¯¹ äºİ
e c
è§ī å¾Ĺ
ä» Ļ
æĿ¥ çļĦ
çĶ ļ
Ġs k
in al
æĸ¹ éĿ¢
i am
éĶ Ģ
æĿ ¨
åĨħ å®¹
p le
å¾ ħ
Ġs om
åĶ Ĳ
Ġs l
å¸Ĥ åľº
Ġpl ace
Ġd el
Ġsec ond
å· ¦
é¡ »
ä¸º äºĨ
å² ģ
s on
æ´ ²
åģ ľ
Ġ i
e b
Ġo pen
æĴ Ń
r ist
Ġfam ily
' re
ĠJ ohn
è®¤ ä¸º
Ġus ing
are d
em ber
å® «
åºĶ è¯¥
åľ° åĮº
ä½ Ľ
åħ ħ
æľĢ åĲİ
ĠW or
èĥ½ åĬĽ
å¾Ī å¤ļ
Ġc our
è¿ °
ot t
æ´» åĬ¨
Ġ1 8
åº ·
ĠO r
fer ences
éĿ Ļ
æĹ¥ æľ¬
og raph
å· ¨
Ġbu ild
è® Ń
åĿ Ĳ
æĸ¹ æ³ķ
ç§ĳ åŃ¦
è ĵ
åħ³ ç³»
ĠC ount
Ġcont in
Ġo b
åº Ĺ
ĠA t
å¤ ľ
Ġin f
åĳ ³
Ġper form
é Ĩ
Ġo per
å·¥ ç¨ĭ
è¡ £
1 9
æ¬ §
éĿŀ å¸¸
é¡¹ çĽ®
Ġ /
Ġst ill
l ished
è® ²
åıª æľī
ĠC ar
æĭ į
Ð »
åıĳ çĶŁ
b all
å¤ ı
Ġpo int
Ġst r
æ¹ ĸ
Ġres ult
èİ· å¾Ĺ
Ġg l
01 1
o ber
t il
çļĦ è¯Ŀ
Ġ el
u ro
ç ¯
åŁ ¹
æ¿ Ģ
in ed
åı ¥
en g
éĢ Ģ
çŃ ĳ
æĦŁ è§ī
å¯ Ł
Ġg ame
al es
Ġare a
é ½
ä¸ ´
åĲ ¸
r is
Ġor gan
è´ ¢
Ġpro f
g y
Ġ éĤ£
è¾ ĵ
ord ing
re en
Ġ #
i um
åŃ¦ ä¹ł
Ġth ink
ĠSt ates
ĠM an
Ġ âĢĶ
Ġe le
er y
Ġp ost
4 0
æŀ Ĳ
å® £
ç¬¬ äºĮ
å»º è®¾
æĬ Ĺ
9 2
Ġb ro
Ġm ov
ä¸ľ è¥¿
cc ess
åł Ĥ
å¾ ģ
Ġs oc
ru ct
ç§ »
Ġto p
èĥ ľ
åı ³
at or
Ġcon st
o ard
æķ £
...... âĢĿ
ri end
Ġcomp any
Ġprodu ct
ĠC ent
åĽł æŃ¤
æĢ ¥
' m
çĶŁ äº§
èī ¯
Ġk e
æĭ ¥
00 8
èį ī
Ġre port
Ġs ing
åħ į
vern ment
çŁ Ń
Ġm usic
ĠM ay
æĭ ©
s h
åı¯ æĺ¯
è¿Ļ æĺ¯
çķ ¥
00 9
åĸ Ħ
çľŁ çļĦ
g in
âĢĿ ,
Ġpart ic
ä¸Ģ æł·
Ġs ol
od y
èĹ ı
Ġapp ro
r id
çĽ Ĭ
Ġfil m
çĶ± äºİ
çĽ ĺ
is ter
ul ation
åŃ £
Ġsm all
åĲ «
é¦ Ĩ
ç´ ¢
è Ĩ
ä¹ĭ éĹ´
éĴ Ł
01 9
å® Ī
ir d
æ² Ļ
h or
æł ĳ
åĩº äºĨ
Ġ ä»ĸ
01 8
çĶ ²
8 0
ç £
Ġp ar
01 2
Ġte chn
Ġpro cess
æī ¹
ĠU S
æĿ ¾
v ing
Ġm ar
p or
çĶ °
iss ion
ill ion
Ġav ail
ç« ¯
Ġ å¤§
Ġkn own
æĻ º
Ġth ough
æĶ¯ æĮģ
çİ¯ å¢ĥ
Ġun til
æ¦ Ĥ
Ġan n
Ġre st
æ¯ Ľ
é ±
Ġres p
8 7
Ġcon f
ĠS chool
ĠJ an
Ġad v
åģ ¥
åĿ Ĺ
m e
Ġd ata
c he
ar n
Ġre ce
k e
un e
o int
Ġh ouse
æĸ¹ å¼ı
ä¸Ģ å®ļ
6 0
t he
æķ ¢
é± ¼
å ´
æļ Ĺ
a pp
ĠR es
è Ń
t o
åħ ¸
åĸľ æ¬¢
æķ° æį®
Ġf our
å¥½ çļĦ
é ¹
æĺ ¥
tern ational
çŃ Ķ
æİ§ åĪ¶
w ays
æħ ¢
Ġst ate
E R
ç© ¿
çļĦ å¤§
b e
ain s
å®ī åħ¨
ĠC o
æ¯ Ĵ
æĭ Ľ
l ing
Ð º
00 7
re t
æİ Į
ang u
Ġo ld
è· Ŀ
Ġ1 5
è¦ģ æ±Ĥ
å° ģ
ĠT o
om en
æ¹ ¾
at ely
b um
Ġ è¿ĺ
èµ µ
ä»£ è¡¨
a i
è¿Ľ åħ¥
éĢī æĭ©
æī ĺ
éĹ »
è¿ ½
ĠG o
iv ed
çľĭ åĪ°
Ġs ince
at s
ĠHow ever
in ks
Ġc ity
i or
Ġagain st
è´Ł è´£
" .
00 6
Ġis s
å¦Ĥ ä½ķ
æ² ī
éĿ ©
æĢ ª
Ġse ver
ã ĥ
èŃ ¦
Ġacc ess
ç» ľ
Ġw ater
éĽ ¨
Ġc a
éľ ²
éĻ Ħ
S t
æī §
ç§ Ģ
ust om
éĿ¢ ç§¯
oc i
Ġ1 1
in ing
Ġf ew
å® ģ
åĬŁ èĥ½
é¢ ĳ
æģ ©
ç®Ģ ä»ĭ
Ġc le
ĠWor ld
å¡ Ķ
æİ Ī
è½ ½
tern al
å¼ ¹
Ġhe ad
å¦Ĥ æŃ¤
Ġcur rent
Ġor ig
æł¹ æį®
å§ Ĳ
å»º çŃĳ
ĠåĲ §
Ġwe bs
âĢ Ļ
ç ĩ
çĶļ èĩ³
b y
ri ed
ĠS o
éĽ ª
Ġpro ject
pt ion
Ġex pl
èĪ ª
Ġen g
Ġdis c
èĦ ļ
ĠA m
ĠP r
ä½į äºİ
èĭ ¦
02 0
ç¤ ¼
åĲ ¦
s elf
çĶµ å½±
Ġrec ord
æĵ į
Ġp oss
ãĢģ ãĢĬ
åº ı
æ¬ ¾
ĠG e
d e
01 7
è¯ Ĺ
å®Į åħ¨
Ġw in
ĠN ational
Ġavail able
iv en
Ġe as
é¡ º
r ation
æ´ Ľ
Ġp os
Ġa ge
æ¤ į
åŃ¦ éĻ¢
Ġh and
Ġst at
ä¼ Ĭ
Ġhe alth
åĪ Ģ
w w
éŁ ©
ç§ ¦
éª ¨
01 6
Ġ åİ»
è´ µ
Ġ è¦ģ
iv id
åħ· æľī
çľĭ çĿĢ
Ġle g
èŀ į
Ġp at
Ġmon th
æ· ·
çł ģ
en se
è¡ ¥
ä¸ ½
ĠF l
Ġ1 6
Ġof fer
ä¹ĭ åīį
åŃĺ åľ¨
åĩ ı
Ġl ater
a ut
ric t
ĠWh at
ä¸Ģ çĽ´
åĳ ¼
Ġre al
åŁº ç¡
çĻ »
é ¬
åģ ĩ
Ġinter est
00 5
ä¸ ¹
ä¸ĭ æĿ¥
os ed
æĹ ħ
åŁºç¡ Ģ
en cy
Ġc or
âĢĿ ãĢĤ
Ġf act
Ġm et
Ġre f
ç¥ ĸ
åĿ ļ
çī Ľ
2 2
ĠRe ferences
å® ¡
è½ ¯
çĶµ è§Ĩ
Ġa ir
Ġte xt
ĠA ust
ç¥ ¨
ä¹ ±
æĦ ¿
Ġoff ic
ĠP ol
ä½ľ åĵģ
v es
Ġ :
aj or
ro l
çī Ļ
æĮ ¥
è ĸ
åĮĹ äº¬
ĠCount y
Ġo pp
æĪĸ èĢħ
Ġp ower
äº Ĵ
è´ ¥
c er
å° Ĭ
Ġl aw
ä»» ä½ķ
ĠY ork
Ġc ap
Ġloc al
éģ ĩ
Ñ ĥ
. ,
ç§ ĺ
èĤ ¯
æĭ¥ æľī
ĠW hen
å§Ķ åĳĺ
* *
Ġre le
ne y
é¡ ¶
æĪĳ çļĦ
äº ®
iet y
Ġre se
pl oy
Ġto wn
itt le
è ¸
Ġ å°ı
ĠW ith
ri es
åŁİ å¸Ĥ
Ġser ies
éĤ£ äºĽ
ç»ĵ æŀĦ
ä¸Ģ èµ·
çĸ ĳ
çĿ ¡
g ed
éĺ ¶
as es
çĤ ¼
éĿ ł
' ve
èİ «
æĿ Ĥ
åĬ ³
éĩ Ĭ
l ess
Ġse ason
èĻ ļ
åħ¨ åĽ½
åħ¶ å®ŀ
ot e
ert ain
éĺ ´
ĠW ar
æĹł æ³ķ
ĠS y
Ġp rom
Ġinc re
å¥ Ĺ
å¹´ çļĦ
æ° ¸
I N
è¿ĩ ç¨ĭ
Ġre ally
Ġ X
ä½ľ çĶ¨
Ġcall ed
p ar
Ġpl an
2 4
æģ Ĳ
Ġwe ek
èĪ ¹
é¡ ¾
Ġpres ent
ĠE d
è¯ ī
åŃ Ļ
ĠA fter
ĠCh rist
op e
ĠS u
Ġeff ect
æ· ¡
ĠE n
01 5
is ed
ent ial
ä¹ĭ ä¸Ģ
äº ¦
å½ĵ æĹ¶
Ġg roup
è´ §
ĠB rit
åħ¬ éĩĮ
Ġserv ice
Ġan other
Ġb ased
é¬ ¼
åĪĨ æŀĲ
è®¡ åĪĴ
as ter
Ġt ry
Ġ z
å½ Ĵ
æİ ī
å³ °
le x
Ġmark et
çĹ Ľ
æłĩ åĩĨ
äºĮ åįģ
å¿ħ é¡»
ian s
Ġchar act
ur s
Ġn ear
æ¯ «
re am
äºº åĳĺ
Ġor der
åįķ ä½į
Ġimport ant
Ġd em
åĶ ®
è· ĳ
ĠG r
Ġe lect
æķĻ åŃ¦
åĨ °
Ġ æĥ³
ĠN o
æ£ ®
æĪĲ äºĨ
å¼Ģ åıĳ
æ ĩ
èīº æľ¯
Ġ vers
Ġ ãĢĬ
Ġ1 3
ã Ĥ
Ġl ine
åĶ ±
è´ Ń
m ed
Ġne xt
ĠG u
Ġal bum
æ¯Ķ è¾ĥ
ĠP e
om m
éĤ£ ä¸ª
ä¸Ģ ä¸ĭ
Ġs ay
ĠåĲ Ĺ
å ª
å¤Ħ çĲĨ
ĠM ed
Ġsu ccess
ä¹ĭ ä¸Ń
èį £
: //
ĠB y
or ies
ent ion
éľ ĩ
s p
Ġh um
çĥ Ī
Ġf ree
it ions
è¾ ĳ
00 4
Ġ ide
ĠS outh
Ġsever al
æ¢ ¦
ä¸ °
Ġst and
è¡ Ĺ
on y
éĩ İ
Ġe qu
Ġwith out
Ġf ac
ĠåĲ ĥ
éŁ³ ä¹Ĳ
Ġs ong
Ġ1 4
c ing
Ġgo ing
æŀ ª
Ġcons ider
Ġchild ren
ä½ł çļĦ
èı ľ
ĠE uro
ĠC ity
ition al
åĩ ¡
Ġha pp
ĠCom p
æ´ ĭ
ä»Ĭ å¤©
us h
ĠM in
i pp
2 3
iz ation
m p
Ġle vel
ain ed
è¿ĩ åİ»
ç»ĵ æŀľ
å° ļ
end ed
Ġ Â
Ġqu est
ä» į
Ġinv est
åĬĽ éĩı
et er
æĢ Ģ
ater ial
é¦Ļ æ¸¯
Ġwebs ite
æķ ĳ
èĥ ¡
01 3
Ġpol it
åĲ ī
æĤ ¨
èº« ä½ĵ
è ľ
y le
æİ ¢
if ied
å· Ŀ
Ġal ong
01 4
ç½ĳ ç»ľ
Ġinclud e
con om
å½ ©
æŀ ¶
ward s
ä¿Ŀ æĬ¤
é½ Ĳ
ĠP ar
st and
çĪ Ĩ
çĽ® åīį
æŁ Ĳ
Ġwith in
Ġto o
ro p
Ġb re
Ġ å¾Ī
Ġc ustom
angu age
ĠG er
Ġl ove
è¿Ĳ åĬ¨
ä¸Ģ æ¬¡
æĳ ĩ
åİ Ĥ
ent ly
ä¼ ¯
Ġm ust
æķ Į
Ġev ent
1 00
éŃ Ĥ
un g
ĠA b
Ġ3 0
amp le
æ¸ Ĳ
ĠW ill
ç» į
Ġt est
èĴ Ļ
ĠN orth
le ge
res ent
åºĶ çĶ¨
w are
e g
ĠTh at
ĠB ro
um ent
Ġl inks
äºº åı£
åĩĨ å¤ĩ
s c
ç¼ ĵ
è½ ®
A T
ç»§ ç»Ń
ĠC al
as k
au gh
w ork
ä¼ ¦
è¿ĩ æĿ¥
èĲ §
em s
åıĤ åĬł
å¿ Ļ
æĪĲ åĬŁ
æĶ¶ åħ¥
our s
e e
çĽ¸ åħ³
æĹ §
åĸ Ŀ
åº ĵ
h old
Ġp ub
um p
ĠCan ad
åº Ń
ç» ¿
st er
a f
Ġgo vernment
in c
èĪ ŀ
I n
åĽ º
ir on
u ary
iv ely
çĽ Ł
Ġest ab
Ġfe el
åĲ Ľ
y l
å¤§ å®¶
Ġ es
éļ Ĳ
ight s
Ġbec ame
) ãĢģ
Ã ¡
éĢ ı
Ġmem bers
i ents
2 1
Ġt urn
at ic
Ġke ep
Ġdes c
è° Ī
Ġc r
y n
00 1
Ġl ot
æ° ı
æľī ä¸Ģ
Ġg row
åį ±
( )
èģ ļ
ĠJ u
åħ Ħ
o f
Ġear ly
è®¸ å¤ļ
v ious
é² ģ
æĹ ¢
Ġal ways
å½ĵ çĦ¶
æ ¾
Ġexper ience
Ġf riend
ãĢĭ ãĢģãĢĬ
çī¹ åĪ«
Ġm il
çģ Ń
Ġ åķ
at ter
' ll
ç¼ º
am ed
Ġ ä¸Ĭ
O N
Ġfollow ing
ä» ĺ
Ġcom e
ç¿ »
ç¡ ¬
Ġa ff
Ġ er
Ġn on
e ad
ide o
åĺ ´
ĠO ne
æĶ¿ æ²»
æľ ĭ
ä¸į è¦ģ
ic le
å¸ Ń
Ġv iew
le ction
Ġspe cial
ĠAs s
ä¸» ä¹ī
çĿ £
å® ĩ
è¡Į æĶ¿
Ð ²
ĠH is
ç¬ Ķ
u ck
è¯ º
Ġf ull
Ġo cc
ä¼ ĳ
ä¾ §
our n
å¤ ®
Ġch ang
æĳ Ħ
éĽ Ħ
ard s
ä¸į æĸŃ
æĬķ èµĦ
å¡ ŀ
Ġpro per
00 3
ĠD o
Ġstud ents
m m
Ġle t
em ent
eth ing
ç ĺ
è´ Ŀ
th ing
æģ ¶
il le
om an
åľ Ĩ
åĲĦ ç§į
Ġspec ific
é¢ Ŀ
åį ·
Ġ2 5
Ġof ten
æļ ´
åĢ Ł
æ¶ ²
ĠM y
ç¨ ³
çĨ Ł
åĨ ł
Ġpro t
åĨ³ å®ļ
å¸Į æľĽ
Ġc ase
il t
are nt
ort un
Ġcommun ity
Ġtr ad
Ġ å¤ļ
ĠN e
Ġm ajor
ro du
Ġ ve
åĪ ¤
Ġp ut
Ġs it
o id
Ġm aterial
ç©º éĹ´
m b
Ġ1 7
çĽ ĸ
ĠO ct
Ġind ust
le ment
åĪ º
Ġ x
èĮ ¶
ĠH ar
éħ ¸
Ġbet ter
ĠB r
ä¸º ä»Ģä¹Ī
é² ľ
ĠSt ate
æķ´ ä¸ª
iqu e
æľº æŀĦ
Ġb ig
çŁ¥ è¯Ĩ
id d
èµĦ æºĲ
ç ¦ģ
æį Ł
éº »
åº Ĩ
å» ¶
ä½ ³
å± Ĭ
Ġle ft
å¾Ĺ åĪ°
Ġserv ices
èĽ ĭ
æ¡ ¥
a im
A R
äº ¡
äº§ çĶŁ
one y
ç¨ İ
éģ Ĺ
Ġne ver
ĠA pr
ĠA f
ĠEuro pe
çªģ çĦ¶
Ġprof ess
çĪ ·
er ing
2 7
an e
ä¸į çŁ¥éģĵ
åį ĸ
8 6
ver age
çĹ ĩ
ãĢ Ĳ
ĠA ug
2 6
æŁ ĵ
å «
ç² ī
if y
Ġpro ble
ä¸ĭ çļĦ
Ġcount ry
åº Ħ
ãĢ ĳ
ĠP art
Ġbel ie
he re
am b
ãĢĭ ,
s ide
ĠF ran
Ġlar ge
Ġ ä¸ī
ĠB ar
get her
Ġto gether
èĲ ¨
èĢ ³
Ġc amp
in o
Ġact iv
å¹³ æĸ¹
æł¹ æľ¬
Ġm aking
ç¯ ĩ
ç¬ ¦
ab ility
Ġde ath
Ġs um
os p
çĲĨ è®º
ĠE l
åĩł ä¸ª
Ġvis it
é¥ Ń
è¡¨ ç¤º
åĭ Ĵ
ĠH er
02 1
èĵ Ŀ
ç´ «
ä¼ Ļ
åĲĪ ä½ľ
Ġall ow
Ġsh ort
Ġab le
m y
ĠM e
æľĭ åıĭ
Ġst ory
ore d
ĠIn st
Ġwork ing
Ġl ess
éĴ Ī
00 2
ĠM c
ut es
ä»¥ åĲİ
Ġbe h
å® ĭ
end ing
ist or
ra ft
ĠMar ch
èĭ± è¯Ń
èĪ °
è Ķ
E S
å»º ç«ĭ
Ġed uc
æľī åħ³
Ġmod el
æĺ¯ åľ¨
ĠAust ral
åħ ½
éĹ ª
Ġc ost
Ġ â
Ġf r
éĢ Ĳ
ç§ĳ æĬĢ
Ġsoc ial
Ġm illion
ĠThe se
ä¸ ģ
åº Ĭ
ur ther
our ce
Ġw on
å£° éŁ³
Ġl ittle
Ġg ive
Ġth ings
ĠP re
äº «
éĶ ®
æľĢ ç»Ī
åıª è¦ģ
ç²¾ ç¥ŀ
Ġaut hor
Ġch o
ĠJan uary
a ff
Ġh istory
Ġpop ulation
Ġ åĽŀ
Ġsom ething
Ġ2 4
age ment
g es
2 8
æĿ¥ è¯´
ä¸į å¾Ĺ
Ġp ay
re et
ivid ual
ail s
Ġ1 00
åİ ħ
r or
åĿ ı
èİ ±
Ġo pt
ç½ ª
Ġrese arch
æľ ±
) :
Ġh ard
å®Į æĪĲ
Ġp ract
æıĲ é«ĺ
ç§ ĭ
Ġd ays
åı° æ¹¾
Ġm ight
ĠSe pt
å© ļ
u ed
èĦ ±
Ġ et
çĵ ¦
Ġt ell
ç³» åĪĹ
ill s
å¦ Ī
le v
åĲ ¯
çĥ Ł
Ġp ast
ĠApr il
æĹ ģ
åıª èĥ½
her n
oc us
al f
è´¨ éĩı
ĠH igh
åĪ¶ ä½ľ
is c
äº§ ä¸ļ
Ġch ange
z e
é¥ °
Ġg iven
æĪĲ ç«ĭ
å¹ ķ
ĠN ot
ĠW est
å½¢ æĪĲ
g o
èµ ¶
å®ŀ åĬĽ
ĠEng lish
ff ic
ĠJ une
ä¸Ń å¤®
æı ¡
ä¸Ģ ç§į
ac es
æ³¨ æĦı
re w
ĠP res
A S
ag ue
è¯ ¸
on es
çĽ® æłĩ
p ut
Ġt em
Ġc reat
Ġph ot
art ment
ç« ¥
Ġfor mer
Ġfe at
éĿ¢ çļĦ
ĠA pp
= =
éĽ ħ
ç±» åŀĭ
Ġm ove
æĿ Ł
æ³ °
Ġme et
æľī éĻĲ
ain t
Ġf oot
æ´ Ĺ
Ġs ite
ĠEx ternal
is ing
Ġt it
Ġl anguage
ĠT ra
æĤ £
å±ŀ äºİ
Ġwor d
Ġ åĵ
èĦ ī
é» ĺ
Ġwor ks
port s
æ® ¿
ä¹ Į
Ġapp ear
c hes
çĭ Ĥ
Ġon line
8 5
åĲ ´
Ġ //
Ġp riv
ĠK ing
Ġc ult
ç» ¼
ĠP er
ĠG l
è·Ŀ ç¦»
ä¸ĸ çºª
æ´ ŀ
or g
a pe
v iron
pe cial
éĻ¤ äºĨ
å¯ »
A N
h am
Ġcon c
Ġbec ome
ĠGer man
å¯ Ĵ
éķ ľ
Ġas k
ĠSe c
è®¾ å¤ĩ
eth od
Ġl and
å¼ ±
Ġperson al
æī ¬
å¹ ¸
ĠCh ar
r ay
çº ¸
æĺ¯ ä¸Ģä¸ª
æ²» çĸĹ
çİ° ä»£
es e
i od
ä»ĭ ç»į
a per
ç«Ł çĦ¶
è® ¨
å¿ĥ ä¸Ń
éģ ¿
< /
it er
å® ½
äº ¿
Ġ +
in ation
è¿Ļæł· çļĦ
ĠI I
éĩĩ çĶ¨
ĠAug ust
o on
æľ «
Ġf ore
ĠJu ly
ĠP ark
ra p
Ġfun ction
Ġp ot
Ġind ividual
éĥ¨ éĹ¨
Ġs w
æĦı æĢĿ
ç¦» å¼Ģ
ut ure
Ġm ult
çĮ ®
ĠD es
Ġimp ro
id es
Ġcon d
ä¸Ń åįİ
ĠBrit ish
ab ly
Ġ æľ¬
Ġt imes
al t
an ces
è®¡ ç®Ĺ
åĪ© çĶ¨
ĠQ u
åĩ Į
è¿ ·
v al
Ġs ide
Ġt ri
e f
çİ Ħ
ove mber
Ġ1 9
åĳ Ģ
ç¬¬ ä¸ī
j oy
ĠOct ober
çº ¯
ce mber
Ġdevelop ment
ate g
pl ay
fer ence
Ġl ight
ĠSept ember
æľº ä¼ļ
ä¸Ĭ æµ·
Ã ³
Ġç¬¬ äºĮ
Ġç¬¬ ä¸Ģ
3 5
ä¸į åĪ°
Ġem ploy
I D
Ġty p
Ġsu re
ĠS w
å®ŀ çİ°
ograph y
5 00
è¡¨ çİ°
éĢŁ åº¦
Ġcre ate
æĿ °
æĢ Ĵ
æ¢ ħ
Ġs ays
èĻ İ
ĠL a
åİ ļ
it ive
ĠD av
Ġw omen
s w
I S
n ect
ä¸Ģ çĤ¹
¤ Ĳ
ir l
b r
al y
ure d
Ġp ort
èĭ± åĽ½
èĤ¯ å®ļ
ĠC he
ĠSe e
å¦ ¹
ra w
our ces
å¦ ĸ
ĠRe g
Ġf ood
Ġw ar
èº« ä¸Ĭ
Ġyou ng
æ¯Ķ èµĽ
Ġche ck
Ġf ield
åĽ½ åĨħ
ond on
æŃ¤ æĹ¶
c il
çĽ Ľ
çĤ İ
åĩº çļĦ
å¨ ĺ
ac y
æĽ ¼
è§£ åĨ³
ĠF eb
Ġsu gg
ĠRe p
Ġsugg est
éĢ ĥ
7 0
c hed
Ġex ample
ct or
ir th
åĹ ¯
ed er
Ġ æľĢ
ä½į ç½®
Ġ åĵĪåĵĪ
Ġde v
å¢ŀ åĬł
Ġg ot
Ġinv ol
l er
ĠC ont
è¡Į ä¸ļ
å·¥ ä¸ļ
Ġ @
ä» ª
o le
åĽ °
4 5
å± ĭ
Ġd ue
ir c
åª Ĵ
éļ ľ
Ġex pect
Ġg ames
Ġto ok
iv al
è¡Į ä¸º
Ġplay ers
Ġcomp let
Ġ Ã
è§Ħ å®ļ
Ġex c
Ġto day
è§ ¦
è¿ ª
Ñ ı
å¾ Ĳ
éª ĳ
Ġd ri
å¹¶ ä¸Ķ
ĠAr t
è· ³
ver t
éĨ Ĵ
Ġsing le
å§Ķåĳĺ ä¼ļ
ĠN ovember
è° ·
Ġpop ular
Ġh tt
çļĦ å°ı
åĩºçīĪ ç¤¾
an a
æĹ¶ æľŁ
n ot
Ġç¬¬ ä¸ī
ĠDe cember
Ġha ving
æĸ¹ åĲĳ
Ġcomp et
åİŁ åĽł
Ġl im
Ġcont act
Ġ2 1
åĳ µ
Ġto t
Ġ èĢĮ
Ġapp lic
Ġac ross
ä¼ °
it or
æĬ ĵ
Ġrele ased
8 8
åıĹ åĪ°
æĶ» åĩ»
o or
æĥ³ è¦ģ
il ar
é¢Ĩ å¯¼
å° ¤
Ġ å¯¹
è¶ £
Ġf und
äº ©
Ġ ä»Ģä¹Ī
ro ll
åıĺ åĮĸ
if t
O R
åħ¨ éĥ¨
ĠS oc
Ġoffic ial
æĢ§ çļĦ
p ro
Ã Ń
Ġm en
Ġa way
ĠAf ric
Ġ ä¸Ģä¸ª
ĠA cc
çľ¼ çĿ
çĶµ åŃĲ
g r
ru ction
ä»· åĢ¼
Ġk ey
ä¸į åı¯
b ack
ä¼ł ç»Ł
Ġj o
ç« ŀ
ap an
å®ŀ éĻħ
viron ment
Ġb as
å¤ļ çļĦ
æĿ ¯
è¾ °
Ġf ocus
ä¼¼ ä¹İ
Ġl iving
ä¹Ł æľī
er ed
ic y
u f
æĿĲ æĸĻ
éĽĨ åĽ¢
ç®Ģ åįķ
Ġhow ever
å® ľ
Ġloc ated
ot s
æī ©
ur ity
Ġf ive
ab or
å¹¶ ä¸į
Ġ åĳ¢
çĶ ³
å®¹ æĺĵ
èĮĥ åĽ´
Ġposs ible
Ġv ol
æ± ł
å§ ĵ
Ġ å¼Ģ
al d
æĵį ä½ľ
ĠL ondon
æĸ° çļĦ
ç¾ ½
åį Ī
çĶµ è¯Ŀ
Ġ ident
ä»ĸä»¬ çļĦ
Ġn et
Ð ¼
å§ Ĩ
Ð ´
Ġj ob
äº Ī
å¿ ½
éĴ ¢
çĥ §
ä»¥ ä¸Ĭ
n a
å° º
e le
è¾¾ åĪ°
æĿ¡ ä»¶
æ± ĩ
Ġcom b
æ³ķ åĽ½
th ough
ç»ı è¿ĩ
åıĤ ä¸İ
ĠC or
um b
åĩº åİ»
æĥ³ åĪ°
Ġ \
å¥¹ çļĦ
f or
n ers
it ing
ĠD ep
åĲİ æĿ¥
Ġ ä¼ļ
Ġty pe
ĠS er
è¯Ń è¨Ģ
åī Ĥ
æķĻ å¸Ī
æĶ¿ çŃĸ
Ġs ound
99 9
Ġf re
æ¨¡ å¼ı
Ġt re
çľŁ æŃ£
åĺ Ľ
Ġsa f
Ġam ong
çº ·
æ¼ «
Ġco ver
ä¿ Ħ
è¯ ¯
æĹ¶ ä»£
åįģ åĪĨ
ip s
Ġcomm on
äº¤ éĢļ
Ġ ä¸ĭ
æ± ½
ĠS m
çĤ¹ å¤´
çģ ¯
Ġh old
Ġl ive
è ª
an ies
èī² çļĦ
çĦ¶ èĢĮ
i en
åŃ Ķ
é¢ ľ
Ġre view
Ġcharact er
ri pt
ç¼ ĺ
Ġe conom
Ġval ue
Ġother s
ul a
æµ ª
æľŁ éĹ´
Ġ äºĮ
å¯¹ æĸ¹
Ġc ame
åĶ ¯
Ġb and
ing ton
ĠH ouse
å¾ Ħ
Ġcare er
éļ Ĩ
( "
åı¦ å¤ĸ
çŃ ¾
æķħ äºĭ
im ate
u k
ĠA g
av or
çľ¼çĿ Ľ
id s
ä¸¤ äºº
Ġcour se
Ġc rit
f ord
æ³ķ å¾ĭ
' ,
éĢ Ķ
f ect
Ġbuild ing
Ġs ize
ad em
åĩł ä¹İ
Ġm ag
ib r
çĳ ŀ
ä¿ ĥ
éļı çĿĢ
Ġcont rol
èģĮ ä¸ļ
ru ary
åľ Ī
åĬŀ æ³ķ
Ġunder stand
Ġf ar
3 3
ut ions
Ġv ideo
è¿ İ
Ġmem ber
æ¨ ª
å¿ į
Ġl ik
f l
åĮ» éĻ¢
è£ Ĥ
Ġpartic ular
Ġper iod
Ġme an
çĸ ¾
ç§° ä¸º
Ġann oun
çľ ī
Ġh ig
æĪĺ æĸĹ
Ġde b
èĢĮ æĺ¯
æĿ ľ
ç»¼ åĲĪ
Ġd r
ĠSt ud
æı ı
! !
æĻ® éĢļ
é¥ ®
èĻ ĳ
ä»¥ ä¸º
g est
A C
ĠIn ternational
Ġ âĢ
Ġro le
ill ed
: :
æĬ ±
åŃĲ çļĦ
a ul
Ġfin al
åį´ æĺ¯
ĠJ apan
ç§ ģ
çĶŁ çī©
Ġpro p
åĵģ çīĮ
æķĪ æŀľ
_ _
Ñ ĸ
æĿ¥ äºĨ
å¯¼ èĩ´
l in
Ġt reat
è° ĵ
" >
å®ŀ éªĮ
Ġrep resent
u ff
ĠE ar
å¹´ ä»£
æ³ ½
Ġf uture
ak en
n ow
ĠA ct
i ber
Ġd i
Ġre du
Ġc ou
ç¼ ©
æĪĺ äºī
å¯ ¸
um n
ä»» åĬ¡
æ¢ ģ
is on
op s
ie f
T h
çĬ ¯
Ġe p
ä¸Ģ å£°
éĺ »
Ġb ody
åĬ ª
Ġorig inal
åĬł åħ¥
æ¯ķ ä¸ļ
ur g
op h
read y
åĩ Ŀ
æĮ ĳ
ç´ ¯
it her
Ġab ove
Ġmed ia
Ġplay ed
èĩ £
Ġhe ld
ç Ĵ
Ġvar ious
éº ¦
Ġ åı¯ä»¥
åģ¥ åº·
çı ł
ç»ı èĲ¥
Ġvers ion
og n
ĠCol lege
ap s
ĠA ir
ĠA ng
Ġp lease
è§Ħ åĪĴ
m ar
Ġb o
Ġen joy
éĩĮ çļĦ
ĠWill iam
E N
re g
Ġhum an
åģ ı
oun cil
çĮ Ľ
ç» ©
ene f
ĠFeb ruary
åĿ ¦
ĠRe c
ç³ ĸ
åıį åºĶ
ĠF r
Ġro om
ĠH istory
ĠS erv
ĠM ich
èĢģ å¸Ī
ren ch
m ost
et t
her s
ent al
Ġ åĴĮ
Ġsp ace
ä¸ĩ åħĥ
Ġin it
è¿ ¹
æĭħ ä»»
å¸® åĬ©
éĥ ĳ
æĬ ĺ
Ġacc ount
Ġwh y
æŃ£ å¼ı
Ġre pl
ä½ľ èĢħ
å°ı æĹ¶
çŀ ¬
Ġn amed
Ġle arn
åįģ äºĮ
çĤ ¸
çļĦ ä¸Ģä¸ª
t ime
åĪ¶ åº¦
at ural
ç¢ İ
Ġan t
éĽ ¶
el t
å° ¾
å¾ ¡
I C
å¸ ģ
Ġproduct s
æľī çļĦ
ain ing
o ver
C h
b ook
Ġacc ording
æīį èĥ½
Ġbu ilt
Ġn ational
ä¸Ģ æŃ¥
çļĦ äºĭæĥħ
Ġ æĿ¥
ĠM on
éĩĮ éĿ¢
åĪĨ åĪ«
ç»Ŀ å¯¹
a ur
Ġs elf
ä» ģ
is k
æİ¥ åıĹ
l i
Ġrec omm
åĪĨ éĴŁ
èĥ ŀ
æĩ Ĥ
Ġstr ong
æĳ ©
Ġf em
éĵ¶ è¡Į
at ors
å· §
Ġstart ed
g round
Ġstud y
å¢ Ļ
ç»Ħ æĪĲ
æľī äºº
é¸ ¡
åħ³ äºİ
å½ »
åŁ ĥ
ĠR uss
å¦ ĩ
m a
Ġindust ry
Ġhouse hold
Ġcle ar
Ġd oc
èµĦ æĸĻ
Ġe ver
ĠS an
æĺİ çĻ½
æĹ Ĺ
èī ¾
ra in
å°± ç®Ĺ
Ġs ix
pl es
ĠæĪĳ ä»¬
3 2
å¼ ĥ
æŃ£ åľ¨
2 00
äºº ä»¬
I T
a pt
èĻ «
Ġl ow
Ġ å¤ª
èı ²
3 6
Ġpub lished
Ġbe gan
ĠD r
åĩ Ģ
ä¸į å°ĳ
äºº ç±»
Ġa verage
è¶ħ è¿ĩ
ĠF rom
ic a
éĹ Ń
è½ °
Ġb irth
åĨį æ¬¡
Ġnew s
il ities
åĳĬ è¯ī
Ġev ents
o e
Ġn ight
Ġman ag
è® ¿
A L
çĤ ®
å°± ä¼ļ
E D
éģ Ń
Ġsu per
u ation
Ġlook ing
çĶ¨ äºİ
Ġme ans
å¸¦ çĿĢ
op p
ĠPres ident
ĠS ch
åĽ¾ ä¹¦
éģ į
ob al
ä» ¿
Ġk ind
éĹ® éģĵ
é ¤Ĳ
Ġf urther
è¯ ĳ
æ¸ħ æ¥ļ
é¡ µ
å± ı
ĠM ark
s el
Ġr ange
99 0
åħĪ çĶŁ
c ast
Ġal ready
åĺ ī
Ġrece ived
Ġp ri
02 2
è ļ
æĭ ľ
Ġr ad
Ġm akes
Ġst yle
èµ ŀ
åħ ¼
it ary
m ing
Ġle ast
id ence
Ġ ç»Ļ
lev ision
Ġfeat ures
Ġon ce
Ġgener al
Ġth ird
Ġfe ature
æľī æķĪ
ĠAd d
äºİ æĺ¯
çĶŁ åĳ½
Ġen c
us ed
ĠG ener
Ġopp ortun
Ġcl aim
Ġcomp anies
Ġbel ow
Ġp age
Ġw ent
it es
äºĨ è§£
Ġ åĪ°
ĠD on
æ® ĭ
ĠS ome
ĠF il
r ight
i ol
ä¼ ¸
Ġdesc rib
ourn al
Ġc ertain
Ġpre vious
éĢł æĪĲ
ĠAmeric a
Ġm oney
l u
Ġ5 0
ĠA c
Ġh ost
a e
åĨľ ä¸ļ
Ġse arch
ĠO ur
99 8
æĽ´ åĬł
çŁ ¿
å² ©
çĭ Ĺ
è¯ ļ
æĬ µ
Ġw r
7 5
Ġm ethod
å¤§ éĩı
ric k
å®ŀ æĸ½
ep end
åĲİ çļĦ
if orn
du ct
çĬ¶ æĢģ
Ġp ie
äºº çī©
Ġtot al
---- ----
Ġeng ine
Ġsign ific
æľ Ĺ
Ġso ft
l oad
æľīéĻĲ åħ¬åı¸
le te
ac ed
Ġinclud ed
æ°´ å¹³
ä¼ļ è®®
ä¸ī ä¸ª
ĠV al
åİ ī
Ġ æ²¡æľī
å·¦ åı³
ç± į
Ġb ar
Ġrel ations
é¢Ĩ åŁŁ
ĠD em
ä¸º ä¸»
Ġb enef
Ġ åı¯
Ġåķ ¦
å¹ ¼
Ġ2 3
æĺ¾ ç¤º
e al
åĮº åŁŁ
Ġ çİ°åľ¨
æĹ ĭ
Ġcre ated
æĺİ æĺ¾
Ġbe gin
he l
ĠWh ile
Ġneed s
ol ution
Ġt w
èģĶ åĲĪ
att le
ĠF in
Ġen s
ç»Ī äºİ
B C
Ġfam il
åº Ł
æĭ Ķ
Ġse en
c le
çľŁ æĺ¯
ad es
æĺ ł
è ¹
ĠPh il
Ġsim ilar
å¯ º
ãĢĭ (
æ² ¿
2 9
Ġbe aut
Ġmonth s
Ġrequ ire
iforn ia
un ch
å¤ º
Ġs ent
Ġa ud
èĤ ¥
æĭ ³
æ´ ª
O S
æĳ Ĩ
ä¼ ´
æĢĿ æĥ³
åĨ Į
Ġare as
èĢħ çļĦ
ä¹ ĺ
å¤ļ å°ĳ
èĩª çĶ±
ict ion
çĽ¸ ä¿¡
Ġch all
è Ŀ
Ġpriv ate
un ic
ç»ı éªĮ
Ġprovid ed
use um
Ġ å¤©
é ŀ
åĬĽ çļĦ
å¿ĥ çĲĨ
æĮĩ å¯¼
Ġv ill
d om
èĪ į
ĠF rench
ä¸ļ åĬ¡
Ġre fer
é¸ Ł
ĠD ist
ch ie
éĶ ĭ
å¿ĥ éĩĮ
w h
åĤ ¨
Ġs on
æ°ĳ æĹı
Ġen ough
åľ¨ è¿Ļ
ar a
å² ¸
ä¸į ä»ħ
8 4
Ġp ress
Ġph ys
ĠSt e
or ge
æķĻ æİĪ
åĲĮ æł·
Ġ Â·
Ġ è¿Ļä¸ª
Ġ2 2
Ñģ ÑĤ
æĸĩ åŃ¦
éĥ½ ä¸į
v ille
um e
Ġ çŁ¥éģĵ
æĻ ¶
æ½ ľ
am a
A M
Ġst ation
" )
å¿ ĺ
Ġmin utes
Ġd one
Ġ èĩªå·±
Ġd er
u le
b or
ãĢĤ [
æī§ è¡Į
99 7
an cial
è¾ Ĩ
Ġs qu
å¾ Ĵ
æĽ ¿
ĠG od
Ġl o
u x
ĠBl ack
Ġc oll
äºĨ ä¸Ģä¸ª
ä¸ĭ åİ»
èı Į
åĢ į
å¢ ¨
æ³ ī
ord s
ĠR iver
ĠU K
Ñ Į
an ks
Ġst ruct
ĠCal ifornia
ro om
è± Ĩ
Ġqu ality
ra g
he ad
Ġcom es
3 1
çĭ¬ ç«ĭ
ĠCent er
åĨħ çļĦ
Ġm at
ĠAss oci
é¼ ĵ
äºĭ ä»¶
å¾· åĽ½
å¦Ĥ ä»Ĭ
å½¢ å¼ı
Ġw ind
Ġen er
æķ ¬
Ġh ot
äºĨ èµ·æĿ¥
è± ª
% ,
Ġm ot
± ä¹Ĳ
ir t
min ist
Ġresp ons
éĩį çĤ¹
ĠÐ ¿
y ear
es tern
Ġp urch
ä½ĵ çļĦ
Ġadd ition
æ² Ī
éļ Ķ
ar i
Ġc al
é¢ Ĺ
è½¦ ç«Ļ
Ġcent ury
è® ¢
ĠJ ust
ic ro
æĪĲ åĳĺ
Ġh y
éĥ½ æľī
Ġh alf
æľĢ é«ĺ
åł ¡
èª ī
as ing
ä¹ ĥ
Ġc ut
è ķ
Ġ å°±æĺ¯
ĠPe ople
ĠM r
Ġb ring
çĶ¨ æĪ·
a el
Ġen vironment
if f
ĠH ere
å®¢ æĪ·
å®ĥ ä»¬
ä¸» ä»»
Ġbre ak
æĮī çħ§
è´ ´
åįı ä¼ļ
it ch
æ¯ķ ç«Ł
çĽ® çļĦ
æīĭ æľº
å¹´ è½»
o ff
åĩº ä¸Ģ
åĩ Ń
Ġpos ition
Ġme as
çī¹ çĤ¹
s hip
è®¤ è¯Ĩ
ĠNew s
g ress
ore s
Ġde al
æģ ¢
æ® Ĭ
Ġoff ice
è¿ ħ
ç»ĵ åĲĪ
f ace
Ġestab lished
Ġc ook
éĤ ¦
i j
ific ation
o o
ĠIs land
ĠCanad a
çļĦ é«ĺ
itt ed
av y
Ġ æĿİ
è´ ¸
n es
åĩ ¤
è¯ ¢
Ġsh are
Ġä¸į è¿ĩ
idd le
å¨ ľ
Ġex ist
è¡ ¡
æĿ¥ èĩª
åį« çĶŁ
W e
ä»· æł¼
Ġserv ed
ĠI m
Ġass oci
ĠT V
Ġth ing
Â °
Ġar ch
æ¬ ²
å¥ ¶
Ġex am
Ġadd ress
æŃ£ å¸¸
U S
çģ °
Ġperform ance
åĿ Ģ
Ġ ãĢĲ
Ġcont ent
å° ¸
ĠTr ans
Ġst ep
ĠP at
re st
id ed
Ġ2 6
ĠC our
Ġg en
Ġdisc uss
Ġbl ack
em pt
ĠDav id
i ences
æĻ ĭ
u el
éĿ¢ åīį
Ġprodu ction
Ġtechn ology
99 6
è½¯ ä»¶
çŀ¬ éĹ´
ak er
en ed
an c
å¹¶ æ²¡æľī
æ± ¤
è®Ń ç»ĥ
E C
Ġ è¿ĩ
f ield
Ġl ate
ç¬ĳ éģĵ
Ġass ist
Ã ¼
ab les
è® ¯
ĠM ore
å®¶ åºŃ
ad d
ear ch
Ġup d
end s
ä¼ĺ ç§Ģ
æ³ Ľ
åŁ¹ åħ»
Ġm ess
æ¬§ æ´²
åĨ ¬
Ġtra vel
ä¿Ŀ æĮģ
åĪ Ĭ
ell ing
Ġpartic ip
Ġä¸į æĺ¯
æķ ı
ĠR ed
Ġ æĢİä¹Ī
Ġt ax
å¹³ åı°
Ġp ur
ç»Ĩ èĥŀ
åĬ¨ çī©
Ġiss ues
åıĸ å¾Ĺ
ĠH ol
æĭ Ł
åķĨ ä¸ļ
çĬ ¹
ec ut
ä¸į ä½ı
ib ility
ç ¹
Ġ çĶŁ
è¾ Ī
è¿Ļ æ¬¡
Ġpr im
Ġt our
çĥ ¦
Ġm iss
ç»ĵ æĿŁ
ç¡® å®ļ
åĪ« äºº
Ã ¶
åĭ ĩ
a ult
æıĲ åįĩ
åĬŀ åħ¬
æĦı è¯Ĩ
Ġh ours
æĮ º
Ġcont rib
Ġpolit ical
end er
ar ing
Ġdid n
æ´ ¥
Ġquest ion
å° ĺ
èĪ Ĵ
amp ions
éĥ İ
Ġqu ick
Ġin ternational
Ġro ad
éķ¿ çļĦ
èĩª åĬ¨
on se
ĠE m
Ġ é«ĺ
ä¾¿ æĺ¯
çĽ Ĳ
æĹħ æ¸¸
wo od
ä»¥ åīį
è¢ Ń
h ib
Ġre d
Ġdif f
s y
Ġf all
çĶ ĺ
ĠE ast
Ġhe art
éĻ ·
ĠSt reet
åĪĽ æĸ°
åı ¹
æģ¢ å¤į
Ġprot ect
ig ital
æĺ¯ åĲ¦
Ġint rodu
Ġh istor
èĥ ¸
æĶ¹ åıĺ
Ġpart y
Ġt alk
Ġm om
éĺ ħ
3 4
ç¹ ģ
- >
a id
ĠIn ter
æµ ®
åĵª éĩĮ
åħ± åĴĮ
cept ion
åĩ ¯
Ġan im
Ġthough t
èµ ı
ad u
ä½ĵ ç³»
ur b
lect ed
Ġper cent
Ġob ject
co ver
e xt
Ġdet ails
éĩį æĸ°
Ġinclud es
ul es
æ¾ ³
Ġn ov
æ¯ ģ
ĠF irst
pecial ly
çĭ ł
uf act
éĶĢ åĶ®
Ġdet er
ĠL aw
Ġeduc ation
å±ħ çĦ¶
m l
çķ ª
I t
s et
å¹ »
åŁ¹ è®Ń
è¾ Ľ
æĪ ª
op y
ist ic
Ġimp act
åªĴ ä½ĵ
æı Ĵ
3 7
ĠP ort
æĹ ¦
Ã ¤
98 0
å° ĸ
æ¡ £
Ġl og
Ġadd ed
ĠEng land
Ġsignific ant
æĬ ½
rou ps
Ġfoot ball
ĠA ut
ir m
è§£ éĩĬ
å£ ģ
çļ Ĩ
åĪ ĳ
b l
Ġ ess
Ġ ä¸Ń
ä¸¥ éĩį
k y
Ġ2 7
åĪ¶ éĢł
âĢ ĺ
åĴ ±
Ġp ain
éĵģ è·¯
æĻ ĵ
' d
Ġb orn
å½ĵ åľ°
Ġresult s
Ġm ention
ach ing
çļĦ åľ°æĸ¹
n y
å¼ķ èµ·
Ġeas y
Ġm ind
è®¾ æĸ½
Ġplay er
Ġd est
è¯¾ ç¨ĭ
Ġ åģļ
Ġp ack
om in
æĲ ŀ
ĠB u
Ġproble m
iv il
it ute
çĽ¸ å½ĵ
è¿ ģ
Ġsh ows
è°ĥ æŁ¥
åįģ ä¸Ģ
ĠI S
è° ĭ
æļ Ĥ
åİ» äºĨ
olog ical
at form
Ġtit le
Ġ åıĪ
å¿ ł
Ġpr int
ĠJ ames
è¯´ çļĦ
Ġcon nect
Ġ| |
ĠB er
Ġ åĩº
a ign
6 4
Ġbu y
m it
Ġwrit ten
å®¶ çļĦ
çĮ ª
æµ ©
Ġç¬¬ åĽĽ
æĸ° éĹ»
Ġh on
c ont
Ġs old
å¿ Ĩ
è¶Ĭ æĿ¥
ä¸° å¯Į
Ġfr ont
Ġst e
ud e
st r
Ġener gy
å® ¾
Ġdo ing
99 5
ar get
æł¸ å¿ĥ
çĪ¶ äº²
av ing
è¡Į åĬ¨
é¡¿ æĹ¶
ĠInd ia
ĠO ff
Ġcl ub
åĲį ç§°
ic ult
ĠL ist
Ġ æīĵ
æ±½ è½¦
Ġpot ential
Ġt aken
åĨľ æĿĳ
Ġtra ck
Ġ å¥¹
è¶ĬæĿ¥ è¶Ĭ
å¼ Ĺ
è¾ ħ
ĠB ook
è´£ ä»»
æ½ ®
5 5
ens ive
èĴ Ĥ
æµ ĵ
Ġp arent
Ġ2 8
ĠN et
Ġatt ack
æī İ
Ġc ode
Ġl ed
Ġwhe ther
ĠÐ ²
ç¨ĭ åº¦
åĬª åĬĽ
Ġb it
æ» ĳ
Ġa p
çļĦ æĥħåĨµ
äº¤ æĺĵ
æ£Ģ æŁ¥
èº« ä»½
è¯ ¦
ä¿ Ĺ
ç¿ ¼
Ġh om
é© »
ä¹Ł æ²¡æľī
ens us
å» ·
ĠC ons
å¥³ äºº
Ġwork ed
ä¼ į
çĲĨ è§£
n ov
æĮ Ĥ
åľ¨ äºĨ
çĩ ĥ
åıĳ è¡Į
ĠO ther
æĪ ´
Ġper fect
Ġe y
ä¸į å¥½
ä¾ µ
Ġto ol
Ġa chie
Ġeff ort
Ġoff ers
æ¢ °
Ġf ire
ä¼ Ł
Ġsome one
Ġent ire
çİ Ľ
Ġel se
Ġcl ose
Ġrec ogn
æĦı ä¹ī
Ã Ĺ
c i
ä¸į äºĨ
b orn
ĠD ay
èĢĥ èĻĳ
æĶ¹ éĿ©
è¿ «
æ¶ ī
å¼ Ħ
i res
åħĦ å¼Ł
ĠK e
èĩ³ äºİ
Ġa ction
è§Ħ æ¨¡
at ur
t r
it ar
çı į
åĨ Ĵ
Ġd ou
å¦ Ļ
Ġ èĥ½
Ġ4 0
åħ± åĲĮ
pp er
Ġprofess ional
è¢ ĭ
Ġl ink
ut er
Ġdoes n
a it
Ġg round
æĻ ¨
c ks
ÑĢ Ð°
çĭ ¼
Ġtr ue
èµ «
if ul
ĠY our
åĽ½ çļĦ
ĠInd ian
ic les
Ġset t
ĠR ober
æĥ ¯
ĠCh ina
ç« ¹
éĿ¢ å¯¹
æĥ ľ
åĳ Ī
èħ ¾
ic o
æŁ Ķ
Ġwh ite
ĠD is
ĠA nt
Ġpoint s
å¥ ı
Ñ ĭ
è¾ ĸ
æĮ ¯
èħ ¿
ĠLe ague
Ġt aking
æ¤į çī©
Ġcl os
ĠAcc ording
Ġe ither
te xt
å»º è®®
Ġtra ining
ç½ĳ ç«Ļ
is es
Ġre ason
at ory
æıĲ åĩº
ail ed
åı ¬
ĠM usic
Ġo p
ĠO f
ãĢģ âĢľ
Ġc irc
Ġam ount
99 4
çº ¹
åĪ° åºķ
ĠHe alth
èº« è¾¹
æ¶Ī æģ¯
åĬ³ åĬ¨
Ġ åĨį
Ġget ting
ĠAustral ia
cl us
æĽ¾ ç»ı
æķ° éĩı
èĨ ľ
ac hed
Ñ ĩ
ip le
æ¯Ķ å¦Ĥ
ç® ±
ĠIn c
oy al
Ġy et
æ¶Ī è´¹
res h
å°Ĩ åĨĽ
Ġide a
Ġ è¿ĺæĺ¯
èĬĤ çĽ®
Ġdesign ed
å¥ Ī
rid ge
ĠS im
çĽ® åħī
Ġn orth
Ġ å½ĵ
Ġun ique
èį ·
hip s
Ġact ually
Ġ åĸľæ¬¢
ĠR ich
t ain
å¹ ½
æĪĳä»¬ çļĦ
è¯´ è¯Ŀ
ĠD uring
éĺ¶ æ®µ
h a
åħ¨ çĲĥ
ru g
A P
Ġprovid es
ä»¥ ä¸ĭ
Ġcol or
Ġst ay
æĺ¯ ä¸į
Ġimpro ve
æŁ ³
Ġh ope
Ġb oard
æ¶ ¦
Ġ ä»İ
ĠS en
ĠWh ite
å°¤ åħ¶
ĠW ash
çľĭ çľĭ
ĠM ag
ä¸Ĭ äºĨ
çļĦ åľ°
Ġu nd
ĠP ost
Ġst ar
Ġn atural
Ġb ase
m on
Ġsuccess ful
ä¸Ģ è¾¹
Ġ åĽĽ
Ġm er
æĳ ¸
ä¸ĵ å®¶
Ġde g
ä¸Ģ åĪĩ
e es
èµ ¢
æ¹ ¿
æı ´
Ġ >
ĠD irect
å¹ ħ
å¿« éĢŁ
Ġo il
Ġre lease
éĥ½ ä¼ļ
led ge
ww w
èĢ Ĺ
ĠP aul
Ġwrit ing
ĠC ouncil
Ġf ather
it te
æ» ļ
æī¾ åĪ°
éĶ ¦
eng th
Ġc ell
Ġd ied
Ġpres ident
Ġpro b
åĬ ±
åĿļ æĮģ
Ġd ate
Ġ< /
å®¶ ä¼Ļ
E T
çĸ «
å®ŀ åľ¨
Ġmod ern
èĤ ¤
çº µ
ç£ ¨
ç¨ į
æĬ¥ åĳĬ
ĠN ow
Ġc red
åħ³ éĶ®
åıĤ æķ°
æĺ Į
ĠT own
Ġto ld
Ġf ace
éĥ¨ éĺŁ
è¿ Ķ
Ġa ward
åį ¢
æľī çĿĢ
Ġ ä¹Ī
å¥½ äºĨ
Ġart icle
ĠD an
æ® ĸ
ä»¥ æĿ¥
Ġes pecially
Ġorig in
ov ed
åĲį çļĦ
ĠM em
ä»ĸ åľ¨
g ing
æľī ä»Ģä¹Ī
eder al
çļĦ æĹ¶éĹ´
ç½Ĺ æĸ¯
æī «
ç¨ĭ åºı
3 8
åı Ķ
è¯ Ĭ
Ġman agement
éľĢ æ±Ĥ
äºĭ ä¸ļ
åĲį ä¸º
åħ³ æ³¨
Ġ ä½Ĩ
ĠA I
Ġg roups
( );
ĠDep artment
du c
éļ¾ éģĵ
Ġal most
Ġ çĿ¡
Ġthrough out
æĺ¯ ä»Ģä¹Ī
ed s
åī ©
èį Ĵ
æ° §
åıĺ å¾Ĺ
cent ury
ĠJ e
Ð½ Ð¸
Ġst aff
am er
Ġreg ion
å½ ¹
Ġin j
åĪļ åĪļ
Ġcan not
Ġte levision
äºĨä¸Ģ ä¸ĭ
ĠCh urch
Ġd am
Ġc ele
Ġst re
ĠM or
Ġ èĢģ
äº¤ æµģ
åģ ·
Ġlead ers
èĥ ¶
at o
6 5
re m
ä¹¦ è®°
v an
et y
æł· åŃĲ
éĥ Ń
éĻ µ
Ġinf lu
Ġ åĳĢ
åĮĸ çļĦ
ĠC O
çĲ ´
Ġinst all
æŁ ±
èħ ¹
Ġan sw
èĥ ĸ
Ġres pect
b oard
é¾ Ħ
ç» ª
ic ated
Ġf ile
ĠEurope an
ĠTh om
Ġreg ard
éĩĳ èŀį
éĶ ģ
ĠM il
ç» ķ
Ġinc ome
æĽ´ æĺ¯
éĿĴ å¹´
ãĢį ,
Ġbook s
æĴ ŀ
ĠRep ublic
99 3
Ġrequ ired
est s
å¸ ħ
d d
Ġh ous
tern et
å¾Ī å¿«
Ġ åľ°
og le
Ġiss ue
b ased
I I
Ġcurrent ly
éĢļ å¸¸
å¯ ¿
èĥ Ĩ
åĺ ¿
ibr ary
å¥ ĭ
Ġrec ent
çī¹ æ®Ĭ
æ² Ł
å¤§ éĻĨ
Ġw alk
Ġsystem s
ĠG roup
Ġd iv
99 2
åľŁ åľ°
ä¸į çŁ¥
ä¹ĭ å¤ĸ
ä¼Ĺ äºº
ä¾ ¯
Ġ ill
èĢ Ĳ
ä¿Ŀ è¯ģ
æĬ ¢
Ġ æĹł
Ġdiff icult
av es
ĠU s
å®¶ æĹı
åĪ© äºļ
åĲį åŃĹ
al ys
Ġannoun ced
Ġ )
Ġbeh ind
et imes
ĠG reat
Ġproper ty
çļĦ æīĭ
ĠT er
èĢĥ è¯ķ
æħ ķ
osp ital
ĠP al
Ġcontin ue
sel ves
æĺ¯ä¸Ģ ç§į
Ġsub ject
Ġwho le
p os
éĹ ²
ĠH all
.... ....
0 5
å°± åľ¨
ok e
Ġs outh
Ġexp ress
çļĦ ä¸»
ra b
ç» ĺ
ĠB el
ç«ĭ åĪ»
Ġman ufact
é ī
Ġ ri
at ives
Ġ ä½Ĩæĺ¯
ç»ı åİĨ
id ents
è· µ
è¯´ æĺİ
èĤ Į
a ction
Ġm ix
åįģ ä¸ī
ä¸Ń åŃ¦
æ± ¡
ĠA re
Ġf avor
åĪĽ éĢł
i us
Ġl at
Ġopt ions
ç¨³ å®ļ
åľ¨ åľ°
Ð¾Ð ²
å°± ä¸į
åĪ ·
åĳ¨ åĽ´
çģ ¾
è®© äºº
çľĭ æĿ¥
å¥½ åĥı
ĠB us
W h
æĸĩ ä»¶
çĩ ķ
è®© ä»ĸ
èģĶ ç³»
åģ ¶
Ġfriend s
ĠJ ack
0 4
èĦ¸ ä¸Ĭ
un t
ou d
èĬ Ĵ
ĠO ver
h ood
æĽ ¹
Ġfin ancial
åĪļ æīį
ou l
èĭ Ĺ
ri ption
Ġchang es
ĠU p
èĳ £
åĪĽ ä½ľ
ag o
Ġcount ries
åıĳ è¡¨
çŃī äºº
b and
i pe
Ġr ather
Ġnet work
Ġcour t
è¯Ħ ä»·
av a
Ġpr ice
è ²
y pe
æĮģ ç»Ń
éļı åĲİ
ro te
om b
Ġre v
ç§¯ æŀģ
æģ Ĵ
éĶ ħ
éī ´
èµ ¤
Ġb i
é» İ
Ġl ab
en ing
Ġright s
äº ķ
æĬ ¬
ĠR oad
Ġconsider ed
åı¦ ä¸Ģ
è£ ģ
å¤ļ æķ°
id a
as c
çĶŁ çļĦ
çĸ ¯
p ly
Ġf ig
ĠGe orge
oc r
åĨł åĨĽ
Ġw atch
re l
ad o
ĠB est
Ġus ually
åĵ ²
Ġfamil ies
ç»ı å¸¸
Ġlik ely
ord er
n ew
çļĦ åıĳå±ķ
æĪĳ åĽ½
Ġadd itional
ĠS am
é© ±
Ġbec om
Ġbro ad
æģ ¨
Ġv ia
éķ¿ æľŁ
çī §
ä¼ĺ åĬ¿
Ġfil ms
ĠWash ington
and er
Ġreg ular
å£ ®
éĺ ģ
åıĳ å¸ĥ
ĠJ er
æľī çĤ¹
ä¹ĭ ä¸ĭ
Ġro ck
3 00
qu e
æľº åħ³
st on
ç¾ Ĭ
Ġt akes
Ġcont ract
Ġse par
éĥ ¡
ç® Ń
ĠCour t
éħĴ åºĹ
æ¯ı ä¸ª
æĥ ł
Ġep is
Ġcomp lete
éĿ© åĳ½
åħ±åĴĮ åĽ½
Ġcom pl
ä¾ĭ å¦Ĥ
çĶ¨ çļĦ
å¥ ī
R E
æĹ¢ çĦ¶
Ġm us
ĠGener al
åħĪ è¿Ľ
im ately
Ġ çŃī
æľª æĿ¥
æĮ ¡
Ġ çĪ±
æģ ĭ
Ġar g
æĭ ¼
ut ed
Ġo bs
Ġpl atform
éŃ ı
ran ge
97 0
it ution
Ġplay ing
ä¸ĵ è¾ĳ
Ġac cept
Ġne cess
Ġcle an
C on
ä¸įåĲĮ çļĦ
ro wn
Ġr out
èµ° äºĨ
ĠY ear
è½ ´
Ġcamp aign
ĠT w
ĠAssoci ation
ç¡® å®ŀ
å¦ »
ĠS l
éĤ£ éĩĮ
çĸ¾ çĹħ
è®¾ ç½®
( '
çĦ ¦
éľ ¸
air s
ĠPro f
Ġquest ions
çľĭ äºĨ
è¿ĺ è¦ģ
. )
7 7
æŃ£ æĺ¯
Ġca pt
æľĢ å¤§
ãĢĤ "
ç½ ²
Ð ¹
Ġins p
ar ies
ä¹ĭéĹ´ çļĦ
æĸ¹ æ¡Ī
æĻļ ä¸Ĭ
çĽĳ çĿ£
Ġ- -
æĲ Ń
ĠQ ue
èĩ³ å°ĳ
ic ation
èİ ²
ĠE duc
Ġso on
é ³
med i
o ice
åıĬ åħ¶
Ġl ost
Ġab s
æ³ ¡
ĠA ward
åĪĨ å¸ĥ
Ġ Ñģ
all s
Ġp ict
Ġag o
ay er
å¾® å¾®
it ect
f ort
Ġv iol
Ġout side
è¿ Ŀ
åŁº éĩĳ
ç§» åĬ¨
è§ Ī
Ġatt empt
åĶ¯ ä¸Ģ
é£İ æł¼
åĦ¿ ç«¥
åĨĽ éĺŁ
åĬ ²
Ġne g
åĮĸ åŃ¦
æ §
ç§ Ł
æ´ ģ
è´ ¯
è¿ħ éĢŁ
ĠO ut
è¿ĩç¨ĭ ä¸Ń
k i
g ar
éĵ ľ
éĥ½ æ²¡æľī
åĪĨ ä¸º
h ing
se c
Ġdoc ument
çļĩ å¸Ŀ
Ġbr and
åįģ äºĶ
0 6
è§Ĵ èī²
Ġter m
Ġt able
æł· çļĦ
ä¹ Ķ
v in
æİ ª
ve y
å§ ľ
ens ion
he m
åİŁ æĿ¥
n et
ãĢĭ ãĢĤ
å¡ ĳ
åĢ ¾
ĠM od
ä¹ ³
å¼Ģ å±ķ
çĲĥ éĺŁ
ç² ®
è¾ ī
ä¼ ı
le g
: "
åı£ æ°Ķ
Ġag re
æ³ ¥
Ġneed ed
ĠL ou
p x
å¥ Ķ
çĮ «
se qu
å®ĥ çļĦ
Ġst ri
åĸ Ĭ
ell ow
åĩºæĿ¥ çļĦ
ast ic
Ġmov ed
å¥³ åŃĲ
un k
Ġ å¼ł
Ġt ou
Ġus er
mer cial
Ġm other
ä»İ äºĭ
Ġevery thing
æĤ Ł
99 1
è½ ¨
ber t
èĦ ı
ĠM art
éĤ ®
çļĦ äºĭ
ĠSy stem
æ¯ı å¤©
l ier
u ge
åĨħ éĥ¨
Ġlead ing
çī¹ èī²
ĠM er
ob ile
ĠM et
ä½ĵ èĤ²
en c
å§ ĳ
ĠDist rict
åİŁ æľ¬
åĩ ī
åĮ» çĸĹ
èģĶ çĽŁ
oc al
äºº æīį
çī¹ å¾ģ
ail y
åŃ¦ ä¼ļ
çļĦ éĹ®é¢ĺ
Ġc and
æľī äºĨ
æİ¥ åı£
ĠåĲ ¬
è ¦
ĠY es
åħ¨ éĿ¢
å¹³ åĿĩ
çĸ ¼
æīĢ è°ĵ
å®ī æİĴ
éģĵ è·¯
Ġp aper
Ġve h
Ġr ound
èĥ½ éĩı
Ġprodu ced
ä½ı äºĨ
Ġ2 9
åĲ¬ åĪ°
Ġsim ple
Ġp ark
Ġloc ation
ess ion
Ġincre ase
um ents
åľ¨ è¿ĻéĩĮ
Ġreport ed
ĠT ex
augh ter
çª Ĺ
ĠPart y
Ġword s
å¥³ æĢ§
ä¸Ń æĸĩ
èģ Ĭ
Ġra ce
ä½ ©
ĠV ol
ä¹Ł ä¼ļ
Ġrecomm end
c ol
ĠG reen
iz ing
Ġmar ried
Ġvill age
ĠM ary
éĹ ¹
Ð ·
åĿ ¡
èį Ĳ
ar ter
å®£ å¸ĥ
Ġsec urity
åĬł ä¸Ĭ
Ġschool s
C l
éĵ ¾
Ġtry ing
å®£ ä¼ł
å¸Ŀ åĽ½
èħ °
Ġ ä¹°
4 4
Ġs at
op t
éĻĦ è¿ĳ
ç§ Ĵ
Ġè¿Ļ ä¹Ī
Ġ è¢«
Ġdevelop ed
éĢĤ åĲĪ
åĽŀ æĿ¥
èĢ ¶
æ± Ĺ
0 7
ĠG old
Ġrel ated
Ġdef in
ĠMich ael
ol ic
å¹´ æĿ¥
âĢĿ ãĢģâĢľ
è°ĥ æķ´
Ġc y
Ġ å¦Ĥæŀľ
ĠM ac
å®ŀ è·µ
æĮĩ æĮ¥
Ġ æĹ©
ĠTe chn
å· ¡
Ġbelie ve
ĠP ublic
Ġinst ead
åħ· ä½ĵ
Ġpro te
é£İ éĻ©
ä¸ĭ äºĨ
è´ ¡
åıĤ èĢĥ
ä¸¾ è¡Į
ort hern
l ight
ä» Ķ
itte e
Ġm ass
ĠComp any
ä¸į éĶĻ
èµ· äºĨ
æľº æ¢°
åįļ å£«
åĬ¨ ä½ľ
Ġh it
Ġ ver
est ival
Ġcent er
ond er
Ġm atch
Ġinvol ved
æĲ ľ
c ome
Ġb ox
ĠW in
p ite
Ġactiv ities
Ġfor ward
Ġde cl
h an
Ġread ing
å°ĳ å¹´
Ġpol icy
åĿ Ľ
æĤ£ èĢħ
Ġ æ¸¸æĪı
èĸ Ħ
èİ ī
Ġv ot
A D
åİĭ åĬĽ
Ġse em
I P
æĸĩ æĺİ
çĽ¸ å¯¹
æŃ» äº¡
Ġhig her
ĠAr ch
æĹł è®º
æ¶Ī å¤±
Ġter ms
Ġbeaut iful
ol f
Ġrun ning
Ġp ers
é© ¾
æ¦Ĥ å¿µ
ĠSu per
Ġim m
ĠT H
: ãĢĬ
Ġens ure
Ġconc ern
k a
alys is
éĽ ķ
Ġhtt ps
ag ing
èį ¡
Ġmil itary
e ared
Ġp ick
Ġc ases
ro id
æĴ ¤
ä¸Ģä¸ª äºº
æĪĺ çķ¥
ac hes
Ġgrow th
out hern
Ġcol lection
éĻ ¶
ç«Ļ åľ¨
Ġc ross
è· ¨
ra z
æĢ§ èĥ½
Ġm id
E L
Ġc ard
Ġestab lish
Ġt arget
or ing
am ent
åĸ ·
æĺ¯ ä¸ª
çļĦ ç¥ŀ
åĴ± ä»¬
åį° åº¦
Ġm ach
åŁº åľ°
ree k
Ġw ays
ãĢį ãĢĤ
Ġ è§īå¾Ĺ
Ġr ate
i ation
ĠW ind
è² Į
æ¡ ĥ
èĦ Ĥ
it z
å¤© ä¸ĭ
æĪĲ æľ¬
p re
éľ į
éĢ ¸
åį± éĻ©
Ġresp onse
98 9
è¾ ŀ
çī© è´¨
Ġ åĴ
èĽ ĩ
åĩı å°ĳ
Ġits elf
æŀ «
åĽł ç´ł
ä¿Ŀ éĻ©
çĶ³ è¯·
Ġs il
Ġw rote
96 0
åĳ Ĩ
ä¸į æķ¢
æħ §
é¼ ł
iv ity
im ent
Ġwe b
er ous
Ġpol ice
å¢ ĵ
od es
å¿½ çĦ¶
e ks
ĠAng el
Ġv ict
Ġg irl
ç² Ĺ
ç«ŀ äºī
èµĦ éĩĳ
çĵ ľ
it ter
æĪĲ ç»©
Ġd en
èĤ ¿
åĲ Ĳ
Ð ¿
Ġup on
n own
åŃ ¤
ĠFr ance
éĢĲ æ¸Ĳ
as ons
Ġcom ing
Ġl iter
ĠS ing
åĲ ķ
çĨ Ĭ
ĠP ress
è¦ Ĩ
å® ¿
å°ı è¯´
Ġw ife
ig ation
æ» ´
Ġdirect or
æļ ĸ
æİĮ æı¡
æį ķ
Ġr isk
ĠM ost
ç½ ¢
æŃ¤ å¤ĸ
Ġs ource
itt ing
Ġwant ed
R O
ce ed
åħ¬ åħ±
S T
ĠL at
åŃ¦ æľ¯
ad a
çļĦ éĤ£
Ġl ives
98 8
æ¬ £
Ġpl aces
Ġcons um
ut h
è¿ Ł
Ġdec ision
Ġg re
åĬ «
Ġt en
ä»İ èĢĮ
Ġd u
é¼ »
Ġst ates
èĦ¸ èī²
E x
Ġmov ie
Ġind epend
7 87
èĭ į
er ve
v is
Ġdist rib
å°½ ç®¡
Ġ ä¸ª
Ġ çĶ¨
å°± è¦ģ
ĠRober t
æĦ¿ æĦı
åĪĻ æĺ¯
Ġlong er
Ġany thing
æ¡ Į
o om
Ã ¨
æº ª
z z
ĠCanad ian
Ġsa w
æĺ¯ ä¸įæĺ¯
å¹¿ åĳĬ
y m
ri an
éĢ ¼
å¼º èĢħ
æĳĩ å¤´
Ġhim self
Ġpre vent
ur t
æĤ ²
Ġl oss
ä¿ĥ è¿Ľ
ãĢĤ âĢľ
we et
çĻ Į
Ġint eg
æľĢ ä½³
Ġs ense
å°º å¯¸
Ġb ad
Ġprogram s
se y
Ġapp oint
æĢ ĸ
Ġpri or
ĠL ife
Ġp an
æµ Ļ
Ġcult ure
æĸ¯ çī¹
T V
åĽ½ æ°ĳ
å½» åºķ
çļ ±
ä¼° è®¡
åº Ļ
æĭ Ĵ
éĩįè¦ģ çļĦ
åĨľ æ°ĳ
Ġstud ent
A r
Ġgl obal
c is
Ġem b
åĦ¿ åŃĲ
Ġ _
Ġ çľŁ
ĠM al
ç¬¬ä¸Ģ æ¬¡
é¦ĸ åħĪ
Ġab ility
Ġcustom ers
Ġem ail
è¯¥ æĿĳ
Ġlar gest
ç»Ł ä¸Ģ
6 6
Ġsum mer
èĤ ©
Ġl ower
Ġpl ant
3 9
é«ĺ çļĦ
æį ·
Ġpract ice
Ġstand ard
Ġim age
æľĢ å¤§çļĦ
ä¹Ł å°±æĺ¯
æĭħ å¿ĥ
å¤ª éĺ³
ä¸» æĮģ
ĠTex as
çĽ´ åĪ°
çĪ ¸
å½ĵ ä¸Ń
land s
Ġinit ial
is l
Ġele ction
è· ĥ
ĠM ount
Ġst ore
Ġindividual s
æıı è¿°
ä¸į çĶ¨
çĶ· äºº
m ark
åįģ åħŃ
ĠF ound
ĠComm un
Ġqu ite
å°ı çļĦ
ag ed
åĩº çĶŁ
ĠLe g
ĠS ub
Ġmed ical
Ġleg al
è¿ŀ ç»Ń
ĠRes earch
ä¿® çĤ¼
Ġf ul
Ġprom ot
Ġsoft ware
åıĳ åĩº
Ġpart s
è¯ģ æĺİ
ĠC ong
ly ing
å´ ĩ
è®° å½ķ
æ¸ ¡
Ġm ount
Ġrec ently
å¯¹ æīĭ
op er
ĠCl ass
æķ° åŃĹ
ç¢ °
Ġproble ms
çĽ® å½ķ
Ġext ra
ist ry
id ing
ç¡ ķ
ĠR oyal
å¾ ª
Ġlat est
% ãĢĤ
Ġcomp lex
i os
ĠRe ad
8 00
ough t
Ġsong s
Ġsc reen
Ġaff ect
åĪĨ ç±»
æŃĮ æĽ²
Ġn orm
ç² Ĵ
å·¥ åħ·
Ġ3 1
98 5
Ġ ......
ar ning
æĥ ¨
ĠR ock
Ġvar iety
pp ed
åħ´ è¶£
åĢ º
ber g
åĵ ¦
èĤ ł
n ame
çŃī çŃī
Ġde ep
Ġ å¹´
Ġse ction
in ary
è§ģ åĪ°
ĠCl ub
å°± åı¯ä»¥
Ġp ath
ĠInst itute
ĠAfric an
ç¥ Ń
æµĭ è¯ķ
åŃ Ł
çº ½
ĠSc ott
Ġspec ies
Ġe mer
å° Ŀ
ç§į æ¤į
h t
m ission
Ġs al
Ġtrad itional
çªģ çł´
åħ¬ è·¯
Ġ æīĢä»¥
éĢ Ĵ
éĤ ª
ĠB ay
ä¸Ģ éģĵ
ĠAc adem
Ġapplic ation
Ġask ed
Ġad minist
ä¸Ĭ åİ»
ĠM iss
åīį å¾Ģ
Ġ çĿĢ
oun ter
æĬĢ èĥ½
æ¼Ķ åĳĺ
ä¸į å¤ļ
P ro
Ġnov el
èĤ Ŀ
åĽ¢ éĺŁ
é¸ £
ĠV ir
m en
O T
ill ing
B A
åĨĽ äºĭ
Ġ ut
Ġ ä¸¤
åİŁ åĪĻ
4 7
ç¬ĳ çĿĢ
rough t
èĩª èº«
ur ance
Ġg old
å®ī è£ħ
orn ing
ç½ ļ
åı¥ è¯Ŀ
02 3
ç¥ Ŀ
èĢĮ å·²
im um
ĠS pe
" ãĢĤ
æŃ¦ åĻ¨
çĪ¶ æ¯į
ĠAn n
Ġold er
ag er
Ġdis play
å¸ ķ
Ġs us
å°ı åŃ¦
C C
æģĲ æĢĸ
çĭ ±
Ġh or
ĠS ur
åħ¬ å¼Ģ
éĥ½ åľ¨
è®º æĸĩ
P S
Ġrequ est
ot a
å¼Ł åŃĲ
, ãĢĬ
ä¸» å¸Ń
å® ħ
g en
Ġ æĹ¶åĢĻ
åįģ åĽĽ
Ġchall eng
ĠR oman
èĥĮ æĻ¯
çĶ· åŃĲ
Ġevery one
ä¼ļ åĳĺ
èĭ¥ æĺ¯
Ġ å¿«
Ġsim ply
çĮ ľ
æĤ ī
Ġm ale
ines e
b it
Ġ æĸ°
ĠL et
ç¬¬ åĽĽ
ä»¿ ä½Ľ
èµ ĸ
Ġf ight
Ġd raw
it ation
ĠD el
èµĦ äº§
éļ¾ ä»¥
ĠUn ion
ĠS ince
Ġdirect ly
98 7
Ġproject s
Ñ ħ
çľ¼ åīį
Ġac qu
æİ¨ èįĲ
åĬł å¼º
Ġ çİĭ
0 8
ĠH ome
Ġdist rict
å° ¿
çļĦ å¿ĥ
æ² ĥ
Ġaut om
çļĦ æĸ°
Ġb all
éª Ĥ
il s
unic ip
åħ¶ å®ĥ
Ġins ide
åºĶ å½ĵ
4 00
è¿Ľ ä¸ĢæŃ¥
éĻ ª
å¹¿ ä¸ľ
å±± ä¸ľ
åįģ åħ«
Ġcharact ers
ĠSc ience
è¦ģ æĺ¯
å°± èĥ½
Ġcons ist
Ġst age
æľ¬ èº«
å®ļ çļĦ
ĠA lex
98 4
Ġ å¾Ĺ
d iv
å¹¿ å·ŀ
Ġtyp es
Ġ6 5
Ġknow ledge
Ġdel iver
ĠP ri
æ¡ ĳ
ĠFl or
ç¾İ åħĥ
ä¸Ģ çľ¼
ĠM useum
Ġw id
éĤ Ģ
å¤§ äºº
Ġ ä¸ŃåĽ½
am s
é£Ł åĵģ
åľ° çļĦ
re ct
ĠÐ ½
ĠC up
æĿ¥ åĪ°
å°¼ äºļ
Ġw ide
æ£ Ĵ
ra ck
Ġ å¤ĸ
Ġsu bs
éĴĪ å¯¹
æĶ¾ åľ¨
Ġc ast
ĠS al
ĠSoc iety
Ġt al
ĠChrist ian
èµĦ æł¼
Ġopen ed
Ġt ru
ĠE v
çĪ µ
çĲĨ å¿µ
ç»Ł è®¡
éĵ º
çļĦ å£°éŁ³
ed d
ou ra
98 6
l a
è¶³ çĲĥ
è®¡ç®Ĺ æľº
R e
ir it
Ġdis e
p an
Ġj ud
ri e
åĩ ¶
å·¥ èīº
Ġm atter
ĠEduc ation
ro s
ä¿Ħ ç½Ĺæĸ¯
é½ ¿
Ġs ens
u it
Ġwe eks
çļĦ ä¸»è¦ģ
on a
Ġse ems
ĠR ad
Ġprob ably
ar c
m as
è§Ĩ é¢ĳ
ç¿ °
æİ¥ çĿĢ
è¢ ģ
i ant
ann el
Ġg ave
ly mp
å¤§ ä¼ļ
Ġw ood
il es
Ġmult iple
çŃ ¹
åıĺ æĪĲ
ecut ive
æĭį æĳĦ
az ine
4 8
r ated
è¿Ĳ è¡Į
Ġus es
ä½¿ å¾Ĺ
èħ Ĳ
çĶµ èĦĳ
Ġcond itions
Ġc ause
ĠF orm
Ġteam s
æĸ ©
ç®Ĺ æĺ¯
è° ±
k ey
ĠL ake
Ġmention ed
éĽ ¾
ĠN or
? "
å¼Ģ äºĨ
ĠGr and
h tt
a res
éģ ¥
ä» °
å¤į æĿĤ
æĢ» ç»Ł
Ġus ers
ĠF e
p ose
Ġc at
Ġappro ach
æ°ĳ ä¸»
ub e
Ġst op
Ġ æĬĬ
æħ¢ æħ¢
== ==
ro y
Ġcon duct
Ġ æĺİ
åĲĪ åĲĮ
Ġopportun ity
ĠDe f
ĠSt ar
ä¹ Ļ
Ġthem selves
os ing
ĠH en
åĭ ¤
æ»¡ è¶³
ĠM ont
ç£ ģ
I L
æĺ¾ çĦ¶
Ġinter view
Ġimp lement
M P
å© Ĩ
ish ing
ä¸į ç®¡
Ġbro ther
ĠS und
è°¢ è°¢
Ġ è®©
ĠF ore
æ¶ Į
å® ı
ĠC r
Ġ ãĢģ
åĩº æīĭ
he st
å¥ ´
Ġtreat ment
ĠS um
us es
ç»Ļ æĪĳ
Ġorgan iz
åħ ¹
Ġn ames
æĸ¹ ä¾¿
ĠR ob
ĠBus iness
ful ly
ç¤¾ åĮº
Ġmeet ing
Ġorgan ization
ĠAfric a
ä¹ł æĥ¯
éģĩ åĪ°
Ġcele br
ed y
Ġne igh
æŀ Ŀ
Ġh ol
G B
Ġbl og
ch an
ĠP lease
Ġsc ience
ĠJ ew
å¥¹ ä»¬
it a
Ġ éķ¿
Ġle ave
l ike
Ġ äºĶ
èĭ± æĸĩ
Ðµ ÑĢ
è§Ĥ å¯Ł
åıĳ åĬ¨
Ġcom mercial
åį³ ä½¿
Ġtem per
Ġç¬¬ äºĶ
Ġrel ig
ĠT om
Ġle arning
Ġb ank
ĠAustral ian
ä¸Ģ æĿ¡
èĥ İ
Ġcontin ued
åħ¬ åĽŃ
æĥ ĳ
Ġhtt p
ä¸ľ åĮĹ
å·¨ å¤§çļĦ
Ġrece ive
ot o
ian ce
c raft
6 00
Ġse x
æĽ´ å¤ļ
Ġdis cover
Ġg ra
æľ¬ æĿ¥
i ers
æ ©
Ġ åĲİ
sy ch
åħĪ åĲİ
åİī å®³
åĵ ¼
æ¯į äº²
Ġ è·Ł
æĦŁ åĪ°
åĲĮ å¹´
ä¸ Ī
æĿ¥ æºĲ
æľĢ è¿ĳ
ĠM us
éĥ ģ
erv ed
ĠO h
ĠB re
Ġch urch
Ġto wards
ä¹Ł æ²¡
Ġs ales
Ġconst ruction
Ġwor th
Ġ åĨħå®¹
ĠC amp
Ġs ports
ir ing
ĠThom as
Ġs n
ri al
ĠâĢ ¢
d own
Ð ±
ĠS ol
Ġ åĳ¨
å¼Ģ æĶ¾
ĠServ ice
Ġrest aur
Ġgo al
Ġd igital
Ġmom ent
å½ ¼
å¤© çļĦ
ĠG et
é£ ĺ
åĽŀ çŃĶ
z a
im s
èģĶ èµĽ
Ġst ories
å¤§ éĥ¨åĪĨ
éĤ »
å¸Ĥ éķĩ
éĺħ è¯»
ĠFran k
éĽĨ ä¸Ń
æŃ¤ åĪ»
ĠIn t
E O
ow ers
ä¸ ¢
9 50
è¿Ļ ä½į
éģ¿ åħį
Ġg e
Ġal tern
ĠM ex
ĠCh ampions
B S
çİ° åľº
åĳĺ å·¥
il i
ign ed
åŃ ķ
æ¶ Ĥ
å¹³æĸ¹ ç±³
ç© ·
æ¼ Ĥ
åħ ģ
Ġpl ans
ul ated
) )
æĸ¹ çļĦ
ç© Ĩ
ä¸Ģ å¹´
ĠM any
æĹł æķ°
ven ue
ĠV er
à ¤
Ġf ast
è¸ ı
Ġtrans l
Ġpie ce
ĠO lymp
ĠR em
Ġapp eared
éĩĳ å±ŀ
Ġb ott
Ġ çľŁçļĦ
e ction
å¢ŀ éķ¿
ĠI r
ä¹Ł åı¯ä»¥
å¿ħ è¦ģ
äºĭ å®ŀ
p art
Ġfre qu
çĦ °
å¹¿ æ³Ľ
Ġw oman
æĺ ¨
èĪª ç©º
Ġpre p
æ¸© åº¦
ĠT op
çİ° å®ŀ
é«ĺ çº§
æī ¶
4 6
ä¼ļ æľī
é©¬ ä¸Ĭ
ĠR el
r ast
æĭ ĸ
in n
å² ³
U T
Ġ æīį
åĲ ŀ
äºº éĥ½
ç±» ä¼¼
Ġexpect ed
ĠSm ith
ist ics
Ġåĵ ¦
åĽŀ åĪ°
æ°ĳ åĽ½
Ġst ru
Ġp ric
åº ŀ
Ġsub st
ĠPl ay
Ġal though
ran ch
ç«ĭ åį³
åĲĮ åŃ¦
or ial
èĩ Ĥ
Ġad j
ĠG ood
å°± åĥı
ä¸Ģ ä½į
åĢĴ æĺ¯
æĪĲ æŀľ
Ġex act
Ġsom etimes
éļ ¶
åĤ ²
ip ment
Ġ ä¸»
è´ «
è¯´ äºĨ
Ġar riv
è¿ĺ åľ¨
æ¦ ľ
Ġ åĵª
Ġn ature
Ġ åĺĽ
æĢĿ èĢĥ
ä¸į è¶³
ä¸ Ľ
æ¶ ¯
éĻį ä½İ
B N
åĲ ¹
çĵ ¶
å¿ Į
éŁ© åĽ½
Ġv ac
P h
M A
éĢ Ĩ
se e
è¸ ª
Ġra il
ĠD iv
åĳµ åĳµ
ä¸Ĭ éĿ¢
ĠAl though
ĠM o
et ry
ä»į çĦ¶
ard en
U R
ä¸Ģ åĲį
w or
ak ers
Ġ6 0
ä¹Ł å°±
å½¢ è±¡
åĵ Ń
M S
æī °
åįģ å¹´
Ġparent s
çļĦ å½±åĵį
y a
åĩº çİ°åľ¨
åł Ĩ
Ġres ources
åľ¨ ä¸Ģèµ·
çİ° è±¡
ra el
i able
ĠO b
ĠB ill
å¼º å¤§
æĭ ĵ
æĹ¶ çļĦ
æİ¥ è§¦
ĠCh inese
Ġd om
Ġcap ital
è§Ħ èĮĥ
Ġsu ff
ĠThe n
Ð ³
å¿ §
t ies
row s
ĠW il
Ġ æĢ»
ĠB i
Ġim medi
è¿ŀ æİ¥
ĠU nder
å¹¶ ä¸įæĺ¯
Ġd ed
å¹¶ åľ¨
97 8
çī© çĲĨ
Ġe ight
Ġ å¿ĥ
ä» ĵ
Ġlevel s
Ġcom ment
æµ ħ
ĠåĵĪåĵĪ åĵĪ
è´ ¤
ĠB en
7 6
ĠS un
åĬł å·¥
æľº åľº
ĠV ict
åħħ æ»¡
g l
ĠH am
Ġdec ided
çĶŁ æĢģ
åĮ ¹
ä¹ĭ ä¸Ĭ
Ġsc ient
ĠW ell
tt y
æĸ ¤
os ition
æĪ Ĵ
èĢ Ģ
ĠF am
ĠT or
Ðµ Ð½
er o
ĠCar ol
Ġeconom ic
Ġqu al
st e
åĿ ĳ
å¿ĥ çļĦ
åĬŀåħ¬ å®¤
æĸĩ ç«ł
Ġpat ients
b urg
åķĨ åĵģ
ĠR ail
æ³ ª
ä» ĩ
Ġ ç¾İ
ä¸Ģ æĹ¦
Ġav oid
å² Ĺ
è¿Ĳ è¾ĵ
åıĳ æĮ¥
ĠGerman y
æĴ Ĵ
å±ħ æ°ĳ
ag s
Ġte ac
Ġart ists
ĠB oard
ĠCh ic
çĶ ľ
ĠJapan ese
98 3
Ġsur v
æĺ Ĩ
éĥ¨ çļĦ
v est
Ġf resh
Ġpart ners
b on
Ġ çĻ½
åĲ ĵ
ar ily
Ġd rug
98 2
ĠM ad
Ġb al
Ġ åĩł
æŀ ļ
åĽ° éļ¾
è¾ ½
çĽ ¾
ĠTr ump
è½ ©
Ġl ic
Ġre ve
è¡¨ è¾¾
ĠH ill
Ġd og
Ġall ows
ĠLou is
ä¾Ŀ çĦ¶
Ġcand id
C O
ç§ĳ çłĶ
ä¿ Ĭ
èµ ĭ
c el
ĠB ur
az ing
Ġb rought
è®¾ æľī
ab y
çĺ ¦
æīĭ ä¸Ń
è¡¨ æĥħ
Ġcomplet ed
Ġocc ur
Ġpre m
æ°Ķ æģ¯
ĠDe velop
Ġquick ly
Ġwho se
é© ¶
ĠP et
ĠPro gram
5 6
åħ± æľī
æģĲ æĢķ
è¿ĩ äºĨ
Ġg reen
Ġbl ock
ĠCent ral
is ions
b our
Ġs un
ä¸Ģ ç¬ĳ
Ġw ear
ĠAl so
å¯¹ è±¡
Ġet c
ud d
æĹ ¨
æµ· åĨĽ
Ġmess age
he t
Ġdescrib ed
Ġtrans port
Ġfem ale
å¤© åľ°
ĠH um
Ġ åĽłä¸º
Ġph one
Ġnot hing
Ġs en
æī ĳ
åĨľ æĪ·
æ³ķ éĻ¢
Ġgo vern
Ġis n
çİ© å®¶
Ġ èĩª
Ġmed ian
ill er
inc ip
å¯¼ æ¼Ķ
Ġmean ing
ĠE r
Ġf it
ç¢ ĳ
os h
Ġjo ined
åİ ĺ
Ġcho ose
é¦ĸ æ¬¡
ĠP eter
iz es
èĥ ĥ
ĠCon st
Ġsaf ety
an o
ri ef
ä¸į åı¯èĥ½
åŃ¦ å®¶
èĢ ķ
er c
è¡¨ éĿ¢
è·Ł çĿĢ
ĠDem ocr
Ġbirth s
Ġchang ed
al a
ä¹ ı
çļĦ ä¸ľè¥¿
ĠR et
éŁ ¦
Ġgr adu
Ġè¿Ļ æł·
ch ange
ç©º ä¸Ń
ĠT od
åĵĪåĵĪ åĵĪ
ĠJ o
Ġcomp uter
Ġ `
Ġ æĽ´
Ġrelations hip
it c
ĠL ove
é£Ł çī©
ä¸¾ åĬŀ
Ġ æŃ£
æµĻ æ±Ł
å±ħ ä½ı
èĲ¥ åħ»
ĠF ace
ĠF rid
èº ²
è´¸ æĺĵ
çĮ İ
ĠC D
æĪĸ è®¸
ç¢ į
ĠAb out
ĠO ffic
Ġear n
in i
ĠRe view
iam ent
Ġprovid ing
åľ° åĽ¾
ĠC ur
Ġcon ne
ä¿Ŀ éļľ
Ġreturn ed
çĴ ĥ
çīĪ æľ¬
å¤§ å°ı
Ġs le
Ġre ach
çļĦ çłĶç©¶
åģ ¿
b u
ç©º æ°Ķ
se mb
ä¸į åĨį
us band
çĪĨ åıĳ
å¹´ åº¦
Ġfollow ed
åĴ ¬
Ġcol lege
è´ ¾
Ġwr ite
æĤ ¬
ĠC ap
åħħ åĪĨ
** **
Ġpos itive
æľ¬ ä¹¦
é¸ ¿
ens ity
æīĢæľī çļĦ
è§Ħ åĪĻ
IN G
çĽ¸ åĲĮ
é£ŀ æľº
ĠChar les
åĪ ¸
åŃ Ŀ
ant a
Ġcom fort
Ġ åıª
ĠVir gin
ĠW ork
åĮ» åŃ¦
Ġb oy
Ġsk ills
ĠC are
Ġ4 5
ĠOff ice
Ġçľĭ åĪ°
l or
Ġsur round
Ġnecess ary
æ Ĩ
ĠE very
Ġ éĤ£ä¹Ī
ĠA v
ĠT wo
èį¯ çī©
èĩ³ ä»Ĭ
com ing
Ġdeg ree
Ñ Ĩ
l iament
w ide
ig er
Ġd aughter
Ġc ool
å® Ļ
0 9
æŁ ı
æ£Ģ æµĭ
or por
ĠMin ister
Ġs em
Ġrad io
æĦ £
çºª å¿µ
å¼Ģ åı£
æĪĲ çļĦ
è¯´ æĺ¯
Ġarch itect
åĽŀ åİ»
ĠL os
ç¬¦ åĲĪ
Ġtrans fer
æĹł æ¯Ķ
Ġnum bers
è¡£ æľį
un ction
re y
æīį æĺ¯
S h
å¤§ åŀĭ
åķĨ åĬ¡
Ġcon cept
å¤§ åĪ©
Ġcoll abor
æķ ¦
Ġpass age
ĠRich ard
Ġcou ple
ĠComm ission
ĠI N
ç³ Ĭ
Ġachie ve
ĠC le
Ġqu e
è¶ħ çº§
åĬ¨ çĶ»
am ic
ç¥ŀ ç»ı
ĠAr my
Ġdri ve
æĿ Ĩ
ĠÐ ¸
um ber
è½» è½»
por ary
Ġlim ited
Ġfam ous
Ġstre ng
w here
Ġh ands
at re
Ġse ven
Ġcol lect
ar r
ĠS k
çĬ¶ åĨµ
äº« åıĹ
Ġb ur
æº ¶
å¤ļ å¹´
å¤ļ ä¸ª
ãĢĤ ãĢĬ
å¹¸ ç¦ı
en ge
Ġart ist
ĠGo vernment
åįĹ äº¬
å¦Ĥ åĲĮ
Ġear lier
æĦı è§ģ
è®© æĪĳ
0 3
Ġansw er
çº ł
Ġide as
åıĳå±ķ çļĦ
æĬķ åħ¥
h ouse
Ġde ad
Ġhousehold s
al ian
Ġsqu are
Th is
è¶ ĭ
Ġhigh ly
Ġ åīį
éħį åĲĪ
Ġä¸į è¦ģ
å¤Ħ äºİ
ĠC ath
Ġc ivil
Ġmaterial s
ul ations
Ġgu itar
Ġ èµ°
ic ate
Ġ åĬł
A A
ä¸į èµ·
Ġ æī¾
æľī æīĢ
Ġs ell
çľŁ å®ŀ
Ġp le
Ġatt ention
äººæ°ĳ åħ±åĴĮåĽ½
ĠH ot
Ġpro gress
åĪ« çļĦ
åĪ© çĽĬ
ä¸ª æľĪ
b re
éĶ Ĳ
æĪĲ éķ¿
éĻĲ åĪ¶
èĳ ¡
ä¼ĳ æģ¯
åĳ½ ä»¤
ä¸į æĥ³
Ġdown load
Ġun its
éª Ĺ
åĪĹ è½¦
w in
ro ad
Ġo ption
çĲĨ äºĭ
æĪ¿ éĹ´
Ġphys ical
Ġcustom er
æĸĩ åŃĹ
é¢ľ èī²
ä¸Ń åħ±
Ġl ines
ress ion
ĠM el
ĠO pen
Ġm ax
çĽ Ĺ
å¤ļ ç§į
Ġj ournal
åĩº åı£
Ġl ength
éĩį å¤§
è¿ Ī
Ġsc he
it iz
ĠGo ogle
ç¨ Ģ
æİª æĸ½
åĲ¦ åĪĻ
è¾ £
or ry
t d
Ġact ive
n o
ĠKing dom
æ¯ı å¹´
oc ol
èĳĹ åĲį
ä¸Ģ éĺµ
æĬ ĳ
å¥³ åĦ¿
ĠDirect or
Ġeas ily
ĠIs rael
w est
æµ ĳ
ĠW estern
å¨ ±ä¹Ĳ
Ġtr ade
Ġ ing
åľ° ä½į
Ġd ark
äºº å®¶
ĠCh ild
æīĭ æ®µ
ĠFran cis
å¼º å¤§çļĦ
Ġcho ice
Ġ ä¸º
n el
éĴ »
97 9
ç»Ļ ä½ł
Ġf arm
èĽĭ çĻ½
Ġfor ce
ad y
ĠÐ ¾
Ġex hib
ĠFrid ay
I ON
èĲ¥ éĶĢ
å£« åħµ
Ġrecord ed
augh t
ĠChic ago
éĢī ä¸¾
çļ® èĤ¤
æ¯« ç±³
åĲ ¼
ĠSt ep
Ġrem ember
al se
Ġf ail
Ġany one
et te
ant ic
pl ace
d en
å® ª
Ġc ensus
çģ Į
ä¸ľ æĸ¹
è¿Ľ åİ»
é»ĳ èī²
Ġsp read
ell a
Ġit ems
é¼ İ
C D
åįģ ä¸ĥ
åĨ ¥
ĠFlor ida
åĮº çļĦ
ä¸Ģ çīĩ
åıį å¯¹
Ġ åıĳ
ent y
ĠRec ords
om a
æĹģ è¾¹
Ġparticular ly
cl ass
å¾ ½
Ġn ation
è®¾ ç«ĭ
98 1
ĠB ig
ĠT ime
Ġl ack
k en
å§Ķ ä¼ļ
w ell
æ¶ µ
æĻº èĥ½
Ġro ll
åį ĵ
ĠJ ose
Ġs ch
Ġ éĻĪ
æ¢ ¯
åĤ »
Ġstruct ure
Ġd ie
ĠSt r
çĤ¹ äºĨ
Ġd ire
Ġpurch ase
Ġser ious
æ· »
h y
å¸¸ è§ģ
Ġlead er
çļĦ å¤©
ĠG ra
ĠSund ay
ĠN ov
é«ĺ åº¦
åľ¨ æŃ¤
l o
ri a
Ġtou ch
åŀ Ĥ
çī µ
å» ī
ĠS atur
ç¼ĸ è¾ĳ
Ġh usband
N A
Ġann ual
èĭ± éĽĦ
è®° å¿Ĩ
é£ŀ è¡Į
Ġinterest ing
ĠM ass
å ļ
å¢ĥ çķĮ
Ġd ram
æĶ¾ å¼ĥ
Ġeffect ive
åĤ ħ
ĠH el
Ġb ed
è¡¨ æ¼Ķ
Ġsp ent
ĠA tt
æ²³ åįĹ
Ġç¬¬äºĮ èĬĤ
Ġth reat
Ġbegin ning
m ore
Ġcreat ing
Ġallow ed
è¾ ¨
æĤ ł
Ġser ve
è¶³ å¤Ł
I V
èµĦ æľ¬
æľī ä¸Ģä¸ª
åħĥ ç´ł
æī¿ æĭħ
å°¤åħ¶ æĺ¯
E E
r d
ĠFil m
Ġc orn
Ġf irm
ĠT ur
Ġç¬¬ä¸Ģ èĬĤ
èĤ º
å½ĵ å¹´
Ġ åİĨåı²
Ġstart ing
èĢĮ è¨Ģ
æł ı
è®¨ è®º
æĿĤ å¿Ĺ
ĠAcadem y
çļĦ å·¥ä½ľ
Ġ æŀĹ
ĠS il
Ġ éĺ¿
Ġ3 5
æ°¸ è¿ľ
ĠC ast
æĺ Ĥ
Ġl ay
en a
ic on
æīĢ åľ¨
ĠB o
Ġfavor ite
Ġan alysis
çĿĢ ä¸Ģ
st ate
åıĬ æĹ¶
ä»ĸ æĺ¯
ä¾ į
ĠW ood
ap ter
Ġent er
Ġassoci ated
åĲĪ çĲĨ
æķ° åŃ¦
Ð¾ ÑĢ
Ġt ast
ç¥ ¥
ĠP o
åĲ¸ æĶ¶
Ġgo es
Ġåķ ¥
Ġ ä¸İ
éķ¿ èĢģ
è¥¿ åĮĹ
è´ ·
k nown
m itted
ar io
Ġeff ic
çł´ åĿı
Ġem ot
ä¸´ åºĬ
Ġepis ode
e ch
é¢ ĩ
Ġbeh av
å¤ĸ çļĦ
Ġw onder
Ġacc om
è´Ń ä¹°
ĠSoc ial
åī ²
Ġlook s
th is
P C
ĠWh y
Ġev idence
æľ µ
å®ļ ä¹ī
Ġread y
æĢģ åº¦
æĥ §
Ġover all
æĴ ĳ
Ġmarket ing
Ġin nov
ä¸Ńåįİ äººæ°ĳåħ±åĴĮåĽ½
erv ation
æĺ Ĭ
Ġg ives
Ġc ateg
ow l
w rit
åŁºæľ¬ ä¿¡æģ¯
è®° å¾Ĺ
æŃ» äºĨ
ĠProf ess
Ġgr and
åħ¬ ä¸»
æĺ¯ çĶ±
Ġhapp y
S S
ä¸į å¦Ĥ
åĪĨ åŃĲ
å¡ «
ron ic
æĦ ¤
èħ Ķ
7 8
ĠPar is
å£ ¤
æķ´ ä½ĵ
Ġ ult
çļĦ åĬĽéĩı
è¯¦ ç»Ĩ
ĠÂ £
å§ ¬
re f
lic k
Ġm orning
Ġpre d
çº ¤
ud get
éĤ£ ç§į
ä»¤ äºº
Ġal one
4 2
Ð¾Ð ´
éĺŁ ä¼į
èĤ ĥ
éĩį éĩı
åł ª
Ġexp and
Ġstat ement
ĠBro wn
è¿Ĳ çĶ¨
N ame
Ġcent ral
åŃ¦ ç§ĳ
Ġse ek
Ġon es
æŀľ çĦ¶
p m
ĠIt s
Ġgo als
Ġess ential
Ġcount y
Ġv an
hen s
ol a
æĭĴ ç»Ŀ
ä¼ Ĳ
Ġmove ment
æĥ³ æ³ķ
L E
ill a
Ġsk in
an ced
Ġwrit er
å¾Ģ å¾Ģ
ic ian
Ġapp l
Ġpre tty
Ġincre ased
l ist
h aps
ä¸į è§ģ
ĠRuss ian
Ġ çİ©
åįı è°ĥ
I d
it ude
èĬ ¯
åįĥ ç±³
Ġw a
ç»Ħ åĲĪ
Ġback ground
åķ ¦
åĮ» çĶŁ
æ¨¡ åŀĭ
è¿ĺ èĥ½
çľĭ è§ģ
Ġp en
Ġst ring
è¿ĺ æ²¡æľī
æī £
å£ ³
ol k
ĠB ank
Ġg iving
ult ure
Ġw est
at ively
å®Į åĸĦ
çļĦ éĩįè¦ģ
Å Ĥ
åĮħ åĲ«
Ġst ra
æĪ Ī
èİ İ
è®° èĢħ
ĠM ond
A l
è¯ķ éªĮ
åľ° çĲĥ
Ġsol ution
æ¯ ħ
Ġequ ipment
ç¾İ æľ¯
åį µ
it able
å¤ļ æ¬¡
Ġ çĤ¹
è´¢ æĶ¿
Ñģ Ðº
æĥħ ç»ª
al ed
im al
Ġappro x
Ġk ids
äºº åľ¨
æī Ń
å®ĩ å®Ļ
è¿Ľ äºĨ
re me
ĠSp an
Ġrem ain
èħ º
åħ¨ æĿĳ
å¼ ¥
Ġeffect s
Ġprim ary
Ġwe ight
ä¸ľ åįĹ
çĤ ī
Ġsl ow
Ġtr ust
ĠåĨħå®¹ ç®Ģä»ĭ
Ġr ank
ä¸ĵ éĹ¨
ĠW omen
Ð° Ð½
Ġf air
èĭı èģĶ
Ġhe at
æīĵ ç®Ĺ
å¤ļ äºĨ
Ġcont ain
Ġd ro
è¡ °
æĭ Ĩ
ä¸ī å¹´
ut s
çľ¼ ç¥ŀ
ä¿¡ åı·
åĴ ¨
Ġg ar
èĴĻ åı¤
æĮĳ æĪĺ
åıĮ æĸ¹
è§Ĵ åº¦
ĠE ven
Ġfe ed
Ġcl ick
æĦŁ æŁĵ
ur a
ĠI re
åįģ ä¹Ŀ
ĠAr ts
ĠF ree
an cy
Ġse lect
çļĦ åīį
éº» çĥ¦
åĪ¶ å®ļ
ä¾Ŀ æĹ§
ĠO ld
Ġ èĻ½çĦ¶
ç»Ļ äºĨ
Ġcar ry
Ġbl ood
åŁº äºİ
Ġsaf e
æķĮ äºº
Ġ çĶµ
è Ł
åĩ ½
äºĨ ä¸ĭæĿ¥
ig an
Ġhig hest
å¹¿ åľº
Ġe ast
è¿Ľ æĶ»
ĠVict or
Ġreg ister
ĠSatur day
in ter
! "
å¼º çļĦ
ĠK n
èĲ Ħ
å°ı åŃĲ
S c
ĠCong ress
åĲ¸ å¼ķ
åĬ¿ åĬĽ
ä¸į çĶ±
im b
Ġyour self
Ġnear ly
Ġf ans
çĺ ¤
åİĺ ç±³
æĦ Ī
Ġä½ł ä»¬
è± «
çĤ Ĵ
iver se
ç¬¬ ä¸Ģä¸ª
çģµ éŃĤ
Ġbusiness es
æľº åĪ¶
å§ ¿
çĽ¸ æ¯Ķ
Ġdem on
Ġc opy
Ġsit uation
æŃ£ ç¡®
èĳ¡ èĲĦ
åľ° ä¸ĭ
for ce
ä½ Ĳ
o ch
çļĦ ä¸į
æ¬¢ è¿İ
èĬ ³
å² Ń
æĺ¯ åĽłä¸º
èģ ĺ
åķ ¥
umn i
ĠH istor
åĿĲ åľ¨
æĢ ¨
Ġgrow ing
æĸ ĳ
ĠJ ournal
Ġcont ext
ĠÐ º
ru it
æ» ¨
Ġbenef its
Ġfound ed
æĪĳ å°±
Ġdeath s
è¿Ľ æŃ¥
å¹³æĸ¹ åħ¬éĩĮ
å¥³ åŃ©
ĠAt l
Ġhelp ed
Ġform ed
Ġb illion
Ġsh ip
T S
Ġspe ed
å¼ ¯
Ġim ages
e v
ask et
ä¸» åĬ¨
Ġch ance
Ġf ederal
è´¢ åĬ¡
Ġstat us
az z
å± Ī
æĦı çļĦ
id ge
çĹħ æ¯Ĵ
ri ate
åħ± äº§
æĬ ¹
Ġ åĨħ
ç¯ ®
ist an
å¯» æī¾
Ġval ues
g a
Ġla un
Ġd aily
æ¶ ¨
Ġincre asing
ä¸ §
U n
ash ion
æ²¡ æĥ³åĪ°
Ġcommun ities
Ġh op
ĠI ll
é«ĺ éĢŁ
èĥ ģ
Ġin form
æķĻ æĿĲ
Ġdou ble
ĠChrist mas
Ġtool s
ä¼ł æĴŃ
Ġ3 2
F L
ĠP op
ĠFace book
çİ°åľ¨ çļĦ
å¤§ å¸Ī
Ġan c
æ®µ æĹ¶éĹ´
y p
Ġtra in
l im
è´ ¦
N D
åĤ ¬
è£ħ å¤ĩ
ĠB et
çĽ ¯
ĠComm ittee
ac he
oc ks
Ġele ments
åįı è®®
å¤ ¹
çĹĩ çĬ¶
å¤± è´¥
ag n
æģ Ń
Ð¾Ð ¼
Ġ å¹³
çĸ Ĩ
ĠVal ley
Ġcond ition
æł¼ åħ°
å®Ŀ å®Ŀ
ĠP enn
åĽº å®ļ
æľĿ çĿĢ
Ġsur pr
çĸ ı
çĳ Ł
éĥ½ è¦ģ
Ġstud ies
æİĴ åĲį
l og
å¤§ å¤ļæķ°
Ġoper ations
çŃī çº§
Ġcomplet ely
âĢ ĭ
éŃĶ æ³ķ
Ġg as
Ġexc ell
åį³ åı¯
çħ§ çīĩ
çĲĥ åĳĺ
Ġf elt
æĪĳ æĺ¯
æĹ© å°±
ĠK ore
ĠPl an
ç»¿ èī²
Ġful ly
å°Ĩ åħ¶
ä¸ ĺ
ä¿ ±ä¹Ĳ
Ġsu st
ĠL and
Ġhe ar
æµģ è¡Į
èĬ ¬
å¦ ®
æ£® æŀĹ
Ġoffer ed
Ġl if
åŃ¦ ä½į
ĠT re
b ox
ĠD u
e ed
éļı åį³
riv ing
Ġcont ains
å®ŀéĻħ ä¸Ĭ
Ġcon vers
ä¿® å£«
ut y
çĲ ³
æ¼Ķ åĩº
Ġgener ally
Ġperform ed
çħ ¤
m ond
l is
çĽ¸ äºĴ
Ġsh ot
Ġw el
enc ies
ĠB ack
Ġex cept
ä½ł æĺ¯
éĢĤ åºĶ
ĠP ub
çľ¼ ä¸Ń
ĠWe b
ĠS ure
or age
ĠL u
ĠAngel es
åī ª
å¿« ä¹Ĳ
ound s
æįŁ å¤±
æľŁ çļĦ
Ġk m
ĠIt alian
æħ Ī
Y ou
Ġturn ed
Ġm ission
Ġcons ult
çķĻ ä¸ĭ
Ġcost s
Ġ ä»Ĭå¤©
Ġactiv ity
Ġenc oura
Ġcor rect
ä¸¤ ç§į
èĶ ¡
ç»´ æĬ¤
æ¸ Ĭ
it ely
I A
ib ly
Ġreport s
ic ine
Ġf ix
ä¹ĭ åĬĽ
è´¡ çĮ®
çº¢ èī²
Ġhe ard
ä¿ ©
Ġbl ue
è¿ĩ çļĦ
Ġsur face
ç½ ©
çº· çº·
Ġt ried
or al
Ġac adem
Ġsay ing
æľº åĻ¨
s u
åŃ¦ èĢħ
è¿Ļ ä»¶
è¥¿ åįĹ
Ġdem and
è¢ ĸ
æĦı å¤§åĪ©
è¥¿ çıŃ
ĠL ong
Ġrem ains
Ð¾Ð »
ĠEx p
ĠEn ter
ä¸Ń éĹ´
é¢ ¤
è§£ æĶ¾
ç¬ĳ äºĨ
ç½Ĺ é©¬
è¥¿çıŃ çīĻ
æĮ ĸ
çĹ ķ
Ġan g
Ġhel ps
é¢ Ī
è¿Ľè¡Į äºĨ
åĳ¼ åĲ¸
çİ »
ann ed
åħĭ æĸ¯
Ð° Ð»
åİŁ çĲĨ
i xt
æ¼Ķ åĶ±
Ġes c
çĥ Ĥ
åĬ¨ åĬĽ
åľ¨ ä»ĸ
V ID
Ġs ort
opp ing
åĴ¨ è¯¢
æīĵ å¼Ģ
Ġv oice
v ant
Ġcol le
Ġdise ase
ĠTH E
æĢİ æł·
èĴ ¸
ĠRe v
Ġw arm
Ġsign ed
Ġ ä»ĸä»¬
å¹¿ æĴŃ
Ġinterest ed
æĺİ ç¡®
Ġis land
s k
ĠE lect
Ġpur pose
] ,
res p
ĠSer ies
9 00
éĩĩ åıĸ
Ã³ n
ĠSec ond
ac ity
èŃ¦ å¯Ł
Ġ9 0
Ġintrodu ced
å¯ Ħ
Ġw ild
Ġopen ing
Ġcl ients
æĸ¹éĿ¢ çļĦ
ri ve
Ġfin ally
Ġlar ger
Ġorganiz ations
Ġfl oor
è¾ĵ åħ¥
Ġt im
im in
å© ´
åĽĽ ä¸ª
und red
97 6
Ġp aint
ä¸ ²
å°ı å¿ĥ
Ġsh oot
Ġ è°ģ
èĳ Ľ
as ion
ĠA wards
u ing
ĠSu pp
ç®Ģ çĽ´
O L
è¯´ ä¸į
Ġf a
97 5
èĤ ¾
9 1
Ġche m
Ġexam ples
çº ²
çļĦä¸Ģ ç§į
èĳ ¬
Ġrun s
ĠIre land
èħ Ĭ
ç»ĥ ä¹ł
ä»ħ ä»ħ
ĠJ es
ĠO l
Ġsa ve
ä¹Ł åľ¨
çĻ¾ å§ĵ
åĨ ¯
Ġm iddle
çĶŁ æ¶¯
åĲİ éĿ¢
è®° è½½
ä¸Ģå®ļ è¦ģ
ä¸Ģ å¤©
ĠB oy
ç´ł è´¨
Ġad ult
æĬ ļ
Ġsoc iety
ĠM at
å¾Ī å¤§
ic ks
çľŁæŃ£ çļĦ
Ġan aly
åĢ¼ å¾Ĺ
è¿½ æ±Ĥ
çķ ħ
äºº æķ°
C H
ĠF re
" :
ä¹Ł è¦ģ
Ġmil es
c ription
Ġ åı¶
ition ally
ĠServ ices
Ġfeature d
Ġmov ing
ĠEng ine
ç¢ ³
Ġmeas ure
Ġl ands
Ġst ock
åįļ çī©
ĠP ac
ĠM ain
åĲ ¨
ä» ²
ä½ľ æĪĺ
al og
Ġdev ice
A n
Ġsh own
ĠSpan ish
h r
c a
ĠD en
æĶ¾ å¿ĥ
Ġun it
Ġres idents
Ġ è¿ĺæľī
çľ ł
è§Ĥ ä¼Ĺ
94 5
Ġindepend ent
åĨĽ çļĦ
Ġopportun ities
Ġ id
ĠFound ation
Ġcred it
èĩª æĪĳ
Ġ åĪĺ
Ġcl osed
St ring
åİ ¦
Ġç¬¬ åħŃ
Ġevent ually
Ġa w
éģĵ çļĦ
Ġpat tern
Ġnot e
on ent
æĦŁ åıĹ
Ġ %
å¦Ī å¦Ī
è´ ¼
æĪĲ å°±
ĠT imes
ĠSh ow
è¯ ŀ
æĺ¯ æĮĩ
ĠU se
èī ĺ
æ³¨ åĨĮ
ĠV is
Ġst ream
ĠS om
åģļ åĪ°
Ġ( "
ĠHen ry
éĥ¨ éķ¿
Ġemploy ees
äºº å£«
Ġg un
H z
ĠC at
ĠIS BN
ate gy
Ġ æľĪ
ĠM ur
èĩª æ²»
çļĦ åŁºç¡Ģ
çļĦ å¥½
åľ ³
ĠDes ign
al ign
Ġstru gg
Ġwr ong
å¾Ī éļ¾
Ġr ules
Ġbe y
Ġam azing
97 2
4 1
æ¡ Ĥ
ĠOn ce
b ody
d o
åı¤ ä»£
ĠPro ject
æĵ ¦
Ġstr ateg
Ġv oid
Ġeffort s
æĽ °
ĠThe ir
èģĶ ç½ĳ
Ġ2 00
ĠL ab
Ġelect ric
Ġl oad
I M
èº« åĲİ
Ġh ospital
Ġsit es
ä¸į åľ¨
ĠE conom
ĠW ater
ä¼ļ åĦ¿
ĠWh o
åīį çļĦ
å®Į æķ´
è´ º
ĠF ollow
è° Ĳ
å®¹ éĩı
éħ ·
ĠMark et
ãĢĤ (
åħį è´¹
iqu es
w ith
ĠP erson
Ġpass ed
ä¼¤ å®³
æİ¨ å¹¿
ĠG all
çļĦ æĸ¹å¼ı
Ġd ress
éĤ£ è¾¹
åĽĽ å·Ŀ
ac ing
ĠDevelop ment
Ġbey ond
Ġresp ond
ç§ĺ å¯Ĩ
ous ly
97 4
Ġw all
Ġor d
éĺ Ķ
è¿Ļ æīį
ç»ı åħ¸
å¹¼ åĦ¿
so ft
97 3
äºĭ åĬ¡
4 3
Ġplan ning
åı Ľ
ĠVirgin ia
Ġc ert
u a
ĠJ ul
vent ion
æĺ¾ å¾Ĺ
éŀ ĭ
ĠD ou
ç»ı çĲĨ
ç³»ç»Ł çļĦ
Ġim ag
Ġk illed
ell ig
æİ¥ è¿ĳ
çĥĪ çļĦ
èµ¶ ç´§
V D
èĽ ®
Ġpe ace
å¸¦ æĿ¥
è¿Ĳ èĲ¥
Ġop in
Ġcomm and
ĠM a
ç¼ Ŀ
i i
åħ¬åı¸ çļĦ
ç¬¬ äºĶ
Ġ8 0
th let
è½» æĿ¾
ĠAn other
ĠJ im
ĠSec ret
æµ ¦
ä¿® ä¸º
ä¼ļ çļĦ
Ġinst r
ä½ĵ åĨħ
é¢ ģ
ĠP ower
çĶŁ éķ¿
Ġm is
Ġget s
Ġp et
èģ ª
Ġad vert
Ġorigin ally
Ġ è¯¥
ĠÐ ´
97 7
ĠUS A
m ine
ĠM icro
æī ®
å°ı ç»Ħ
æ·± åħ¥
ĠL ast
Ġrec ipe
es ter
ĠTh anks
ä½ı æĪ¿
ing er
è·¯ çº¿
is ation
åıį æŃ£
Ġsh all
Ġexper ien
ä½ĵ éªĮ
è®© ä½ł
ĠEar th
ĠT our
é«ĺ çŃī
æīĭ æľ¯
Ġg raph
æĸ½ å·¥
ĠMart in
Ġhous ing
Ġatt end
æ¼ ı
ĠPol it
Ġa ware
Ġth ous
Ġs end
o oth
Ġqu arter
P A
å£° éģĵ
èĹ ¤
m et
æŀģ ä¸º
Ġprevious ly
éĹ ·
Ġrespons ible
Ġfe et
Ġ æĦŁè§ī
at ab
d is
ä¿±ä¹Ĳ éĥ¨
ru pt
ĠE ach
Ġd ream
ĠL ord
æİ ©
ĠBl ue
ç¼ĵ ç¼ĵ
ä¼ł è¯´
Ġelect ed
Ġse a
Ġm unicip
å¢ŀ å¼º
our ney
Ġcl imate
Ġc ru
ĠT im
éģ µ
ĠF oot
é»Ħ éĩĳ
c her
çĪ ¬
? ?
ĠMed ia
Ġjo in
Ġ æ¯Ķ
om s
as y
æ·± åľ³
Ġh uge
ip l
ĠSc ot
ĠMond ay
Ġlist ed
ĠCommun ity
Ġs ources
çŁ Ľ
äºĨ åĩł
è¿ĺ æ²¡
åĽ Ĭ
çĻ½ èī²
æİ¨ åĬ¨
Ġh ar
ĠTod ay
çī¹åĪ« æĺ¯
Ġprodu ce
å´ ©
çŃī å¥ĸ
éĩį è§Ĩ
éľ² åĩº
ĠM att
P U
æ¯ı æ¬¡
çļĦ æĸ¹æ³ķ
Ġexper t
f ig
æĶ¹ åĸĦ
ĠS ports
Ġme chan
å±ķ ç¤º
åıį èĢĮ
T M
b an
Ġer ror
å®Į ç¾İ
ĠL iving
çĨŁ æĤī
æ¹ĸ åįĹ
Ġpart ies
Ġown ers
éĢ »
è¿Ļä¸ª æĹ¶åĢĻ
é«ĺ æīĭ
ĠO per
ç¢ §
Ġbe g
éĶ ¡
å¤« äºº
æĺ Ń
as tern
m ary
çļĦ èĢģ
ä¹Ł ä¸įæĺ¯
Ġredu ce
ĠH y
Ġdo or
Ġ é»ĳ
æĪĺ åľº
e qu
Ġä¸į ä¼ļ
æ·¡ æ·¡
5 7
å®¶ éĩĮ
æľĢ å¥½
Ġad apt
96 8
ä¸ĭ ä¸Ģ
å°ĳ å¥³
D A
æĮĩ åĩº
ĠFam ily
åľ¨ ä¸Ģ
h ab
åĲĮ æĦı
æĲ ¬
in ct
Ġant i
Ġmanag er
çļĦ åŁºæľ¬
Ġmus ical
Ġm ur
Ġsc ene
Ġapplic ations
çĤ¹äºĨ çĤ¹å¤´
Ġ åĪ«
Ġ åıªæĺ¯
Ġt ick
ic ations
éĤ ĵ
Ġf ine
ur ation
æĿ¥ çľĭ
æĢĿ ç»´
ri age
Ġunderstand ing
c m
å¨ģ èĥģ
å½¢ æĢģ
æĿĢ äºĨ
Ġgr ant
Ġa f
ĠD et
R A
å¹¶ éĿŀ
åĵģ è´¨
Ġpress ure
Ġlet ter
Ġmach ine
Ġdef e
ĠDe c
I F
åĮ Ģ
æ±¡ æŁĵ
ul ate
Ġm aster
Ġt rib
Ġexper iences
ĠCath olic
åĺ »
åıĪ æĺ¯
éĺ² å¾¡
ĠE nd
æĹ¥ å¸¸
æī¹ åĩĨ
äºĨä¸Ģ äºĽ
çĭ Ĳ
ak s
åĪĽ å»º
and a
æĳĦ å½±
ç¡ķ å£«
Ġcor por
5 8
ä¸ī äºº
ĠF estival
Ġp ages
éŁ µ
ĠPro v
ĠG ame
æĬ ĸ
å·® ä¸įå¤ļ
ĠW ed
ä¸¥ æł¼
æĢ» æĶ¶åħ¥
å±ķ å¼Ģ
Ġp ull
Ġâ Ĺ
å¯¹ çĿĢ
Ġinvest ment
ig r
åĲĦ ç±»
ç§ĺ ä¹¦
b ur
Ġha ir
æ±Ł èĭı
è¥¿ äºļ
ĠS T
Ġsp irit
éĨ ī
ä¼ļ è®¡
Ġregard ing
æ» ĭ
éĢ Ŀ
å¼Ĥ å¸¸
ĠHe ad
éĤ£ æł·
ĠP an
Ġpart ner
96 9
Ġsh ared
Ġwas n
in y
å¨ ĥ
Ġsec ret
ĠWind ows
è¡ į
è¯ ±
Ġcompet ition
uc le
Ġdeter min
Ġco ast
Ġd ensity
Ġre ached
æģ °
Ġ åħ¶ä»ĸ
ĠD own
ç´§ å¼ł
ç»Ł æ²»
Ġcal c
å¥ĩ æĢª
mb ol
åħ¥ äºĨ
Ġfor ms
Ġ* /
Ġç¬¬ä¸ī èĬĤ
Ġh our
h i
ĠAn y
äºº åĿĩ
Ġd ry
ul ed
ĠS aint
Ġbuild ings
C om
æĸ ľ
ç© ´
Ġca used
t op
çĭ¬ çī¹
æ°§ åĮĸ
æ¯Ķ ä¾ĭ
ç¬ ¼
Ã §
Ġç¬¬ äºĮåįģ
Ġbas is
ipp ed
èĥľ åĪ©
I G
Ġ çĦ¶åĲİ
Ġpl aced
Ġc ities
éĺ¿ å°Ķ
Ġfin ished
' .
èĤ ĸ
-------- --------
ĠH on
ĠL ibrary
é¹ °
Ġrepl ace
Ġfor ces
å§ĭ ç»Ī
Ġleg isl
äº Ń
Ġinit i
C ont
Ġ å·²ç»ı
ä¸į çĦ¶
Ġrequire ments
i as
h ire
us ing
Ġm obile
çļĦ æĦŁè§ī
æĸĩ çĮ®
Ġpr incip
02 4
Ġ= >
d ate
c ell
Ġ ä¸»è¦ģ
å¥ ĳ
å¤§ æĪĺ
Ġinvest ig
Ġmod els
åľ¨ ä¸ŃåĽ½
åĥı æĺ¯
èµĽ åŃ£
y ing
å®ŀ è¡Į
å®Ĺ æķĻ
è¯Ħ è®º
Ġwork ers
ĠS qu
Ġco ach
çł ĸ
Ġc as
äº² èĩª
å¹´ åºķ
çĶµè§Ĩ åı°
Ġcomp ared
Ġv irt
æĢ§ è´¨
Ġaud ience
Ġc amer
97 1
ĠEar ly
ĠCol umb
ĠBu ild
Ġ eth
g u
ce an
ĠE p
æĥ³ è±¡
èĴ ĭ
çĶ¨ æĿ¥
Ð¾Ð ³
ç¨ ¿
äºļ æ´²
å¤ĸ éĿ¢
æĿĥ åĪ©
Ġappear s
Ġfem ales
éĢ Ĭ
Ġp aid
Ġs ale
ĠJ ud
Ġb udget
Ġ ;
æŃĮ æīĭ
åĲĦ ä¸ª
éĤ£ å°±
Ġs orry
Ġfore ign
åĽ¢ ä½ĵ
çĽ Ĩ
æ¶ī åıĬ
Ġpresent ed
åĬ¨ çļĦ
Ġb rief
ĠZ eal
ä¸Ĭ ä¸Ģ
am ing
è¥¿ æĸ¹
av en
Ġatt ract
w ise
æ£ ĭ
Ġro w
Ġ* *
åıĮ æīĭ
Ġveh icle
ĠS pecial
å§Ĳ å§Ĳ
ĠMan agement
å· «
çĥ ¤
Ġdiffer ence
éĩį åºĨ
å·¨ å¤§
èľ ľ
Ġm ap
Ġrecord s
æĦı å¤ĸ
ĠGe org
ĠL iber
åľ° éĿ¢
å¦ ĥ
æľī åı¯èĥ½
åľ° äº§
æĪĲ çĨŁ
æ¬ º
com p
ap ers
éĶĻ è¯¯
çĵ ·
Ġing red
æİ¨ è¿Ľ
èµ ļ
å¤Ħ çļĦ
v a
Ġlaw s
å½± çīĩ
Ġ ice
ä¹Łä¸į ä¼ļ
æŁ Ħ
Ġ æ°´
ĠCent re
Ġs pl
Ġph il
ä¸ ĳ
æĽ´ å¤ļçļĦ
Ġserv ing
cont ent
å¹³ è¡¡
å±ı å¹ķ
Ġc op
Ġchar ge
Ġcrit ical
ä¸į ä¹ħ
f ortun
at ers
æ°Ķ çļĦ
åľ° è¯´éģĵ
åŁ ĭ
âĢĿ (
S P
åįĥ ä¸ĩ
Ġ å¸¦
ä½ľ å®¶
èµ ´
Ġset ting
Ġin put
is f
ĠÐ½ Ð°
èĦ Ĩ
Ġele ment
Ġcan cer
Ġ å¥³
ify ing
Ġl ov
èį£ èªī
Ġocc up
ĠM ot
Ġhe avy
Wh at
ĠåĽŀ æĿ¥
ĠM en
m od
æĿ Ń
ä¸Ģ èĦ¸
ed ia
å¥½ å¥½
åŃĲ éĩĮ
æĬ¥ éģĵ
re ci
ĠF er
Ġ çĶ·
or ation
Ġmin or
ĠL ike
Ġsol utions
Ġse qu
E M
Ġve get
ĠZeal and
è¯» èĢħ
æķĪ çİĩ
Ġä¸Ģ èµ·
94 0
r ad
ĠC y
ĠR o
am m
Ġla unch
ä¸º ä¸Ģ
Ġgl ass
æ¯« æĹł
ĠSw ed
V al
æī¿ è®¤
éĻ ķ
è¿ĺ ä¸į
Ġappro p
ĠU N
w ord
ipp ing
Ġimmedi ately
ĠF ort
Ġey es
Ġcult ural
çľĭ åĲĳ
ĠB ob
æīĢ å±ŀ
Ġri ver
ĠF urther
äº ı
Ĩ Ĵ
ic ians
å¿į ä¸įä½ı
å½ĵ åĪĿ
äºĨä¸Ģ å£°
æ°ĳ éĹ´
Ġapp ly
è´¹ çĶ¨
å§ĳ å¨ĺ
æľ ´
T ype
å·ŀ å¸Ĥ
åĪ¤ æĸŃ
Ġad opt
à ¸
Ġalbum s
Ġb attle
äºĨ ä¸ª
çŃĶ æ¡Ī
ç»ĵ å©ļ
Ġc itiz
éĩı çļĦ
Ġest im
æĬĢ å·§
ĠG en
åį± æľº
ĠDiv ision
åįļçī© é¦Ĩ
Ġ ur
Ġnum erous
ĠB as
L ist
æĪĳ æĥ³
en ced
è·¯ ä¸Ĭ
ur ies
ä¹Ł è®¸
Ġex erc
Ġtri p
ight ly
R es
åħ¬ åħĥ
olog ies
it an
Ġexist ing
éĩį çļĦ
èĬ Ŀ
çĸ¯ çĭĤ
è¿Ľ æĿ¥
N ew
am in
Ġlaun ched
ric s
Ġas pect
æĤ Ħ
å¯Ĩ åº¦
èĨ Ģ
å®¶ éķ¿
Ġcomp os
Ġsch ol
åŁº åĽł
æĪĳ è¦ģ
çĨ Ļ
å¹´ éĹ´
Ġbecom ing
qu est
è®¤ çľŁ
ang er
æĢ» æĺ¯
æ¡Ī ä¾ĭ
or a
Ġä¸į èĥ½
å¤ ķ
ĠC ross
em ents
9 20
éĥ½ èĥ½
94 9
t a
1 50
Ñ Ī
art s
Ġc ry
Ġpo or
æīĵ éĢł
Ġacc ur
éĤĢ è¯·
f riend
Ġ æĹ¶éĹ´
æ¶ Ľ
æķ° çļĦ
m iss
Ġc up
çłĶ åıĳ
ä¸ĩ äºº
èŀ º
Ġse at
k m
Ġst ations
Ġb ound
ãĢĭ ãĢĬ
b a
èī ĩ
ĠH aw
Ġsepar ate
Ġdep artment
9 30
Ġm ill
g n
Ġmajor ity
Ġp sych
ĠMex ico
ĠS and
éĤ£ ä¸Ģ
p oint
Ġnorm al
ĠW rit
Ġinc orpor
äºĨ åĩºæĿ¥
èĮ ¨
Ġl ived
æ¤ Ĵ
ä¸» é¢ĺ
ĠBe c
Ġgre ater
æ§ ½
å¹´ é¾Ħ
çľĭ èµ·æĿ¥
æŁĲ äºĽ
Ġapprox imately
Ġ æĿ¨
ĠSt at
Ġins urance
çĻ¾ åº¦
åħģ è®¸
çĲĨ æĥ³
å¹² éĥ¨
ĠYou ng
Ġent ry
çļĦ èº«
ĠS a
æŁ ¯
é¹ ¿
Ġdirect ed
ff ee
Ġpower ful
Ðµ Ð»
Ġent ertain
ht ml
stand ing
% )
c are
åĨ³ èµĽ
ĠD i
ĠLe e
96 4
ed om
in et
æĻ ´
Ġ å®ī
Ġh undred
åĩºçİ° äºĨ
Ġv oc
ĠOr gan
æĦŁ æĥħ
Ġdam age
Ġpre c
Ã© s
Ġass ess
çŃĶ åºĶ
çŃĸ çķ¥
Ġä¸Ģ ä¸ĭ
çĽ Ī
è¿Ļ å°±æĺ¯
ĠRuss ia
4 9
96 7
ä»Ĭ æĹ¥
èĦĳ è¢ĭ
ä¸Ģ äºº
ĠF ire
æ¸ ł
Ġret ail
Ġform at
æĹ¥ æľŁ
# #
åĶ ¤
ç»Ļ äºĪ
æł ª
ĠP C
Ġv ote
Ġcover ed
ä¸Ĭ ä¸ĭ
re ate
Ġsp ot
é¹ ı
96 5
è§Ĥ çĤ¹
ĠCh ief
ĠTechn ology
ĠM iddle
ar ian
è¿Ļ ä¸¤
ant ly
åĵ¥ åĵ¥
æĪĺ å£«
Ġpict ure
åģļ åĩº
åģļ çļĦ
ç¾¤ ä¼Ĺ
ĠGo vern
ĠCarol ina
Ġsc en
6 7
V iew
éģĵ çĲĨ
ĠT ues
å½ Ń
ut ch
åı¯ è§ģ
ĠD ie
em porary
pr int
ang ing
wor ks
å¤ ¸
Ġair craft
ĠS ong
Ġcent re
çļĦ æ°´
Ġtyp ically
çī ¢
Ġth us
or ough
Ġed itor
u ce
ç»Ļ ä»ĸ
çłĶç©¶ æīĢ
åľ° ä¸Ĭ
çŀ ª
ĠT ri
åģľ æŃ¢
éĺŁ çļĦ
åĵ² åŃ¦
ä¸į ä¸Ĭ
un te
ris on
ä¸ĭ éĻį
æĻ ĥ
è½¬ ç§»
ĠO k
] .
åĽ¾ çīĩ
è½¦ è¾Ĩ
å± ł
ç»§ æī¿
semb ly
è¾ ©
Ġdefin itely
èĸ Ľ
ĠTh urs
ä¸į åĩº
ä¼ ª
åħ¬ åŃĲ
ĠIr ish
å¤§ çº¦
z y
l ife
ä½Ĩ åľ¨
ĠéĤ£ ä¸ª
it ors
èµ ł
Ġeconom y
ion e
ĠIn s
éª ¤
Ġappoint ed
b t
ind er
ĠLe ad
d a
å¾ª çİ¯
Ġra ised
Ġwe ather
ĠA M
Ġpre fer
Ġey e
ĠT est
çħ ®
Ġconst ruct
Ġreview s
ä¾ ł
asket ball
ĠG ames
ç² ĺ
ç»´ æĮģ
ä¼Ĺ å¤ļ
Ġ åĪĨ
æĻº æħ§
æ¼ ł
ç¿» è¯ĳ
ĠW ay
Ġk ing
ç¬ĳ å®¹
èģĶ éĤ¦
k ins
ĠIn ternet
èĤ ļ
çļĦ åħ³ç³»
Ġext rem
åĲ¬ è¯´
Ġthe ory
ä½ĵ çİ°
on ents
Ġ åħ¶å®ŀ
Ġd yn
Ġneigh bor
ä¸» æķĻ
Ġed ition
Ġtemper ature
Ġ( )
éĵ Ń
å¨ ĩ
å±Ĥ æ¬¡
ĠTe am
äºĮ äºº
Ġbas ic
ic ed
ĠR os
ur er
åħ· å¤ĩ
æĶ¹ ä¸º
L A
åĬ Ŀ
å¢ĥ åĨħ
å®¶ äºº
åİ Į
Ġref lect
Ġadv ant
è¿Ļ è¾¹
ĠPac ific
å®ĺ æĸ¹
sp an
Ġ æĶ¾
Ġ6 4
Ġra ces
å¯ ¨
f r
åĪ° è¾¾
t ained
ord in
ĠB oth
æĺ ı
çİ» çĴĥ
Ġconne ction
Ġmet al
ĠW he
ian o
Ġkn ew
å¤ª å¹³
æľĽ çĿĢ
Ġview s
Ġb ird
åĵģ ç§į
æĹ º
Ġ7 0
Ġc ris
æĺ¯ æľī
Ġpie ces
le ft
ç¥ŀ ç§ĺ
Ġ ir
åĭ ĥ
96 6
èŀį åĲĪ
æ¼« çĶ»
Ġmethod s
åĦ Ĵ
èĪ Ł
è¦Ĩ çĽĸ
ĠCor por
ĠW al
Ġre nt
ĠG ar
æĭ ¨
ĠOr der
Ġcontin ues
éĥ½ è¢«
æµ· æĭĶ
Ġr an
æĦı åĳ³
Ġdest roy
ç¾İ ä¸½
è¯Ħ ä¼°
ĠBec ause
æĢĢ çĸĳ
å¼ ĵ
Ġmy self
è¯´ çĿĢ
ĠHum an
çī© çļĦ
Ġwrit ers
çĶ» éĿ¢
é Ħ
æ³ Ħ
èĢģ æĿ¿
Ġcrit ic
Ġpo em
æŀĦ æĪĲ
æ³ķ è§Ħ
Ġlab el
um s
è¾ĵ åĩº
éĢļ éģĵ
95 8
åģļ å¥½
C A
Ġfig ure
Ġ äº§åĵģ
Ġr at
Ġ åĩºçīĪ
æº ĥ
ĠL im
Ġle aving
æĬ Ľ
äººæ°ĳ æĶ¿åºľ
Ġwin ning
ĠJose ph
A meric
az on
æ¡ Ĩ
Ġcl in
n s
ĠB ased
çļĦ æł·åŃĲ
Ġst reet
ĠE mp
é»ĳ æļĹ
æ¼Ĥ äº®
i very
ĠApp le
éĢļ çŁ¥
çķ ľ
ĠRad io
H e
B l
Ġsit u
ĠJe ff
èī¯ å¥½çļĦ
Ġ ....
Ġdeb ut
ä¸ĭ éĿ¢
èī ³
Ġh arm
Ġded icated
æ¸Ĳ æ¸Ĳ
ĠW ild
Ġhapp en
åĺ¿ åĺ¿
Ġhistor ical
o es
itc hen
èµ Ķ
ä¹Ł èĥ½
çº¿ çļĦ
ĠM P
èĥ½ æºĲ
ĠG al
ruct ure
å¼ ĺ
ÑĢ Ðµ
ç¦ı å»º
Ġend ed
ĠK ar
Ġsen ior
Ġwh om
Ġun iversity
èī² å½©
å¹³æĸ¹ åįĥç±³
st ra
æ° Ľ
åĽ½ çİĭ
Ġthink ing
ä¸º ä½ķ
ĠSt and
å¤§ æ¦Ĥ
åĭ ¾
æ¦Ĥ è¿°
åħ¨ èº«
Ġa im
åĩĨ ç¡®
Ġdemon str
Ġprofess ion
Ġre pe
è· Į
å¤© æ´¥
Ġ çīĪ
ä¼ļ åľ¨
ĠçĶŁ å¹³
us ion
Ġra p
åĿ Ĭ
ĠS ar
r im
æ± ģ
ĠWed nes
Ġcap acity
ag ram
el ine
Ġleaders hip
z h
Ġal umni
æ¡Ī ä»¶
Ġprote ction
Ġse lected
çī¹ æĢ§
Ġm icro
å¾Ĺ åĪ°äºĨ
Ġch air
ĠNe xt
çĭ ®
Ġdes pite
ĠTues day
å¤§ äºĨ
Ġchall enge
ost on
Ġle ague
è®© ä»ĸä»¬
Ġsc ore
äº¿ åħĥ
èĳĹ ä½ľ
ĠA P
åĪ° çļĦ
åı Ļ
T A
æĹ¥ åŃĲ
åħ±äº§ åħļ
çļĦæĥħåĨµ ä¸ĭ
Ġb ra
t ra
Ġmem ory
å®ļ ä½į
Ġchalleng es
' )
Ġpr ison
Ġc ars
å¼ ¦
Ġn av
Ġphot o
æĤ ¦
6 8
çģ« çĦ°
Ġbecom es
ä¹ĭ å¤Ħ
L C
Ġfour th
åı¯ æĥľ
Ġp urs
é«ĺ ä¸Ń
or ter
Ġb ill
Ġexcell ent
Ġstra ight
Ġar rest
åī§ æĥħ
Ġd oll
Ġrout e
b ar
i ar
åįı åĬ©
æħ İ
çĽ¸ åºĶ
y an
äºĳ åįĹ
è¡¥ åħħ
in em
ÑĤ Ð°
ĠN avy
ing u
__ __
ĠN orthern
çĪĨ çĤ¸
æł¡ åĽŃ
Ñ İ
htt p
et ers
éĹ¨ åı£
ĠAs ia
æľĢ åĪĿ
çł ¸
éĤ£ æĺ¯
åĵ İ
ĠChar l
ÑĢ Ð¸
Ġgu ide
Ġdev ices
æı Ń
ä¾Ľ åºĶ
æĺİ çļĦ
åį ¿
ĠJohn son
Ġdire ction
Ġst ated
rap y
Ġdr ink
ĠPol ice
Ġsupp ly
Ġimp ress
Ġin ternet
L e
åľ° éĿ¢ç§¯
æİ¨ åĩº
Ġs av
ĠS ir
ãĢĤ ãĢĤ
æ· ĭ
Ġ éĩĳ
ĠThurs day
Ġter min
d es
æĻ °
èº ¯
åĲĦ åľ°
al ing
C ol
O P
Ġpric es
ç¼º ä¹ı
åı ī
åĮº åĪ«
P l
ear s
çļĦ ç¡®
Ġadj ust
Ġs weet
Ġf ish
Ġstud io
çľī å¤´
Ġfl ow
åĨ »
) (
Ġoffer ing
ä¸Ģ åıª
Ġra re
æĢ§ æł¼
Ġadd ing
Ġpol ic
ĠG reek
ĠW all
ĠP ass
Ġr ule
Ġphot os
Ġsmall er
ian a
Ġc m
I R
éħį ç½®
çĪ ½
ent ed
act ive
é¥ ±
è®¤ è¯ģ
ĠM ax
ĠIt aly
Ġa head
å¹´ èĩ³
ĠBe ach
æĲ º
Ġr ates
in er
f it
çº§ çļĦ
Ð½ Ð°
åħ¬ å¸ĥ
å¾Ī å¥½
ĠV ill
å¿ħ çĦ¶
éģĵ å¾·
Ġm useum
Ġch ief
ä»Ĭ å¹´
çĻ¾ ä¸ĩ
uck y
ans as
Ġn ice
Ġro b
ç¿ ł
s es
ä»Ķ ç»Ĩ
Ġsol id
åĲĪ å¹¶
åĥ §
çĬ¯ ç½ª
ĠH or
ar ant
Ġaward ed
Ġtra ffic
Ġfeel ing
ĠH ave
æľĢ ä¸º
ult y
æĥħåĨµ ä¸ĭ
é¢Ħ éĺ²
p o
Ġstreng th
Ġst ress
åĵª æĢķ
ä½ł è¯´
Ġè¿Ļ ç§į
Ġth r
åŀĭ çļĦ
Ġcl ient
ult ural
æī ĩ
il ed
å®ĺ åĳĺ
èľ Ĥ
Ġe gg
å¡ ĺ
äºĴ èģĶç½ĳ
Ġsust ain
ä¸į åıĬ
è¿Ļ æĹ¶
Ġrepl aced
æŁ ´
æĸ¯ åĿ¦
æłĩ å¿Ĺ
Ġmag azine
A nd
åĭ ĭ
il ing
ĠA rab
pect ive
Ġbenef it
æĮ ¤
ä¸ «
è¢« äºº
s er
Ġt ree
ä¸ī åįģ
Ġoper ation
Ġoper ating
Ġcont roll
Ġ5 00
Ġlim it
Ġd a
C an
è£ħ ç½®
ĠQue en
du le
ĠJ oe
O M
ĠCol or
ĠL ittle
çŁ ©
çĻ» è®°
Ġfil es
Ġstep s
Ġtre nd
ĠG re
Ġw ait
æļĤ æĹ¶
åħī èĬĴ
opp ed
åľ¨ äºİ
åºĶè¯¥ æĺ¯
fortun ately
äºº çĶŁ
ĠD ata
Ġm ent
Ġinflu ence
Ġcomm it
c an
Ġapp reci
æĻ ķ
yl van
å¯ Ĥ
Ġfac ilities
ter m
ĠJ ones
å¸ Ĳ
U N
d ro
å¾Ĺ äºĨ
Ġcol umn
ĠWednes day
ä»£ çĲĨ
æħ Į
æ³ķ çļĦ
ic an
åıį æĺł
æĹ© æľŁ
g s
Ġfact ors
æŃ» çļĦ
åħ´ å¥ĭ
est ic
ĠL ear
ĠIn formation
Ġown er
æŁ ľ
éĺ² æŃ¢
edd ing
åĪº æ¿Ģ
Ġsub sequ
Ġsle ep
ra c
æĢ ľ
96 2
Ġs and
T o
éĩĬ æĶ¾
atab ase
Ġvis ual
Ġc old
Ġmost ly
ĠMc C
ä¸Ģ æĬĬ
Ġpl ays
æ¸ Ķ
æľĿ é²ľ
ĠPar liament
ĠT em
å°± æľī
Ġre asons
åİ ¨
çļĦ åİŁåĽł
æħ °
s pe
Ġ å½ĵçĦ¶
ir us
å°ĳ æķ°
æ°Ķ åĢĻ
96 3
ç¢ Ĺ
Ġadv ice
Ġsp ring
Ġpro ced
ĠWe ek
Ġrem ained
Ġsupport ed
å¤§ éģĵ
u ps
Ġgu id
çĲĨ çĶ±
Ġexact ly
Ġnew sp
z en
ä¸Ŀ æ¯«
æł¼ å¼ı
Ġ é©¬
Ġc atch
ä¸» ç®¡
åº¦ çļĦ
Ġf if
æľº çļĦ
an i
èĢĮ åĩº
Ġdis p
ä»İ æĿ¥
Ġ è§ģ
çĹĽ èĭ¦
ä¹ĭ åľ°
ĠDe v
ĠFor ce
aw a
ĠI ran
çĽ¯ çĿĢ
Ġ åħ¨
ĠE ll
ick en
éĿ ĸ
èĢĮ æĿ¥
ĠÐ ³
æ¯ı ä¸Ģ
Ġsound s
ĠL ive
Ġf at
Ġç¬¬ ä¸ĥ
é¡º åĪ©
in ner
ic ious
Ġj ourney
æĸĩ çī©
Ġf ab
æĭ ¦
j a
S A
å®ŀéªĮ å®¤
è® ¶
Ġ è¯·
åį ľ
èĩª ä¸»
b ut
row d
Ġcreat ive
æ²³ åĮĹ
Ġv on
å¼º è°ĥ
å»º éĢł
Ġc ounter
çĶŁ åŃĺ
è½¬ èº«
ç¼ ł
Ġt ro
ĠC ook
ĠWilliam s
è´Ŀ å°Ķ
b ury
Ġ| -
ri er
Ġp oll
f o
Ġhealth y
åķ ¡
åĪ¶ çļĦ
éŃ ħ
ĠS outhern
æİ¢ ç´¢
å³ ¡
os oph
id ay
Ġ æķ°
Ġest ate
ĠMich igan
æĪĸ æĺ¯
Ġä¸Ģ çĽ´
èĪ Į
æ» ¤
ĠV iew
95 6
ylvan ia
ĠV an
æ¤ ħ
oth ing
æľī æĹ¶
éĩĮ æĸ¯
æĢİä¹Ī æł·
Ð ¶
ĠTw itter
æĹı çļĦ
åĮħ è£ħ
: (
ĠF ar
" ;
Ġse ctor
h ost
æµ· æ´ĭ
Ġf av
ä¸Ĭ æĿ¥
ĠCh ris
a ctions
ĠAs ian
b ed
Ġstr ategy
Ġar ray
Ġle aves
Ġr ich
ty pe
åį §
Ġrelig ious
è¢« ç§°ä¸º
Ġp al
å°±ç®Ĺ æĺ¯
Ġ åı¯æĺ¯
åĨ² åĩ»
Ġ å®Į
çĮ ´
Ġpl ants
çĽ Ĵ
at i
è° ¨
ĠAut hor
åĴĮ å¹³
åīį éĿ¢
Ġb order
Ġaltern ative
ä¾Ŀ æį®
os is
Ġh ab
he ast
å¤± åİ»
ä¸º äºº
éĵ ĥ
Ġon to
ĠC ard
å·¥ èµĦ
Ġdis app
è¡Į çļĦ
æĬ ¼
Ġf alse
å« ģ
ç©¶ ç«Ł
ĠU l
å°Ĩ ä¼ļ
å² Ĥ
Ġthem e
åĵª äºĽ
æī¹ è¯Ħ
æµ Ĩ
çļĦ ä½ľçĶ¨
g ency
urb an
æľŁ å¾ħ
Ġthere fore
ĠB oston
96 1
æĿĳ æ°ĳ
éĢļ ä¿¡
Ġanim als
ä¼ł æĿ¥
Ġoffic er
Ġ ä»¥
Ġpost ed
å± ģ
çŁ¥ åĲį
em ic
Ġ è¥¿
åĳ¨ è¾¹
å« Į
ĠInd ust
Ġfore st
Ġwant s
æĢ§ åĴĮ
if ically
è¡¨ æĺİ
æ² Ĳ
åıĳ çļĦ
ĠM id
Ġto w
éĽĨ ä½ĵ
Ġ ä½ľèĢħ
Ġ çĽ®å½ķ
ĠJ on
g ers
æ½ ĺ
ä¸Ń åĮ»
çĤ¹ åĩ»
Ġä¸Ģ æł·
æ¸ħ æĻ°
çļĦ åĲĮæĹ¶
form ula
ĠII I
Ġke pt
Ġown ed
Ġp air
it ness
Ġhot el
Ġcall s
åķ ¸
ĠC all
åĩł å¹´
ĠN ight
Ġw ww
Ġ= =
un ning
Ġill ust
S C
ĠOh io
ĠAnd rew
Ġcon ference
è¯´ æ³ķ
Ġf ashion
ĠA p
ç¤¾ä¼ļ ä¸»ä¹ī
is ters
G A
è£ħ é¥°
in clud
ä¸įå¾Ĺ ä¸į
de f
Ġproper ties
æ²¡æľī ä»»ä½ķ
Ġofficial s
è¿Ķ åĽŀ
ĠJew ish
Ġingred ients
æıĲ åīį
èķ ´
èĢĮ åľ¨
Ġear th
Ġclass ic
og rap
æµĭ éĩı
Ġclass es
èĬ¯ çīĩ
Ġsy mbol
æ²Ł éĢļ
Ġprop osed
Ġbig gest
s m
Ġw ish
æĸ ¥
åĩ» è´¥
an cing
ĠCO VID
å µ
ĠL ine
a is
Ġim pl
çĬ¹ è±«
d ata
Ġclaim s
å¤ª å¤ļ
å¦ Ĩ
çľĭ åĪ°äºĨ
ä»ĸ ä¹Ł
è¢ į
æĺ¨ å¤©
Ġ3 6
çĪ± æĥħ
Ġam b
äºº ä½ĵ
ĠÐ ¼
æĪĲ éĥ½
Ġb atter
Ġ4 4
éģ Ĥ
åı¸ ä»¤
T r
ĠChampions hip
ĠC ould
æĶ¹ éĢł
Ġbott om
ĠF red
è¯Ĭ æĸŃ
Ġpres ence
Ġdevelop ing
äºĭ æķħ
O W
Ġnot ed
ĠGl obal
çļĦ èĥ½åĬĽ
åıĳ å°Ħ
æĤ Ķ
å¸Ī èĮĥ
çļĦ å¤ĸ
Ġf le
ĠM ike
è¡Ĺ éģĵ
I s
Ġar m
it age
Ġ æł¹æį®
ä¸Ģ èĤ¡
ĠC ivil
æī© å¤§
æľī å¤ļ
å¯¹ ä»ĺ
O C
å±Ģ éķ¿
ĠO x
æĶ¯ ä»ĺ
ver se
ĠM os
æĹł å¥Ī
çºª å½ķ
æĥ ¹
å°± ä¸ļ
Ġd ance
ĠSt ring
Ġweek end
åĨĻ ä½ľ
æī ¯
I nt
æĻ® éģį
å® ł
he w
èµ Ĳ
æĮĩ æłĩ
Ġst y
çĪ± çļĦ
Ġcre am
æĵ ħ
Ġsing er
æ¶Īè´¹ èĢħ
ish op
i at
7 00
èµ Į
Ġf ant
Ġl oved
åĻ¨ çļĦ
a o
Ġ é»Ħ
ä¼ĺ è´¨
Ġact or
Ġadminist ration
Ġf an
Ġev al
ĠBrit ain
Ġcon v
æ²¡ äºĭ
Ġsh ape
are n
Ġ å·¥ä½ľ
Ġ èĭı
å¹´ åľ¨
çº½ çº¦
è´§ å¸ģ
æĺ¯ ä»¥
Ġwind ow
çħ Į
Ġdeter mine
Ġsh op
Ġcol ors
Ġc ab
æĹ¶ åĪ»
æ· ĺ
æľĢ æĹ©
Ġb ul
è¶ ģ
å°ı å§Ĳ
y e
ĠL ook
çŃī å¾ħ
U L
ĠC oll
b o
æĴŃ æĶ¾
ä¿Ŀ çķĻ
éģ £
èĲ Ŀ
Ġout put
al le
ĠCo ast
Ġdist ance
Ġcom ments
ĠNet work
ĸ åķ¡
ĠPenn s
å· ħ
Ġrec ip
æĩ Ĵ
r ical
ĠG irl
ĠP M
Ġc er
çĶµ æ±ł
æķ ²
Ġcomm ission
Ġpl us
ĠMed ical
äºĨä¸Ģ çľ¼
ad ium
Ġres ist
oc ation
95 9
5 1
Ġto m
åı¯ æĢķ
or ney
ĠH ospital
ĠL ight
S E
it le
æĬ «
c ript
åŃĺ åĤ¨
Ġ åºĶè¯¥
Ġinst it
Ġjob s
å± ¥
Ġwin ter
B e
M an
Ġappear ance
ab el
éĽ Ģ
ph one
Ġspe ct
å¸ Ĩ
r ich
. '
çº¦ ç¿°
Ġhom es
è¿Ļä¸Ģ æ¬¡
% ;
èĳ£ äºĭ
ä¸» è§Ĵ
æ¯ı ä¸Ģä¸ª
äºĨ åĲ§
ĠSp ring
Ġconc ert
èµĽ äºĭ
åĲĦ èĩª
æĹ¶ å°ļ
ç¿ ħ
èİ·å¾Ĺ äºĨ
Ġter rit
94 8
Ġmanag ed
ä¹ĭ äºº
æĪĳ ä¹Ł
çł Ĥ
ew ork
ĠÂ ©
èī °
Ġf ailed
é«ĺ åħ´
åĬ¨ æīĭ
çłĶç©¶ çĶŁ
éļı æĹ¶
or row
åı ł
è¡Ģ ç®¡
clus ive
Ġch ampions
ide os
Ġme ant
æĺ¯ æĪĳ
Ġbroad cast
Ġ åĲį
h and
u nder
æĭī æĸ¯
Ġb an
çº¿ è·¯
Ġ åı«
Ġv en
çļĦ æľºä¼ļ
åĶ ĩ
ĠM ake
åľ¨ å¤§
Ġagre ement
Ġ æ¸ħ
Ġ æĶ¯æĮģ
Ġre ference
Ġst ars
ç¦ ħ
ag on
æł ½
Ġt rou
Ġexperien ced
è¿ŀ å¿Ļ
åı¯èĥ½ ä¼ļ
åģļ äºĨ
Ġsm art
Ġrem ove
è¯¾ é¢ĺ
Ġm ile
éĿ¢ ä¸Ĭ
l ook
ol es
éĺ³ åħī
Ġcertain ly
el ess
Ġhapp ened
Ġfund ing
é ¥¿
æ¨¡ æĭŁ
Ġart icles
raz il
Ġg ift
æ¶Ī èĢĹ
ĠA ud
Ġre ality
Ġhelp ing
ab eth
ĠJ un
Ġst orage
Ġmur der
ĠF ood
Ġs port
æİ ĺ
èĢĮ ä¸į
äºĨ ä»ĸ
Ġrequ ires
and om
95 5
n am
æīĵ åĩ»
ä¹ĭ æĹ¶
Ġact ual
Ġ èĢĮä¸Ķ
éħį å¥Ĺ
Ġmot or
w an
ĠF und
ĠB ra
ĠPre m
Ġ åĸĿ
ä¸į ä½Ĩ
Ġconf lic
åŃ¦çĶŁ çļĦ
ĠM aster
åĪĨ éħį
éħ ±
åĽ¾ä¹¦ ä¿¡æģ¯
ĠAdd itionally
æ£ ī
Ġlook ed
å¤§ åĵ¥
çªģ åĩº
ç±» çļĦ
ont o
ĠOr ig
ç °
Ġapprop riate
ĠPenns ylvania
çļĦä¸Ģ äºĽ
Ġt ips
Ġdri ver
åĲ Ł
Ġs alt
èĪ° éĺŁ
æ¹ ĺ
y er
èĮ Ĥ
Ġex ecutive
S e
ĠC amb
è§ģ è¿ĩ
ĠBe fore
å°Ķ æĸ¯
ä¹ĭ åĨħ
Ġsp end
Ġsc ript
resp ond
ĠJes us
g ent
94 4
as p
ĠPro du
Ġtri al
Ġ åĳ
r ate
æ·· åĲĪ
ä¸Ģ çľĭ
ĠÐ ·
ĠM ov
Ġstand ards
Ġind ic
è¶ĭ åĬ¿
å¤´ çļĦ
æĶ¶ èĹı
ĠDe ath
2 50
: ãĢĮ
ĠChe ck
Ġtechn ical
Ġl ibrary
ĠPr ince
Ġd riving
åĽĽ åĳ¨
Ġa ctions
ĠA ff
åı° åĮĹ
å¤´ åıĳ
å¹¿ å¤§
ĠSec urity
ĠFrancis co
éĨ ĩ
12 0
æŃ¦ æ±ī
åĲ ¾
94 6
ä¸°å¯Į çļĦ
éĥ½ æ²¡
ĠTh ree
Ġn ine
Ġrecomm ended
5 2
çŃ ĭ
Ġv s
è¿Ļä¸Ģ çĤ¹
ĠV ideo
Ġf ell
åĽŀ äºĭ
Ġcell s
Ġ åįķ
èĪ¬ çļĦ
æĹł çº¿
ĠJer sey
Ġsc hed
ĠA C
é©¾ é©¶
ä¸Ģ åľº
æľĿ å»·
ct ors
Ġra in
å¯¹ å¤ĸ
d oor
er a
95 7
Ġte aching
ĠF ederal
ĠMem bers
Ġtast e
æ¼ Ĩ
å¦Ĥ ä¸ĭ
ä¸ī å¤§
åĬł æĭ¿
çľ ¸
ĠL o
ĠSum mer
ç®Ģ ç§°
ä¸ŃåĽ½ çļĦ
éªĳ å£«
åı¦ ä¸Ģä¸ª
Ġenvironment al
Ġst uff
out e
t est
Ġfin ish
æľĢ å¤ļ
f e
i h
ĠIs l
Ġper haps
Ġtrans form
F or
å·® å¼Ĥ
A s
åĪ ¹
ä¸ĸçķĮ ä¸Ĭ
Ġpat ient
Ġ ä½ľ
Ġabs ol
Ġsat isf
Ġacadem ic
åį Ĵ
ä¼ģä¸ļ çļĦ
åħ Ķ
èµ° åĪ°
c rib
Ġ åĩºæĿ¥
Ġs outhern
ä¸ľ äº¬
ĠL y
ĠFoot ball
éĢı è¿ĩ
ĠF our
ç»´ ä¿®
è§Ħ å¾ĭ
çĶ· æĢ§
åĸ Ĥ
ä¸¤ ä½į
go ing
Ġn ull
åĴ ³
å°Ŀ è¯ķ
ak ed
ä¿® æĶ¹
ĠP riv
ĠBro ad
ç¥ ¸
at ically
E P
è¯» ä¹¦
Ġ åħŃ
éĢ» è¾ĳ
r ite
Ġdep end
ĠC EO
ĠSt an
æĦŁè§ī åĪ°
ĠRe al
Å į
Ġf ram
ste in
èĳ ±
D F
å¥¥ è¿Ĳ
èĢĮ ä¸įæĺ¯
Ġrele vant
Ġdiscover ed
Ġrestaur ant
å® °
çŀ §
ä¼¼ çļĦ
æł¡ éķ¿
Ġ è¯Ŀ
Ġ æµ·
Ġnot es
Ġupd ate
å¤ª åŃĲ
angu ages
åħ¶ ä½Ļ
Ġgr ad
æ»¡ æĦı
éļľ ç¢į
man n
æĴ °
çĪ ª
s en
ans ion
ĠRe port
é¥ ¼
ut ing
å·¥ä½ľ çļĦ
æľī æ²¡æľī
er ia
å¼ķ å¯¼
Ġset s
i ro
ĠSp ace
å¤§éĩı çļĦ
å¹¶ äºİ
Ġ èµµ
.. /
ock ey
Ġrem aining
Ä ģ
çİ ²
ä¹¦ æ³ķ
Ġm ental
æį Ĳ
åĨ² çªģ
ç¨ »
æĺİ å¤©
ç¿ Ķ
è¯´ å®Į
Ġf oll
im inal
ure au
Ġ åĹ¯
Ġb urn
åĽ½ åĬ¡
Ġè¿Ļ äºĽ
é¾ Ł
Ġdistrib ution
Ġrest rict
åıĳçĶŁ äºĨ
Ġs ession
Ġn orthern
Ġadv ance
è¯ģ æį®
å±ŀ æĢ§
Ġb rain
ĠTh rough
æĺ¯ è°ģ
Ġ å¯¹äºİ
Ġf ra
at ures
" );
éªĳ åħµ
Ġm ist
Ġact ress
Ġval id
ä¸Ĭ å¸Ĥ
æĪĲä¸º äºĨ
ino is
è° ¦
ĠM ajor
è°ĥ èĬĤ
ens ions
Ġe at
Ġmain tain
èĢĮ åİ»
Ġuse ful
ĠIn vest
ĠS et
åĳ³ éģĵ
g al
èĩª è¡Į
åħį çĸ«
Ġ åı¯èĥ½
Ġshow ed
Ġ å¹²
æĪĳ ä¸į
ĠO F
Ġyou th
T C
pp ing
ĠH a
Ġun ivers
Ġd ra
Ġconf ig
èĤ¡ ä»½
ĠSe a
æĥĬ è®¶
Ġconnect ed
D R
Ġfor ced
æľĢ å¥½çļĦ
åľ° åĿĢ
ĠNot es
ĠI d
ä½¿çĶ¨ çļĦ
åĲ¯ åĬ¨
ĠF air
ru ctions
Ġs ister
Ġres ident
Ġmed ium
Ġp ush
Ġd ivid
Ġd ig
Ġsus p
å¸Į èħĬ
on ic
å®¤ åĨħ
èĿ ¶
Ġtru ly
ob e
gy pt
åī Ĭ
om y
éĵ ¸
çĶµè§Ĩ åī§
éģ ®
Ġj oint
ĠBro ok
rou d
ĠAir port
~ ~
Ġfocus ed
Ġ3 3
94 7
è¯Ħ ä¸º
æıĲ éĨĴ
å¤© çĦ¶
Ġanc ient
Ġ éĹ®
ä¹ ¾
Ġinst ance
ä¸»è¦ģ æĺ¯
ä¸´ æĹ¶
ĠI mp
Ġre b
Ġfa ith
Ġw ine
æľī ä¸ª
O n
Ġatt ended
ä¸Ģ ä¸Ŀ
Ġ Î
æĦı å¿Ĺ
æ³ ³
åĲĳ çĿĢ
Ġse lection
ç½ĳ ä¸Ĭ
k er
Ġextrem ely
Ġ ç©¿
æĭ ¾
um in
æľ¬ ç§ĳ
Ġfor t
åĪĽ ä¸ļ
ens es
ĠK en
ĠSen ate
ul f
éľ ľ
ç¡® ä¿Ŀ
æ· ®
è¿ĻäºĽ äºº
ä¾ ¦
åĬŀ çĲĨ
ĠDes pite
æĺŁ æľŁ
Ġbe at
çļĦ çĶŁæ´»
D ata
Ġdep art
çĻ¾ å¹´
Ġtre es
ucle ar
ĠJ ac
Ġsu gar
Ġapp eal
Ġpolic ies
Ġeas ier
Ġt ask
id th
93 9
ĠThe atre
ä¿Ŀ åŃĺ
åĻ ¬
Ġt end
è¿ľ è¿ľ
éĻ Ľ
95 4
ĠTown ship
Americ an
çĳ ¶
p ret
åľ° çĲĨ
Ġmiss ing
Ġd ial
Ġad vent
æµ ´
çĶµ åĬĽ
ĠTh ank
åıĹ ä¼¤
Ġn ut
ç§° åı·
Ġaff ord
æĳ ĺ
S p
ĠL ar
ä¸ĵ åĪ©
æĹ¥ èµ·
Ġwe ap
ĠCar l
Ġb aby
èº º
Ġcommun ication
åĨ Ī
Ġch annel
Ġfl u
Ġ çĥŃ
ç²¾ çģµ
ä¸Ģä¸ª ä¸ª
å·¥ åİĤ
ĠW alk
ĠB C
è®® ä¼ļ
æıĲä¾Ľ äºĨ
Ġ æľĢåĲİ
m es
w ater
åĴĮ è°Ĳ
ad or
ä¹ ĸ
Ġfind ing
ĠR ay
od ies
Ġimport ance
çĶŁ ç´ł
Ġbeaut y
åľ°åĮº çļĦ
ä¸Ģ å®¶
è®¿ éĹ®
å´ Ķ
f ree
çİĭ æľĿ
Ġit em
ĠJack son
åı¯èĥ½ æĺ¯
il ly
Ġç¬¬ä¸Ģ çĻ¾
cl es
å® ´
èĦ Ĭ
åĮĸ ä¸º
Ġ åĲĮ
æ² Į
Ġdep ending
Ġtest ing
ç» µ
Ġr ise
åĲİ æľŁ
å¨ģ åĬĽ
Ġpro s
ĠD isc
Ġp il
ä¸į å¯¹
Ġcomb ined
å°¸ ä½ĵ
ab ilities
95 2
Ġpract ices
ä¸Ń æľī
ĠJust ice
éĥ½ åı¯ä»¥
ĠK ent
æĪĲ åĪĨ
Ġfund s
n ic
ĠB razil
Ġvar i
å²ģ çļĦ
ç¼ĸ çłģ
éĻķ è¥¿
f ile
åħ¶ åĲİ
åıª ä¸įè¿ĩ
åĩº åľº
p ower
o ir
Ġut il
ĠA ri
Ġgener ation
Ġfeat uring
p ath
çļĦ æĥħ
ĠE xt
Ġ æŃ¤
Ġiss ued
Ġb reat
ĠDan iel
ĠW here
Ġsl ightly
Ġ åħĪ
O D
Ġpre par
re es
ç¬¬ åħŃ
ä¼ļ éķ¿
åĲĪ éĢĤ
ĠS up
com m
Ġhon or
ac hel
94 1
ial ly
äºº åĴĮ
å¾Ī æľī
94 2
Ġg one
ĠÃ ł
å±± è¥¿
ellig ence
Ġteac her
æ³ Ĭ
æĮ £
Ġ èĲ§
ĠScot land
çĤ¹ çļĦ
Ġbehav ior
éĹ®é¢ĺ çļĦ
ä¸ĭ åįĪ
éĢļ è®¯
Ġpict ures
Ã ±
che ster
sh ire
éļı ä¾¿
al i
æ» ©
å°± å·²ç»ı
Ġdel ivery
åı· çº¿
Ġrefer red
Ġtechn iques
ĠTrans port
çİ¯ ä¿Ŀ
ĠChild ren
åĨį åº¦
ĠL og
åį ĳ
h ors
Ġlearn ed
åĩł å¤©
ç¡® è®¤
ixt ure
Ġnear by
å¯¹ ä»ĸ
Ġå¥½ çľĭ
å°± è¢«
âĢ ²
Ġto ward
ner gy
lish ing
ch ar
ok en
çļĦ çľĭçĿĢ
èĥĮ åĲİ
idd en
è½¨ éģĵ
ang ed
åĽł èĢĮ
Ġ éļ¾
Ð¾ Ð½
ĠT ay
Ġinsp ired
è¿ĺ ä¼ļ
Ġb ath
æµģ ç¨ĭ
æµ ¸
ĠB attle
Ġal le
ç½ ķ
æĹ¥ åľ¨
Ġmult i
æ¹ĸ åĮĹ
çĬ ¬
Ġhe ight
çļĦ åİĨåı²
æ²ī é»ĺ
ĠK h
Ġallow ing
èĻ ¹
Ġc ore
åįĩ çº§
95 3
ĠF ind
ç¼ ´
æĿĥ åĬĽ
Ġag ree
ĠAd minist
ĠCon ference
èĲ Į
Ġnot ice
k in
æĬĬ æı¡
Ġcitiz ens
ograph ic
è¡ Ķ
ph as
Ġser ver
æĽ´ ä¸º
èµ° åĲĳ
ĠEl iz
ĠLat in
ĠK ong
M B
çĭł çĭł
åľ¨ è¿Ļä¸ª
et ic
ig ration
çľģ çº§
Ġpass ion
D P
è´ ª
Ġsec ure
æģ ¼
ĠProfess or
åľº æĻ¯
Ġveh icles
F A
âĢĶâĢĶ âĢĶâĢĶ
åĥ µ
çĿ ģ
] ;
Ġ åĵĪ
ä¸ ¸
g ment
Ġm ales
ĠM u
Ġrec ording
Ġqu ant
Ġform ula
åįģ ä¸ĩ
Ġ rom
Ġ èĬ±
5 3
æĶ¶ éĽĨ
æ¨¡ æł·
w ar
Ġl abor
é¥® é£Ł
ĠGeorg ia
co very
Ġj u
å¤ ·
çļĦ ä¸Ń
èĸ ĩ
ad el
Ġst ores
ĠW ales
é¢ĳ çİĩ
Ġhous es
ĠO nt
çļĦ æ°Ķ
Ġc rowd
ä¸Ģ è·¯
Ðµ ÑĤ
ĠIll inois
æĢ» ç»ĵ
Ġtra cks
Ġfac ility
åĵ ĩ
æ·· æ²Į
5 4
åĴ Ĵ
Ġfl ight
ĠSp ain
çĤ¹ çĤ¹å¤´
èĥ Ģ
èĦ ¾
ä½ı å®ħ
Ġ åįĹ
Ġag ency
ç²® é£Ł
è¡Ģ æ¶²
æīĭ ä¸ŃçļĦ
Ġadv anced
Ġ ä¸ºä»Ģä¹Ī
u ous
æĪ¿ å±ĭ
Ġint ended
ĠOn line
Ġspe ak
åĵ Ģ
åĩº åıĳ
Ġsc ale
å»º æĪĲ
çŁĽ çĽ¾
ĠDemocr atic
åį³ å°Ĩ
ĠAmeric ans
çİ° æľī
èĪŀ åı°
il er
Ġcomb ination
Ġcar ried
ä¸Ģå®ļ çļĦ
Ġ åĶĲ
ov iet
( $
Ġprop os
éĺŁ éķ¿
å¾Ī å°ĳ
ä¾Ŀ æ³ķ
é¼ĵ åĬ±
éĹ´ çļĦ
ç¾İ çļĦ
åı¸ æ³ķ
æĴ ķ
å¾ĭ å¸Ī
Ġinj ury
ĠSte ve
Ġprodu cer
Ġd rop
Ġcon cent
çļĦ æĦıæĢĿ
Ġp ool
çĶŁ äºİ
ĠColumb ia
Ġn ative
äº ¨
Ġche ese
Ġrem oved
Ġoffic ers
Ġc ash
çª Ŀ
I m
åŀ ĥ
Ġconcern s
è¥¿ éĥ¨
Ġloc ations
Ġc ouncil
Ġ äºĭ
f am
Ġv ision
Ġco ffee
åŃ¦ çļĦ
Ġadminist r
ĠU r
Ġappl ied
Ġfoll ows
è¯ģ åĪ¸
è¯´ ä»Ģä¹Ī
Ġ åŃ¦æł¡
ä¸Ģ ä»¶
åİ» ä¸ĸ
enn is
Ġc raft
äºº å·¥
åħĭ åħ°
Ġsm ooth
çļĦ éĢŁåº¦
ä¸Ńåįİ æ°ĳåĽ½
å®ŀ çĶ¨
Ġthan ks
ell ed
Ñ Ħ
åľ ¾
ĠE st
ell er
Ġreg ional
äºĴ çĽ¸
æĹł äºº
æ± ª
ĠD ub
Ġbelie ved
å¦» åŃĲ
åŀĥ åľ¾
äºī è®®
ĠB BC
F C
è®® åĳĺ
re hens
Ġcre w
Ġsur vey
Ġdef ined
Ġfield s
Ġvol unte
m pt
A pp
Ġ é£İ
Ġthous ands
ate ver
Ġserv es
æĽ´ æĸ°
Ġ éĻĦ
éĹ¨ çļĦ
Ġl ock
Ġ åĨ·
........ ........
åŁİ çļĦ
çŃĸ åĪĴ
çī© æµģ
Ġexpl ore
Ġb ass
æľī åĪ©
Ġg all
ä½Ľ æķĻ
Ġ çĦ¶èĢĮ
æĪ¿ åľ°äº§
Ġinc red
åĴ ĸåķ¡
m ail
Ġsa uce
ĠS af
ä¸» äºº
ç¾ ŀ
rom e
Ġmov ies
å¦ ¥
ĠS us
Ġbut ton
as ure
and on
åŁºæľ¬ ä¸Ĭ
Ġdiv ision
u i
ĠBook s
all ed
ĠPl ace
èĢķ åľ°
ig en
çĶµ è·¯
èµ· èº«
ç³ ķ
Ġer a
c ar
èĩ Ń
Ġmeas ures
ĠJ r
äºĨ ä¸¤
è£ Ķ
ĠP oint
éĢ ¢
ĠC orn
Ġ3 8
Ġf uel
Ġ å®ļ
is hes
ĠB ase
æī Ķ
ourn ament
çĪ ¹
ä¸į è¡Į
å¾Ī æĺ¯
Ġlands c
ä¸į åĬ¨
ä¹Ł è¢«
ĠE gypt
ĠSt ation
Ġvisit ors
åĨ³ çŃĸ
k g
Ġcomp ar
æ±Ł è¥¿
ĠPr ime
åħļ åĳĺ
os en
Ġmar riage
èĸ ª
åħ¬ ä¼Ĺ
å¤ĸ äº¤
Ġcamer a
é©¬ åħĭ
æĵ İ
ĠN Y
EN T
Ġadvant age
os ure
Ġdesc ription
st one
ĠEd ward
Ġstat ic
è¡Į æĺŁ
st ring
re al
D on
out s
ict ed
éľ ŀ
clus ion
æ¡£ æ¡Ī
ĠD ar
èĮ «
ãĢĤ ãĢį
Ġç¬¬ åħ«
Ġident ify
åĽ¾ä¹¦ é¦Ĩ
Ġcould n
Ġindust rial
ĠAm azon
Ġvoc als
æĪĳ ä¼ļ
wh ich
åħ¶ ä»ĸçļĦ
äºĨ è¿ĩæĿ¥
rel ated
æł ĭ
Ġbel ong
å°± æ²¡æľī
å¼º åº¦
93 7
Ġsu c
å» Ĭ
ä» Ĺ
Ġte le
ol ved
æķ´ çĲĨ
æ´ Ĵ
Ġmay be
Ġ åŃ¦
ä½ł è¦ģ
im a
ĠRail way
} .
Ġp m
æī© å±ķ
Ġ åħī
bur gh
æĸĩ èīº
èĳĹ åĲįçļĦ
Ġ éĿĴ
ãĢ İ
æ²¡ ä»Ģä¹Ī
pl ate
Ġm o
Ġor g
ly wood
æīį ä¼ļ
Ġsc ored
Ġs now
çķ ı
ir a
Ġfun ctions
Ġv ary
è· ª
å¦¹ å¦¹
åħ¬ å®ī
Ġcr ime
åĬłæĭ¿ å¤§
j e
ĠTor onto
åıĳçİ° äºĨ
Ġcorn er
Ġtalk ing
Ġ æĭį
åĳĪ çİ°
æ¬ ł
çĸ ²
å®ļ äºĨ
åĩ ĳ
å®³ æĢķ
ãĢ ı
æ¿Ģ åĬ¨
Ġvol ume
ä¸Ģ èĩ´
Ġacc ident
Ġsee ing
åħ³ å¿ĥ
ä¹ī åĬ¡
ot ic
Ġwebs ites
rast ructure
ĠSecret ary
I nd
å¹¶ æľª
éĶ »
Ġsurround ing
çļĦ ä½įç½®
ĠF ield
ãģ ®
å¤§ èµĽ
ĠB ern
éĹ ¯
ĠB on
Ġ3 7
ffic ient
è´· æ¬¾
ä¿Ŀ ä¿®
ad ing
Ġrese arc
Ã £
Ġhand le
æĲľ ç´¢
çīĩ åĪ»
ĠEmp ire
ĠK ey
Ġact ors
ä¸į åģľ
åĮĹ æĸ¹
ĠR h
éĻ¢ éķ¿
Ġg ain
z er
et ime
ĠI T
Ġpolit ics
å½ĵ ä»£
å·²ç»ı æĺ¯
Ġtr uth
Ġg rew
é¢ĳ éģĵ
äºĶ å¹´
Ġed ge
ĠEx per
ap ed
å¸ ½
el ly
Ġ æīĭ
Ġ å¾Īå¤ļ
Ġsom ew
el a
ĠMicro soft
Ġd im
åıĺ æĪĲäºĨ
èģĮ å·¥
éĻ¢ æł¡
ä¹Ł åı¯
éĤ£ å°±æĺ¯
åĽ¾ åĥı
å¯ ĵ
åį³ ä¾¿
ä¸Ģ åº§
çĥŃ å¸¦
èĭ± æł¼åħ°
Ġl es
Ġgirl s
in ent
Ã© e
ell o
çº¤ ç»´
r as
ĠH ong
Ġc art
åĽŀ å¤´
ĠH un
Ġer r
Ġassist ance
èĤ ¢
ĠÐ ¡
Ġd omin
ä¸ĸçķĮ çļĦ
ot ed
è¾ħ åĬ©
em y
Ġbal ance
çŃ Ĵ
å© ī
ĠB ridge
ĠFollow ing
93 8
Ġshow ing
Ġ çĶ±äºİ
ç¾ ¡
åį° è±¡
j i
r ig
Ġfl o
b i
ĠR og
é«ĺ æł¡
Ġconf ir
Ġcamp us
ost er
il a
Ġdec or
ĠN av
ess ions
è¿ľ å¤Ħ
5 9
å§ »
ĠIn f
en ger
ãĢ ī
ĠUn fortunately
A d
èĤ¡ ç¥¨
A ll
Ġdoc uments
å½¢ æĪĲäºĨ
Ġupd ated
ĠN ote
bu ild
çķĮ çļĦ
Ġdec ades
é¸ Ń
èĤ¿ çĺ¤
ç Ģ
Ġwonder ful
å¸¦ é¢Ĩ
k o
i ency
it ure
å·ħ å³°
åĳ½ è¿Ĳ
Ġind ex
æľī æľº
ch o
Ġneg ative
Ġsex ual
ç»Ĩ èĬĤ
Ġg arden
ç» ³
ãĢį (
éĿ¢ ä¸´
çĶµ æºĲ
Ġrem ind
r m
95 1
Ġsche dule
Ġsp ons
ä½ľ ä¸ļ
Ġe c
ĠB ul
Ġt un
ĠScott ish
ĠR am
å· ¢
Ġman age
Ġass um
c ur
Ġ æĦŁ
igh ter
ĠK enn
Ġdet ect
Ġupd ates
éĥ¨ èĲ½
è£ ¤
Ġ åħ¬åı¸
ar p
èĵ Ħ
E n
I f
Ġdo ctor
Ġl y
ä½ł å°±
Ġbro wn
çļĦ éķ¿
rop ol
Ġc ards
Ġmax imum
ä¼ĺ åĮĸ
Ġfl at
Ġprep ared
æĳ Ķ
Ðº Ð°
Ġcor respond
ãĢ Ī
ä¸ī è§Ĵ
Ġin ternal
Ġmon itor
ĠC ro
Ġchang ing
Ġå¼Ģ æľ¬
Ġ æĮº
h op
åĬĽ äºİ
èĻ ¾
Ġ è£ħ
Ġent ered
Ġprom ote
çī© ä¸ļ
ĠOn ly
æĶ¾ åħ¥
Ġ3 4
éº Ł
ĠÂ »
ĠA L
çļĦ åĲİ
94 3
éģŃ åĪ°
ĠOnt ario
åĪ ĥ
å¹³ éĿĻ
ar row
ä¿ ±
Ġmark ets
Ġth row
H S
Ġeven ing
Ġcre ation
ĠP en
æ¢¦ æĥ³
H ow
Ġ éĹ®é¢ĺ
ĠE s
Ġdis s
åĽ½å®¶ çļĦ
ĠPh ot
åĴ ¸
Ġf ear
èº« ä¸ĬçļĦ
Ġcon vert
ä½Ĩ ä»ĸ
å¤ļ äºº
åħ¨ å¸Ĥ
ĠA venue
åŃ©åŃĲ çļĦ
Ġcandid ate
åİŁ å§ĭ
æ£Ģ éªĮ
et ts
Ġmount ain
er al
ĠEliz abeth
c ious
Ġ æ¬¡
Ġengine ering
ĠD er
ĠCh air
äº¤ æį¢
éĿ¢ç§¯ ä¸º
è¯ķ åĽ¾
èĭ ¹
Ġext ended
ĠS anta
Ġa st
r um
åĽ½ å¤ĸ
Ġap art
éĺ Ģ
ow nt
pect ed
ific ations
Ġide al
æĺ¯ ä¸ŃåĽ½
Ġ æĸ¹
ĠT ake
éħ ¶
è¾ Ĳ
u an
Ġsh aring
ro vers
Ġ ign
åĬ¨ æĢģ
ĠCon f
çķĻ åľ¨
éĻĽ ä¸ĭ
as er
ä¿® å¤į
ç² ¹
åĩ °
èģĮ è´£
Ġbut ter
å¹³ æĹ¶
éĿł è¿ĳ
ç«ĭ æ³ķ
ç½¢ äºĨ
èģ Ĥ
ĠÐ ±
Ġ çº¢
æĢİä¹Ī åĬŀ
amp ion
Ġs ides
ä¹ĥ æĺ¯
ran e
Ġprotect ed
ir ation
M y
å¤§ åĨĽ
ç§į åŃĲ
è¿ĺ åı¯ä»¥
Ġspec ifically
Ġ3 00
éĢĲ æŃ¥
Ġ ä¸ºäºĨ
å¼ķ åıĳ
æ° ¨
çĩ ¥
Ġ èĢħ
å° ī
ĠD un
is er
èĶ ¬
b ro
è ł
ĠM ic
å¦ĩ å¥³
ger y
Ġhold s
Ġä¸į å¥½
ĠH and
ĠS oviet
Ġrem ov
Ġ/ **
äºº ç¾¤
ĠS ign
Ġex change
çļĩ å®¶
ä»¥ ä¸ĬçļĦ
å¤§ åľ°
ten ance
el er
Ġstart s
ä¼ł æī¿
s ub
D S
ĠH ard
äºĭ é¡¹
ock et
f s
m ont
æĦ¤ æĢĴ
> </
Ġthan k
åħ¨ åĬĽ
åĲ Ĭ
ĠC ensus
ĠAl bert
åŁİ éķĩ
Ġv ideos
Ġd ish
ĠOffic ial
å¤ĸ åĽ½
Ġ å®ĥ
éĺ¿ æĭī
åĪ° æĹ¶åĢĻ
å¹´ åīį
ä¾Ŀ éĿł
it u
ad s
åħ Ĩ
Ġ éĩĮ
Ġ4 8
èĻļ ç©º
ak a
ĠSt ory
æľį è£ħ
è¯¾ åłĤ
åĽ½åĬ¡ éĻ¢
æ ª
ĠR ights
åĮĹ éĥ¨
æį ī
ĠU k
çĶ± æŃ¤
èį· åħ°
æİ ł
åĪĿ æľŁ
æĶ Ģ
ĠTr ust
Ġinstit utions
Ġcateg ory
Ġfl avor
åĽŀ å®¶
åŁİ åĮº
omm od
åľĨ å½¢
j o
ĠD igital
ä¸į å¤Ł
çł į
é¡¾ éĹ®
å« ©
Ġ Å
éľ ī
Ġadv oc
æĪĳ è¯´
Ġident ity
ĠRepublic an
ĠGovern or
Ġinterest s
åĿ ¤
ocol ate
Ġestablish ments
ä¸į è¯´
æĪĺ å½¹
Ġste el
åĲĮ ä¸Ģ
è¶³ ä»¥
ren ce
è¸ ¢
ĠAs h
ĠP ak
ab led
ä¸ĭ æĿ¥çļĦ
Ġident ified
Ġpack age
ä¸į å¤ª
åıª è§ģ
c oh
ä¼¦ æķ¦
Ġreve aled
ĠStud ies
åĮ Ĩ
çļĦ å®ŀåĬĽ
æĺ¯ è¦ģ
è´¢ äº§
ĠB al
erv ice
éĢĤ çĶ¨
è¯ ¡
ĠC lick
Ġrap id
N o
ä¸Ĭ åįĩ
ä¸ĢèĪ¬ çļĦ
ent h
â Ķ
Ġdi agn
" ),
Ġæĺ¯ ä¸įæĺ¯
Ġbr idge
Ġf lex
ĠB ell
æĹ¥ åĨĽ
åı¸ é©¬
Ġarriv ed
Ġem phas
ĠåĲ Ħ
ĠE nergy
ach us
ĠComm on
é¢Ħ æµĭ
ut ation
ĠP u
æŃ£ å¥½
Ġf old
åĲį åįķ
åĪĨ äº«
Ġcommon ly
ĠE astern
å¼ı çļĦ
Ġeffic ient
ĠJe an
Ġun c
ĠPol icy
ut en
å·´ é»İ
Ġv ent
Ġw estern
ä»ĸ å°±
å¯¹ æŃ¤
Ġbeg ins
Ġare n
ç®Ģåįķ çļĦ
Ġa wards
_ {
ä¹Łä¸į çŁ¥éģĵ
Ã º
ä¹ĭ æīĢä»¥
Ġschol ars
in ity
Ġcl oud
æİĪ äºĪ
Ġcomm itted
as ters
çļĦ ç¬¬ä¸Ģ
ĠL i
ĠAre a
ç¬¬äºĮ æ¬¡
å®ŀåľ¨ æĺ¯
Ġvict ory
Ġl iber
æĴŃ åĩº
ç¼ĸ åĪ¶
Ġre form
Ġp od
ĠM ill
ÑĤ Ð¸
ĠS her
æķĻ ç»ĥ
Q u
he nt
Ġl anguages
åħ» æ®ĸ
èº« ä¸º
ĠVictor ia
Ġanim al
Ġhe ro
ĠL in
è§Ĩ ä¸º
è¯ģ ä¹¦
Ġother wise
Ġc e
T H
p ack
è¾ ±
æĭ ±
çĩĥ çĥ§
Ġob vious
æĸ¯ çļĦ
ĠSc iences
Ġf urn
ath an
Ġbr ight
ĠWor ks
åĵį èµ·
å°½ éĩı
Ġar ts
Ġwid ely
Ġpl anned
é¢ ĸ
l ig
Ġb owl
Ġ ä¸ĥ
ĠPh ys
èĢģ åŃĲ
ĠM ah
éļĲ èĹı
Ð» Ð°
Ġrelations hips
Ġfl ag
r ant
æ¸ Ĺ
èĢģ äºº
Ġpar am
æĦıåĳ³ çĿĢ
> <
å¾Ī å¤§çļĦ
çļĦ åĨħå®¹
Ġk itchen
as ks
ĠPhil ipp
ç¤º èĮĥ
æ¯ķä¸ļ äºİ
è¿Ļ è¯Ŀ
è´ ŀ
ok es
æ¾³ éĹ¨
è ¤
æŃ ĩ
ĠE U
ang es
åŀĭ åı·
åł µ
} -
Ġf ill
Ġocc asion
å¹´è½» äºº
æĤ į
el d
Ġearn ed
è¿Ļ ä¹Łæĺ¯
æŀ ¯
åįģ åĩł
ĠCorpor ation
é¥ ¶
ä¿¡ å¿ĥ
åįķ åħĥ
é¹ ¤
æĹ© å·²
W ind
æŃ ī
å¿ĺ è®°
pr ise
äºĨ è¿ĩåİ»
Ġdec isions
ain e
Ġchem ical
c ode
g or
éŃ Ħ
Ġ æĩĤ
ä¸į æĪĲ
å°± è¿ŀ
åıĪ æľī
éĺ» æŃ¢
ph y
çļĦä¸Ģ åĪĩ
Ġar range
èĬ± åĽŃ
Ġdet ailed
nes ota
Ã ¥
Ġconduct ed
ĠTay lor
ĠR est
Ġdet ail
ĠK im
å¹´ åĲİ
ä¸Ĭ è¿°
Ġviol ence
åľ° éĵģ
ãĥ ¼
å¿ĥ æĥħ
m osp
Ġp un
èĭ¹ æŀľ
6 2
Ġsupport ing
Ġvac c
Ġ é¾Ļ
åĩ½ æķ°
æĬĵ ä½ı
Ġcomfort able
Ã£ o
çļĦ éģĵ
ĠL ocal
Ġgu arant
ĠL td
Ġdist inct
Ġneighbor hood
æİ¥ ä¸ĭæĿ¥
åĬŁ çİĩ
çŁ³ æ²¹
ĠCount ry
Ġf estival
è½¬ æį¢
ĠH om
æ±Ł åįĹ
Ġinstr ument
ĠT urn
k ing
Ġf illed
Ġre n
93 6
Ġlead s
b ec
Ġannoun ce
Ġ ä¹¦
Ġper man
æĥ³ çĿĢ
wh ile
le ts
k es
åı¬ å¼Ģ
ic it
ä¸Ģ çĻ¾
ĠC as
æīĭ æĮĩ
æĹ Ń
id ers
Ġ æĻļ
åĲ« æľī
Ġ åħ«
ĠR od
ul pt
åİĨåı² ä¸Ĭ
ĠL ew
æīĢæľī äºº
Â ®
åľº æīĢ
ĠL es
Ġs am
å®¡ è®¡
æĶ¯ æĴĳ
Ġ åįĬ
ĠR en
å®ī å¾½
Ġ æīĭæľº
æ³ Į
A V
ĠC H
Ġ ä¸ľè¥¿
Ġro les
Ġcall ing
åĬŀ äºĭ
ç¦ģ æŃ¢
ä¸Ģ å¼ł
çİĭ åĽ½
st ream
å¤§ å¤ļ
ved io
ins on
æ³¨ éĩį
ĠI D
ĠB and
p y
è¾¹ ç¼ĺ
éĢī æīĭ
Ġt ag
Ġsh ut
Ġscient ific
ĠR ose
ĠL ater
æĢ» éĥ¨
Ġoper ated
ĠOx ford
ĠS on
çĸĳ æĥĳ
Ġequ al
Ġb ag
äºĭå®ŀ ä¸Ĭ
ĠSt art
Ġco verage
è¶ħ è¶Ĭ
åĬŁ å¤«
ĠOlymp ic
w a
é¥° æ¼Ķ
achus etts
èļ Ģ
å¹´ è¢«
ĠUn ivers
l ines
hem at
ĠÂ «
ä¸Ģæł· çļĦ
ä¸Ģ æĹ¶
å½ ¦
Ġb ought
m at
Ġlist en
Ġ éĴ±
åį° åĪ·
ot es
èį Ĩ
Ġcont emporary
æĺ¾ èĳĹ
æŀ ¢
ĠF ox
ä¹ĭ èī²
Ġd raft
Ġkeep ing
çļĦ ä¸ī
ĠH u
s ize
åĲĳ åīį
å¥ĸ åĬ±
è¯ Ģ
Ġst ick
ĠW atch
Ġb asketball
å¤© ç©º
Ġa thlet
erv ative
w orth
S D
ĠO tt
å¦Ĥæŀľ ä½ł
ĠÐ Ł
åıĮ çľ¼
ä¸įæĸŃ çļĦ
==== ====
ut ely
éĺ² æ²»
åįĹ éĥ¨
æ¶ ħ
we ight
ri x
ic ip
Ġcol on
ĠN ative
Ġch ain
åıĸ ä»£
ann a
Ä į
Ġhistor ic
Ġst one
Ġç¬¬åĽĽ èĬĤ
æł ĸ
Ġra ise
Ġpurch ased
åĬŀ åŃ¦
æķħ éļľ
Ġvers ions
f oot
èĢģ çĪ·
åŃĲ ä¸Ĭ
Ġrepresent ed
åĴĮ åħ¶ä»ĸ
n ight
f ast
æ» ŀ
ĠC reek
å¤§ åĬĽ
Ġagre ed
ad ed
åħ¬ æĸ¤
Ġsy n
Ġdef ense
èĦ ĸ
å¸¸ åĬ¡
Ġmix ed
Ð½ Ð¾
å¼º åĮĸ
ĠMin nesota
re te
Ġd iet
å·® çĤ¹
Ġredu ced
ä¹Ł å¾Ī
çļĦ è®¾è®¡
ar ters
ĠM ir
Ġsw itch
Ġatt rib
Ġr ing
è½» æĺĵ
ĠR om
ä¼Ļ ä¼´
t hen
Ġsuc ceed
Ġexper ts
in st
Ġ å¼Ģå§ĭ
ĠD C
ĠD utch
åŁº çĿ£
çŁ¥éģĵ äºĨ
Ġn omin
ĠSupp ort
ord ers
Ġcour ses
æķ´ åĲĪ
Ġ åİŁ
Ġclaim ed
Ġprocess es
x y
ĠR on
å·¥ åķĨ
pos es
am ber
åħ¥ åı£
Ġu pper
Ġen h
ĠO p
åĬł åĿ¡
Ġprogram ming
Ġbe ach
Ġeduc ational
ap es
å°Ķ çļĦ
å¥½ å¥ĩ
æīĭ éĩĮ
Ġele ctions
æĹħ è¡Į
Ġ æį¢
åĬ £
Ġmil k
D e
åĩŃ åĢŁ
åĭ ī
åī© ä¸ĭ
Ð¾Ð ¹
h at
Ġobject s
åĬł éĢŁ
é© °
ä¾¿ å®ľ
ä¸ª æĢ§
èº« åŃĲ
Ġf ruit
ĠEx pl
ĠT O
ist a
Ġbr ings
è¾ Ł
d ney
T R
Ġag ric
ot i
æĥħ æĬ¥
l ock
æİī äºĨ
Ġpay ment
è¶Ĭ åįĹ
ä¿¡ çĶ¨
Ġ Ñĥ
Ġco vers
Ġbr ands
Ġup coming
æ·± æ·±
Ġrestaur ants
Ġcom edy
çļĦ æķħäºĭ
åħ¬ æ°ĳ
Ġar my
Ð½ Ñĭ
ĠC irc
åįĹ æĸ¹
ĠO s
çī© åĵģ
Ġex ecut
ç©º è°ĥ
Ġexpl ain
Ġ Ã©
å§ ļ
val ue
å¹² åĩĢ
åıĳ çĶµ
æ· Ģ
è§Ħ æł¼
G o
å¾Ĺ ä»¥
çħ§ é¡¾
åĨħ å¿ĥ
p ass
ĠMass achusetts
è¹ Ī
Ġ èµ·
å¸¦ æĿ¥çļĦ
P R
7 2
è§Ĥ å¿µ
Ġch icken
Ġstruct ures
Ġappro ved
ä¼¸ æīĭ
çĤ Ń
ĠCur rent
Ġsupp l
è¿Ļ å°±
æį ı
Ġsecond s
é»Ħ èī²
Ġacc ommod
ä¸į ç¦ģ
Ġprim arily
A F
è¿ĲåĬ¨ åĳĺ
ä¸Ģ å¸¦
è¿ĺ çľŁ
è£ ķ
Ġopin ion
B I
Ġinvest igation
é£İ æĻ¯
Ġrecogn ized
åįł é¢Ĩ
åĢ ¡
Ġdesign s
ä¸Ĭ åīį
Ġ åĮĹäº¬
Ġinter pret
p arent
è® ¼
ĠB all
éĻ Ģ
ar ks
Ġj ump
room s
Ġk id
äºĮ å¹´
æŁĲ ç§į
ä»¬ çļĦ
èĤĮ èĤī
Ġliter ature
çĹħ äºº
Ġdram a
æĺİ æĺŁ
åľº çļĦ
åıĸ æ¶Ī
ĠPerson al
j s
ĠP ay
çħ ŀ
çĻ¾åº¦ åľ°åĽ¾
Ġspe ech
ĠSup reme
ĠG i
G et
se ction
çĿĢ çļĦ
çĽĳ ç®¡
f il
ĠEx ecutive
A G
O b
åĶ± çīĩ
å¤´ ä¸Ĭ
åį« æĺŁ
Ġwin ner
èģĮ åĬ¡
Ġmain ly
Ġcirc um
ĠGall ery
y r
ĠR oute
ff ect
Ġ èµ·æĿ¥
ĠEngine ering
ĠF ull
è®º åĿĽ
äº§çĶŁ çļĦ
at us
Ġcon ven
è ¤Ĳ
Ġch art
åĲĪ æĪĲ
E W
ist ration
ä¸¤ æ¬¡
Ġaffect ed
il ton
ä¼ĳ éĹ²
åıĳ èĤ²
Ġd ang
Ġro t
å¼Ģ å¿ĥ
Ġdec re
ĠåĩºçīĪ æĹ¶éĹ´
å¹´ èµ·
E G
Ġf iction
ĠC apt
å·´ å£«
Ġlot s
+ +
å¹´ äºº
Ġå¼Ģ å¿ĥ
Ġwatch ing
ĠCon nect
Ġm ixture
ĠE qu
Ġcris is
ĠN on
éķľ å¤´
M C
Ġaccept ed
æĹ¥ çļĦ
ĠP age
å½ĵ éĢī
å¯¼ å¸Ī
åĲĮ å¿Ĺ
æµģ åĬ¨
ĠA S
Ġrel atively
ä¸ľ éĥ¨
Ġteac hers
Ġcer em
éī´ å®ļ
Ġclear ly
çĽ¸åħ³ çļĦ
ĠL uc
ony m
ĠStep hen
ra ce
ç¿ ģ
Ġtw ice
adel ph
Ġprof ile
è ¥
ĠMod ern
ĠEn vironment
Ġreturn s
ä¹Į åħĭåħ°
Ġestim ated
ĠR un
åĳ¨ æľŁ
å¼º çĥĪ
äºĨ åĲĹ
Ġæľī çĤ¹
æ³ķ åĪĻ
Ġtit les
Ġs elling
æĭ Į
Ġpos itions
èį£ èİ·
Ġhold ing
ĠKore a
Ġp roud
æķħ æĦı
Ġrel ax
ĠB ureau
åĩº èº«
æĽ´ å¥½
y o
èĥĸ åŃĲ
åĲ« éĩı
éĢł åŀĭ
ĠB ad
le ctions
Ġ åĥı
Ġcont est
Ġha ven
è¢Ń åĩ»
Ġçľĭ çĿĢ
æĸ½ å±ķ
Ġp ra
æĶ¶ çĽĬ
æĥħ æĦŁ
åı¯ä»¥ åľ¨
åĪ ł
ĠHot el
Ġgu est
Ġworld wide
Ġaccom pl
w idth
ä¸Ģä¸ĭ åŃĲ
ä½į çļĦ
æĢĿ è·¯
åįķ æĽ²
93 5
Ġth ick
æĿĥ çļĦ
ĠFore st
Ġn a
æŃ¦ è£ħ
çī© ç§į
us hed
Ġshe l
æĹł éĻĲ
Ġcorpor ate
Ġhigh light
tr ans
åĳ½ åĲį
éľĩ æĥĬ
çĭ Ń
Ġopt im
B y
æ²» çĲĨ
un a
æ¾³ å¤§
éĻĨ åĨĽ
and emic
olog ist
éĽĨ æĪĲ
å¼Ģ åĲ¯
çĶ¨ äºĨ
Ġä¸Ģ å®ļ
Ġ æŃ»
ä½ĵ åĪ¶
Ġalong side
Ġtell s
äºĨ åı£æ°Ķ
ä¿¡ ä»°
Ġexerc ise
èĲ½ åľ¨
ĠA D
ç»´ çĶŁç´ł
N S
Ġfig ures
åħļ å§Ķ
ow der
Ġread ers
ĠColor ado
Ã ł
è½´ æī¿
ĠGold en
Ġwa iting
äºº ä¸º
çĽ¸ ä¼¼
æ·» åĬł
æķĪ åºĶ
Ġcons ists
ç¬¬ ä¸ĥ
l aw
Ġ å®¶
ä¸Ģ åĿĹ
Ġ âĢĶâĢĶ
æµĳ èº«
æĻ¯ è§Ĥ
Ġfrequ ently
Ġdef ault
ĠAn th
å® Ľ
ä½ĵ éĩį
r c
è¯Ĩ åĪ«
Ġpo etry
æī¿ åıĹ
ĠB a
st yle
us er
et her
é²ľ è¡Ģ
æľĢ æĸ°
y stem
Ġgreat est
çľĭäºĨ çľĭ
Ġag ent
çŃī åľ°
Ġ ç§¦
f rom
äº§åĵģ çļĦ
Ġauthor ities
per ty
Ġnewsp aper
Ġw edding
ĠPh oto
Ġend s
ĠAr m
ä¸Ń å±±
Ġm el
le ments
Ġsh opping
æ½ Ń
T P
adelph ia
ĠMount ain
Ġmusic ians
ĠC ost
ä¿Ŀ åģ¥
éª Ħ
åĲĦ é¡¹
r ance
Ġcook ing
Ġ urban
rehens ive
æº ľ
èģª æĺİ
Ġ åĪ«äºº
Ġr is
é£İ æļ´
çļĦ å¯¹
è®© å¥¹
Ġrail way
Ġprofess or
Ġauthor ity
çļĦ è¦ģæ±Ĥ
æĿŃ å·ŀ
åī¯ ä¸»ä»»
Ġb es
Ġapp arent
Ġsol o
ĠI P
è¯· æ±Ĥ
Ġkn ows
ĠL ady
æµ· å¤ĸ
Ġs we
æ·± åĪ»
ĠFil ms
è£ ¹
Ã¡ n
Ġ icon
è¾ĥ ä¸º
æ°ĳ ä¼Ĺ
9 18
å±ķ çİ°
å§Ķ æīĺ
Ġ æľĭåıĭ
æĳĩ äºĨ
Ġcon sequ
Ġf ellow
Ġwas te
é¥ ²
ç¡ «
å¤ļ ä¹ħ
ĠComm unic
ĠRep resent
itution al
Ġc oun
å®¡ æŁ¥
Ġgener ate
ĠA R
Ġext ensive
ĠGu ide
å·²ç»ı è¢«
ĠDis ney
ä¿¡ ä»»
æĺ¯ ä»ĸ
Ġexc ited
M od
ol i
ç§¯ ç´¯
æľª èĥ½
Ġp or
Ġinitial ly
Ġsp ending
ĠSe ason
åĮ Ī
èĬ ½
å¸Ĥ éķ¿
æķ° åįģ
Ġmin imum
Ġsuggest s
Ġencoura ge
Ġåľ° çĲĨ
Ġadvert ising
Ġregister ed
åįĹ åĮĹ
é©¬ æĿ¥
ly n
par am
Ġt ables
äºº å¤§
åľ° çĤ¹
å°Ĭ éĩį
pt on
åĬ¨ äºĨ
Ġfail ure
Ġun s
ĠPort ug
è¿Ļä»¶ äºĭ
æĪĳ åľ¨
éĹ» è¨Ģ
Ġemer gency
- {
çļĦ æķ°æį®
h o
Ġd atabase
åľ¨åľ° ä¸Ĭ
Ġwe alth
â ĨĴ
çļĦ åŃĺåľ¨
Ġch osen
ask a
Ġ è½¦
Ġst ret
Ġpolit ician
çī ²
ç¾¡ æħķ
ä½ľ çī©
ĠTe levision
ĠAlex ander
Ġå¥½ å¥½
ur d
Ġ æĭ¿
æĿĢ æŃ»
osoph y
ä¸ĵä¸ļ çļĦ
Ġpur poses
é£Ł çĶ¨
ĠCon c
E X
ĠP ot
Ġrespons ibility
ä¸į æĩĤ
Ġm m
Ġair port
èī¯ å¥½
ĠG ro
æĪ¿ åŃĲ
ç¢ ±
æĶ¶ å½ķ
ç»ıæµİ åŃ¦
Ġhol iday
ä»» åĳ½
ĠC a
ĠL ind
Ġperform ances
èĬ ¦
Ġar r
Ġsh ips
æ¤ İ
è´¢ å¯Į
åĽĽ å¹´
Ã¼ r
Ġacqu ired
ĠM ult
Ġenjoy ed
éĥ Ĭ
it led
Ġtop ic
Ġ ç¥ŀ
93 3
u able
ä¸ Ļ
è¿Ļ åľº
Ð¾Ð³ Ð¾
Ġse asons
l ong
Ġwel come
t es
ĠA ND
éĻ Į
æŀģ åħ¶
å¾® ç¬ĳ
Ġup gr
Ġvisit ing
çļĦ ç¾İ
ĠS at
pl oad
Ġhelp ful
os a
Ġm ort
ow a
Ġsuggest ed
èĤ ª
ons in
çļĦä¸Ģ éĥ¨åĪĨ
åĵĪåĵĪ åĵĪåĵĪ
Ġra cial
app ing
ä¸º æŃ¢
ç¦»å¼Ģ äºĨ
åĪĽ åĬŀ
æ³¢ åĬ¨
Ġtop ics
Ġfac ulty
p rodu
Ph one
ĠSy dney
å¾Ĺ çŁ¥
Ġaud io
Ġç¬¬ ä¹Ŀ
ĠIsland s
ust er
çŁ ®
Ġpain ting
Ġb ond
isc onsin
ĠL ow
enn es
ĠÐ Ĵ
Ġt on
el ines
çľĭ å¾Ĺ
åľ¨ ç¾İåĽ½
ä½ķ åĨµ
Ġprov ince
Ġmake up
Ġac id
çļĦ è¯´éģĵ
çĿ ¿
os it
å¤ª è¿ĩ
ç¼ĸ åĨĻ
ç¼ĸ åı·
Ġfr ame
Val ue
ĠGu ard
mer ce
æģĲ æĥ§
å¿ĥ èĦı
è±¡ å¾ģ
Ð» Ð¸
Ġpan el
ĠC ertain
ĠB ru
åħ¬ äº¤
æĳ Ĭ
Ġchar ges
çº ±
ap ore
te en
Ġg od
Ġhe aring
Ġinvol ve
Ġph r
Ġs oul
Ġfav our
Ġmod e
um a
æĻ Ĵ
æ° ¢
æĺ¯ å¯¹
å½¼ æŃ¤
åºĶ å¯¹
Ġsh ares
am i
Ġat mosp
Ġcont rovers
Ġl atter
Ġret ire
åĸ ī
ĠE nt
èĦĤ èĤª
å¾· éĩĮ
æĺ¯ ä¸ºäºĨ
Ġal ign
å»ºç«ĭ äºĨ
ĠSh ort
ĠN ick
éķ¿ æĹ¶éĹ´
åĿ İ
6 3
og ue
ç¬ĳäºĨ ç¬ĳ
Ġ ç®Ģ
åĽŀ å½Ĵ
Ġb rows
Ġh un
p a
å¤§ èĩ£
Ġroom s
Ġsil ver
Ġ ä¸ĩ
è´µ æĹı
ĠA st
Ġsw im
Ġca uses
è ©
**** ****
å¹¿ è¥¿
Ġs ac
Ġ4 2
Ġäºº åı£
æĸ¯ ç§ĳ
Ġç¬¬äºĮ ç«ł
Ġdetermin ed
Ġarchitect ure
çľ ¯
ĠR oll
å° ¬
æĬ Ħ
çŁ³ å¤´
Ġæĺİ å¤©
Ġreg ions
Ġstud ied
æľ¬ äºº
ĠPak istan
åĴ ½
Ġand roid
ĠY e
çĸ¼ çĹĽ
Ġexc iting
åľ¨ æĪĳ
Ġ æĹ¶
Ġresult ing
Ġ æĺ¾
ver ty
åħ¨ éĥ½
åİŁ æĸĻ
Ġhapp ens
æľĢ ä½İ
éĿ¢ èī²
å»º äºİ
å½ĵæĹ¶ çļĦ
ĠV en
Ġinc ident
ĠN orm
Ġk ick
å´ ĸ
ä»İ æŃ¤
Ġcar bon
èĦļ æŃ¥
g ely
ay a
Ġepis odes
ĠF ord
æĦ ģ
Ġg ather
èĶ¬ èıľ
ivers ary
Ġw itness
ant e
Ġdiscuss ion
ĠAs sembly
çļĦ ä¸¤
ä¸Ģ åı¥
åĬł å¿«
i Ã³n
Ġult imately
b ell
Ġplatform s
ĠI ra
åĲĥ é¥Ń
ĠMed icine
å»¶ ä¼¸
p age
Ġa id
iam ond
Ġport ion
so le
Ġcont rast
v i
çĶ «
èľ Ģ
è° Ń
ĠDav is
Ġjust ice
åĪĨ ç¦»
" ).
t aining
é¡¾ å®¢
çļĦ å°±æĺ¯
å½ °
åİļ çļĦ
æĳĦ åĥı
Ġ è¶ħ
htt ps
è¯ī è®¼
ĠN ic
æĿ ī
èķ ¾
Ġact ing
Ġre new
ĠK now
è¥¿ å®ī
Ġfre edom
th ur
Ġaccount s
Ġmin ister
Ġn or
èĢĥ æł¸
ĠN a
int on
è§Ĩ è§ī
Ġ7 5
äºĶ åįģ
çİ¯ èĬĤ
p at
el le
Ġjud ge
Ġpo verty
åı« åģļ
åĽ½åĨħ å¤ĸ
ä¹¡ æĿĳ
ĠAg ain
ä¸Ľ ä¹¦
Ġgu ests
Ġä¸Ģ çĤ¹
ĠS n
æĽ¾ åľ¨
åĩĿ èģļ
ĠWil son
Ġinstall ed
ul s
æ¾³å¤§ åĪ©äºļ
è¡Į äºĨ
æĺİ æľĿ
è© ¹
ĠT al
Ġin tern
ä¸Ģ çº§
è¿Ĳ ä½ľ
Ġè¿Ļ æĺ¯
åĲİ èĢħ
åĸ ĥ
è¿Ļä¹Ī å¤ļ
ph a
Ġb ranch
æĻ® æŁ¥
Ġinf rastructure
ĠC am
èĬĤ å¥ı
æīĢè°ĵ çļĦ
æĬĳ åĪ¶
ç³ Ł
ĠHigh way
ĠM ach
Ġmin ute
Ġcandid ates
å¸¸ çĶ¨
äº¤ ç»Ļ
Ġbring ing
ĠPhil adelphia
ĠPer form
èı Ĭ
æ¬£ èµı
ĠCl ark
u is
åĴĮ ä»ĸ
å·¥ äºº
Å ¡
èµ¢ å¾Ĺ
Ġcr iminal
Ġdescrib e
Ġn om
è¿Ľ åı£
è®¤ åı¯
äºĶ ä¸ª
Ġaspect s
Ġprocess ing
[ '
ç®¡ è¾ĸ
èĪĴ æľį
Ġvirt ual
93 4
Ġhor se
Ġ ä¸ªäºº
Ġprogram me
åħļ çļĦ
è½¬ åıĺ
Ġr ough
çİ° ä»»
æĶ¶ åĪ°
åīį æĿ¥
Ġw ire
ĠC reat
A B
p et
ĠP ict
è®² è¿°
ĠE th
l s
Ġar ms
Ġl iqu
Ġ åĽ½
æĦ §
al o
æ¯« ä¸į
Ġdeg rees
Ġentertain ment
çĹ ´
Ġhe av
ĠB ang
ik i
ĠC ab
èĮ ħ
Ġwould n
èĲ½ å®ŀ
ä½ľ åĩº
è¾Ĳ å°Ħ
ot hes
Ġelect ronic
æĺ¯ ä»İ
éĴ Ļ
è®¸ åı¯
Ġa u
æ¯Ķ äºļ
è¾¾ åĪ°äºĨ
èĪ ±
ä»ª å¼ı
è¯Ń æ°Ķ
ç» ĳ
ĠOlymp ics
Ð² Ð°
å± ¯
b b
ä¸į éľĢè¦ģ
T ube
ĠS ky
ç¦» åŃĲ
åĪ© çļĦ
éĩį å»º
Ġele v
åıĪ ç§°
é¦ĸ éĥ½
Ġgu ess
æıĲ ç¤º
ĠMil itary
Ġprofession als
ĠC ustom
Ġal t
çº§ åĪ«
èª ĵ
åįİ å¤ı
um es
pre ne
op her
å°± è¯»
92 9
é³ ŀ
Ġmain tenance
å¤§ å¤§
ot al
Ġinst ructions
ä¹Łä¸į èĥ½
Ġs an
æľ¬ è´¨
het ic
ç¥ŀ èī²
Ġsp r
os es
Ġme at
ä¼ł å¥ĩ
ĠInd epend
å¥ ¸
C E
ES T
çľĭ åĩº
è¾Ī åŃĲ
ä¹Ł éĥ½
Ġ æĭī
ir al
ĠB ol
åĪ° è¿ĻéĩĮ
( ).
Ġc ro
o z
æĸ° åĬłåĿ¡
end ar
åħ³ èĬĤ
å¸Ī åĤħ
åģļ ä»Ģä¹Ī
Ġtown s
Ġsh ift
åĩºæĿ¥ äºĨ
Ġwalk ing
ĠW isconsin
ownt own
å¤§ æ¥¼
Ġ çģ«
åĵª ä¸ª
Ġlet ters
åĨĽ åĽ¢
åĿ Ŀ
Ġp p
Ġd iverse
æŃ¤ åĲİ
å·¥ç¨ĭ å¸Ī
ou ri
Ġ åŁºæľ¬
åĮ ª
ain ts
Ġbase ball
æŃ¤ äºĭ
ĠD VD
ole c
Ġattack s
og en
Ġro of
ess age
Ġter ror
re prene
ç§į ç±»
Ġsy mpt
æ²¡æľī ä»Ģä¹Ī
çĲĥ åľº
Ġphot ograph
ĠEnter tain
éĢĤ å½ĵ
in ch
ä»ĸ è¿ĺ
bour ne
æĹ¥ è¯Ń
ä¸» å¼ł
Ġass ert
èº« å½±
Ġdeliver ed
Ġ4 00
éĩį å¤į
Ġse ats
ĠAnt on
The re
ä¸į æ»¡
Ġpl astic
åĸ ĺ
çĻ¾ åĪĨ
oc ument
Ġpl enty
ã Ħ
ind ing
e z
å©ļ å§»
Ġm it
æ¨ ±
åĩº äºĨä¸Ģ
èĩª ä¿¡
å¥¥ æĸ¯
ä¼ļ è¢«
Ġthough ts
çĲ ¼
ĠH ou
ä¸Ģ åĲĮ
å¤ı å¤©
ĠMem orial
Ġsum mar
n ie
é¢Ħ ç®Ĺ
ĠR ome
f ound
ĠC ode
T ext
6 1
æĪı åī§
çļĦ åħī
Ġex ec
ä¸Ģ çķª
åĿ ł
æ²¡æľī äºº
ĠE ric
ĠInst ead
Ex ception
èģļ éĽĨ
l ers
çļĩ åĲİ
é¢Ĩ åħĪ
Ġcomp onents
Ġt aught
åĮº ä¸º
çĽ¸å½ĵ äºİ
Ġt ail
è¿Ļ ä¸¤ä¸ª
Ġl ose
æ¬§ éĺ³
ir ty
n i
Ġimpro ved
ĠL iter
in ations
å¸ĥ å±Ģ
åĮ Ļ
éĻ· åħ¥
åħ¶ä»ĸ äºº
Ġdom estic
éĿŀ æ´²
Ġyoung er
Ġn arr
Ġlar gely
ĠC opy
le vel
Ġconfir med
çļĦ ä¸ĸçķĮ
å¸ĥ ç½®
å¯¹ æĬĹ
æ°Ķ è±¡
Ġm ut
ad ow
Ġspl it
å¸® å¿Ļ
er ies
ĠW ars
ĠF riend
çı Ĭ
il it
ç¦ Ħ
ĠTh ough
Ġlo an
Ġr ide
c ase
åģļ æ³ķ
93 2
Ġfact or
çļĦ ç®¡çĲĨ
å°ļ æľª
åĺ´ è§Ĵ
Ġgood s
èĭ ĳ
Ġmot iv
åįģ ç«ł
02 5
th on
ast s
ä» ĳ
å±ķ è§Ī
åĿ¦ åħĭ
åº ¸
coh ol
ä»£ çłģ
Ġentire ly
Ġb read
Ġres ource
Ġk ill
Ġr ul
åĶ ī
ç¬Ķ è®°
iz er
res ents
çļĦ èº«ä½ĵ
Ġcomm ittee
93 1
Ġrecommend ations
Ġçľĭ çľĭ
ĠOb ama
Ġco al
æĺ¯ ä½įäºİ
Ġtechn ologies
å½± è§Ĩ
åľ° éľĩ
Ġdef end
Ġstand ing
r un
Ġpl ot
g reg
å¹¿ä¸ľ çľģ
B ut
st ar
èĢĮ æĪĲ
çŃī åĪ°
Ġh ref
çľ¼ éĩĮ
èĮĥåĽ´ åĨħ
9 19
çļĦ ç»ĵæŀľ
ĠSo ft
Ġdec ide
s l
å° ´
ĠBer lin
Ġl ies
C R
åĲ »
åĬ Ī
Ġst orm
ĠV iet
Ġ æĻļä¸Ĭ
äºī åıĸ
æľī å¾Īå¤ļ
p erson
Ġpublic ation
å±± çļĦ
and o
ä¸Ģ åĬ¨
Ġpartners hip
ĠA ccess
itz er
ĠB rian
ĠMar sh
æĹł çĸĳ
Ġç¬¬ä¸ī ç«ł
P ar
ic ial
æĺ¯ æľĢ
ĠDon ald
Ġ ä¹Ŀ
æľĢåĲİ ä¸Ģ
Ġre venue
çģµ æ´»
Ġv eter
ä¸į å·²
Ġ æĿ¡
Ġtest s
ĠA k
ch a
å°´ å°¬
çĽĳ æİ§
ar on
çģ ¿
Ġ} );
Ġposs ibly
Ġst ands
h ow
éļ¾ åº¦
!! !
92 8
Ġconflic t
is a
% .
èĵĿ èī²
Ġman ner
Ġcommit ment
ä¸į å¤§
Ġ è½¬
å®ļ æľŁ
ĠUs ing
åīį è¾Ī
ä¼ł è¾ĵ
Ġfab ric
å¤§åŃ¦ çĶŁ
Ð¸ ÑĤ
Ġwill ing
åĨį åĬłä¸Ĭ
æĿ¥æºĲ äºİ
ut ers
æ°´ çļĦ
åħ¥ ä¾µ
å½¢ å®¹
Cl ass
Ġun known
å¹´ å¼Ģå§ĭ
ä¸Ģ ä½ĵ
æµª è´¹
åĽĽ å¤§
Ġinst ruction
ĠK ir
Ġfor get
Ġenh ance
E d
æĿĢ äºº
Ġperson nel
g ian
it i
ĠF ac
åĨį è¯´
ĠC ub
èĵ ¬
Ġfe els
è¯Ĺ äºº
Ġ è°¢è°¢
Ġ iron
Ġb on
B M
ĠS ant
è®¤ å®ļ
å¼Ł å¼Ł
åħĥ å¹´
Ġn one
ĠGe ography
æĦŁ åºĶ
Ġseek ing
Ġmanufact uring
Ġret ired
ĠW at
Ġsim pl
åĪĽ ç«ĭ
n ce
Ġtrad ition
éĽ ĩ
he im
å°Ĩ æĿ¥
åľŁ å£¤
Ġd ates
ĠDu ke
Ġ éĢģ
åĮĹäº¬ å¸Ĥ
ĠPri ze
ä»Ģä¹Ī æĹ¶åĢĻ
æĳĩäºĨ æĳĩå¤´
adu ate
Ġfl ood
ĠAl bum
èĹ ©
Ġregular ly
ĠQu est
Ġc aught
Ġpe pper
åıį å¤į
E r
Ġun ion
æ¦Ĥ åĨµ
åĪĨ è¾¨
çļĦ æµ·
oc ated
Ġcon clud
Ġpub lis
ĠL abor
ĠB ib
å¹³ éĿ¢
æĥ³ èµ·
T ime
c ount
æĮ ª
ploy ment
æ°Ķ åĬ¿
ps on
åįł æį®
ric ts
ĠSt ock
ä¸į èī¯
z ona
æŀĦ å»º
Ġdec ade
1 10
Ġpost s
åĽ´ ç»ķ
al ities
Ġ ÑĤ
çŃī çĿĢ
ĠC ru
åŀ Ĵ
æĬµ æĬĹ
Ġadult s
å¼ķ æĵİ
åĪ© æ¶¦
iven ess
92 7
åı¯ éĿł
æľĪ çļĦ
om et
ĠSing apore
ĠTh ose
Ġorgan ized
åª ļ
æĹĭ è½¬
ĠP ers
Ġresearc hers
ĠS av
éĿ¢ åĲĳ
Ġf ly
çĽ´ èĩ³
èĪŀ è¹Ī
ato es
ĠBr ad
ĠåĬł æ²¹
èħ »
Ġfight ing
Ġ åľ°æĸ¹
Ġg ender
ĠD am
åĩºçĶŁ äºİ
Ġeffect ively
Ġdep th
Ġmat ches
åĽ½ éĺ²
Ġun able
åį± å®³
ĠBuild ing
Ġ3 9
ra cy
å¨ģ å»ī
e en
v o
Ġpo ems
åĽŀ å¿Ĩ
ĠJ enn
å¤į åĲĪ
Ġin n
è¾¹ çļĦ
oss ible
sec ut
âĶ Ģ
Ġm ir
æ¶Ī åĮĸ
B O
c ers
ä¸» ä½ĵ
å·® è·Ŀ
Ġplan et
an th
å¤§ å£°
èĢĥ å¯Ł
ä¸Ģå®ļ ä¼ļ
é«ĺ æķĪ
çİī ç±³
ĠD ream
ä» Ĩ
ur ers
Ġsuccessful ly
b ra
Ġp andemic
ç±» åĪ«
if er
Ġcollabor ation
æĺ¯ æĢİä¹Ī
Ġph ase
Ġmen u
ĠK er
ou p
S M
é© ³
åĸ »
Ġp u
if ts
Ġsy nt
Ġrece iving
åľ¨ éĤ£
åıĳ èµ·
ç£ ·
çĶ ©
or ters
èĢ į
Ġsu itable
ç² ¤
Ġfound er
Ġess ay
lic ation
æĶ¶ è´Ń
it o
åıĳåĬ¨ æľº
Ġrec on
ĠEntertain ment
Ġco ordin
èĨ Ŀ
i ary
åıĳ æĺİ
ĠSt aff
æīĭ ä¸ĭ
Â »
ĠPro duct
Ġperform ing
é¤Ĳ åİħ
ĠD a
èĩªæ²» åĮº
å¼Ĥ çļĦ
or i
Ġsched uled
éĢĤ éĩı
é¢ ł
Ġseem ed
åīį æĸ¹
æĮĩ æķ°
å¸ ĸ
Ðº Ð¸
çĶŁ æŃ»
å®Ĺ æĹ¨
Ġout door
çļĦ æĬĢæľ¯
è´Ń çī©
Ġl ux
å£ ¶
å¿« çļĦ
Ġord ers
Ġask ing
çĶ ¸
éĺ´ éĺ³
èĤ Ĩ
ç§» æ°ĳ
Ġwh atever
è± ¹
Ġh all
ĠMe an
Ġ ç¤¾
èĢģ å¤§
ĠT ok
ä½Ĩ åį´
æļ ®
Ġfamil iar
èį¯ åĵģ
å°Ĩ ä»ĸ
Ġ æŃ¤æĹ¶
æĢª çī©
çļĦäºº çī©
çļĦ ç²¾
æµģ éĩı
çĨ ¬
éĶ¦ æłĩ
Ġsol ar
app y
ĠH D
é¦ ¨
Ġfix ed
ĠKe ep
ĠF le
åıĤ èµĽ
Ġ çĽ¸
Ġ æ¥ļ
çļĦ åĲį
èİ· åıĸ
æĿ¡ ä¾ĭ
Ġsign s
Ġn uclear
åħ¸ åŀĭ
å± ĳ
ĠHar ry
æ·· ä¹±
åĽ½æ°ĳ åħļ
se x
Ġå¥½ åĲĥ
ĠU t
Ġrep resents
Ġå¤§ å®¶
ĠI l
æ£ į
æĥ Ł
çĭ Ħ
Ġag encies
ĠæľĢ è¿ĳ
å¯¹ åºĶ
ĠB at
æĪĲåĬŁ çļĦ
EC T
en z
Ġchar ged
åįĥ å¹´
æĦŁ è°¢
Ø §
çľģ ä»½
æĢ»æĶ¶åħ¥ çļĦ
Ġexp ensive
å¹¼åĦ¿ åĽŃ
ĠHol lywood
Ġy ellow
çº º
çĲ ª
çĽĳ æµĭ
ĠS ound
Ġfe e
å¡ Į
Ġcou ples
æĬ¬ å¤´
å¸Ĥ æĶ¿åºľ
ĠN iger
9 17
Ġsc ulpt
ĠH ay
Ġ$ \
Ġoccur red
f ol
ä¸Ĭ æľī
Ġsignificant ly
ol n
t w
ol ve
i ot
åĩ¤ åĩ°
æ³ķ è¯Ń
åıĳ è¾¾
Ð¾ Ñģ
æĶ¯ æı´
Ġeas tern
Ġhost ed
ĠIra q
å®ŀ ä¾ĭ
å°Ķ å¾·
æĭī åħĭ
ĠA ge
Ġ1 50
Ġ åħĥ
æĢ» ä½ĵ
ard ens
og a
Ġcol our
Ġsearch ing
çİĭ çļĦ
9 10
Ġ åĵªéĩĮ
Ġrec over
is her
éĢĶ å¾Ħ
åħ³ éĹŃ
i y
ĠB udd
æĶ¹ ç¼ĸ
å¯¹ æ¯Ķ
v y
åĨĴ éĻ©
ropol itan
Ġproper ly
èº« é«ĺ
æĪĳ è§īå¾Ĺ
æĬµ è¾¾
ç¡¬ çĽĺ
ect ed
æ¸ł éģĵ
t rack
ĠB ox
Ġ åı¤
æķĻ åłĤ
æĿĥ å¨ģ
ĠS P
ĠH ope
ĠF act
Ġexp ansion
Ġturn s
ĠHe art
è¿Ļ æĹ¶åĢĻ
äºĨä¸Ģ åı¥
Q L
Ġsupp osed
ç¾İ å¥³
ĠCamb ridge
Ġun less
Ġaut hors
äºĴ åĬ¨
æĶ¶ èİ·
Ġparticip ate
èĢĮ åĲİ
ç¨į å¾®
çĥŃ æĥħ
èĢģ å¤´
M L
Ġconf irm
Ġt ournament
ĠK ansas
ç¾¤ ä½ĵ
Ġl it
çĪ· çĪ·
ĠåĽŀ å®¶
åŀ «
if orm
å¸Ĥ åĮº
ä¸į åİ»
Ġeval u
çĦ Ĭ
åĲĪ æ³ķ
è´Łè´£ äºº
çĶ¨ éĢĶ
Ġ ä»¥åĲİ
Ġalle ged
f all
æī¿ è¯º
è¾Ľ èĭ¦
Ġv o
Ġtrans ition
Ġp ure
Ġpred ict
æĹ ¬
Ġofficial ly
çļĦ æĪĺ
Ġhum ans
Ġmanufact urer
Ġp ed
æĬĬ ä»ĸ
) );
Ġpol y
ĠD ark
å¸¦ æľī
Ġorder ed
Ġ 01
è®© æĪĳä»¬
t le
è®¾ å®ļ
rag on
åįģä¸Ģ ç«ł
7 4
åĴĮ ç¤¾ä¼ļ
åİ ¢
e per
Ġpers pective
um er
Ġput ting
Ġ riv
åī ¥
æĶ¹ è¿Ľ
Ġbro ken
l ink
æ¸ ´
è¸ ©
C S
Ġassist ant
Ġ èĢĥ
ĠP a
r ide
p ir
Ġg ro
å¤§ ä¼Ĺ
å¥½ å¤Ħ
äºº åĬĽ
ov en
éĶ ¤
Ġmot ion
èĮ İ
ol y
ä¹Ĳ éĺŁ
Ġ åĨĻ
ĠT reat
W ith
Ġä¸Ģ èĪ¬
ĠK at
æŃ¤ æ¬¡
per or
çĪ¸ çĪ¸
Ġher self
l ay
Ġlic ense
å®ª æ³ķ
ä¸¤ å¹´
ĠT ro
åľ¨ ä»ĸçļĦ
å®¢ æ°Ķ
æıĲ åĩºäºĨ
Ġhundred s
æ³ķ å¸Ī
ord an
Ġpre ferences
Ġ5 5
åīį åĲİ
éĴ ¦
åŃ¦ åĳĺ
m o
Ġmass ive
ĠSt one
col or
Ġexpress ion
9 14
â Ī
æĮĩ åįĹ
Ġä¸į éĶĻ
Ġsp aces
éģĹ åĿĢ
ĠS em
Ġcircum st
çļĦ å¤ļ
å¸¸ å¸¸
æ² ¸
Ġob tained
æľīä¸Ģ ç§į
ä¸¤ ä¸ªäºº
ĠR E
ç§ĳåŃ¦ éĻ¢
Ġnot able
Ġbo at
å±± åĮº
Ġatt ra
å¼ķ è¿Ľ
Ġachie ved
reg on
Ġhy p
ĠCont act
çĶµ åİĭ
å®Į äºĨ
Ġpass ing
æĪĳ åĴĮ
æĲ ħ
ĠCare er
å·² æľī
Ġnew ly
Ġadopt ed
çĥ ģ
Ġso le
æº ¢
Ġ çľ¼
æĢ» çĲĨ
Ġob tain
çļĦ äº§åĵģ
ç¨İ æĶ¶
, ),
å®Ŀ è´Ŀ
r at
è¿Ľ å£«
ä»ĸ äºº
i est
p ool
ĠH o
å§ ¨
Ġclos ely
ĠAd am
å¤± åİ»äºĨ
Ġr ub
ĠÐ °
Ġvis ited
ä½ł è¿Ļ
çĶ º
ra ine
æķĪ çĽĬ
Ġ æĪĲ
ĠPre vious
ä½ł æĢİä¹Ī
Ġclin ical
æ¸ £
Ġdri vers
ç§ ©
Ġstrateg ies
Ġl i
è¯¸ å¤ļ
Ð° ÑĢ
æ·± åº¦
åĲ ı
are t
å®Į æĪĲäºĨ
ĠM iller
å±Ĥ çļĦ
ĠAm ong
å¸Ĥ å§Ķ
å§ĵ åĲį
ĠAss ist
æĳ §
Ġdel icious
ç¾İ æ´²
ĠV e
Ġdeb t
ĠSil ver
re ll
èĤ© èĨĢ
Ġinnov ative
m ath
com es
å¹´ çºª
Ġm outh
ĠLew is
l ights
ck now
force ment
Ġpro ceed
Ġf ro
Ġg ained
Ġel imin
å· ¾
Ġad m
å¡ŀ å°Ķ
æį® è¯´
ĠT ax
Ġassoci ation
Ġ ä¸¤ä¸ª
æĢ§ åĪ«
ä¹ĭ è·¯
Ġsu it
9 25
ag ues
pro fit
7 3
å½¢ çĬ¶
æĴ ¼
Ġ åĪļ
æĪ ļ
os ite
ä¼Ĭ æĸ¯
ä¿® è¡Į
Ġ åıĺ
ĠD aily
åįķ çĭ¬
è¿Ļ éĥ¨
Ġ åıªæľī
ĠT ony
H L
ĠAtl antic
æĭ¿ çĿĢ
erv es
ç§ĳåŃ¦ å®¶
ĠM ember
Ðµ Ð½Ð¸
éĵ Ŀ
Ġsign al
92 2
æ² §
çĪ± å¥½
ĠPr im
ĠBar b
æīĵ çł´
Ġfif th
åį ¸
æĮĩ å®ļ
ç©º åĨĽ
F F
ri p
ĠAri zona
Ġte en
Ġ åıĳçİ°
ĠMin istry
Ġl ie
ä¼ ½
åİ Ħ
èĩ´ åĬĽäºİ
ä¸ĵ çĶ¨
Ġneg oti
ing ly
æ¯ı æĹ¥
åħ¥ éĢī
ĠC PU
Ġform al
Ġ äºİ
è¯Ń æĸĩ
ĠCont rol
Ġ éľĢè¦ģ
tern oon
ĠPol ish
ĠR yan
æĥ ©
Ġrespect ively
il ies
ä¼ł éĢĴ
Ġprep are
Ġw at
is ms
ĠN C
ĠRev olution
ak i
est yle
ä¸į çĿĢ
ä¸Ī å¤«
å®¿ èĪį
åı³ æīĭ
Ġ åı·
Ġhab it
M ar
è° Ĭ
æ¯ģ çģŃ
æİ¥ æĶ¶
Ġr andom
çĵ £
ç¾¤ å²Ľ
æĲ ı
éĶ» çĤ¼
ĠD id
èµĦ è®¯
Ġexper iment
è®¤ çŁ¥
b al
æķĻ ä¼ļ
Ġemot ional
d f
éĥ¨ ä½į
Ġfriend ly
Ġç¬¬åĽĽ ç«ł
å·´ è¥¿
ĠBro ther
ĠMag azine
åĽ½ æľī
æļ ĳ
è®¤ä¸º æĺ¯
åĽŀ åºĶ
Ġrec o
éĢĤ çĶ¨äºİ
åģľ è½¦
Ġcy cle
" |
Ġ åįģ
S u
Ġprom pt
Ġsk y
Ġ éŁ©
ack s
ĠCast le
7 1
Ġw alls
ä¼łç»Ł çļĦ
çľ ¨
è¾¾ æĪĲ
å¸Ī çĪ¶
å·ŀ çļĦ
Ġsp in
æ¨¡ åĿĹ
ĠG reg
Ġconvers ation
Ġtal ent
ĠStud ents
Ġpo et
åĩºçİ° çļĦ
Ġprote in
åĩº ä»»
åĿ ª
Ġgu ard
æ¡ ¶
a ud
ç¼ ħ
çĶŁ æĦı
æŃ¥ éª¤
Ġ éļıçĿĢ
æįŁ ä¼¤
å¢ ħ
é«ĺ äºİ
Ġcomp rehensive
ĠO cean
Ġdivid ed
æľ¬ åľ°
å© ·
äº§ æĿĥ
Ġt all
Ġparticip ants
gor ith
æ±Ł æ¹ĸ
or ph
Ġte ach
éĻ ¨
Ġ ä¼ģä¸ļ
y ard
Ġem pt
ç»Ħ å»º
Ġsur f
ĠF all
Ġ åŃĹ
å®ī éĿĻ
M I
é« ĵ
Ġclub s
ĠN FL
èĥ½ ä¸įèĥ½
çĽ´ å¾Ħ
åīį è¿Ľ
ä¾ĭ åŃĲ
ĠF un
éļı æĦı
ĠG arden
å¤© æīį
è¿ĳ å¹´æĿ¥
æī ģ
Ġtown ship
è¾ĥ å¤§
ĠHol y
Ġ ä½¿çĶ¨
ĠN ations
å¦ Ħ
åŁºç¡Ģ è®¾æĸ½
T ER
Ġsupport s
çĶµ åĬ¨
Ġmed al
Ġinv ent
ĠE ss
ĠHistor ic
ç´§ ç´§
æİĪ æĿĥ
ä¼ł éĢģ
Ġpract ical
åħ¨ åİ¿
Ġinf l
ber ry
b les
Ġon going
ĠMar c
ĠMiss ouri
ĠP y
Ġ4 1
ĠO N
Ġco oper
èĭ± å¯¸
ĠC rit
è® ½
Ġtransport ation
h us
æĿ¥ åĪ°äºĨ
è¯¢ éĹ®
å¤§ åİ¦
éĻ¤ éĿŀ
Ġexpl ained
ĠI ss
Ġequ ival
' );
ç»ĵ è®º
æ¢ ¨
Ġwe ak
ĠDe ad
çĬ¹ å¦Ĥ
è½¬ åĲĳ
Ġaccur ate
æĪª èĩ³
åŁ Ķ
ĠRe f
Ġm ail
ĠåĴ ĭ
ĠSe ver
åĨĽ å®ĺ
ĠO ak
H ome
P P
ĠM oon
åįł æĢ»æĶ¶åħ¥çļĦ
Ġm and
ĠF arm
å¸Ĥ æ°ĳ
æºĲ äºİ
è¯ķ è¯ķ
Ġj e
éĿĴ æĺ¥
Ġcap able
äººæ°ĳ å¸ģ
éģĹ äº§
çļĦ åŃ¦çĶŁ
åĮ» å¸Ī
ren cy
éĩĩ è´Ń
Ġadv is
ä»ĸ å¯¹
éĥ½ å¸Ĥ
Ġ çĭĹ
ä¸Ģ çĶŁ
Ġ ç¾İåĽ½
ind ex
ä¸Ģ ä»£
Ġr ural
åįģäºĮ ç«ł
é¹ ħ
ĠÐ ļ
æĹ¥ æĬ¥
D C
ç½ Ĳ
ä¸Ģ å¤§
æĺİçĻ½ äºĨ
åľ° è¯´
Ġtyp ical
è°Ī åĪ¤
æĦ ī
ä¸Ń å°ı
åıª å¥½
éĽ Į
åĩł åįģ
Ġ çĶŁæ´»
id en
è¿Ļ åº§
em et
ä»ª åĻ¨
8 2
Ġte a
ĠD om
å¸Ī åħĦ
ä¸İ åħ¶
ç»ĺ çĶ»
ĠMar ia
Ġ ille
é©± åĬ¨
Ġshoot ing
R C
9 12
ĠWh ich
Ġgu y
Ġ è¡Į
æľº è½¦
æį ŀ
ĠMan chester
ãĢģ "
Ġprov ider
Ġdou bt
Ġaff ili
Ġmat ters
æĢ ¡
Ġgradu ate
Ġc rick
Ġfl owers
Ġg rown
ä»£è¡¨ å¤§ä¼ļ
92 6
Ġ åį¡
Ġs ample
Ġro ot
Ġsum mary
åį´ æ²¡æľī
ĠP rom
éŁ³ é¢ĳ
act er
åħĪ å¤©
Ob ject
on ia
Ġfil ter
åĮ ł
aw ay
ĠäºĨ æĪĳ
Ġdisc ount
Ġdrug s
Ġexper im
Ġch ocolate
Ġgu ys
åĲĪ æł¼
Ġvers us
Ġqu iet
9 11
å¤ĦçĲĨ åĻ¨
p ace
ĠH ung
æµ ı
æĹ¥ åĲİ
og ether
ä»¥ å¤ĸ
èµ° åİ»
O K
ĠCont in
writ er
Ġgrant ed
æħ ¨
Ġ æ¯Ķè¾ĥ
Ġ4 9
é«ĺ è¾¾
èĶ ½
8 3
b oy
92 4
ä¼ļ ä¸Ĭ
ast y
Ġmunicip ality
' ]
éĢĢ ä¼ĳ
cent er
ĠHou ston
ĠW ord
Ġfil ed
æ¯ı ä¸ªäºº
R ead
Ġ il
æ²¡ éĶĻ
ä¸ĢçĽ´ åľ¨
å®ŀ çļĦ
ĠA ction
ĠMan ager
ĠB ir
å½¢ åĬ¿
çļĦ é¦ĸ
Ġconsum er
Ġhy dro
æī® æ¼Ķ
ann els
ç« Ń
h ar
Ġ ..
et a
ĠM A
çļĦäºº åı£
w ing
Ġrep air
å¹² ä»Ģä¹Ī
éļ §
è£ Ļ
ĠCertain ly
ä¸Ń éĥ¨
and y
O r
çļĦ çĽ®åħī
Ġl osing
åħ¶ ä¸ŃçļĦ
Ġl ake
Ġlandsc ape
i Ä
ens ed
ĠUn it
è¡Ģ åİĭ
Ġdro pped
8 1
äº§ éĩı
åħħæ»¡ äºĨ
ÃŃ a
éĤ ±
æ®ĸ æ°ĳ
çļĦ åĨħ
ual ity
Ġfac ing
ĠåĲ ´
åĪĽ æĦı
w ich
Ġn ob
Ġex ternal
che stra
å· ·
å¼Ģ è®¾
iam i
ĠW H
ç« ĸ
ç§į æĹı
çŀ İ
åħ± äº«
ik a
F ile
Ġwin ners
92 1
ag a
æĪĳ çŁ¥éģĵ
çİ° çĬ¶
Ġ å¸ĮæľĽ
éļ Ļ
Ġinf o
ĠO regon
Ġm ine
18 0
åľ° è´¨
c ies
æıĲ åĪ°
Ġconst ant
Ġfeed back
Ġ åĮħ
per ial
Ġarrest ed
è¡ĮæĶ¿ åĮº
èı ©
ĠR ight
ok er
Ġè¿Ļ ä¸Ģ
ä½ £
ĠT am
l ar
Ġoper ate
çĮĽ çĦ¶
æĥ³ äºĨ
åľ¨ ä¸Ģä¸ª
å®ĥ æĺ¯
Ġres olution
Ġsympt oms
Ġro y
Ðµ Ð¼
ĠAnd roid
ig e
çİĩ é¢Ĩ
ib ilities
Ġreg ul
çĶŁ çĲĨ
ç¥ŀ çļĦ
Ġleg end
6 9
ä¹¦ çĶ»
åĺ Ł
ĠSen ior
Ġrecogn ition
Ġact s
å¯ ĩ
èĲ¥ ä¸ļ
ĠN AS
èı ĩ
E A
Ġp owder
st ract
ĠR oss
å± ¿
Ġwith d
éĶ® çĽĺ
ä»İ æľª
èİ ¹
Ġb att
Ġsett lement
ov a
Ġinter ior
çĶ· å¥³
ĠAdminist ration
åĨĻ çļĦ
Ġhon est
Ġboy s
å¾Īå¤ļ äºº
Ġsett ings
æĽ¾ ä»»
ä½İ äºİ
Ġgr ade
Ġ åıĮ
çļĦ ä¸Ĭ
Ġ ä¸ľ
åĩł åĪĨ
æķ°æį® åºĵ
ç©¿ çĿĢ
æŃ¤ åĲĮæĹ¶
ĠThere fore
Ġ æ³¨æĦı
çļĦ è¡Įä¸º
Ġdom ain
ang le
Ġpar ish
Ġ çī¹åĪ«
ĠSqu are
Ġj oy
Ġsustain able
ä¿ ĺ
ç§ģ äºº
ä¸Ģ æµģ
ĠReg ister
è¿Ļ æĿ¡
ou red
im g
å²Ĺ ä½į
Ġ çº¦
ä¸ŃåĽ½ äººæ°ĳ
inc oln
Ġfe es
çĶŁ æĪĲ
Ġv ast
Ġsubst ant
çľŁ äºº
åķĬ åķĬ
åĻ ª
v ar
ĠI V
ĠForm er
å¤± æľĽ
æ³¢ åħ°
ãĥ ³
ĠP ack
Ġdes ire
Ġbo ost
Ġimpress ive
ĠMed al
çŃī äºİ
éĩĩ è®¿
å½ĵ åīį
æĶ¶ æĭ¾
åĪ¶ åĵģ
Ġthem es
es ome
çļĦåŁºç¡Ģ ä¸Ĭ
Ġfind s
Ġext ension
ol t
Ð° ÑĤ
st ery
çĽ´ æĴŃ
éŃ ģ
G ener
åį ¦
Ġsuff ered
ĠDo es
Ġsche me
Ġhealth care
åħ´ å»º
Ġcont aining
8 9
Ġfl av
{ \
Ġ éĻĨ
Ġconcern ed
Ġä¸į æĥ³
ĠâĢ ĭ
re c
æķĻèĤ² éĥ¨
çĽ¸ åıį
Ġmed icine
ĠKe vin
ĠSystem s
Ġo dd
S U
Ġn arrow
èĽĭçĻ½ è´¨
æĸ¯ åŁº
çļĦ åĪĨ
Ġpl ate
ĠFin ancial
éº¦ åħĭ
c ore
ĠDo ctor
Ġthe rapy
èĻļ æĭŁ
çľŁ çļĦæĺ¯
Ġunder st
åľ° éģĵ
è¿Ŀ åıį
Ġass ign
çĲĨäºĭ ä¼ļ
éŀ Ń
Ġf ranch
ĠV ice
ĠT ai
ĠS pr
æ³ µ
ĠVill age
Ġspe aking
ĠHis pan
çĽĳ å¯Ł
dd en
Ġvot es
åı¯ ä¸įæĺ¯
ĠCh apter
Ġcomp onent
Ġf aster
æľĪ èĩ³
å¡ĳ æĸĻ
ĠB an
åħ¶ æ¬¡
Ġass ets
Ġcontrib utions
äºĨ è®¸å¤ļ
éħ ¿
åı¯ä»¥ è¯´
ĠFin ally
åĭ Ł
å¤© æ°Ķ
å´ İ
ãĢį ãĢģ
åĵĪ å°Ķ
æ²³ æµģ
çŃ¾ è®¢
æŃ §
ĠN ame
åľ¨ çº¿
æĬķ ç¥¨
æĹłè®º æĺ¯
ograp her
éķ¿ å®ī
ç»Ħç»ĩ çļĦ
emet ery
Ġbird s
d on
Ġconstruct ed
ä¸Ĭ åįĪ
' :
Ġv ul
cy cl
ĠMar g
çļĦ éĩĳ
ĠPat rick
R S
92 3
Ġoff ices
æİ¥ å£¤
Ġprom inent
Ġdiffer ences
ig ger
Ġv ess
A t
æ° ¯
Ġdang erous
T est
ĠNet her
ĠD og
éģŃ éģĩ
Ġcl ar
Ġa cknow
Ġb odies
Ġst opped
, '
7 9
Ġpark ing
Wind ows
æ¶ ¡
æ·± å¤Ħ
è¿Ļ äºĭ
ĠCap ital
ars h
çļĦ åıĺåĮĸ
igr ants
è£ ´
æŁĲ ä¸ª
ä¸ŃåĽ½ å¤§éĻĨ
Ġä½ľèĢħ ç®Ģä»ĭ
ĠR a
ĠT rib
ĠWin ter
Ġb ands
Ġsty les
ers ion
Ġfound ation
ĠA h
Ġl ayer
Ġcomp osed
Ġinvest ors
ä½ł åľ¨
Ġdr um
åħ¬ å¹³
åĲ¬ äºĨ
éĹª çĥģ
ĠC op
ãĢĭ :âĢľ
å½ķ éŁ³
es h
æĭī ä¸ģ
æĺ¯ å¤§
Ġtra il
Ġdel ay
ĠçļĦ è¯Ŀ
eder ation
é¢Ħ è®¡
åı¦ä¸Ģ æĸ¹éĿ¢
ĠLe on
èĵ ī
åı¤ èĢģ
Ġ æľ±
èĻ Ĳ
ä¸Ģ æĿ¥
èģĶåĲĪ åĽ½
ç®¡çĲĨ çļĦ
ch ild
åŁº å±Ĥ
çļĦ å¥³
et ing
è¿Ĳ è½¬
åĿĩ ä¸º
å°± æĬĬ
ĠP ier
Ġemploy ee
å¯Ĩ åĪĩ
éĤ® æĶ¿
ĠC ulture
Ġbuy ing
Ġro se
fr ont
Ġemploy ment
ĠFore ign
è¯ŀ çĶŁ
ä»ĸ è¯´
åĽ¢ ç»ĵ
æ±ī è¯Ń
é¼ł æłĩ
Ġ æĹ¥
éĺ Ĳ
Ġ åıĤèĢĥ
Ġfor g
O V
Ġtrad ing
Ġwind ows
Ġsold iers
æĶ¶ è´¹
Ñ ī
Ġab andon
Ġcele b
ĠG il
ä¹Ĳ åĽ¢
y ers
ograph ics
Ġ åı¦å¤ĸ
Ġ æ´Ĺ
g ener
ell s
Ġwhe el
Ġinj uries
Ġt ough
ä¸Ģ å¼Ģå§ĭ
ult s
çĳ ľ
ĺ ħ
ç¬¬ åħ«
ĠSim on
Ġf ishing
æ¼ĶåĶ± ä¼ļ
g roup
Ġre ar
éľ Ħ
å±± èĦī
å½¢ çļĦ
åĿĩ åĮĢ
èĢ »
Ġtre ated
é¡ ·
Ġexpand ed
çŃī çļĦ
ph p
Ġcapt ure
Ġ å°Ĩ
ĠAr gent
Ġstre ets
Ġdoll ars
Ġ åĽ¾
åľ¨ éĤ£éĩĮ
gh an
Ġsur gery
ä¸¤ ä¾§
../ ../
Ġ çĽ®åīį
èįī åİŁ
Ġlink ed
ou ch
éħ ¬
Ġtra v
ä¸» ç¼ĸ
Ġval uable
ä¸º æŃ¤
oc racy
ä½ł ä¸į
æĸĩåĮĸ çļĦ
ĠL ink
ĠMary land
çĽ ²
Ġconsum ers
å¯¼ å¼¹
Ġclos er
Ġbatter y
ĠL ie
æĹ ±
i ac
Ġå¹³ è£ħ
åĲĦ åĽ½
æľīæķĪ çļĦ
Ġ è·¯
Ġ çĺ¦
äºĨ åĩºåİ»
åįĬ ä¸ª
å¸ĪèĮĥ å¤§åŃ¦
åįģ åŃĹ
qu arters
iz z
ĠN ever
ĠSm all
t able
ç¬¦ åı·
Ġint elligence
ĠL as
Ġcol lected
äºº å¿ĥ
ä¸Ģä¸ª å°ı
éĺ² å®Ī
çļĦ è¿ĩç¨ĭ
ç²¾ å½©
æľĪ åı°
ä¹ĭ äºĭ
çħ İ
p ie
ĠSwed en
ä¹¦ ç±į
ot he
åħī æĺİ
Ġpr ime
C T
Ġth read
åĺ ²
Ġd inner
au x
èĩªçĦ¶ æĺ¯
äºĨ ä¸įå°ĳ
Ġ çĶµå½±
Ġsu dden
Ġimplement ation
Ġexpress ed
ĠS earch
éª ļ
Ġrelig ion
Ġterrit ory
Ġen able
åĴĮ å°ļ
å¯¿ åĳ½
å¿ħé¡» è¦ģ
æŃ£ éĿ¢
åįĬ å¹´
ĠR oom
çİ°ä»£ åĮĸ
Ġpl ug
` `
ĠE P
ĠAn ne
i ors
åĬ¡ å·¥
Ġne ck
Ġperman ent
åĳ¨ å¹´
åŃĲ å¼¹
å®¢ è§Ĥ
Ġç¬¬äºĶ ç«ł
ob s
ĠG ree
æķ° çĻ¾
æĨ ¾
åĲĪ çī©
Ġreturn ing
ab et
å¾Ĺ å¾Ī
In st
ennes see
Ġatmosp here
Ġcompet itive
Ġconf idence
çĶµ åı°
ĠB urn
lement ary
ĠTra vel
æĤ¨ çļĦ
Ġexhib ition
ĠH art
è´¯ å½»
ĠD or
Ã ¢
bs ite
Ġl in
ĠOffic er
è¿Ľ ç¨ĭ
Ġä¸Ģ å¤©
ag en
ĠJ am
Ġscient ists
ĠRet urn
å¤§ å¹ħ
éĢĢ åĩº
æĢ¥ å¿Ļ
æľĪ ä»½
çª Ħ
ĠE ver
å»ºçŃĳ éĿ¢ç§¯
å¤ı åŃ£
æĪĲç«ĭ äºİ
ä¸ī åĪĨ
å®Ī æĬ¤
ä¸« å¤´
å¯¹ äºĨ
æŃĮ è¯į
Ġnet works
Ġä¸Ģ æ¬¡
å±±ä¸ľ çľģ
æĸ ĭ
åī§ æľ¬
Ġs izes
ä¸Ģ æĶ¯
æīĢ å¾Ĺ
ĠIndian a
Ġtechn ique
ug by
çļĦ æľįåĬ¡
ĠO pt
çĦ ļ
ĠF inal
Ġ ä½ľä¸º
ç§© åºı
çĳ °
å±Ģ éĿ¢
Ġca using
Ġsent ence
a ug
æĸ° çĸĨ
Ġaf ternoon
ic ide
ĠP R
è£ħ ä¿®
ĠAr thur
ĠExp ress
æīĢ éľĢ
æį §
Ġinstall ation
éķ¿ æ±Ł
ik ing
Ġh its
M M
Ġb anks
et ch
ĠMay be
åĬŁ æķĪ
æĪĳ çľĭ
ĠF a
ĠJ oh
ĠTra ck
Ġb en
Ġ4 3
ol is
ç¥ Ģ
ĠCol lection
æ® ·
æĬĹ æĹ¥
Ġ ä»¥ä¸º
æĸĹ äºī
ĠS ab
ç¾İ å®¹
Ġso il
ä»İ å°ı
èĽ Ľ
æĮĩ ç¤º
Ġ èĩ³äºİ
è¯´ è¿ĩ
ĠåĲ¬ åĪ°
amb ig
è¯´ä¸į å®ļ
Ġmark ed
ä¹Ķ æ²»
æĬ¤ çĲĨ
v ard
ĠP sych
p ost
ä»¥ æŃ¤
ĠTh us
ĠPolit ical
Ġlegisl ation
èĬ Ļ
çĶŁæ´» çļĦ
Ġwid th
çĭ¬çī¹ çļĦ
ac her
f a
Ġreport ing
èļ ģ
èº ģ
Ġmom ents
åįģä¸ī ç«ł
Ġ è·ĳ
æ¡Ĩ æŀ¶
çķ Ķ
Ġspe aker
ä¸į å¼Ģ
æŃ¦ èĢħ
Ġ åģĩ
Ġå¥½ åĥı
II I
Ġh at
ĠN atural
Ġres c
Ġpattern s
ar ia
ĠP it
se ct
Ġsubsequ ently
ĠD ave
Ġaccess ible
Ġadd s
ĠC A
ĠH an
æľ ķ
ĠSwed ish
ro it
ä»£ ä»·
è®¾è®¡ çļĦ
Ġsecond ary
ĠMr s
Ġ åĩºçīĪç¤¾
ĠG un
åķĨ æłĩ
åı£ ä¸Ń
o is
Ġp hen
ĠOver all
ĠH ind
åħ¬ çĽĬ
Ġconf ident
l ah
ĠReg ional
Ġegg s
ĠT en
Ġrem ote
ple te
ĠInst agram
Ġcl imb
ä¸ĸ çļĦ
es c
æ¶Ī éĻ¤
Ġeng age
Ġ å¦Ĥä½ķ
ĠL incoln
ĠN ob
Ġcircumst ances
æĦŁ åıĹåĪ°
åŃĺåľ¨ çļĦ
åĴ Ĳ
Ġreco very
æķ´ ä¸ªäºº
äº¿ ç¾İåħĥ
ĠS port
Ġcook ies
åĽłä¸º ä»ĸ
ag an
ç§ĺä¹¦ éķ¿
èĶ ĵ
æ² «
æķ£ åıĳ
Ġk il
con st
æķı æĦŁ
ä»ĸä»¬ åľ¨
Ġdis hes
å¿Ĺ æĦ¿
åĲĮ æŃ¥
Ġ ä¹ĭåīį
O U
ĠP ut
è´µ çļĦ
ç´§ æĢ¥
Ġre ject
ĠPro t
Ġ âĢĿ
åĦ¿ çļĦ
éļ¶ å±ŀäºİ
åıĸå¾Ĺ äºĨ
Ġprodu cing
ĠAg ency
Ġre action
éĥ¨ ä»½
p ress
ç£ Ĭ
Ġreg ulations
Ġmy th
Ġmag n
è¾½ å®ģ
ĠS ix
èĢĥ çĶŁ
Ġfl our
éĥ½ å¾Ī
Ġex ception
çł °
æ°´ ä¸Ń
æĬ¬ èµ·
he ight
è¯Ĺ æŃĮ
Ġautom atically
ä¸¤ åĲį
å®ŀ ä½ĵ
Ġ éĻ¤äºĨ
Ġdog s
Ġf est
éĶĻ äºĨ
ĠChe m
çī º
Ġsing les
Ġabsol utely
çĹħ çļĦ
åİĭ ç¼©
å¤© ä½¿
Ġè¿Ļ éĩĮ
9 15
æŀģ éĻĲ
æĭĽ åĳ¼
å¤§ è§Ħæ¨¡
ĠPost ed
Ġd ies
ĠPol and
ä½ł ä¹Ł
ĠCopy right
ĠJ ordan
æľŁ åĪĬ
ĠE mer
ĠJan e
ĠMod el
l ow
Ġra cing
æĬĢæľ¯ çļĦ
å¸Ĥåľº çļĦ
Ġal cohol
ĠAb b
f in
em an
ĠM iami
Ã¶ r
åıĤ è°ĭ
äººåı£ å¯Ĩåº¦
Ġbus y
Ġin hab
å¹¶ å°Ĩ
Ġcy cl
c ons
çĶŁ èĤ²
ç±³ çļĦ
red it
Ġgradu ated
å¿ĥ çģµ
æŀĦ éĢł
ĠCh annel
Ġsh ipping
ĠH ills
Ġin qu
è·Ł æĪĳ
Ġintrodu ction
ĠA N
ä¼ ŀ
å¨ģ å°Ķ
l ength
all as
åŁĥ åıĬ
å¥ İ
it als
åĮĸ å·¥
æī§ æ³ķ
æĬ± çĿĢ
çĲĨ å·¥
åĲĦ å¤§
od ing
ä½ ĳ
ĠKore an
Ġv ocal
ĠMatt hew
il ation
ĠB ible
ä¹ĭ ä¸º
åį³ ä¾¿æĺ¯
ä¼¯ çī¹
Ġtick ets
ĠFr ont
Ġaut hent
å®¡ æł¸
Ġ éĿ¢
el lect
å¸¸è§ģ çļĦ
ĠB ird
çİĭ åŃĲ
åī ĸ
è¿Ļ ä¹Ł
å¼Ģå§ĭ äºĨ
ä¿® å»º
è¶ Ł
èĦ± ç¦»
åĺ» åĺ»
ĠDie go
æľª å¿ħ
Ġinnov ation
Ġs itting
out heast
æįŁ å®³
ä¸ª ä½ĵ
éĤ£ ä½į
Ġweap ons
Ġdeb ate
ĠçĶŁ æĹ¥
éĽ ģ
Ġexpert ise
æĢİä¹Ī åı¯èĥ½
ĠPrem ier
éŃħ åĬĽ
Ġo l
ĠM ap
è¿Ļ èĪ¬
ĠH al
é«ĺ èĢĥ
åĲŀ åĻ¬
èħ ķ
æĥ³ æĥ³
az a
w ick
ĠT ennessee
åĮħ åĽ´
m g
ĠE vent
Ġle ct
Ġpolit icians
h igh
ä¸Ĭ æĺł
Ġag es
ç»ĦæĪĲ çļĦ
ĠWhe ther
æĿĲ è´¨
Ġinter face
ä¸Ģ åı£
ç§ ī
m ers
Ġb omb
Ġex cess
Ġel ig
æĽ¹ æĵį
Ġ ä½ķ
ĠH old
æ¸¸ æ³³
æĬķ éĻį
èŁ ¹
æĵħ éķ¿
èŀį èµĦ
è¯ļ ä¿¡
ĠC ase
çŀ Ĵ
Ġopp osition
è¿Ļä¸ª éĹ®é¢ĺ
Ġ åŃĻ
Ġly rics
ic ing
ĠSchool s
q l
ĠV ar
èĢ ¸
éĿĴ å²Ľ
ĠAff airs
Ġwear ing
Ġw er
éĿĴ å°ĳå¹´
é¸ ¦
ipl om
ç¨İ åĬ¡
æ´» è·ĥ
Ġ åĮĹ
Ġarg ument
" "
Ġw ave
Ġmeet ings
çĲ ī
L S
Ġ å¾Ĳ
å¼Ģ æĿ¥
Ġorgan ic
g i
ĠNether lands
ä¹¦ ä¸Ń
Ġrel iable
Ġtra ined
as hed
ĠM S
ä¸Ģ éĥ¨åĪĨ
Ġaware ness
ä¸» æ¼Ķ
ä¼ł åªĴ
ul ous
èĦĳ æµ·
Ġscen es
äºº æĸĩ
Ġend ing
roll er
æıĲ åĲį
Ġsever e
åĮĸ å¦Ĩ
çīº çī²
) ãĢĭ
A dd
Ġmess ages
åŃ¦ åİĨ
ä¸Ģ ç¾¤
æ´» çĿĢ
éª ĩ
ä¾Ŀ èµĸ
ĠV eg
æĽ´ æľī
Ġl os
èº« å½¢
end o
åı¤ åħ¸
Ġ è¿ŀ
Ġis ol
ert o
Î ±
ĠH as
ĠR oy
çİ© ç¬ĳ
Ġt or
å¥ ł
Ġnov els
ĠM unicip
è¿ĩ äºİ
é»ĳ é¾Ļ
çĬ¹ å¤ª
Ġe ating
éĵ ®
ĠA z
åĲĳ äºĨ
è§Ĥ çľĭ
Ġdefin ition
Ġ èĥĸ
Ġ ç½Ĺ
ĠD ur
H P
, âĢĿ
Ġh am
Ġ åĪ¶ä½ľ
Ġa x
Ġd ating
Ġr ice
æī© å¼ł
ut ies
è¡ «
åĳ ľ
Ġf asc
æŃ¥ åħµ
å¿ĺ äºĨ
æħķ å®¹
hy th
çİ «
} ,
ĠR ub
Ġclass ical
Ġrep utation
ĠâĹ ı
éħį å¤ĩ
æ³ ¼
Ġ5 2
ç¥ŀ éĢļ
S et
æļ´ éľ²
Ġdocument ary
æĺ Ķ
éĤ µ
ç»´ å°Ķ
in cess
ä»£ è°¢
Ġveget ables
ĠC amer
Ġ4 6
é¸¡ èĽĭ
Ġpre gn
æĢİä¹Ī ä¼ļ
ile y
æµı è§Ī
Ġsh ock
æĹ¥ èĩ³
un ct
Ġtit led
è®¨ åİĮ
1 30
â ģ
å®ŀ è¯Ŀ
çŀ ³
éĥ½ å·²ç»ı
æ¾ ľ
å¯¹æĸ¹ çļĦ
ĠAll en
Ä ĥ
ĠAn sw
Ġ åĳĬè¯ī
ĠM ix
çĶµ æ°Ķ
9 16
ed ing
Ã ¸
åľ¨ åħ¶
ĠEar l
Ġobs erv
è¿Ļ å®¶ä¼Ļ
d ale
èİ· å¥ĸ
ĠCapt ain
Ġy ards
ra it
Ġresist ance
o en
Ġdestroy ed
Ġdesign er
ac le
ĠM ethod
s um
ä¹ĭ éĻħ
ĠC ry
æĢ Ķ
ess ed
Ġdecl ared
è¯ ı
ĠB ab
ĠM it
æ±ī æĹı
cl aim
åĪĳ äºĭ
èĤļ åŃĲ
Ġs essions
ĠGr ant
ĠW olf
åįģ å¤§
ä¾ ¨
ĠAr k
Ġdefe ated
sc ript
Ġal ter
Ġpers ons
åĬł çĽŁ
æ¶ ©
Ġopp osite
æģ¶ éŃĶ
Ġf er
çľĭ ä¸Ĭåİ»
åĬ© çĲĨ
å»º æľī
èĬĤ èĥ½
ord on
ac on
ãĢĳ :
Ġprincip al
ä¸ĭ è½½
é¢Ĩ è¢ĸ
éĹª è¿ĩ
åıĺ çļĦ
Ġchalleng ing
ä¹¡ éķĩ
Ġc oc
éĺ² æĬ¤
åĩº ä¸Ģä¸ª
ĠSe ction
Ġ çī¹
å° ¹
Ġtro ops
16 0
å¤ªå¹³ æ´ĭ
è¿ĺ å¥½
æĺİæĺ¾ çļĦ
ĠB ry
or gan
ran k
èĪª å¤©
ä¸º åĩĨ
ĠSt ill
èĤ¡ ä¸ľ
Ġ ç¼ĸ
Ġm ac
è£ħ çĶ²
Ġris ks
ot ton
ĠPro te
ä¹ĭ æĪĺ
Ġpresent ation
åĪĨ æ³Į
è¿ ¦
ĠT ype
æĹ¶ä»£ çļĦ
Ġtw enty
ä¸Ģ åįĬ
äºĨä¸Ģ åı£æ°Ķ
åĨ· ç¬ĳ
åĪ« å¢ħ
åıĤåĬł äºĨ
Ġvar iable
Ġstat istics
å¥¹ åľ¨
Ġ æ¯Ľ
è¿Ľ çĲĥ
ä¸ŃåĽ½ åħ±äº§åħļ
Ġtal ks
æĭį åįĸ
ĠåĽŀ åİ»
è§£æĶ¾ åĨĽ
èµĶ åģ¿
Ð¾ ÑĤ
Ġwor ry
ç»ıæµİ åıĳå±ķ
å¸¸ è§Ħ
æ¢ Ĺ
Ġatt orney
æī¾ åĪ°äºĨ
å§Ĩ æĸ¯
or ks
æŁ¥ è¯¢
å¤§ ä½¿
ĠHar ris
â Ĺ
èĢģ ç¥ĸ
æ£ ļ
Ġt ack
Ġp iano
app ed
çļĦ æ³ķ
æ²¡ äºº
åĢŁ åĬ©
Ġag ed
éģĹ ä¼ł
ä¸Ģ åº¦
c s
åįģåĽĽ ç«ł
ĠP ract
Ġz one
Ġs ight
Ġgr ass
åĩı èĤ¥
Ġinsp iration
æĹ¶ ç©º
AT ION
Ġåı¯ çĪ±
ĠD ate
éĩĮ éĿ¢çļĦ
ç¥ Ī
çĨ Ķ
Ġexist ence
Ġtru ck
ĠTur k
éĺ¿æĭī ä¼¯
O ne
åĬł æ²¹
ER S
ç» £
Ġaut o
çĶµ åĻ¨
ä½ĵ ä¸Ńæĸĩ
Ġreg istration
b rid
çļĦ ä½¿çĶ¨
æĺ¯ è¢«
Ġg olf
çĶµ æµģ
ĠSe attle
è¿ĻéĩĮ çļĦ
ĠSar ah
ä¸įä»ħ ä»ħ
Ġinv ited
Ġturn ing
Ġ åĽ½å®¶
ĠS ite
Ġdes k
l ik
å¤§ ç¬ĳ
Ġ é¡µ
Ġ æľº
Ġch apter
Ġ4 7
-- -
Ġm al
æ»¡ èĦ¸
é«ĺ å±Ĥ
åįķ çº¯
an es
Ġdiscuss ed
åĺ´ éĩĮ
Ġcerem ony
Ġeng aged
Ġ çŁ³
ĠAnd erson
ĠS ource
æĢ» çĿ£
AT E
Ġw ins
m ap
ĠAd vent
é»ĺ é»ĺ
W hen
å·¥ä½ľ äººåĳĺ
ambig uation
Ġ åĩĨå¤ĩ
az e
ĠB alt
å¾Ī å®¹æĺĵ
æīĭ çļĦ
Ġjo ining
Ġ åĿĲ
å¤§ éĹ¨
Ġgovern or
ÑĨ Ð¸
å¯¹ æĪĳ
å°ı åĮº
Ġsp oke
Ġ ä¸ĸçķĮ
é² į
åĨ· åĨ·
J ohn
ä¸Ģ èº«
ru ption
è¥¿ æ´ĭ
Ġp apers
ä¸Ĭæµ· å¸Ĥ
ĠPl us
Ġab use
Ġrev olution
ĠYou Tube
æĹ¶æľŁ çļĦ
P M
or ne
Ġde als
Ġcut ting
ĠCo oper
å½¢ çłģ
äººåı£ æĻ®æŁ¥
ĠHaw ai
Ġ æĵįä½ľ
æĺ¯ä¸Ģ ä½į
Ġdescrib es
Ġ éĩį
çļĦ æĸ¹åĲĳ
ĠçĿ¡ è§ī
çģ« ç®Ń
Ġenc ounter
ä¹ĭ æĦı
// //
èĪĴ éĢĤ
O G
ĠQue ens
æ±Łèĭı çľģ
K ey
ĠL yn
at in
åĬł ä»¥
Ð¾Ð º
s he
è° ľ
åĸ Ģ
Ġä¸Ĭ æµ·
âģ Ħ
Ġbe ar
æ¨¡ ç³Ĭ
f unction
Ġch annels
Ġcreat es
æ¸© æļĸ
ab s
æĹł å°½
éĺµ æ³ķ
Ġrem ark
éĢı æĺİ
ĠF ive
å¨ ¶
Ġguid ance
Ġ5 1
achel or
éĻ ¡
if ies
æĺ¯ ä½ł
Ġincreasing ly
ä»Ĭ æĻļ
Ġst ir
Ġocc as
æĭ ĺ
åħ¨ ä½ĵ
Ġent reprene
ra v
Ġconsider ing
å¤§ èĩ´
æĪĲ äºº
åĲĪ éĩĳ
ĠI owa
ĠRes p
çľĭ äºĨä¸Ģçľ¼
è´§ çī©
åĢº åĬ¡
ä¹Łå°±æĺ¯ è¯´
we b
éķĩ åİĭ
ial s
Ġshe et
åĪ° å¤Ħ
ĠE mm
st al
ç¤¼ çī©
Ġv ice
ĠBi ography
Ġf o
Ġobs erved
æ¡ Ĳ
å¯¹ è¯Ŀ
èµ· ä¹ī
Ġinvol ving
Ġw ond
åģ¶ å°Ķ
åĪ° æĿ¥
Ġt ur
iet ies
Ġex port
ra ge
æı ī
Ġref ers
Ġcontrib ute
Ġempt y
æľī ä¸ī
ĠRec ord
Ġrepe ated
Ġext ract
Ġcop ies
ä½ĵ ä¼ļ
eng ers
Ġres ort
Ġfurn iture
Ġdes cent
ĠK elly
çļĦ çī¹çĤ¹
Ġresult ed
å¤ĸ åĩº
Ġstrateg ic
ĠMc G
ĠN az
æĶ¾ ä¸ĭ
ä¸Ģ æ®µ
èĢĮ èµ·
æİ ı
å°Ħ åĩ»
åĪĿ æŃ¥
èĢ³ æľµ
ĠO S
mar gin
ific ate
çļĦ è¡Ģ
èĨ ¨
ä¸Ģ æĸ¹
Ġsubs id
j ava
Ġp our
Ġass igned
è·Ł éļı
Ġ åħ³äºİ
Ġliqu id
ç¦ ½
ĠMel bourne
() );
h ol
åıĳ çĹħ
ç²ī ä¸Ŀ
Ġre nder
Ġw arn
åºĬ ä¸Ĭ
ict ional
Ġbro ke
åİĭ åĪ¶
çī¹ å®ļ
è¿Ľåħ¥ äºĨ
ä¸į æ¸ħ
åĲĮæĹ¶ ä¹Ł
åĶ¯ä¸Ģ çļĦ
m ph
miss ions
åŃ¦ å£«
Ġent itled
O ver
æİ¢ è®¨
Ġretire ment
æ³½ ä¸ľ
çłĶç©¶ éĻ¢
æ¯ĶèµĽ ä¸Ń
åĪ ®
p i
åİ ķ
ĠSc ient
Ġeng ines
éļ§ éģĵ
å¤ª ç©º
ed u
us al
ut her
æ¹ Ľ
ĠF ame
Ġindust ries
èĥ º
Ġcelebr ate
ĠStand ard
ĠAnth ony
ĠLa ure
çĻ» éĻĨ
èĥ½ åľ¨
ud i
äº§çĶŁ äºĨ
è¾ħ å¯¼
éĶ Ī
è§ģ äºĨ
ĠH ur
å»¶ éķ¿
ä»¥ å¾Ģ
åĭ ĺ
éĢ Ľ
æµ· å²¸
ig ious
Ġin ner
é¦ĸ æŃĮ
Ġstat ements
ĠC ert
éļ ĭ
Ġn urs
å¤ļ å¹´çļĦ
æľĢè¿ĳ çļĦ
Ġb oot
å¯¹ åħ¶
ĠDown load
ur ches
Ã© t
æ· ĳ
åģ¥ èº«
Ġ æīĢå±ŀ
ĠStud io
Ġcomp ris
Ġold est
n ed
åŁİ å¢Ļ
Ġinc hes
Ġs in
st ers
ĠHispan ic
ä¸Ģ ä»½
æµģ ä¼ł
ĠMarket ing
c ul
éĢļ çĶ¨
æľª æĿ¥çļĦ
ç»Ĩ èıĮ
elt a
ĠTe xt
ĠN OT
ĠArch itect
Ġ9 5
ĠEconom ic
Ġequival ent
æ² ¾
ĠW y
Ġopin ions
ĠTur key
Ġdist ingu
çĽ¸åºĶ çļĦ
ä¸į å®¹æĺĵ
Ġj azz
ĠBase ball
Ġcom ic
Ġchampions hip
rop ical
æħ¢ æĢ§
Ġz ero
ĠB arn
Ġesc ape
ä¹¾ éļĨ
Ġcapt ured
Ġsem i
Ġp owers
ĠB ed
Ġ æĽ¾
Ġ} ,
æĪĳ åİ»
ĠBe at
m ic
Ġo ven
ĠC re
90 9
ç¡¬ ä»¶
åľ° çĭ±
ĠLim ited
9 13
ĠB ow
Ġatt ached
Ġafford able
Ġcr ash
ä»ĸ åĴĮ
è¯Ń ç§į
' ;
å®ī å¾·
u z
Ġd uty
ĠS U
æľįåĬ¡ åĻ¨
ç®¡çĲĨ å·¥ä½ľ
ãģ Ħ
Ġt asks
Ġo cean
Ġemot ions
ĠDou gl
ĠIm age
çļĦ çĽ®çļĦ
ol ly
90 5
æ¶Ī çģŃ
ok ing
Ġclean ing
Ġj un
åį¡ å°Ķ
1 01
Ġme al
ĠT an
å±Ģ éĥ¨
ä¸Ģ åī¯
ç»ı è´¹
ä¸Ģ ä¼ļåĦ¿
ä¼ļ ä¸įä¼ļ
X X
Ġd ur
è§Ħå®ļ çļĦ
ĠéĻĦ å½ķ
Ġal gorith
åįģäºĶ ç«ł
Ġpil ot
æĽ´ å¥½çļĦ
Ġ// /
Ġthe atre
ĠP S
ç¥ ł
ĠG ram
æīĭ ä¸Ĭ
åĨħ å¤ĸ
Ġ å°ĳ
M V
è´µ å·ŀ
Ġr u
éĺ¶ çº§
Ġappoint ment
Ġdo ors
ĠHow ard
Ġch ampion
Ġag ents
ĠA T
åĩº å¸Ń
å¤ª åĲİ
Ġpercent age
çª ĳ
Ġany where
æ´¾ åĩº
? !
Ġus ual
åĮĸ ä½ľ
Ġlaw yer
åľ° çľĭçĿĢ
éľ Ĩ
amp s
æ± °
ĠEd ition
è¿Ļä¸Ģ åĪĩ
g ate
ä¸Ń åİŁ
Ġfac ed
ĠM un
æĬķèµĦ èĢħ
Ġsurpr ise
åĩ ¸
Ġp ump
æĸ° åŀĭ
ç»ĵæŀĦ ä½ıæĪ¿
çļĦ è¯´
Ġmin ing
Ġroad s
çļĦ éĿ¢
Ġweek ly
w ind
ä¼ĺ çĤ¹
æĪĺ æľ¯
æľ¬ åľŁ
ĠHer itage
åĨľæĿĳ ç»ıæµİ
Ġeffic iency
Ġinteg r
è¯ Ī
Ġdist ricts
Ġmiss ed
èĮ Ħ
æ¸¸ å®¢
ä¸ļ æĶ¶åħ¥
Ġre aching
é» Ľ
æŁ¥ çľĭ
æİĮ æİ§
èģĮ èĥ½
æ´»åĬ¨ çļĦ
ä½ł åı¯ä»¥
éĨ ĭ
ä¹ĭ å¿ĥ
æĸ¹ éĴĪ
é©¬æĿ¥ è¥¿äºļ
Ġ vert
ĠEn joy
æŀ £
èł ¢
éķ¿ åº¦
å¤§ æ°Ķ
ĠB ush
è¿Ļä¸ª äºº
ä¸Ģ æĺ¯
il st
å¸Ĥ çļĦ
Ġincred ible
è¤Ĳ èī²
å®¡ åĪ¤
åİĤ åķĨ
ĠåĵĪåĵĪ åĵĪåĵĪ
ĠÐ· Ð°
or b
åĨ ¶
ä¸Ģ éĹª
ir ms
åĽ½ ä¼ļ
Ġform ation
æĸ¹ ç¨ĭ
ç§¯ åĪĨ
ä½¿ åħ¶
æĿ¡ çº¦
çĥŃ éĹ¹
Ġvul ner
ell ite
çĸ« æĥħ
ĠJ ay
åŃĲ å¥³
ĠReg ion
ĠAd v
ä½Ļ äºº
èĨ ı
å®¢ è¿Ĳ
hold ers
ĠNot able
lah oma
ĠStud ent
Ġdes ired
Ġresident ial
è¿Ľ å±ķ
æĽ´ æį¢
ĠZ h
Ġent hus
Ġ å¤´
æ´¾ çļĦ
Ġcontrib uted
C P
F T
Ġ ç¬ĳ
è¦ģ ç´ł
ä¾¿ åĪ©
Ġs ad
ĠD rive
ĠT a
Ġj ur
ĠWe bsite
ĠHam ilton
ç² ¥
C L
pos ition
ĠB uff
ac c
, )
å ¬
èĲĿ åįľ
å¹² æī°
Ġ ãĢĮ
ĠS in
éĻĨ ç»Ń
Ġbig ger
çļĦ åĽ½å®¶
å°¼ æĸ¯
ç¼ĸçłģ ä¸º
F orm
Ġ ç½ĳç»ľ
ĠTr ade
Ġmonth ly
çļĦ å½¢å¼ı
å°ļ ä¹¦
Ġrel ief
Ġprov in
éĢ Ĺ
ä¸į å¿ħ
éĥ Ŀ
Ġcomb at
åı¯èĥ½ æĢ§
ç®Ĺ æ³ķ
åĬĽ åĴĮ
Ġattempt s
æĿĳ å§Ķä¼ļ
è¿Ļ çĤ¹
Ġpro of
å¿ĥ æĢĿ
æ¿Ģ ç´ł
Ġb aking
ĠM oh
æ°Ķ ä½ĵ
å½¢æĪĲ çļĦ
åĽ¾ æ¡Ī
Ġgener ated
Ġunivers ities
å¼ §
Ðµ Ð´
Ð¸ Ð½
ä¼ĺ åħĪ
ç¤¾ä¼ļ çļĦ
Ġç¬¬åħŃ ç«ł
ç¡ ħ
çĸĳ éĹ®
iss ions
åµ Į
Ġroy al
èĭ ¯
' '
Ġbelie ves
AR T
èµ° åĩº
éļĲ éļĲ
åıª æĢķ
Ġcont ained
Ġ èĭ±æĸĩ
ä¸į ä¸Ģæł·
Ġb at
Ġr id
Ġann iversary
ow ing
åĨ¬ åŃ£
friend ly
R I
çļĦ ä½ľåĵģ
æ´Ľ éĺ³
Ġ 02
Ġc able
ä¸Ģ æ®µæĹ¶éĹ´
éĶ¦æłĩ èµĽ
å¹´ åĪĿ
å¦ ¨
a ire
æ½ ĩ
çİĩ ä¸º
è¿Ĳ æ°Ķ
æ°Ķ æ¸©
includ ing
Ġconst itu
Ġc os
Ġcho ices
Ġl ights
Ġex clusive
Ġhousehold er
æĸ° æĬĢæľ¯
æŃ ª
æ£ ķ
Ġt one
Ġport ray
ĠPe ace
ç§ĳåŃ¦ æĬĢæľ¯
éĴ ī
ä¸ĵ é¢ĺ
æĿĥ çĽĬ
St ate
ĠMex ican
ä¸Ń æľŁ
èģĮä¸ļ çĶŁæ¶¯
é¢¤ æĬĸ
ç»ĵæĿŁ åĲİ
æł Ĺ
Ġex ists
od ge
åĽ½ ç«ĭ
é¾Ļ çļĦ
Ġplan e
æ²Ī éĺ³
æĭ³ å¤´
èīº äºº
ĠProfess ional
Ġåĩł å¤©
ç¬¼ ç½©
å¾Ī å¥½çļĦ
Ġrank ed
Ġs ought
Ġreplace ment
çľģ å§Ķ
çļĦ è¡¨æĥħ
| |
Ġfant astic
å¸ĥ é²ģ
ĠDet roit
ç¯® çĲĥ
æĸŃ äºĨ
Ġtransl ation
Ġw aters
dis ambiguation
ĠW W
è´ ©
èĴ ľ
ĠLab our
åĩł æ¬¡
ĠS H
ä¸į è®º
ĠP ur
åįĬ å²Ľ
å®ŀ ä¹ł
Ġi Phone
è¿Ŀ æ³ķ
Ġtransfer red
ĠæĿ¡ å½¢çłģ
ĠÐ ľ
ç®Ĺ äºĨ
Ġh ockey
å½± åĥı
ä¹Ł å¥½
èī² åĪĹ
ĠBe aut
H D
ĠJ ava
ĠR ick
Ġcl othing
ze ch
Ġstrugg le
åĨħ åŃĺ
Ġpresident ial
igh th
æĦıè¯Ĩ åĪ°
Ġdep ends
ĠN ich
Ġlo op
Ġpar liament
Ġdest ination
m aking
Ġ( $
Ġinvol ves
ç¾½ æ¯Ľ
Ġmov es
Ġ å±±
ĠCh ap
ĠV in
ç»¿ åĮĸ
éħ µ
åĴĮ å°ı
åħ¬ åĬ¡
é¦ Ī
enn a
åĢ¾ åĲĳ
Ġread er
B u
Ġf olk
æ³° åĽ½
æľºåĻ¨ äºº
ç¬¬ ä¹Ŀ
Ġche ap
å®¶ ä¸Ń
æľ¬ äºĭ
æĹ© ä¸Ĭ
st ic
è¾ĥ é«ĺ
Ġprovid ers
c at
ac ent
åĽŃ åĮº
éĴ¢ çĲ´
Ġ æĸĩ
Ġl ift
çĮľ æµĭ
Ġsequ ence
ĠH aving
d i
Ġ åĻ
or able
Ġ èĥ¡
Ġill ness
Ġbrother s
Ġapp s
Ġfact ory
Ġw al
æĶ¿ æĿĥ
ĠPri or
ĠM other
ĠWh it
ç³ĸ å°¿
ä¸į æŃ¢
Ġsummar ize
ce ived
çĶµåŃĲ åķĨåĬ¡
Ġre act
ç«ŀ èµĽ
æł½ åŁ¹
end a
ĠP ast
Ġdraw ing
éĢĤ å®ľ
ï ¿
ĠYear s
ĠD ue
ä¸ĭ åĪĹ
æĮ ½
" ãĢģ"
è¦ģ ä¹Ī
ĠCh o
ĠSch ol
å°± è¿Ļä¹Ī
raz y
Ġt ut
åĪ¹ éĤ£
Ġincre ases
ä¸Ģ æĸ¹éĿ¢
ä¸Ĭ æ¬¡
äºĮ çº§
è¯¸ èĳĽ
æĽ¿ ä»£
qu es
èŃ¦ æĸ¹
éĥ½ çŁ¥éģĵ
ian g
æīĢæľī äººéĥ½
Ġpay ing
çļĦ ç²¾ç¥ŀ
om ot
ç§į ç§į
ç§° åĳ¼
ä¸» åĬĽ
æ³ķ åħ°
Ġlist ing
Ġlog o
çļĦ é£İ
Ġappear ances
Ġpe ak
ĠBar on
D E
çĶ· åŃ©
æĥ³ ä¸įåĪ°
Ġhapp ening
éĩįè¦ģ çļĦæĺ¯
b el
Ġmill ions
Ġre in
æ© ¡
åİ¿ çļĦ
in put
ur l
ä»ĸ åıĪ
çļĩ ä¸Ĭ
Ġtell ing
m i
Ġ åĽ¾ä¹¦
Ġä¸į åĪ°
æ¸ħ æľĿ
è¯į æ±ĩ
ĠB uck
Ġan x
ĠF u
Ġr ating
èĢģ èĢħ
æ¼Ķ å¥ı
è£ ¸
G E
æ°´ åĪ©
ĠAl f
Ġpriv acy
Ġconsist ent
ĠO R
ent le
ĠC ape
Ġ1 20
Ġstri ke
9 01
ĠBl og
ĠT ry
å¤§ äºĭ
Ġliter ary
åİ¿ åŁİ
çĳŀ å£«
els on
Ã© n
Ġ åı£
Ġj ava
ä¸İ åħ¶ä»ĸ
Ġint ent
Ġtra ins
Ġmach ines
Ġocc urs
ĠTra ining
ĠKent ucky
æŃ¤ äºº
Ġinteg rated
å¹´ ç¾İåĽ½
ä¸į å®ī
Ġspirit ual
Ġpro ve
Ġcover ing
ï¿ ½
à ¥
çļĦ æľĢ
Ġv ital
ĠSt ore
èİ ½
Ġtick et
å¹² çĩ¥
Ġrel ative
ä¸Ģ é¢Ĺ
Ġåĵ Ĵ
è¯´ å¾Ĺ
ĠSc he
ĠC N
çļĦ å±±
ear ing
ç»´ äºļ
æ»¡ äºĨ
æ¿Ģ åıĳ
åĬ³åĬ¨ åĬĽ
Ġcon vent
èĩ³ å°Ĭ
ĠAust in
Ġeng agement
ers hip
ä» ķ
ä¸Ģ å¤´
ol o
å£° æĺİ
Ġins ert
Ġo k
è¿Ľ åĮĸ
åŃ£ èĬĤ
ĠSt adium
Ġour selves
éĺŁ åĳĺ
åıį æĬĹ
ĠM s
ĠåĲĥ é¥Ń
çļĦ ä¼ģä¸ļ
Ġd owntown
Ġcomp ens
ĠCor ps
Ġheav ily
ç¦ı åĪ©
2 20
c al
æĹł ç©·
Ġappreci ate
åķĨ åľº
p resent
ro ke
ä¸Ń æľĢ
u v
ĠåĴ ¯
æĺ¯ä¸Ģ åĲį
ä¸»ç®¡ éĥ¨éĹ¨
è§ģ éĿ¢
ĠProv ince
Ġ åįİ
g age
Ġp ip
Ġen roll
éĴ ĵ
è¿Ļ åı¥è¯Ŀ
iv a
Ġun us
ĠF ile
æĶ¿åºľ çļĦ
Ġ å®ĭ
ä¸Ģä¸ª æľĪ
Ġdra wn
Ġla id
è§£ æŀĲ
æĿ ı
ĠF uture
Ġbirth day
éĢłæĪĲ çļĦ
Ġvict ims
çŁ £
ãĢįãĢģ ãĢĮ
l ib
çĶŁ æ°Ķ
Ġh idden
ä½ł æĥ³
he red
è´¨ çĸĳ
åįģåħŃ ç«ł
re tt
çŃ Ľ
æ² ¼
ĠA thlet
Ġsk ill
iss ue
d s
Ġcontroll ed
Ġposs ibility
Ġcontin uing
æ®¿ ä¸ĭ
ĠD allas
11 1
è¥ Ħ
Ġprint ed
Ġtrou ble
çļĦ ä¿¡æģ¯
Ġt ank
å¤© èµĭ
Ġch ose
å² ļ
å¤Ħ ç½ļ
å¿ĥçĲĨ åŃ¦
Ġdisapp oint
ĠSever al
è¿Ļ ç±»
ĠW as
Ġsitu ations
ĠOk lahoma
ä¸įè¿ĩ æĺ¯
ä¸Ģ ä¼ļ
Ġhead s
ä¸ĭ ä»¤
çī© èµĦ
Ġdesign ated
Ġmembers hip
m ble
ĠF ig
ĠLat ino
åı· çłģ
æī¿ åĮħ
Ġå®ļ ä»·
Ġstret ch
æĥĬ åĸľ
è¿ĩ æĿ¥çļĦ
åı² ä¸Ĭ
se a
âĢĻ ,
Ġad min
å°Ĩ é¢Ĩ
Ġ æ¯ı
Ġ å¸®
Ġt ight
ĠR aj
åĴĮ å¤§
ĠMo ore
Ġadministr ative
Ġkey board
b ound
Ġmanag ers
ĠViet nam
Ġ! =
åħ ĳ
ç¦» åİ»
Ġ åĪĿ
Ġpass es
ot ten
æĶ¿æ²» äººçī©
Ġvis ible
ater n
ĠAl tern
ĠB h
ĠJew s
å¥ĸ é¡¹
ĠY et
Ġimp ossible
çĵ¦ å°Ķ
og y
èĲ½ ä¸ĭ
m akers
S L
åĭī å¼º
ä¸į æŃ»
b ase
ab ama
èº« æĿĲ
ob by
U p
çĳŀ åħ¸
è¯Ŀ é¢ĺ
gress ive
æľīåĪ© äºİ
Ġsqu ad
çŃī æĸ¹éĿ¢
ä¹ĭåīį çļĦ
Ġpick ed
Ġacqu is
Ġst ood
æĢ§ åĳ½
èīºæľ¯ å®¶
å¤ļ æł·
è®¾è®¡ å¸Ī
, ãĢĮ
çľĭ çļĦ
åĴ ¯
Ġun a
å¼ķ åħ¥
è¿ľ çļĦ
inem a
ä¸Ģ éĥ¨
Ġind eed
ĠEd itor
ol as
wor ld
Ġ æĢķ
äºº äºĭ
äºº éĹ´
èĩª ä»İ
Ġmin i
j ust
Ġ çīĽ
ä»» èģĮ
åįĥ éĩĮ
æĭĵ å±ķ
ot te
æ± Ŀ
éĴ ©
Ġhard ware
é£İ çļĦ
Ġadvent ure
å½ĵ äºĭ
8 50
= '
åŃ¦ æĬ¥
2 40
æĬ¥ çº¸
çĶ» å®¶
åħ ®
åĮ» èį¯
ann y
é¡¹çĽ® çļĦ
ĠS ep
Ñģ ÑĮ
od a
Ġsh ops
Ġy ield
Ġref uge
æ¸ħ æ´ģ
Ã Ł
Ġj ack
é¡º åºı
ĠN BA
Ġbe er
æĭ¿ åĪ°
Ġredu cing
Ġ çŁŃ
v ens
å¤į ä¹ł
Ġ èĤ¯å®ļ
æ°´ éĩı
Er ror
Ġfac ilit
Ġinstr uments
åĪĹ ä¸º
åı¸ æľº
Ġprincip les
fol io
Ġ Ñĩ
b en
ç²¾ èĭ±
Ġs ail
ĠCl imate
back ground
x x
ç¥ĸ çĪ¶
Ġunder t
æĭ¿ åĩº
Ġbur ied
T O
Ġsett led
ig ate
Ġm olec
å¯¹ å¾ħ
ĠPal est
Ġ éĥĳ
Ġth in
Ġout standing
åĲĦ ä½į
éĤ£ä¹Ī å¤ļ
R L
å¹³ åİŁ
8 90
r ine
ĠF ather
æĻĭ åįĩ
è° ħ
Ġmanag ing
N ot
ĠHistor ical
Ġj ew
æ¢ Ń
æ£Ģ å¯Ł
éĴ¢ éĵģ
æĲŃ éħį
Ġ äº²
ĠC ra
ĠC ond
M E
D es
å¾Ĺ å¤ļ
Ġl unch
å¼º çĥĪçļĦ
int s
Ġfin ance
æĹĹ ä¸ĭ
( ),
æ¯Ľ æ³½ä¸ľ
ä¹ĭ éģĵ
åĥı ç´ł
l en
ä¹ĥ èĩ³
æľĢåĲİ çļĦ
ĠG h
çº³ ç¨İ
åĩł ä½į
l ie
åı¯ çĪ±
æĦ ļ
åī© ä¸ĭçļĦ
Ġf lying
ÑĢ Ñĥ
åħ¶ä¸Ń æľī
ĠW el
å¤§ åĮº
Ġproced ures
æ¸© æŁĶ
Ġengine er
se ason
o a
or ia
å¤´ é¡¶
ĠSp irit
Ġproced ure
Ġexpl ains
a ver
l an
ĠH ig
èĮ µ
æĮĩ çĿĢ
Ġcru cial
ĠT able
ĠL ess
èģĬ å¤©
C o
Ġsitu ated
ç±³ å°Ķ
olog ists
Ġ æ¯ıå¤©
Ġse vent
Ġimmedi ate
äº¬ åŁİ
æĪĳ è¿ĺ
ä»¥ ä¾¿
Ġæľī äºº
90 6
ç¬ ¨
åĨ³ å¿ĥ
è¡ ¬
Ġmer ch
ä¸ī çĻ¾
P D
ä¸¤ èĢħ
æ¾ Ħ
ĠK ings
åİ» æī¾
åıª ä¼ļ
ĠH op
ĠRem ember
åħŃ å¹´
Ġappro val
å®¶ åħ·
çº¿ ä¸Ĭ
çª Ł
Ġse ctions
90 8
Ġtot ally
åĽŀ äºĨ
Ä Ľ
çĥ «
éģĹ æĨ¾
Ġun f
ĠMar ine
è¥¿ èĹı
æµģ éĢļ
ĠN umber
net ic
çļĦ çĽ®æłĩ
æĮ£ æīİ
est ed
åī¯ ä¹¦è®°
ĠG ab
å©´ åĦ¿
ç¥¨ æĪ¿
am ental
Ġexp osure
Ġconst antly
åı¯ è°ĵ
ĠV i
} }
Ð¼ Ð¸
ä¸ĸçķĮ å¤§æĪĺ
æ¶Ī éĺ²
å¤ļ åħĥ
æĿĢ æīĭ
Ġcommun ications
hold er
v ision
æĴ ĩ
æ£ º
åĲĦ çº§
Ġpropos al
ĠJ osh
Ġjournal ist
ä¼ł æĦŁ
Ġ æ±Ł
ä»£ æĽ¿
Ġinst ruct
éĵģ éģĵ
æ· ³
ç«ĭ ä½ĵ
å§Ĳ å¦¹
ç¹ģ æ®ĸ
æİ Ģ
æĺİ æĺİ
å± ¡
Ġdel ight
ak h
Ġl ists
er ver
ä¸Ģ ç³»åĪĹ
åħĪ åīį
åĺ´ å·´
åĲĳ ä¸Ĭ
å· ©
ç¼ ¸
çļ± çľī
çŁ ¢
åľº ä¸Ĭ
æĸ Į
Ġemploy ed
ĠTh ird
Ġcon sole
çļĦ çģ«
çĿ¡ è§ī
Ġperfect ly
t itle
Ġp itch
Ġus age
è¾ī çħĮ
åĲ µ
è¿Ļ ä¸įæĺ¯
ä¸» çļĦ
Ġgar lic
Ġ è®°å¾Ĺ
å°Ĩ åľ¨
Ġw et
Ġrat io
Ġshe ll
b urn
åĽ½å®¶ çº§
Ġdistrib uted
Ġcompos er
ĠCl in
Ġl uck
3 50
ĠHar vard
ä½ł çľĭ
æľĪ åĪĿ
ne ver
ĠT y
ĠDougl as
Ġsomew hat
å¹´ ç¬¬
èĭ¥ å¹²
åįģä¸ĥ ç«ł
M T
æĳ© æīĺ
å°½ å¿«
ter y
äºĨ å¾Īå¤ļ
r ations
åŃĹ æ¯į
æģĭ çĪ±
ĠB ishop
ĠW ow
æĺ¯ ä¸º
åľº åľ°
éľĩ æĴ¼
ĠAcc ount
Ġfeel ings
Ġprof it
åħ» èĢģ
åĩº è¡Ģ
om ic
åĴĮ æĪĳ
éļı æľº
è¡¥ åģ¿
Ġopp osed
Ġæľ¬ ä¹¦
éĹª çĶµ
éĢģ åĪ°
Ġ ç½ĳ
Ġwor st
Ġcateg ories
æĲº å¸¦
Ġrepresent ing
Ġcent ers
æµĻæ±Ł çľģ
äºĨ å¤§
ä¸ī å¤©
çª ĥ
Ġ æį®
on na
v as
ang ers
ĠPl aces
w estern
ĠR ound
Ġsubsequ ent
å¨ ħ
å®Ŀ çī©
ä¼¤ åı£
90 7
Ġren amed
er g
åºŀ å¤§çļĦ
ç©¿ è¶Ĭ
çļĦ çİ¯å¢ĥ
çļĦ æ¶Īæģ¯
çļ ĵ
7 50
P ath
Ġincorpor ated
ĠD yn
çĥ ¯
å¤« å¦»
ĠFred er
ĠM and
Ġsuggest ions
as ant
å¥ ¢
é³ į
ĠT ag
ĠI mm
æ¯ķä¸ļ çĶŁ
å¾Īå¿« å°±
I O
el and
åĬł çĥŃ
å°Ķ åħ°
Ġinj ured
Ġfranch ise
Ġsubject s
ĠDef ense
ĠM ove
is ations
ĠCh ange
Ġm ob
pe ople
åķ ª
çļĦ æķĪæŀľ
åĢĻ éĢī
çĶŁæ´» ä¸Ń
æĽ´ é«ĺ
ors hip
ĠæŃ£ æĸĩ
n on
æł¹æľ¬ å°±
Ġte ch
å¿µ å¤´
Ġrepresent ative
ĠUk raine
iction ary
å®Į æ¯ķ
çļĦä¸Ģ å£°
Ġdyn amic
ç¥ŀ å¥ĩ
åį´ åıĪ
8 80
Ġassess ment
åĪ° çİ°åľ¨
æľī è¶£
Ġst ake
ç»ĵ å±Ģ
Ġreal ize
m al
å¼º åĪ¶
90 3
æĢ» éĿ¢ç§¯
Ġä¸Ĭ çıŃ
Ġâ ĸ
ram a
å´© æºĥ
åĸľæ¬¢ çļĦ
åĪĨ è£Ĥ
ĠComp uter
m ade
Ġun cle
åĵ ®
å® µ
å¤© ä¸»æķĻ
ĠAm b
ĠB orn
ĠAtl anta
ä¸į åıĹ
Ġd ining
a us
ro t
ç¼ ķ
A Y
Ġimprove ment
S te
Ġext reme
çļĦ éĢīæĭ©
Ġimpro ving
af e
Ġ å±ıå¹ķ
Ġd iversity
ĠCh all
Ġ 99
Ġ å¹¸ç¦ı
äºĨ ä»ĸçļĦ
Ġpotential ly
èĦĸ åŃĲ
Ġsu fficient
Ġcent uries
æĺ¥ ç§ĭ
é¤Ĳ é¥®
ĠI ron
Ġsc r
çķĮ éĿ¢
ĠO bs
ĠJ ason
Ġcarry ing
ç¢ Ł
ri ers
å¤§ å¥ĸ
çĻ½ çļĦ
ĠYou th
let ter
r s
Ġun e
igen ous
ES S
ä¾ £
çł´ ç¢İ
ĠN ature
æĪĳ çİ°åľ¨
è®¤ åĲĮ
ific ial
å¯¹ èĩªå·±
ç¤¾ åĽ¢
ĠC ov
ĠI de
ĠAl abama
alle l
Ġchild hood
çļĦ ç©ºéĹ´
ĠTra il
æĻ® åıĬ
é¢ ħ
Ġ åħ¶å®ĥ
Com p
Ġju ice
ĠLear n
ellect ual
Ñ ĺ
ĠD omin
èĢĥ åı¤
Im age
æīĭ èĩĤ
çĮ ¿
ĠDemocr ats
Ġ æ¯ķç«Ł
Ġ æĥħ
ä¼ĺ æĥł
ĠTe le
ag u
Ġ åıį
å¹³ å®ī
Ġä¸į çĶ¨
ĠB owl
å°± è¿Ļæł·
ipp i
Ġkind s
ĠPart ners
åŃ©åŃĲ ä»¬
Ġphil osophy
èĮ¶ åı¶
M e
åįİ äºº
ul ating
ap h
åľ° å¸¦
Ġacc used
éĹ ½
i ate
ä»ĸ å·²ç»ı
Ġtest ed
ð Ł
Ġ ç¥Ŀ
å¤© éģĵ
è¯ģ å®ŀ
ĠMus lim
Ġb ow
æķĻ å®¤
å°ĳ çĪ·
Ġbeh alf
è° £
æ´» æĢ§
å±¥ è¡Į
Ġ åĹ
èħ ¥
ĠMay or
ä»ĸ ä¸į
å½ ª
å®¡ æī¹
æķĻèĤ² çļĦ
ch i
Ġfrequ ency
éļ¾ å¾Ĺ
ä¸¥ èĤĥ
Ġ èĤī
h ard
ç¦ ¹
Ġ äºĳ
èµ· çļĦ
Ġsub mit
åħĪè¿Ľ çļĦ
å¸ §
æľī ä¸¤
éļı ä¹ĭ
é©¬åħĭ æĢĿ
k t
Ġ è¿ĳ
Ġmain tained
Ġwor se
a fter
ect or
ort heast
èĻ ŀ
Ġavail ability
Ġ æĺŁ
Ġsuppl ies
AN D
âĢĿ ;
ĠS uch
æµĵ åº¦
å¤§ å¸Ŀ
æ¿Ģ åĬ±
æĦŁ åħ´è¶£
åº· çĨĻ
Ġfact s
å¤ļ é¡¹
G iven
Ġent rance
Ġinst itution
ĠSaf ety
æĸ §
Ġå°± åľ¨
Ġder ived
Ġ èĦ¸
om er
èĢĮ è¢«
ĠBib li
è½¦ çļĦ
Ġtrend s
Ġen emy
ĠR ain
Ġnorm ally
Ġfood s
è½° çĤ¸
ä¸Ģ ä¸ĸ
çĮĽ åľ°
Ġansw ers
åħī çļĦ
è±Ĩ èħĲ
é«ĺéĢŁ åħ¬è·¯
Ġdis pl
rodu ction
å¯Ł è§ī
hemat ics
Ġ/ >
ress ed
æ²³åįĹ çľģ
åĽ½ åľŁ
åĳ½ çļĦ
ĠOrig in
Ġy es
åįģåħ« ç«ł
äºĪ ä»¥
Ġinform ed
h um
Ġvot ed
ĠS C
ang el
è¥¿ åĵ¥
è¡Į äºº
Ġst unning
æ°´ æŀľ
ie val
ĠMiss iss
Ã ª
ä¸ĵ æ³¨
ĠAl an
Ġgl ad
æĪĺ åĲİ
é¢ĨåŁŁ çļĦ
ä¸į åĪ©
æĹħ å®¢
Ġbrows er
Ġ ä»¥åīį
æ³ķ åŃ¦
éĿŀå¸¸ çļĦ
æĻ®éĢļ çļĦ
æĭ ¢
æĪĺ èĪ°
Ġsus pect
åĨ ¤
d ated
æĽ´ åĲįä¸º
Ġ é¡¹çĽ®
æĮ ¨
ĠSt ew
ĠTe ch
ä¸¥éĩį çļĦ
ä¸Ģ æĦ£
çº ¬
æĪĺ èĥľ
ĠÂ °
åħµ åĬĽ
ĠTok yo
æµ· ä¸Ĭ
ĠSh ould
éĩĳ èī²
èŃ¦ åĳĬ
è·¯ éĿ¢
Ġconne ctions
at al
åĨĽ åĮº
vers ion
ĠM as
Ġrele ases
è¯ µ
ĠB ey
è§Ĥ æµĭ
ax y
Ġknow ing
ä¸ī åĽ½
en cing
åŃĲ å®«
ç»Ħç»ĩ å®ŀæĸ½
æģ į
Ġhop es
Ġsing ing
Ġconc rete
éĹ ¸
äºĮ ä¸ĸ
A K
æĿ ĸ
æ¬§ åħĥ
ĠTem ple
uten ant
ĠM obile
hed ral
id o
ĠH ug
ĠDem ographics
Ġtow er
ĠVeg as
i em
Ġc rack
ĠWith out
éĥ¨ ç½²
å½ ¬
Ġne ut
ĠTransport ation
æľī æĹ¶åĢĻ
Ġexpect ations
ĠMov ie
å¯ ¡
C omm
åĮº åĨħ
Ġstreng then
æ·ĺ æ±°
çļĦ æ¦Ĥå¿µ
ĠC zech
Ġext ent
Ġgen re
B L
ç»Ļ èĩªå·±
æĮĸ æİĺ
Ġme ets
å¢ŀåĬł äºĨ
ĠF OR
çĶ¨ åĵģ
åİ¦ éĹ¨
èī° éļ¾
Ġchair man
un es
æ¯Ķ èµ·
ĠCom b
Ġf ont
ĠP ear
be an
E V
ç¼ĵ æħ¢
r ont
è®° ä½ı
å°± å¥½
åıĹ åĪ°äºĨ
ä¸»æĮģ äºº
Ġslow ly
ä¸ĩ ç¾İåħĥ
çļĦ åĲįåŃĹ
è¿Ļä¹Ī è¯´
ush ing
Th at
um ps
Ġg iant
Ġdefe at
å²ģ æĹ¶
Ġph arm
èŀį åħ¥
æĹł åı¯
Ġpr ay
d ie
å¼º è¡Į
Ġass ault
æĮ¥ æīĭ
æ°Ķ æ°Ľ
åľº éĿ¢
çĲĥ è¿·
Ġmod er
èĴ ²
itzer land
if ier
Ġredu ction
ĠE ag
Ġc ake
ĠMean while
in th
Ġs ons
Ġphr ase
è¡ ·
çļĦ åİŁ
Ġp a
åĽŃ æŀĹ
é¼» åŃĲ
çĶŁ æĹ¥
Ġ çľŁæĺ¯
éĺ İ
æĶ¾ æĿ¾
ĠBr un
ut ter
Ġis lands
Ġev olution
Ġlist ening
Ġiniti ative
ä¿ ¯
Ġind icate
est ab
åı¯ åľ¨
ĠIsl amic
æ³ »
ä¹ĭ æ°Ķ
ĠAnsw er
ĠInd ones
èĻ ı
Ġkeep s
Ġspec ified
ä»¥ èī²åĪĹ
Ġ` ``
US B
ĠIndust ry
å¥¶ å¥¶
çłĶ åĪ¶
çīĻ é½¿
nov ation
Ġth orough
åĽĽ åįģ
æĥħ çļĦ
äºĨ å¥½
ç®¡çĲĨ å±Ģ
Ġcare fully
Ġfac es
ÑģÐº Ð¸
ĠC ities
^ {
åĲ ©
Ġb ike
åı¬ åĶ¤
æĹģ çļĦ
ĠMor gan
Ġf ol
å¯¹ éĿ¢
A ut
ĠG ib
p ed
Ġcour ts
Ġst im
å®¢ äºº
éĴ ¥
ä»ĺ åĩº
Ġmag ic
Ġen forcement
Ġæľ¬ æĿ¥
ĠM D
f ire
ä¸º ä¸Ńå¿ĥ
æĹ¶ ä»»
éĥ¨ ä»¶
Ġfor th
æĮĩ ä»¤
çķľ çī§
ä½ł åİ»
çĦ¶ çļĦ
Ã¡ s
c ow
ic ut
æĭ¿ ä¸ĭ
ç²¾ åĵģ
çİ« çĳ°
çłģ å¤´
Ġno ise
ä¸ŃåĽ½ äºº
Ġlim its
ĠG ordon
åľŁ æľ¨
åĲī æŀĹ
ĠBe h
å¤ļ ä¹Ī
ic ity
Ġmanufact urers
Ġr ising
æļ´ åĬĽ
ĠBru ce
ig s
å¤© æĸĩ
Ġst rict
Ġ æľ¨
Ġå¥½ å¤ļ
æķĪ åĬĽ
ĠB or
Ġap artment
äºĨä¸Ģ ç§į
ãĢĭ ãĢģ
æ³¨ å°Ħ
Ġde ploy
Ġ5 4
Ġ èİ«
æ°Ľ åĽ´
çļĦ ä¸ĭ
le ep
ä½ł èĥ½
ĠNe ed
Ġ ä½ľåĵģ
el ve
èĳ£äºĭ éķ¿
F l
Ġper mission
ĠPr ice
Ġant icip
Ġf rag
çļĦ ç¤¾ä¼ļ
90 4
Ġbreak fast
åľ¨ æł¡
Ġmar ks
æľīåħ³ éĥ¨éĹ¨
æµª æ¼«
åİ ¥
Ġast ron
Ġsol ve
æº¶ æ¶²
çļĦ è¡¨çİ°
ĠS ac
Ñ Ĺ
ĠPriv ate
å°ı åŀĭ
ĠUl t
ĠGree ce
Ġfram ework
äºĨ æĪĳ
ell i
ĠM ission
ä¸¤ å¤©
æ°´ æ³¥
æĪ ®
N e
ĠP ed
ĠG ene
å¼ Ĭ
Ġher itage
ink ing
Ġ );
åĲ ģ
æ¯ķä¸ļ åĲİ
ĠL am
Ġv it
çŃ¾ ç½²
åĪĨè¾¨ çİĩ
Ġ è®¤è¯Ĩ
Ġformer ly
Ġille gal
åħ¨ ä¸ĸçķĮ
éĽ į
æľį çĶ¨
åķĨ äºº
æĳĦåĥı å¤´
Ġp it
Ġv irus
æ¿Ģ åħī
Ġqual ified
ateg ory
åĩł äºº
æĢ» æķ°çļĦ
æŀ¶ æŀĦ
Ġ å¤ı
H T
éķ¿ æ²Ļ
ig a
ĠBet ween
Ġk illing
rest ling
Ġphot ography
åĴ ķ
æ²¡ äºĨ
oy d
ĠH ans
ĠMc K
çİĽ ä¸½
åįģä¹Ŀ ç«ł
Ġ ç»ĵæŀľ
Ġguid elines
Ġåĵ Ń
ĠM ind
å¤ĸ ç§ĳ
Ġoper ates
éĥ½ æĺ¯ä¸Ģ
é¡¶ çº§
it em
åĽŀ æĿ¥äºĨ
æµ ĩ
å¼Ģ éĢļ
åı¯ æĢľ
ä½ľ æĽ²
Ġoper ator
è¿Ļ æĺ¯ä¸Ģ
è¾ ķ
ic he
Ġsy nd
ĠSom etimes
che ck
Ġpri ze
qu ality
æĥħ å½¢
å·² è¢«
äººæ°ĳ æ³ķéĻ¢
åĬ¨ èĦī
å¤§åŃ¦ çļĦ
S he
er k
éĤ ĳ
Ġprov ed
è½¬ åĮĸ
æ¼Ķ è®²
Ġlight ing
ĠL anguage
é¢ Ĥ
ä¸» åĬŀ
UT C
ĠM ess
ĠAf ghan
Ġprem ier
è§Ĩ éĩİ
Ġelect ron
ĠMic hel
è¿ŀ è¿ŀ
å¹² èĦĨ
æľº åĬ¨
14 0
Ġrepresent ation
Ġmount ains
ĠA BC
Ġacc eler
å¢¨ è¥¿åĵ¥
w all
çļĦ æĶ»åĩ»
ĠN S
Ã¨ re
Ġimag ine
ĠPolit ics
ä¹Ŀ é¾Ļ
æİ¢ æµĭ
éĺ ®
ä»ĭç»į äºĨ
r us
ĠO il
åŁ¹ èĤ²
ĠMot or
çļĦ èº«ä»½
Ġst ages
ĠD ick
å¼Ģ æĭĵ
RO M
Ġthe ore
åĽ ļ
æ¯Ķ åĪ©
è·¯ æĺĵ
yp es
Ġt ab
ä¸ī ç§į
æĬ¤ åį«
åħ» çĶŁ
Ġvict im
ast ed
æ¢ µ
æ¸ħ åįİ
Ġeth nic
ä¸Ģ éĿ¢
ĠLear ning
æīĵ åį°
è®© èĩªå·±
éª ı
Ġcor on
Ġâ ĨĴ
åĩł ä¸ªäºº
al so
ä¸Ģ æĹ¥
ĠAg ric
ad er
Ġp y
Ġd Ã©
çº¦ ä¸º
Ġful f
Ġp ione
Ġparticip ated
ant ry
è¾¹ çķĮ
çĿ¡ çľł
åĲ© åĴĲ
æ² ª
èĩª æĿĢ
åĽ¾ å½¢
çĶ Ħ
Ġunc ertain
d y
æĬµ æĮ¡
Ġcal endar
å®Įæķ´ çļĦ
è®® éĻ¢
ĠLeg isl
çļĦ èĦ¸
åľ¨ å¤ĸ
ĠNor way
Ġ å¤ľ
ĠTh ings
Ġsuff ering
d am
éĢ ®
èĸ ¯
ĠAnn ual
w ords
Ġmusic ian
N et
ĠIsl am
Ġch ap
ĠRober ts
Ġa er
åľ¨ ä¸ĭ
Ġas ide
ä¸į æĺİ
åĲİ éĢĢ
èĭı å·ŀ
ĠBr and
åĪĹ åħ¥
Ġpopular ity
Ġlux ury
ç¥ ¯
å¤ª æŀģ
Ä ħ
f rac
éĿĻ éĿĻ
æ¸¯ åı£
åĬ© äºİ
åĪĴ åĪĨ
è¿ľ ç¨ĭ
ä¸Ģ å±Ĥ
Ġse gment
Ġvot ers
l abel
ard o
åĽĽ äºº
æŃ¦ åĬŁ
ä¸Ĭ å¸Ŀ
è¯ Ľ
ä½ł è¿ĺ
åĪĨ è§£
ĠH oll
ap ing
ĠPub lished
ä½ł äºĨ
ail able
ä¹ĭ ä¸ŃçļĦ
Ġmay or
Ñģ Ñı
ç¥ŀ è¯Ŀ
å£° è¯´éģĵ
è§ģ çļĦ
Ġref used
æį ¡
èĦļ ä¸ĭ
åģ¶ åĥı
çľĭ æ³ķ
m ates
èĤī èº«
Ġv end
éĩĳ åĪļ
äºļ åİĨ
ĠChrist opher
åĪĽ å§ĭ
å¿ĥ ä¸ŃçļĦ
ul um
b led
ool s
ä¸ ŀ
è¿ĩ åĲİ
ĠStud y
ou ver
Ġse eds
Ġres erved
Ġpass engers
Ġdiv or
ok ed
Ġdis cl
æĶ¿ åįı
çĥ ¹
GB T
Ġfall s
Ġ2 50
Ġinflu enced
y ou
ä¸ī ä½į
ov es
æ³ķ å®Ŀ
Ġsub mitted
Ġbl ocks
S o
Ġ0 3
åĸľ çĪ±
P L
ĠSoft ware
ĠD NA
è¡Į èµ°
å·² æĺ¯
P G
ĠT el
ĠCl inton
å¥½ åĲ§
ast e
å» ĸ
åĬĽ åŃ¦
æĸ° çĶŁ
ĠAl i
éĿĴ å±±
im ore
Ġperson ality
Ġ5 6
Ġcoun sel
st art
åħĭ çļĦ
ĠWal ter
æĹł æīĢ
Ġperson ally
ä¹ĭ åŃĲ
p ol
Ġa ims
å·¥ä½ľ èĢħ
Ġ æĲŀ
å¥¥ æŀĹ
æĪĸèĢħ æĺ¯
åıĳçĶŁ çļĦ
æŀģ å¤§çļĦ
ç½ ¡
Ġ- >
Ġç¬¬ä¸ĥ ç«ł
Ġh ur
æ¾ ¡
å½ĵ ä¸ĭ
Ġä¸į äºĨ
Ġimplement ed
ä¸Ģ åįĥ
Ġ0 4
åĹ £
or ig
ĠF C
ĠE c
ä½ľ æĸĩ
Ġcap abilities
å¤§ äºİ
Ġcon ver
Ġdri ven
è¢« ä»ĸ
æĺŁ è¾°
Ġmem ories
ĠLiber al
ĠæŃ£æĸĩ è¯Ńç§į
çĶĺ èĤĥ
Ġsh oes
æľįåĬ¡ çļĦ
æİĴ åĪĹ
L a
å¤§ åİħ
Ġrout es
) "
i ology
ĠT oy
é¦ĸ å¸Ń
Ġpay ments
Ġb ars
fl ix
Ġhy per
ĠL ic
æ·· åĩĿ
on ly
çļĦ é»ĳ
å¾Ĺ ä¸Ĭ
ç¼ Ĩ
ĠAuthor ity
çª ¦
Ġw ra
ĠCom ics
C ar
aw are
Ġshort ly
å¾Ī ä¹ħ
) ãĢģãĢĬ
Ġst ored
èµ· åĪ°
ĠAn c
ĠB es
åĢ ©
æŃ» åĲİ
åĩ ¹
Ġ é£ŀ
ĠÐ¿ ÑĢ
ĠF ant
äºĶ çĻ¾
ĠAll iance
åľ° åĪ©
Ġfocus es
æ¬º è´Ł
t own
åĩº æĪĺ
å¿ħ å®ļ
Ġcontrib ution
å¦ į
Ġbre aking
èµ° è¿Ľ
ĠE le
Ġ0 9
æ°´ åŁŁ
Ġ è¡Ģ
ä¸ĵ ç§ĳ
ä½ĵ åĨħçļĦ
è¯Ń éŁ³
it is
ĠPh ill
éĢı éľ²
Ġowners hip
Ġpromot ion
Ġå¤ļ å°ĳ
æĪª æŃ¢
ä¸į åłª
åĩº ç§Ł
çļĦ åħ¶ä»ĸ
éģµ å®Ī
ĠæĪĳ è¦ģ
Ġp ul
ç¼º éĻ·
Ġal ive
ĠCol on
åľ¨ å¤©
æıĲ äº¤
12 5
æĬĬ èĩªå·±
ç» ½
Ġ æ¢¦
ĠC S
ĠMal ays
éĥ½ ä¸įä¼ļ
æ°´ æĻ¶
å°ģ åį°
çļĦåľ° ä½į
Ġfind ings
çľĭ ä¼¼
å¤§ èĦĳ
åĩº åĶ®
æĪĲç«ĭ äºĨ
æľª çŁ¥
Ġs ick
Ġdise ases
ĠBe ck
å« £
m aster
Ġb le
bl ock
ist ical
y es
iv als
éĢĿ ä¸ĸ
æ¶² ä½ĵ
èĳ¡èĲĦ çīĻ
æĭĽ çĶŁ
Ġ è¶Ĭ
AT A
çĶ¨ åĬĽ
æ´Ĺ åĩĢ
çĭ ¸
éļı èĳĹ
èĥ¸ åı£
çĽ® çļĦæĺ¯
æĿĳ åºĦ
ä½ł å¥½
éĹ¨ å¤ĸ
Ð¾Ð ±
Ġcomp at
ä¿Ŀ å®Ī
è® ·
ĠR ow
ĠRes ources
ot ype
oc a
å½ĵ åį³
å·¥ ä¼ļ
æĢ» è£ģ
B ar
Ġrecogn ize
ĠHel p
ç³ĸå°¿ çĹħ
éŁ §
ĠD ance
çĹ Ĵ
ç»Ļ äºº
ä¸ĵ é¡¹
Ġtax es
åĭĩ æ°Ķ
ç¢İ çīĩ
äºĭä¸ļ åįķä½į
Ġcas ino
çļĦ æĹ¶
æľī ä¸ĢäºĽ
Ġ éĩįéĩı
Tr ans
Ġphen omen
A m
old s
ĠAd vis
ĠGirl s
å¿ĥ å¤´
ĠSw itzerland
l ast
ĠL iver
fl ow
f ather
å¤© å¤©
riv es
. [
ĠK al
ç®¡ éģĵ
åŁºéĩĳ ä¼ļ
æĸĩ æľ¬
æīĢ è¯´çļĦ
win ning
ĠC ele
Ġpromot ed
ĠElect ric
Ġ äºİæĺ¯
ĠUS B
ä¼ĺç§Ģ çļĦ
ä¸¤ å¤§
Ġse es
Ġman ual
èµļ éĴ±
el ing
åı¯ è¾¾
èĪ ħ
æ´¾ äºº
G e
z o
Ġg ear
ä½łä»¬ çļĦ
åį´ ä¸į
ç§° ä¹ĭä¸º
çĹķ è¿¹
Ġne uro
å¾ħ éģĩ
å½¼ å¾Ĺ
æīĵ éĩı
å¤§ å¤«
æ£ µ
ĠProdu ction
äº¤ åıī
ĠSong s
end ment
åħĭ éĩĮæĸ¯
Ġ8 5
åĪ« è¯´
P er
Ġexpl an
æī« æıı
Ĥ ¬
æķ Ľ
æıĲ åĩºçļĦ
ä¸ī åįĥ
Ġvill ages
æĿ¥ å¾Ĺ
å¸ ĺ
ĠT alk
av irus
Ðµ Ð²
åĴ¬ çīĻ
. ;
è¿ĩ åº¦
Ġground s
Ġf irms
ĠC L
ä¸Ģ çŃīå¥ĸ
çŁ ¶
im age
ĠF ell
ĠN ation
Ġtemper atures
åħ¬åħĥ åīį
ia h
Con text
ĠCommunic ations
P r
çļĦ çľŁ
Ġ å¦Ĥ
ĠC ow
Ġre ward
ĠB ron
ç¼º çĤ¹
or ous
éªĮ è¯ģ
è¶ħ å¸Ĥ
åħ¨ ä¹¦
Ġent ering
ĠIn te
ä¸»è¦ģ çļĦ
Ġ5 3
Ġ/ *
Ġ è°¢
å¸ĥ æĭī
è§Ħ çŁ©
ĠAnd re
Ġchar ity
Ġ çªģçĦ¶
ç» Ĵ
ro g
Ġgovern ments
9 02
ill iant
ud es
èµĦ åĬ©
Ġcompar ison
åĮĹ ç¾İ
é«ĺ æ¸©
æĭĽ èģĺ
éĻĦè¿ĳ çļĦ
çºł çº·
ĠL ane
è§£åĨ³ æĸ¹æ¡Ī
Ġdecl ine
Ġd iplom
Ġpub lishing
åįķ ä¸Ģ
ades h
Ġ} ;
atur ally
åĳĬè¯ī ä½ł
Ġrestrict ions
ar o
Ġtext ure
èĤ¯å®ļ æĺ¯
Ġç¬¬ä¸Ģ ç«ł
éĦ Ļ
ĠC R
Ġless ons
ä¸į æĢķ
è° İ
æŃ£ç¡® çļĦ
Ġgraph ics
åĩı è½»
æĤĦ æĤĦ
ĠBe ing
åĩ Ħ
èģĮ ä½į
Ġcomp osition
å¯» æ±Ĥ
Ġaw esome
è¯´ åĩº
åħĭ æĭī
æº ¯
æĹł åĬĽ
Ġhand ling
å²© çŁ³
ĠChair man
L og
çĪ± åĽ½
Ġpublic ations
bs p
ex pected
che ll
i our
ç»Ŀ æľĽ
ir ts
ç¼ĵ è§£
ur i
ĠD J
æĳ§ æ¯ģ
s ki
ather ine
con fig
Ġcomp are
Ġsav ed
æ£ ł
ä¹¦ éĻ¢
å¾® åįļ
Ġhost s
ĠPhil ip
Ġcrit ics
ä¸į ç®Ĺ
Ġsc ope
TM L
ĠJun ior
Ġfl ower
ĠSe lect
ĠArt icle
Ġcontain er
é»Ħ æ²³
ä½ł ä¼ļ
åĽŀ åĪ°äºĨ
çŃ¾ çº¦
Ġbu ff
Ġdis miss
åĳ½ åĲįä¸º
Ġed ited
Ġeduc ated
In ter
åĨĽ äºº
Ġra w
ĠJac ob
ä»İ ä¸Ń
87 0
åıį åĩ»
Ġw ound
or er
Ġre ferences
åı¯ çĶ¨
gr aduate
ĠÐ Ĳ
æİĴ éĻ¤
æľ ½
åļ £
Ġ à¤
Ġm aps
å¯» å¸¸
åľ¨ åĨħ
åºĶ æĢ¥
é£İ äºĳ
Ġ ä¼Ĺäºº
åħ¬ å¯ĵ
av al
ä¹Łä¸į æķ¢
ĠCent ury
ol ph
Ġ& &
et ary
Ġob st
åİ» çļĦ
ish ment
çĪ± å°Ķåħ°
ä½İ å¤´
ist ed
Ġdirect ors
æĸ¹ ä½į
D o
Ġfr ust
éķ¿ è¾¾
Ðµ Ð¹
ĠComm and
Ġpass enger
. _
} {
Ġcompet e
l ad
åŁİ åł¡
ä¹ĺ å®¢
åĩº äºİ
ĠN ik
åħ¬ å°º
ĠLaw rence
Ġserious ly
ĠConnect icut
Ġ å°ºå¯¸
Ġgall ery
åħ¨ çľģ
éĩį éĩį
ab il
æ© Ļ
çī¹ çļĦ
ĠT s
çģµ æ°Ķ
Ġprefer red
äºĨ ä¸ĭåİ»
è½® åĽŀ
Ġrel ation
ĠD ak
] [
é¢ĺ æĿĲ
åĪĨå¸ĥ äºİ
fam ilies
æĪĺ çļĦ
Ġ æİ¥
å¤© åŃĲ
Ġrefer ring
z es
è¹ ²
Ġal ert
æ» ¥
Ġorgan isation
æĸ¹ æīį
æ£ ĺ
Ġtem porary
éģĵ äºº
Ġelectric ity
ĠAnton io
åĮº åĪĨ
äº¦ æĺ¯
V I
æ··åĩĿ åľŁ
æº ī
Ġres idence
ĠMississ ippi
is ode
Ġcelebr ated
èĪ Ĩ
ä¼Ĭæĸ¯ åħ°
Ġ éĽ·
æ¸ħ æ°´
è¿ĩ å¤´
ä¸į å®ļ
è§£ éĻ¤
m ad
qu is
æľĢ éĩįè¦ģçļĦ
th at
ap olis
ãĥ »
Ġst able
Ġstar ring
Ġpres ents
ä¿¡æģ¯ åĮĸ
çļĦ çĬ¶æĢģ
Ġparticip ation
Ġdisplay ed
Ġpric ing
ç»ı çºª
æĸ° é²ľ
éĻĦ å±ŀ
S ervice
Ġk ne
ĠFin ance
rie ved
Ġdr ums
ĠRuss ell
Ġr ig
åĬ¨ éĿĻ
____ ____
ĠPhilipp ines
m outh
çļĦ çĻ½
ç¨ĭåº¦ ä¸Ĭ
çİĩ åħĪ
Ġprot est
Ġst adium
c ut
ĠB ah
åī¯ ä¸»å¸Ń
åįĬ å¤©
A ct
å¤§åŃ¦ åĩºçīĪç¤¾
Ġlov ely
è¢« è¯Ħä¸º
å¾Ĺ æĦı
æĳĩ æĳĩå¤´
ol id
éĦ Ĥ
åĺ ±
åĨ¬ å¤©
Ġdef ine
è§Ĩ çº¿
uss ion
Ġhead quarters
æĿ° åħĭ
æıĲä¾Ľ çļĦ
m ans
Ġ ÑĢÐ°
é» ı
Ġmod ule
ed ge
Ġpar ap
éģ ģ
éĴ §
Ġwrit es
ĠÃ ī
g on
è´Ł æĭħ
Ġdevelop ers
æµ® çİ°
Ġven ue
éĢ į
vel and
Ġext ends
æĴ¤ éĶĢ
æĪĳ æĿ¥
åĿ Ł
Ġ8 00
p op
çłĶç©¶ çļĦ
æ°¸ æģĴ
Ġfair ly
Ġacc ord
æ²¿ æµ·
Ġgold en
ä¸Ģ é¡¹
Ġpar ks
H A
b ow
Ġfl ash
ĠFrank lin
8 60
Ġch a
is d
Ġstrong ly
æ» ķ
è¿ĳ ä»£
Ġäºº å®¶
Ġnomin ated
Ġcharacter istics
å¢ Ł
ĠBel g
æĽ² çº¿
Ġ æĶ¿æ²»
è§ģ è¯Ĩ
æł¡ åĮº
åĪĨåĪ« ä¸º
åı¯ä»¥ éĢļè¿ĩ
å¦Ĥæŀľ æĺ¯
ĠAn na
çļĦ æĢģåº¦
èģĶ ç»ľ
ĠL LC
åĲ« ä¹ī
é©± éĢĲ
æīĢ åľ¨åľ°
Ġexpl os
çª ľ
å¯Ĩ çłģ
Ġç¬¬äºĶ èĬĤ
è¢« è¿«
çĶ³ æĬ¥
ĠO d
Ġle ather
F i
ç½ĳ åıĭ
Ġh oney
åħ¼ ä»»
Ġr um
ĠQue bec
Ġcolle ctions
ĠC ome
åıĳçĶŁ åľ¨
å»¶ ç»Ń
æ¾³ æ´²
Ġdeal ing
ĠH amp
Ġ åıĳå±ķ
ç¾İåĽ½ çļĦ
Ġg ram
åī§ éĻ¢
Ġattempt ed
w hel
ĠB art
---------------- ----------------
æľīäºĽ ä¸į
ĠRog er
Ġelig ible
ĠAl b
Ġele g
Ġfavour ite
ç»Ī ç©¶
T e
ç© Ĺ
æ¸ħ æ´Ĺ
è¶³å¤Ł çļĦ
ĠE D
ä»Ģä¹Ī äºĭ
åĲĥ äºĨ
ä¸¹ èį¯
è´« åĽ°
Ġ æ°Ķ
ĠC redit
åĮħ è£¹
Ġt act
è¿Ļ ä»½
æĹł æķĮ
Ġ è°ĥ
ĠTr ue
è®² è§£
ĠSw iss
èı² å¾ĭ
ĠéĤ£ äºĽ
Ġreal ized
å°±æĺ¯ ä¸Ģä¸ª
Ġencoura ged
éģŃ åıĹ
Ġmonitor ing
èĦĳ åŃĲ
U C
ĠEnvironment al
ĠC ut
é¢ĩ ä¸º
l anguage
åĪĨ æķ£
ĠPl ant
Ġt ours
åĪĹ è¡¨
â ĸ
èĲ į
èĢģ å¤«
çĽ ¼
è½¬ å¤´
act ory
Ġd ump
çķĻ åŃ¦
Ġdis covery
é¡ ½
ĠEm peror
ä¹ĭåĲİ çļĦ
çĩĥ æĸĻ
0 80
æ²ĥ å°Ķ
Ġor ient
ru its
Ġsc oring
Ġç®Ģ ä½ĵä¸Ńæĸĩ
Ġs oph
å·² çĦ¶
å¥´ éļ¶
ĠO w
åİŁ åŃĲ
Ġw ing
åľŁ èĢ³
å¦ Ĵ
ĠCons ider
Ġprem ium
äºī å¤º
Ġgreat ly
ĠAtt orney
Ġhead ed
å°± å¼Ģå§ĭ
" ?
éĢĶ ä¸Ń
Ġop ens
åŃ¦æł¡ çļĦ
èı²å¾ĭ å®¾
ĠG ulf
çĶµ ç£ģ
in os
ä¸º é¦ĸ
Ġ æĿľ
ĠO range
ä¸» æµģ
åĲ¬ å¾Ĺ
ĠIsrael i
æĪĳ å·²ç»ı
å®ŀçİ° äºĨ
ĠSh are
Ġbl end
æŃ£ ä¹ī
Ġstudy ing
Ġlif estyle
Ġ åľ£
ĠM ort
ad os
äº¤ å¾Ģ
ĠR ab
ott om
ĠIm ages
åĲĪ çº¦
æ±ī åŃĹ
åĨħ ç½®
èĥ½åĬĽ çļĦ
Ġ æ²Ī
åĲİ æŀľ
Ġelect rical
çģĮ æºī
ä¹Ł æĹłæ³ķ
çŁŃ æļĤ
çºº ç»ĩ
O ur
ct ic
æĢ» ç»ıçĲĨ
} $
Ġl augh
Ġs lic
red ited
Ð» ÑĮ
å·® åĪ«
å¤ª å¤ª
Ġ åĩºåİ»
éĶ ¥
we alth
ä¸į ä¸ĭ
çİ° éĩĳ
å®Ŀ çŁ³
åĺ ¶
å¸Ŀ åĽ½çļĦ
åŀĤ çĽ´
åįł åľ°éĿ¢ç§¯
è¹ Ħ
æĭ Ĳ
åİ¿ å§Ķ
Ġ çĽ´æİ¥
ort ion
äºº ä¸İ
M Hz
æĸ° å»º
ä¸ĩ ä¸Ģ
3 20
åıĺ å½¢
äºº äºĨ
ĠR ace
ĠWalk er
ĠK han
Ġsp ark
ä¹ł é¢ĺ
ĠC ON
ĠIndepend ent
Ġad mitted
ä¿Ŀ ç½Ĺ
ott ed
å°ģ éĹŃ
èº« èº¯
ret urn
L ED
åıĳ è¨Ģ
å¸¸ å§Ķ
op en
ĠBl ood
Ġrapid ly
ĠH ell
åľŁèĢ³ åħ¶
Ġte eth
å¯Į æľī
ĠLouis iana
åĨ° åĨ·
osp itals
tr ue
Ġrom antic
æĿ¥èĩª äºİ
èĤ¡ä»½ æľīéĻĲåħ¬åı¸
d b
Ġerr ors
æĢ¥ æĢ§
Ġfle et
ç¬¬äºĮ ä¸ª
Ġfall ing
Ġaccom pan
Ġcl ock
j ection
ri ver
ä½ĵ ç§¯
åıª æĺ¯ä¸Ģ
ĠDe an
Ġun iform
ĠT ower
Ġg aming
çłĶç©¶ ä¸Ńå¿ĥ
Ġ èĵĿ
Ġment ions
åİ¨ æĪ¿
åı° ä¸Ĭ
éĽĨ åĲĪ
ester day
ĠI ce
ĠÐ Ŀ
ĠMar s
O f
ĠPro cess
çĤ¼ åĪ¶
èĨ¨ èĥĢ
y cl
æµ· åįĹ
Ġconsum ption
Ġarriv al
D ef
æĸ¯ å¡Ķ
s ite
Ġstri p
Ġfarm ers
Ġpull ed
iss ance
åģ· åģ·
çļĦ æľī
ĠO pp
be ing
ĠPal ace
åľ¨ ä¸Ĭ
åĪ« äººçļĦ
çº¯ ç²¹
onym ous
ä¸» æĦı
å¤ı ä»¤
Ġs ed
Ġtr igger
ĠB ull
Ġ åĩĮ
Ġde leg
åĨ Ģ
ä¿® æŃ£
Ġ ÑģÑĤ
D VD
t ics
Ġn ations
Ġse ed
å¤į åħ´
éľ² åĩºäºĨ
Ġclos ing
æŁı æŀĹ
ĠPerform ance
ap se
èĤ¡ æĿĥ
Ġprot ocol
å½ĵ å¤©
Ġpar a
Ġpro hib
Ġn ick
æĴŀ åĩ»
èĢĮ éĿŀ
Ġover se
il ty
é¢Ĩ æĤŁ
éľĢè¦ģ çļĦ
ĠC emetery
ors es
sc ale
Ġhigh way
ä¸º åħ¶
ç¤¾ä¼ļ ç§ĳåŃ¦
çŀ Ħ
Ġeng aging
Ġevery day
O ut
åĬł å¤§
çĽ¸ ç»ĵåĲĪ
anc ouver
bre ak
Ġinterview s
oc he
åĭ ¿
Ġatt ending
Ġhigh lights
Ġ ä¼ĳæģ¯
ĠSte el
Ġè¯´ è¯Ŀ
ĠThom pson
} \
ä¸Ģ æī¹
æĶ¿ åħļ
Ġfra ud
Ġexp osed
Ġ æĮī
Ġinter act
ä¸ĭ æĸ¹
The y
æķ° çłģ
åĮĸ åĲĪçī©
æ¸Ĺ éĢı
Ġpromot ing
f ish
çļĦ æ°Ķæģ¯
çļĦ å¤´
ä¾Ŀ çħ§
Ġrespons es
æķ ·
ĠL ib
Ġ é¦Ļ
ĠMos cow
in ar
åı¯ ä¸į
Ġt ill
äºĮ æĺ¯
Ġfund amental
ä¸į è§ī
Ġqu ery
Ġcontrol s
g ame
åĿ ŀ
ĠG ary
æĢ» äººåı£
Ġconvert ed
ĠV ery
è°¨ æħİ
Ġindepend ence
ĠUt ah
ç´§ æİ¥çĿĢ
Ġro ots
æ¥ ł
ĠF A
å®ŀ è´¨
Ġmove ments
Ġ åŃ©åŃĲ
çº¯ æĶ¶åħ¥
ä¸įæĸŃ åľ°
Ġwood en
st ep
æĪ· å±ħä½ı
ĠPit ts
F M
Ġc rown
It em
ä¸Ģ è¯´
ä¹° åįĸ
ä¸º åŁºç¡Ģ
Ġco at
id ae
æĪĺ éĺŁ
åı¹ æģ¯
ĠE lementary
ä¸ĥ åħ«
Ġguarant ee
ĠF ederation
Ġch at
ĠAd ams
éĶĢ éĩı
Ġcheck ing
Ġreason able
åħ¬ åĳĬ
éĴ ł
Ġswim ming
Ġb old
St ar
Ġmod ified
Ġleg s
Ġconsequ ences
B D
åı ®
æľī åĵªäºĽ
æµİ åįĹ
Ġ æĤ¨
Ġt ip
æĮ «
ĠStud ios
åĺ İ
é¦ĸ åıĳ
ĠAnd y
èĥ½ åĲ¦
çĲĨ ä¼ļ
çĸĹ æ³ķ
æµĭ å®ļ
åĻ¨ å®ĺ
Ġl as
æķĻ è®Ń
Ġcon vey
ĠChampions hips
åĨ· éĿĻ
Ġc ul
éĩį ä¼¤
Ġprom ise
Ġview ed
ĠK a
èµĦ è´¨
èµ· çłģ
r ition
Ġ ä¹ĭåĲİ
ä¸Ģ åĲ¬
äº¦ æľī
re ens
æĺ¯ å¾Ī
æĦı ä¸º
çĶŁäº§ çļĦ
æĹł å£°
Ġbon us
Ġ ä»ĸçļĦ
b ird
ä¸Ńåħ± ä¸Ńå¤®
Ġ åİŁæĿ¥
Ġb ran
çī¹æ®Ĭ çļĦ
ol s
Ġ5 8
ç²¾ åĬĽ
å·¦ æīĭ
è±ª åįİ
Ġ æ±Ĥ
éĤ£ æĹ¶
includ e
æīĵ äºĨ
ĠCle veland
Ġ ä»»
å¹´ èİ·
è¯¥ åľ°
Ġ äº¤éĢļ
Ġt iny
ĠC ore
hes s
èĦ¾ æ°Ķ
ç´§ å¯Ĩ
aut hor
Ġå¿« ä¹Ĳ
åħ¬ çĪµ
ĠConst itution
å°Ĩ è¿Ļ
éĿŀ æ³ķ
éĵ¾ æİ¥
Ġh ill
åİ» å¹´
Ġins ight
off s
N G
Ġequ ipped
ĠS ales
Ġfound ing
Ġamount s
åı¤ æĢª
åįł åľ°
å¹³ çŃī
æĮģ æľī
ĠM ade
E F
inc iple
ĠA le
ous es
æĭħ å¿§
ĠDub lin
3 60
çļĦ æĶ¯æĮģ
ĠB ou
M ap
ĠN ash
æ° ®
åİ ®
ĠK y
Ġ7 2
å»ºçŃĳ çī©
ä¸ĭ æ¬¡
å½± åŃĲ
Ġrecip es
ĠS ide
å¸Ī çĶŁ
Ġbreat h
èĤĮ èĤ¤
å±± å¤§
èĭ¦ ç¬ĳ
èĽ Ł
åĳ¨åĽ´ çļĦ
åįļå£« åŃ¦ä½į
Ġh ip
äºĮ çŃīå¥ĸ
ç«ĭ æĸ¹
æ´¾ éģ£
çļĦæīĭ æ®µ
çªĹ åı£
Ġst ead
åİĨ ç¨ĭ
ĠEx am
ĠBoy s
Ġ éĢļè¿ĩ
è·Ł è¸ª
ĠMon th
Ġ åıªè¦ģ
Ġun iverse
it ants
èĻ½ è¯´
Ġsix th
æľī è¿ĩ
Ġ çłĶç©¶
l av
re ts
ĠSam uel
p ers
an ch
Ġg ate
Ġ æĦıæĢĿ
E vent
Ġ ç±³
äºĭ çī©
Ġunus ual
Å ¾
åĨħ éĺģ
ĠZ e
å¤ª å¤§
ent er
æĹ¥ çĽĬ
åĽĽ å¤Ħ
Ã ´
çĲĨ æĢ§
æŀ ķ
é¬¼ åŃĲ
æīĭ æ³ķ
å¥½ åıĭ
rib le
æİĴ è¡Į
Ġcl othes
if act
å¹¶ æĹł
Ġext end
ĠJon athan
ä¿Ŀ å®ī
Ġs ending
åĽ½å®¶ éĺŁ
con nect
Ġapparent ly
ver e
ĠF ab
ç¼ĸ åī§
li est
Ġ ÑĢ
æĪĳä»¬ è¦ģ
å¹¶ ä»¥
ç«ŀ æĬĢ
éĤ£ äºº
Ġr iding
ĠG iven
Ġcontin u
åł ¤
æľĢç»Ī ç»ĵæŀľ
Ġ æµģ
ĠÐ ł
Ġ æ¥¼
çī© ä½ĵ
Ġprodu cers
å¼ķèµ· çļĦ
å³ »
C M
ç¾İ åĨĽ
P E
c hers
ap i
éħ ¯
Ġco aches
ç¢° æĴŀ
åľ¨ è¿Ļä¸Ģ
d r
æĹ¶éĹ´ åĨħ
ĠMar vel
ä¸º æ¯ı
Ġ6 00
ä¼łæĦŁ åĻ¨
åı¹ äºĨåı£æ°Ķ
Ġ è¡ĮæĶ¿
åĴĮ ä½ł
ĠRe cent
IN S
F O
W eb
b us
Ġe cho
æĸ° å¢ŀ
Ġ0 7
åĲį äºº
åĲĮ çĽŁ
ç²¾ å¿ĥ
cer ning
å¢ĥ çļĦ
èĩª è§ī
åİŁ åĪĽ
Ġ 98
Ġwar rant
æĪĳä»¬ åı¯ä»¥
å®Ĺ çļĦ
èı© èĲ¨
Ġch arts
Ġrequ ests
è¿ĩåİ» äºĨ
Ġsucceed ed
ä¸Ń å¹´
Ġrec re
åĪĨ æĶ¯
zz le
ä¸į æĦ¿æĦı
æĸ¹ è¨Ģ
ograph ical
è´ ¬
Ġtem plate
ag h
åĸĬ éģĵ
é¥Ń åºĹ
ang o
äºĶ è¡Į
å¦ĸ åħ½
çļĦèº« å½±
Ġmain taining
çļĦ è¿ĩç¨ĭä¸Ń
ç¥ŀ æĥħ
è£ģ åĪ¤
åĸľ åī§
è¿ľ ç¦»
Ù Ħ
æī¾ ä¸įåĪ°
çļĦ åĬŁèĥ½
st s
Ġhost ing
ç¬ Ľ
é¥ ¥
Ġf ought
ç¼º å°ĳ
Ġh ole
ĠMor ris
er man
Ġcomplet ion
åľ¨ è¿Ļç§į
if ting
Ġins ights
éĤ® ä»¶
ĠKenn edy
æĥ³äºĨ æĥ³
h our
ur se
Ġsignific ance
Ġphotograph s
Ġ åĢĴ
ä»ĸ èĩªå·±
åŃ¦ åĲį
éħį éŁ³
88 8
ĠåĨħ åŃĺ
æĺ¯ éĿŀå¸¸
ĠR u
èľ ¡
å¤§å®¶ éĥ½
åºĨ ç¥Ŀ
ĠW ant
å¤ĸ è§Ĥ
4 50
ĠF M
ä½Ĩ ä¹Ł
æīĵ è´¥
ä¸ĸçķĮ æĿ¯
Ġlik es
Ġv ibr
éº Ĵ
å¼Ģ åħ³
Ġhor ror
ä½ł çŁ¥éģĵ
ĠT ar
Ġman if
äººç±» çļĦ
al ia
ä¸Ģ å¤Ħ
åĪĨåĪ« æĺ¯
åŁºçĿ£ æķĻ
V P
Ġc uis
åĵ ĳ
Ġprepar ation
æīĵ çĶµè¯Ŀ
Ġpass word
Ġ åħ¶
ä¹ĺ åĿĲ
å½ĵ å±Ģ
æĹ¶éĹ´ çļĦ
åĩº éģĵ
æĦ ķ
Ġc ock
ä½Ĩ çĶ±äºİ
Ġtrans mission
Ġleg acy
ĠU nt
éķ ĸ
t i
ĠP ope
åĵ ¨
ri k
ĠP ra
ĠP DF
æĮ ł
Ġå¤© å¤©
åįĵ è¶Ĭ
æ¡ ©
f irst
éĩİ çĶŁ
l on
Ġsam ples
Ġ åıªèĥ½
Ġdrink ing
ĠD ays
ĠG row
èº«è¾¹ çļĦ
Ġcap ita
ĠO sc
Ġ0 6
... ]
Ġcomb ine
Ġnot iced
ä½¿ åĳ½
ĠÐ ĳ
æĦŁ åĬ¨
ibr aries
å¥¥æŀĹ åĮ¹
åī© ä½Ļ
Ġmo ist
åķĨ éĩı
Ġap olog
ĠProte ction
çº¦ å®ļ
ĠO wn
Ġle tt
p ur
Ġb are
Ġen han
éķĩ åĮº
ç¤¼ ä»ª
èĲ¥ è¿Ĳ
F ield
æ²¡æľī æĥ³åĪ°
Ġthous and
Ġlov es
ĠÐ³ Ð¾Ð´
éĿ¢ åŃĲ
T E
Ġaim ed
èĲ¥ éĢł
æĶ¾ è¿ĩ
åĲĥ çļĦ
å¤į åĪ¶
æ¶µ çĽĸ
Ġprior ity
b ing
Ġfl ights
ĠPr int
éĩĩ éĽĨ
Ġt u
Ġthe rm
èµ·æĿ¥ çļĦ
Ġoper a
æļĹ æļĹ
åĻ Ĺ
st an
çĲĨ è´¢
ä¸» å¯¼
äº² çİĭ
èĩªèº« çļĦ
æĽ´ å¤§çļĦ
ä¸Ģ æīĭ
Ġ åħ³
ĠB os
ĠMount ains
Ġt ort
åĲ¬ çĿĢ
æĺŁ çļĦ
æĺ¯ ç¾İåĽ½
ĠRead ing
Ġfit ness
B ook
æ²Ļ æ¼ł
æĽ Ŀ
æ¿Ģ çĥĪ
or us
Ġr hyth
èĢ ¿
E ng
Ġg rab
åİļ åº¦
Ġagric ultural
un c
åĩº æ¼Ķ
ĠG ran
éģĵ åıĭ
Ġqu ote
Ġcirc uit
æĶ¾ å¤§
Ġbelie f
åıĤ è§Ĥ
Ġhop ing
Ġcry pt
ĠK am
æīį æľī
æĴ° åĨĻ
! )
åĨľ çĶ°
itar ian
ä¸įçĶ± å¾Ĺ
åľ¨ æĦı
ç¤º æĦı
Ġcons cious
Ġconven ient
æĹł åħ³
Ġstru ck
ä¸Ģ çº¿
Ġsp okes
ĠClass ic
åĪĿ ä¸Ń
ĠBalt imore
Ġpod cast
ä¸Ģ æĹ¶éĹ´
åĴ §
éĻ¤ æŃ¤
Ġh ired
ä¸¤ æĿ¡
Ġ q
å¤§ éĺŁ
çº³ åħ¥
ĠVol ume
F S
Ġde ck
ç¢° åĪ°
å¤ĸ éĥ¨
çľ¼ éķľ
Ġkn ock
am ics
å¤ļ å®¶
] )
Ġ ^
Ġh ook
åĩ Ľ
è¿Ľ èĢĮ
ĠRepresent atives
Ġceleb ration
Ġcirc le
Ġsurround ed
el i
æĹ¥ åĨħ
è¿Ļæĺ¯ ä¸Ģä¸ª
ĠCharl ie
ĠP A
ik es
Ġport folio
éĢīæĭ© äºĨ
æķ ĸ
wh o
ĠRel ations
ĠJ os
c alled
è¦ģ æĥ³
E l
ä»¶ äºĭ
èģĶ æīĭ
å¥ĩ è¿¹
Ġ è®¸
ĠShe l
if fer
é©¬ å°Ķ
Ġ è®²
Ġhor iz
ĠSh op
Ġestablish ment
Ġ5 7
äº¨ åĪ©
çľ¼ çļĦ
ĠCl oud
Ġ æķ°æį®
è¾£ æ¤Ĵ
ĠC her
å¤ļ åĲį
åħħ è¶³
ä¸»ä¹ī çļĦ
æı´ åĬ©
ĠS S
Ġne ither
v ia
ĠMet ro
ĠWork ing
åħĭ éĩĮ
ç©¿ è¿ĩ
12 8
èĩªåĬ¨ åĮĸ
æŀģ å¤§
åħŃ ä¸ª
att an
Ġcolle agues
P ad
çļĦ åħ¨
ç¼ĸ ç¨ĭ
å±Ĭ åħ¨åĽ½
ĠK u
ER E
Ġpre ced
Ġrough ly
Ġ ãĢ
A b
ĠOb ject
v ol
èı ±
ä¸Ń çŃī
æıĲ èµ·
Ġwar ning
å²ģ æľĪ
åĲİ æĤĶ
ĠRes erve
äººåĿĩ çº¯æĶ¶åħ¥
ĠAssist ant
ç´« èī²
8 98
P oint
Ġprov en
ä½ł åı¯
æ¬¡ æķ°
Ġanc est
ĠCan cer
æıĲ è®®
pp ort
Ġcampaign s
ĠB irth
ĠJ ess
æ± Ģ
ä»Ģä¹Ī çļĦ
Ġpro port
ĠL A
æĳĨ æīĭ
çĻĮ çĹĩ
åľ° å¤Ħ
ĠV ancouver
ä»Ģä¹Ī æĺ¯
() )
éĿĻ èĦī
Ġ æĺ¨å¤©
çļĦ æīĢæľī
Â ¥
è¿Ļ é¡¹
è§Ĩ è§Ĵ
æŃ¦ å¸Ŀ
ĠEx change
éªĦ åĤ²
ĠAn im
çļĦ å®īåħ¨
æĹł éľĢ
æ±ĩ æĬ¥
Ġnecess arily
Ġch urches
éĻ¶ çĵ·
ĠJud ge
Ġres id
å¼º æĤį
on i
end ers
D ate
äºº ä¹ĭ
in ated
Ġ ç¤¾ä¼ļ
çĿĢ æĢ¥
ĠC rown
ĠK ath
çļĦ è§Ħå®ļ
è¡Ģ èĦī
ä¼Ł å¤§çļĦ
åĬŀäºĭ å¤Ħ
Ġl oyal
åĵ Ĺ
Ġu pload
é¢Ĩ åľŁ
ĠBrook lyn
ĠA qu
Ġ åĽ½éĻħ
Ġe ase
è¯´ åĪ°
è¿Ļ äºº
ĠBudd h
Ġlic ensed
æĺ¯ çļĦ
æŀģ ç«¯
åĨ· åį´
æĹ¶ è¾°
int age
U M
å·² æĪĲä¸º
ç¤¾ äº¤
ĠFriend s
Ġappro aches
å¹¸ è¿Ĳ
åĴĮ åıĳå±ķ
å·¥ä½ľ å®¤
ĠUp on
Ġd ust
Ġcon vin
åİŁ åľ°
å±± æ°´
Ġcan cell
ĠäºĨ ä½ł
æĻ¯ åĮº
çĭ¬ èĩª
æļĹ ä¸Ń
Ġcrit eria
Ġur l
Ġnarr ative
æ½ľ åĬĽ
z i
Ġ åĲİæĿ¥
Ġtem ple
Ġ åĽłæŃ¤
Ġout come
m ain
Ġt um
æĺŁ çĲĥ
ĠS el
æ³ķ å®ĺ
çļĦ åīĳ
äºİ æŃ¤
10 5
ç½ĳ é¡µ
Ġback ing
åģĩ è®¾
åİĨ ä»»
ä»ĸ ä¸İ
Ġy esterday
Ġfun ny
â ī
çļĦ æĪĺæĸĹ
p ng
Ñ ĳ
ĠN eb
æ¸ħ çĲĨ
Ġathlet es
d ers
Ġpl ain
çļĦäºº çĶŁ
èĹ »
ĠCamp bell
çĥ Ľ
we gian
Ġn ode
Ġlik ed
Ġ çķĻ
ç»Ļ ä»ĸä»¬
ĠSer ver
Ġdream s
ĠT ru
Ġor ange
æīĭ ç»Ń
æīĭ æİĮ
æıĲ åıĸ
çļĦ çĥŃ
âĢĶâĢĶ âĢĿ
Ġcount ies
c d
ä¸į å®ľ
ç»´ å¥ĩ
F rom
Ġ èĢģå¸Ī
Ġsh ots
åĵį åºĶ
Ġh ang
Ġ åī§æĥħ
ĠM uch
å¤§ æī¹
ä¹ĭ å£°
ĠSm art
Ġdam aged
c or
æłĳ ç«ĭ
åıĶ åıĶ
è½¬ åŀĭ
çĤ¸ å¼¹
i ere
çĻ» ä¸Ĭ
Ġprov ision
çħ§ æĺİ
Ġ ä½İ
d ep
ĠSh a
ĠPub lishing
ä¸Ģ æĥĬ
æĢĿ è®®
å¤§ æ¡¥
éĻĮ çĶŁ
ĠConst ruction
8 99
Ġ6 6
çĶ¨ æ°´
ä¼ł æŁĵ
Ġmus cle
ä¸Ń èį¯
Ġperiod s
ä¸į åĩºæĿ¥
æ¢ ³
åľ¨ åĮĹäº¬
Ġexpl oring
ĠSt ars
åĲĮ äºĭ
ä¸ĩ åĲ¨
Ġabandon ed
ĠInter view
Ġcapt ain
Ġsurv ive
Ġp ink
ĠPro p
Ġcert ified
Ġint ention
ĠL ang
Ġex ceed
AL L
ĠYe ah
Ġens uring
ĠE X
æľĢ åħ·
row se
ate ur
å¹³ è£ħ
ä¸Ń äºĨ
Ġdo ctors
ad i
ĠD O
u gh
Ġal leg
æķĳ æı´
Con fig
åĴ ĭ
æĹı äºº
å²Ľ å±¿
str ong
er r
æĮĳ éĢī
â Ĩ
van ced
çļĦ éŁ³ä¹Ĳ
ä¸Ģ å¥Ĺ
å°½ åı¯èĥ½
iz ations
åĽ¢ éķ¿
æ¡¥ æ¢ģ
å¤º å¾Ĺ
Ġoccup ied
ç© ¹
Ġpros pect
ĠNiger ia
es is
m aker
Ġsurpr ising
Ġriv al
æ· ¹
å¥¹ æĺ¯
èĨ Ĭ
é¡º çĿĢ
å§¿ æĢģ
C ode
æ¹ĸåįĹ çľģ
s ch
Ġ å·´
æĻ¯ çĤ¹
é¢Ĺ ç²Ĵ
è¦ģ çĤ¹
éĢī çĶ¨
èĬ± è´¹
ĠP ap
åĲİ æĸ¹
åĸ ĩ
Ġstrong er
å¾Ĺ ç½ª
ne ction
éĢ ¾
ĠN elson
åĽŀ æĬ¥
g un
D is
æļ ¨
Ġt rick
ä¼ĺ èī¯
ĠH it
Ð° Ð²
æĢĢ åŃķ
Ġdeep ly
ĠC ass
im ens
ĠCar ib
ond a
ä¸ºä»Ģä¹Ī è¦ģ
åĬĽ æ°Ķ
Ġ0 5
åĽ½å®¶ åĴĮ
Ġover whel
ç»Ī æŃ¢
Ġ0 8
Ġ åĲĮæĹ¶
Ġthe ater
ut il
âĢĭ âĢĭ
æĭī çĿĢ
ä¸į æĺĵ
ç«ĭ åľº
è¾ĥ ä½İ
çļĦ åºĶçĶ¨
Ġb oss
ĠN ap
å¦Ĥæŀľ ä¸įæĺ¯
è§īå¾Ĺ èĩªå·±
çļĦ åıĮ
ĠMont real
ĠRail road
ĠCo ver
Ġvot ing
8 95
æ¨¡ çī¹
éķ¿ å¤§
è¶ ´
Ġpaint ings
Ġg ene
ç¾İ äºº
Ġg al
ĠR ap
åĬŁ æ³ķ
ĠE ffect
éķ¿ çº¦
å¤§ æ±ī
åĪ© çİĩ
è¿ĺæľī ä¸Ģä¸ª
b es
Ġç¬¬åħ« ç«ł
Ġt ub
æĺ¯ æĪĳä»¬
ĠF alls
ĠTai wan
åĴĮ ç®¡çĲĨ
ĠCh amber
åĲĽ ä¸»
L P
Ġcat alog
åı« éģĵ
æĬ¥ åĲį
ĠBroad way
Ġ éĻª
å¥ĭ æĸĹ
Ġar rive
è¯į è¯Ń
èĲ½ åĲİ
ĠK ids
æĬķ å½±
t ical
çļĦ éĥ¨åĪĨ
g ov
ĠMus ical
æ²¡æľī äºĨ
æİ¥ å¾ħ
Ġpaint ed
æĺ¯ æ³ķåĽ½
æĺ¨ æĻļ
Ġannounce ment
ĠStew art
Ġ è¿ĩåİ»
ä¸ĥ å¹´
? :
Ġ äºĭæĥħ
oen ix
Ġo vers
ĠJ azz
åŃĶ åŃĲ
id ays
è¿ĩ æ»¤
åĸĦ äºİ
"> <
ĠIns urance
å¥¥è¿Ĳ ä¼ļ
Ġfore ver
d ays
å¥¥ åľ°åĪ©
Ġrent al
çļĦ æĹł
Â· Â·
æł¼ å±Ģ
æī© æķ£
ĠOrgan ization
å¥³ çİĭ
è¿Ļ å¼ł
p g
å¸ĥ èİ±
Ġbelie fs
Ġregard ed
éĵ ħ
åĨ² çĿĢ
âĢĿ âĢľ
çĦ ī
Ġcou p
ç¨ ½
Ġiniti atives
Ġ åĩłä¸ª
az ines
è´¢ ç»ı
åĪĨ å¼Ģ
ĠAust ria
c r
æ° Ł
æĥ ķ
åĪĨ çļĦ
åħ¬åĬ¡ åĳĺ
æıı åĨĻ
Ġoccasion ally
ĠMarsh all
c reate
Ġd uties
æĺ¯ åķĬ
è¦ģ çŁ¥éģĵ
åıĪ åľ¨
çĶµ æ¢¯
ä»ĸ è¢«
aw s
Ð½ Ñı
iff s
em on
æīĭ ä¸Ģ
è¯¥ åĽ½
ĠCo le
mon th
ĠPr incess
ĠEv ents
Ġp ace
å¤© åłĤ
Ġsoc cer
ĠAut o
ĠS alt
Ġprint ing
åı¦ æľī
çłĶç©¶ åĳĺ
ä½Ĩæĺ¯ åľ¨
åĤ Ģ
è¿ĺ çľŁæĺ¯
Ġ 00
Ġsh arp
åľĨ æ»¡
èĥ ³
ĠPu erto
åĲį è¯į
èĢģ å©Ĩ
Ġsc ores
è¯¡ å¼Ĥ
uc ks
èļ ķ
Ġregard less
éĴ ®
è¡ Ļ
Ġsp oken
Ġart istic
Ġstay ed
äº ¥
im p
èĳ µ
ĠIn g
å´ Ľ
å½© èī²
Ġ çİ°
T D
n ab
åĨ³ è®®
Ġconcept s
çŁŃ çŁŃ
Ġt ennis
ĠPer haps
ĠP il
è¿ŀ éĶģ
åįĬ çĤ¹
es y
ĠSen ator
Ġsens itive
ĠKn ight
åĲ¯ çĶ¨
ĠL ock
çļĦ ä¸ĵä¸ļ
å®ī æħ°
ĠS now
Ġsubs crib
åĶ® åĲİ
Ġ å¹¶
æĬĹ è®®
sh ow
æĹ© åľ¨
ĠMain e
ĠG olf
Ġ éģĵ
in burgh
ĠS oul
èµ·æĿ¥ äºĨ
Re quest
Ġtransl ated
2 80
11 5
ä¸Ģ äºĭ
çĤ «
æ³¨æĦı åĪ°
ĠGra ham
åħµ åĻ¨
çļĦ çľ¼ç¥ŀ
å¿½ çķ¥
Ġmer ged
å¼ ©
æĦŁ çŁ¥
Ġä¸ĭ æ¬¡
åĲį ä¹ī
æıı ç»ĺ
ä¸º ä¹ĭ
j an
) -
ĠS D
Ġre ign
ĠP as
pen se
I B
Ġg ap
Ġp ill
çľĭ åİ»
å®ŀ æĪĺ
ĠIn n
ge on
éª¨ å¤´
ĠD ra
bor ough
Ġto x
ä¸ľ æµ·
Ġcook ed
ä¸į åıĺ
èĲ½ åľ°
ä¹ħ çļĦ
ĠS O
Ġåĩº çĶŁ
ĠCommon wealth
æĿ ł
ä¼¤ äº¡
çĽĳ çĭ±
å¤Ħ å¤Ħ
Ġdisc ip
ĠF ried
åĬĽ åº¦
åĿļ å®ļ
S m
åĪĿ çº§
ç»ĺ åĪ¶
Ġ æĸĩåĮĸ
Ġ åĨ°
Ġ åĬªåĬĽ
ä¸ĭ å±ŀ
Ġv ine
çĦ ķ
æ¥ļ å¤©
çģ« å±±
åĸĿ éģĵ
çĽ¸åĲĮ çļĦ
è¿Ļä»¶ äºĭæĥħ
è½© è¾ķ
åĪ¶ çīĩ
ä»£ çļĦ
y on
åľ¨ æĹ¥æľ¬
æ² ¦
å¹» æĥ³
çĽĽ é¡¿
å®¶ ä¹¡
Ġorgan isations
Ġcut s
æŃ¦ å£«
C he
è½ ¿
ĠDe ep
Ġfant asy
åĵ Ł
å¾Ī é«ĺ
Ðµ Ðº
Ġpar allel
Ġpen al
Ġcons ervation
U I
æĭ ¯
ĠP od
æİ¥ åĪ°
Ġtravel ing
Ġparap hr
ä¸įå¥½ æĦıæĢĿ
ĠH appy
æĸ¯ æĭī
Ġ ä¸¤äºº
th od
åº· å¤į
8 96
Ġben ch
Ġ çĽ¸åħ³
ĠR ivers
ä¸į åĥı
èº« çļĦ
b in
Ġo x
éħ ®
s ur
Ġ æĺ¥
å¯¹ çħ§
æłĩåĩĨ çļĦ
æĳĩ æ»ļ
ä½ı åľ¨
ĠW oman
åħ ľ
ĠPort land
ĠL GBT
Ġinteg ration
å¤ļ åªĴä½ĵ
k h
z ed
Ġ é¦ĸåħĪ
ĠUr ban
Ġ æŃ¤å¤ĸ
ãĢĤ )
Ġbl ind
å¤ĸ çķĮ
in fo
åĹ ½
Ġmar gin
æ³¨æĦı åĬĽ
ä¼Ł å¤§
å¸Ī çļĦ
h ops
åŃĲ å¼Ł
ĠJ oy
åĪĨ æĺİ
æĸ Ĳ
augh ters
æİĴ æĶ¾
åħ· ä½ĵçļĦ
åıª éľĢè¦ģ
æĻ®éĢļ äºº
èķ´ åĲ«
spe c
Ġb id
Ġev il
Ġpurs ue
0 30
ĠSe x
å¯ Ŀ
iz za
Ġspe akers
è§Ĩ çĿĢ
æĭħ ä¿Ŀ
Ġste am
ĠLeg al
Ġan ch
éĢī åĮº
è½¬ ä¼ļ
ĠVis it
åħ« å¹´
em pl
åĤ¨ åŃĺ
ä¼Ĭ æľĹ
Ar ray
ĠC art
åĪł éĻ¤
åĴ ı
åĳĬè¯ī æĪĳ
ĠW ard
ä¹Ł çŁ¥éģĵ
Ġint ellectual
ç¼ħ çĶ¸
å¯Ĩ éĽĨ
Ġliter ally
å©ļ ç¤¼
Ġd ual
éĿ¢ è¯ķ
Ġattra ctions
S O
æģŃ åĸľ
Ġm ood
åį« è§Ĩ
Ġput s
ä½ł æľī
å®ı è§Ĥ
Ġ å»ºçŃĳ
ĠSim ilar
ç¿ ĺ
äººåĬĽ èµĦæºĲ
Ġm oon
ä¸ĸ éĹ´
Ð¾ ÑģÑĤ
äº« æľī
Ġven ues
" (
çľ¼åīį çļĦ
æĳĨ èĦ±
Ġ5 9
ä¸¹ éº¦
Ġt urb
ĠB illy
ĠF em
Ġan th
Ġlay out
Ġsp ots
æŀĹ åľ°
H and
Ġè¿ĺ è¦ģ
æħĪ åĸĦ
è¯ §
åį´ è¢«
Ġ ç§ĳ
è¨Ģ è¯Ń
å¤į æ´»
ä¹Ŀ å¹´
æĬ¥ å¯¼
bu ilt
Ġimprove ments
Ġwh ilst
ud a
é«ĺ åİĭ
èĤ¯å®ļ ä¼ļ
Ġw ider
å£° ç§°
Ġdim ensions
ĠWay ne
ĠT R
ĠT un
äºĭ åĦ¿
ĠTr ad
Ġel der
èİ ŀ
Ġcho osing
ä¸İ ä»ĸ
è¶³ è¶³
æķ°æį® æĿ¥æºĲäºİ
å¤§ è¡Ĺ
åľº æ¯ĶèµĽ
æľŁ æľĽ
æĪĳä»¬ å°±
Ġbr on
ut or
ĠCon vention
ĠTurk ish
Ġcas ual
åľ¨ åīį
ate ful
åħĭ èİ±
å¸¦ æĿ¥äºĨ
S ub
ĠT ogether
å°ı æ¸¸æĪı
ru p
ĠâĢ ĺ
ĠBr ig
å« ī
ç¬¬ä¸Ģ ç«ł
Ġmin imal
cycl op
åĮĸ çŁ³
Ch ar
Ġanim ated
ĠC BS
æĽ´ å¤§
ues e
é©¬ è½¦
ow ed
åħ¬ å¼ı
ç´¯ è®¡
Ġsurpr ised
in ian
Ġsur ve
çļĦ äºĨ
Ġg entle
æĶ¿ åĬ¡
åĲ¬ è§ģ
çĮ´ åŃĲ
ä¸İ æŃ¤åĲĮæĹ¶
Ġ6 2
åİ» åģļ
Ġexpl o
g ie
ĠIm perial
Ġ åħ¶ä¸Ń
ĠM aur
æķ°æį® ä¸ºåĩĨ
æł¹æľ¬ æ²¡æľī
å¾ģ æľį
Ġcolle ges
Ġ ç³»ç»Ł
ĠArk ansas
Ġ åįĸ
K E
Ġbed room
ç¬ĳçĿĢ è¯´éģĵ
åľ¨ åĨħçļĦ
ĠU C
çīĩ çļĦ
ĠHon or
ç®¡çĲĨ åĴĮ
ĠComp anies
¤ éħĴ
Ġf t
? !âĢĿ
å¯ ŀ
åįĹ æµ·
èĩªçĦ¶ ç§ĳåŃ¦
Ġ1 01
å¾Ī ä¸į
å¥³ çĶŁ
ä¸Ģ åĪ»
æ²¡ åĬŀæ³ķ
1 02
å¾· çļĦ
Ġra c
Ġwat ched
or ious
Ã ½
ç«ĭ é©¬
ĠS elf
åıį å°Ħ
æĭĽ åķĨ
è¿Ļ å°ıåŃĲ
Ġfocus ing
åĽ¢ çļĦ
ĠComp et
le ans
ĠB aby
Ġcontin uous
æł ĵ
C ount
s uch
ra id
ä¸ī æ¬¡
Ġg ang
G u
è¿Ļ çīĩ
ĠP aper
Ġg ym
ole an
ĠLiver pool
å¥½ è¯Ħ
ä½ĵ è´¨
åľ¨ ä¸Ń
ä»¥ çĻ¾åº¦åľ°åĽ¾
Ġsuper ior
Ġwalk ed
æľĢç»Īç»ĵæŀľ ä»¥çĻ¾åº¦åľ°åĽ¾
æķ°æį®æĿ¥æºĲäºİ çĻ¾åº¦åľ°åĽ¾
æľĢç»Īç»ĵæŀľä»¥çĻ¾åº¦åľ°åĽ¾ æķ°æį®ä¸ºåĩĨ
Ġdirect ory
åľº åĲĪ
äºĨ èĩªå·±çļĦ
ĠE mb
ĠMarg aret
Ġout comes
ha ust
Ġbott le
æ·± åıĹ
æĺ¯ çĶ¨
ain er
æľĢé«ĺ çļĦ
b ridge
Ġ åıĹ
å»º åĽ½
ĠAP I
æ³ £
ä¸Ģ æł¹
Ġfew er
ĠA irl
ĠNav al
[ ]
Ġadapt ed
Ġd at
ĠB rew
åİ¿ äºº
Ġmet ers
Ġacquis ition
Ġ æ¬§æ´²
est one
åŁĥ å°Ķ
çļĦ ä¸ŃåĽ½
æĶ¯ éĥ¨
è¯Ħ å®¡
éĽķ å¡ĳ
Ġ åħ»
se mble
our se
Ġpr on
é¦ĸ é¢Ĩ
Ġprodu ces
Ġloc ally
ĠSt ories
k u
ä¸Ģ ä¸Ģ
ro ph
æīĢ è¯´
Ġle mon
ç¹ģ èį£
ter ior
Ġåĵ İ
ĠAlex and
ĠMar ie
ä¸Ģ é¡¿
è¿Ľè¡Į çļĦ
oun ced
æ¨¡ ä»¿
çĽ¸ æľº
rib ution
æĿ¡ä»¶ ä¸ĭ
Ġvolunte ers
% ),
å§¿ åĬ¿
è ĺ
Ġ æ¼Ķ
th rough
èĢģ å®ŀ
ĠRob inson
çĶµ æľº
ç¼ ļ
Ġr uled
Ġflex ible
æ²¿ çĿĢ
in ction
Ġp ic
ä¸į æĹ¶
ç» ŀ
17 0
èªī ä¸º
igh ters
æ°´ åºĵ
æĢ» ä¼ļ
åĩº èĩª
ä¿Ħ åĽ½
æµ· åŁŁ
ĠMach ine
Ġä¸į è¡Į
èĥ³ èĨĬ
çĽ¸ è¿ŀ
æĵ Ĵ
ä»Ļ äºº
æĨ ĭ
Ġm or
irt ual
N C
ĠW right
æĴ¤ éĢĢ
çī ¡
ĠBrother s
r t
ä¸»è¦ģ ä»¥
ĠI an
M D
çĿĢ å¤´
ĠAl ong
çº¿ æĢ§
æ¬§ çĽŁ
Ġwithd raw
äºº æĹı
ä¸º ä»ĸ
Ġsepar ated
Ġ æĬĢæľ¯
ĠSt ra
Ġsal ad
Ġinvolve ment
æĥħ èĬĤ
Ġass ume
Ġf u
Ġsign ature
Ġbr illiant
Ġpoint ed
å½ķ åıĸ
ĠS ug
Ġrequest ed
Ġple ased
ed ition
ĠA y
ĠR y
èµ· çĤ¹
å°± çŁ¥éģĵ
æŀĹ ä¸ļ
å±Ģ åĬ¿
Ġworks hop
Ġt ie
ĠFell ows
Ġrequire ment
: [
éĢĢ å½¹
å¿ħè¦ģ çļĦ
ç£ ħ
Ġgen u
ĠNor wegian
å¤įæĿĤ çļĦ
å¼± çļĦ
Ġc odes
ĠM ales
Ġ éļ¾éģĵ
Ġf ib
éĥ½ ä¸įæĺ¯
Ġremov al
Ġmin im
ä¸Ģ ä¸ĩ
äºº æĺ¯
Ġsk i
æĩĤ å¾Ĺ
Ġ èĥĮ
ĠP ick
äººåĳĺ çļĦ
ĠE sc
new s
åĶ¯ æľī
Ġconfig uration
Ġ æĹ¥æľ¬
Ġhot els
èĬĤ æĹ¥
åıĬ åħ¶ä»ĸ
Ġcopy right
ĠçĶµ æºĲ
r Ã©
åı¯ æĮģç»Ń
è§£ è¯»
ĠCar ter
ç¦» å©ļ
Ġcommun icate
Ġinf ection
ict ions
ĠPol y
ç«ł ç¨ĭ
an ia
Ġb one
ĠNe v
ĠStan ley
Ġsubstant ial
ro ck
åħ¸ ç¤¼
ĠAn alysis
ĠC ultural
èĢ ½
èµ· æºĲ
ä¸Ģ åı¥è¯Ŀ
ä¸įåı¯ æĢĿè®®
Ġ æ»´
Ġm ic
ĠD al
S ec
OS T
éļĶ ç¦»
U E
os ph
åĵģ çļĦ
Ġgener ations
ĠDes cription
s is
Ġ éĶĻ
ĠB ath
åºķ ä¸ĭ
88 9
ä¹ ŀ
ĠCons ervative
é¥® æĸĻ
Ġemer ging
Ġ æīĢæľī
ãĢģ ãĢģ
ĠN ear
éģµ å¾ª
å½ĵäºĭ äºº
ple x
æľ¬ æºĲ
éª¨ éª
Ġf ired
ĠAl aska
çº¦ æĿŁ
Ġdem ands
ĠJim my
ĠS ud
in ating
è· ĭ
å¸Ĥ æĶ¿
Ġè¿Ļ æĹ¶
U s
ob a
äºĮ æ¬¡
Ġrepresent atives
åħ³ç³» çļĦ
ĠH im
åİŁ æĿ¥çļĦ
åŁİ ä¹¡
Ġind icated
å°±åĥı æĺ¯
Ġcred its
èĽ Ļ
Ġcon cerning
arm a
o j
Ġbl ank
ĠWith in
Ġsac r
ĠT ree
ar th
ĠT ags
åĽŀ å¤į
å®« æ®¿
Ġ åıįæŃ£
çľ¼ åħī
èĳ «
âĶĢ âĶĢ
ãĢĭ, ãĢĬ
åħ¸ åŀĭçļĦ
ĠSt re
å½ĵ ä½ľ
åı° é£İ
ä¸¤ åıª
ç§»åĬ¨ çĶµè¯Ŀ
Ġcult iv
èĢģ å¹´
æĹ¨ åľ¨
Ġar med
å¤Ħ ç½®
æ»¡ æĺ¯
ir y
å½ĵ åľº
æĪĳä»¬ åľ¨
Ġindic ates
ä½Ĩ è¿Ļ
æĦ¿ æľĽ
åº¦ åģĩ
ä¸Ģ æľ¬
éĽ· è¾¾
ä¸ĸ å®¶
åª ³
Ġobject ive
Ġcomp uters
p res
Ð» Ñı
Ġ6 1
å¯Ĩ å°ģ
ĠB aker
é¢ĺ çĽ®
ĠWrit ing
è·¯ å¾Ħ
è·Ł ä½ł
ĠPl ayer
Ġgun s
ĠS E
ĠEd inburgh
æĪ· éĢļ
é½Ĳ åħ¨
éĺ³ å¸Ĥ
as a
çĽ¸ ç»§
Ġadj acent
ĠLe vel
åķ §
åı¯ä»¥ çĶ¨
è§£åĨ³ äºĨ
pie ce
çļĦ æł¸å¿ĥ
Ġunderst ood
ĠWar ren
ç«Ł æĺ¯
ur ities
Ġex it
åľ° åŁŁ
ç¬Ķè®° æľ¬
è¦ģ æľī
and al
ĠSa udi
pt ions
Å Ļ
ĠC old
åģļ äºĭ
ĠPh D
ĠBl oom
Ġsp an
Ġh urt
ĠT u
é»ĳé¾Ļ æ±Ł
Ġjun ior
Ġjur isd
è¢« æīĵ
Ġbre ast
æĥĬ äºº
å½±åĵį åĬĽ
è¿ĲåĬ¨ ä¼ļ
ĠTechn ical
äºĨ ä¸ĭ
Ġex clus
é¢Ĩå¯¼ äºº
t ed
Ġ åĸ
ä¸¤ åĽ½
Ġsign ing
ĠOr chestra
åģı åģı
Ġ çĶ±
ĠB apt
ch t
ä»·åĢ¼ è§Ĥ
Ġsomew here
E nt
c ard
Ġd ans
ĠP ath
çĭ® åŃĲ
c os
Ġfrequ ent
Ġrail road
èļ Ĭ
ĠH end
æį Ĥ
re nder
çŁŃ æľŁ
Ġstream ing
le e
Ġcon secut
é¢Ħ æľŁ
ĠC and
ot ion
"> </
st ore
ĠB ot
çĲ ¢
at hered
Ġint ense
Ġicon ic
Ġpublis her
ĠÐ Ķ
æł¹ å»·
Ġdevelop ments
ä¸Ģ æĹı
own ed
åı¯ä»¥ è¯´æĺ¯
å°± å°Ĩ
äºĶ å¤§
é»ĳ è¡£
ĠTer rit
Ġtarget s
Ġconf ront
èº ¬
i op
åŃ ½
çŁ «
Ġconclud ed
åıª åī©ä¸ĭ
å¥³ ç¥ŀ
åĨį ä¸Ģæ¬¡
é©¬ æĭī
å¾¡ åı²
æľĢ æľī
Ġtour ist
Ġ æĬ±
èĢĮ æĿ¥çļĦ
æľī è®¸å¤ļ
Ġweap on
Ġdes ert
æŃ ¼
ĠF ern
å°ı çĻ½
ĠUs er
ĠBu y
ĠL l
Ġra ising
Ġrout ine
åįģ ä½Ļ
è¡Įä¸ļ çļĦ
Ġacknow led
ä¸Ń æ¯Ĵ
Ġres erve
ĠSpe c
on ut
ĠF L
ĠK r
çĬ Ģ
çĭ¬ç«ĭ çļĦ
æĬ¥ èŃ¦
Ġ ç»§ç»Ń
m n
Ġ ]
æĬĬ å®ĥ
åıĸ åĩº
ä¸Ģ åĩ»
Ñĸ Ð²
ag ers
Ġä¸Ģ äºĽ
at ar
ming ham
ĠMan h
Ġç¬¬äºĮ çĻ¾
çģ« è½¦
Ġconsider ation
Ġp in
Ġfore cast
ric ks
U K
æł¼ å°Ķ
åĳĬ çŁ¥
ĠG a
éĽ· éľĨ
Ġ è½¦ç«Ļ
é©¬ æĸ¯
åŃ¤ çĭ¬
Ġ å°½ç®¡
æĶ¾ å°Ħ
æ¦Ĥ çİĩ
åįİ çĽĽé¡¿
ä»Ĭ åĲİ
2 10
h ome
ĠS ources
å¢ŀ åĢ¼
ĠFre edom
Ġ éĢī
ä»ĸ çİ°åľ¨
ĠPitts burgh
åĸĦ èī¯
Ġf ault
os ystem
å¹¶ ä¸İ
Ġ7 6
Ġ å¤±
ĠOr leans
Ġmechan ism
Ġcon j
çº¢ èī²çļĦ
éľĩ åĬ¨
P art
Ġ èĩªçĦ¶
Ġre ception
çģ ¼
å¤« å¦ĩ
Ġanx iety
j amin
Ġlow est
r ons
Ġ è½°
Ġg ran
ç²¾ ç¡®
ĠOrig inal
ä¸Ģ å¯¹
ul u
Ġhas n
èĲ½ çļĦ
Ġsat ellite
book s
v ity
ĠC hen
ĠC reate
Ġv el
os c
ĠS ri
æĶ¶ ç¼©
æłĳ æľ¨
Ġparam eters
ĠM ust
ĠDak ota
Ġ ì
æĪĳ æľī
Ġpublic ly
ĠHe at
è·¯ çļĦ
IN E
è¯¸ ä½į
Ġtour ism
mph ony
Ġm ild
Ġ æľºä¼ļ
Ġcr imes
ĠB iden
èĢĮ åıĪ
æ£ ±
Ġ 96
çķ ´
Ind ex
z ing
in it
çİ© åħ·
å®ĥä»¬ çļĦ
Don ald
è¦ģ åľ¨
Ġcompl iance
U P
æľį é¥°
ex p
éĺŁ åıĭ
rane an
Ġ æķ´
Ġin her
Ġpr inciple
sc reen
8 97
ĠN ord
å¸® ä½ł
ĠTown s
Ġol ive
Bu ild
Ġst d
ass ador
éĽ¶ åĶ®
Ġs aving
Ġhe ll
re ction
ĠF el
less ly
I X
Ġ èī¾
æĸ° äºº
ĠM aterial
åıĭ å¥½
å¦¹ åŃĲ
æŃ¥ æŀª
éĻį ä¸´
éķ¿ å®ĺ
å±± ä¸Ĭ
Ġcuis ine
an ne
æ¦ ´
ĠJu an
Ġ éĥŃ
ĠM om
æ³ķ å®ļ
Ġbrief ly
ä¸į é¡¾
Ġbe ef
ä¾ Ħ
ç¦ Ģ
Ġsurv ived
Ġpre v
Ġloss es
e ger
æ°´ éĿ¢
æĺŁ ç©º
ĠT otal
é»ĳ èī²çļĦ
ĠB att
ĠAr n
ĠUnivers al
Ġ æ³¨
æľŁ éĻĲ
Ġinter active
è¡¨çİ° åĩº
Ġenthus i
op es
Ġpain ter
ens is
Ġw aves
æľ Ķ
Ġab ilities
å¡ĳ éĢł
ä¸Ĭ çº§
are st
æł· æľ¬
ĠCol omb
ĠAb d
èĬ ¸
ĠDen mark
ĠHamp shire
å¾Ģ åīį
ĠT ick
Ġvis its
Ġ éĽª
èİ² èĬ±
æĺ¯ æ²¡æľī
æŃ ¹
æī¿ åĬŀ
å±ģ èĤ¡
çĽ´ åįĩ
ä¸½ çļĦ
look ing
å®ł çī©
cy cle
Ġult imate
ĠS ay
ĠMag ic
æıĴ æ§½
ac o
Ġr anging
Ġsupp orters
çī¹ ç§į
ĠJo in
U ser
Ġas sembly
els h
ä»İæĿ¥ æ²¡æľī
å·²ç»ı åľ¨
ĠHawai i
çļĦ ä»·æł¼
ä¸Ń åįĪ
æ¡ ĵ
Å «
Ġcommission ed
8 02
IS O
èĢ³ æľº
Ġoper ational
Ġp up
å°±æĺ¯ åľ¨
æķĻ çłĶ
ĠDep uty
ĠAl t
Ġtrans action
åĿĲ ä¸ĭ
éĥģ éĹ·
Ġn aturally
Ġgu ilty
åĦ ¡
å§Ķåĳĺä¼ļ å§Ķåĳĺ
Ġm ask
æĥ³ çļĦ
åħĥ ç¥ŀ
ĠB enn
ult ane
ĠSpr ings
ĠC C
åº Ĳ
Ġinter action
Ġaff airs
Ġ éĢļ
åıĪ åĲį
ĠGu y
d em
ĠC os
æłĩ çŃ¾
ĠBl ues
çĿĢ ä¸Ģä¸ª
ĠK l
äº¤ ä»£
ĠBelg ium
Ġad s
åº ļ
Ġ6 3
St ation
Ġt ied
ĠM oney
ä»¥ åħ¶
ĠLin ux
ä¸ĭ è¾ĸ
è¡Į é©¶
ĠW a
å¦ ŀ
ä¸ļ ç»©
ä¿® è®¢
gr ade
æĪĳ åı¯ä»¥
h ill
R eg
ĠSe ven
æ¸¸ åĩ»
IS T
d ist
åĩł ç§į
ĠRepublic ans
ĠW i
æĶ¶ åĽŀ
ĠNAS A
æ²³åĮĹ çľģ
ä¹ĭ ç±»çļĦ
åİŁ åĲį
ç¯ ·
éĽķ åĪ»
qu ery
ĠCr ime
ĠJohn ny
çĸ« èĭĹ
ah a
åºŀ å¤§
Ġin aug
æ¬² æľĽ
ç» İ
æµ· å³¡
Ġessential ly
Ġ ç´¯
æľī åĬ©äºİ
å¥½ äºĭ
12 1
åıªæĺ¯ ä¸Ģä¸ª
Ġ> >
Ġ åĶ±
Ġlif etime
ac les
å¥½ ä¼¼
de v
Ġåĵ ĩ
Ġt ries
Ġm oral
ä¸Ĭ æĸ¹
å¼Ģåıĳ åĮº
Ġcritic ism
Ġ urg
å¤© çİĭ
åħ³ èģĶ
ĠPortug al
åģļ åĩºäºĨ
èĦ¸ ä¸ĬçļĦ
ä¹ĭä¸Ģ çļĦ
ä»ĸ çŁ¥éģĵ
Ġem issions
èµ° çļĦ
æ¸© æ³ī
æĭ¿ èµ·
Ġ è¿Ľ
us cript
ĠJoh ann
Ġreve al
Ġm art
å° §
Ġè¿Ļ æ¬¡
Ġcap ability
Ġh ub
ent e
O B
Ġf ur
çģ ¶
çĶŁ çĶŁ
åıĺ æĽ´
T Y
ĠE state
åıĳ ä½ľ
çº§ åĪ«çļĦ
æĬĬ æĪĳ
åľ¨ åħ¨åĽ½
ĠPr incip
er ror
ĠL ED
å°± å¥½åĥı
æ°ĳ äºĭ
Ġart work
Ð´ Ð°
åıĹ æ¬¢è¿İ
ä¿Ŀ åį«
Ġland ing
ĠMet ropolitan
Ġ ä½ı
Ġh ate
ç¨ ļ
ä¹Ĳ åĻ¨
ĠHe y
åŁºç¡Ģ ä¸Ĭ
âĢ ķ
è¿İ æİ¥
Ġun expected
çļĦ æĥ³æ³ķ
Ġåĳ Ĺ
åĩº éĹ¨
çĸ ®
ĠFin n
Ġcom ed
ĠFor um
ĠBre ak
å´ĩ æĭľ
Ġneigh bour
åı· çļĦ
åĪĨ æķ°
Ġst ack
ä»ĵ åºĵ
çľĭ ä¸įåĪ°
ĠM ath
äºĽ ä»Ģä¹Ī
ĠSur vey
ĠN BC
èĩ´ çļĦ
æłĩ é¢ĺ
Ġarg ued
è¯Ń çļĦ
å·© åĽº
ãĤ ¹
Ġst uck
Ġposs ess
ol ving
an ing
èŃ¦ æĥķ
Ġgraph ic
åĽŀ æĶ¶
Ġbound aries
cur rent
çĻ¾ ç§ĳ
å°¼ å°Ķ
Ġexp enses
se ud
é¢ĳ ç¹ģ
ail and
viron ments
Ġabs ence
åĬ¨ æ¼«
r and
Ġrec ycl
æŃ¥ è¡Į
Ġ çĶ»
çİ¯å¢ĥ ä¿ĿæĬ¤
å¾®å¾® ä¸Ģç¬ĳ
ĠUn like
des ign
Ġvacc ine
å¹´ åĨħ
ĠW orth
è¾ ľ
åĽĽå·Ŀ çľģ
èĩ³ æŃ¤
æŃ£å¸¸ çļĦ
åĤĢ åĦ¡
ä¸º ä¸ŃåĽ½
ĠåıĤèĢĥ æĸĩçĮ®
ä¸»è¦ģ æľī
æ·¡æ·¡ çļĦ
ĠO K
ç¥ŀ æ®¿
åĨį çĶŁ
Ġcur rency
Ġ8 8
çĶļèĩ³ æĺ¯
Ġh ire
Ġl ad
ä¼¤ å¿ĥ
å¯¹ ä¸įèµ·
ĠIn clud
èµĭ äºĪ
ç¼ Ķ
ĠRe lease
æ· «
èµ¶ åĪ°
å·¨ äºº
Ġaccompan ied
ant on
Ġ# ##
Ġden ied
çļĦ åİŁåĪĻ
æľī å¤ļå°ĳ
ĠChe l
UL L
, (
Ġcast le
ĠPrim ary
Ġ 97
Ġdesc ript
Ġabsol ute
ä»¥ åħį
åĲİ ç»Ń
åºĶ ä»ĺ
cc a
å¹² åĺĽ
Ġwhere as
Ġcompl icated
æĸ© æĿĢ
h u
å½ĵ ä»Ĭ
å°Ķ çī¹
å¤ªéĺ³ èĥ½
çĹħ ä¾ĭ
æķ£ æĸĩ
æ´Ľ æĿī
å¼¥ æ¼«
ins ula
Ġè¦ģ æĺ¯
Ġamong st
æĥ³ åĪ°äºĨ
æĢİä¹Ī è¯´
Ġser ial
æģĲæĢĸ çļĦ
Ġwild life
æµĵ éĥģ
éĺ´ è°ĭ
ĠCons ult
æĪĲ å¹´
Ġri vers
Ġang le
åĵª åĦ¿
æĭ¼ åĳ½
ĠLook ing
åľ¨ èĩªå·±
åĮĨ åĮĨ
ĠW ould
ç¡ Ŀ
æ» Ķ
Ġtal ented
Ġval ley
Ġ æķħäºĭ
re ement
æľī æľºä¼ļ
Ġ6 8
ar ray
å¤© å°Ĭ
ä½¿ èĢħ
AS S
èħĲ èļĢ
èİ« æĸ¯ç§ĳ
Ġsecret ary
Ġe in
å« Ĥ
M ay
çĻ¾åĪĨ ä¹ĭ
çļĦ éľĢæ±Ĥ
Ġs oup
p ay
Ġ åİīå®³
Ġres iding
Ġbran ches
Ġ ä¸ĵä¸ļ
ãģ ª
æĸĩçī© ä¿ĿæĬ¤
åĲĵ å¾Ĺ
Ġy e
å¤ļ å¹´æĿ¥
12 3
Ġdef ensive
å¦ ¾
ç¥ ģ
ĠDel hi
ĠPortug uese
ä¾¿ äºİ
åĪ¶ æĪĲ
çľ¼ æ³ª
ä¸ĩ éĩĮ
ĠH ad
é£İ éĽ¨
åķĨ åºĹ
Ġc otton
èģĶåĲĪ ä¼ļ
Ġ èº«é«ĺ
Ġaddress es
æºĲ èĩª
oun ce
Ġpurch asing
æĢİä¹Ī åĽŀäºĭ
æĺ¯ä¸Ģ å®¶
le m
ĠH i
ĠL anc
æĲ ģ
åħ¶ä¸Ń åĮħæĭ¬
ä»Ģä¹Ī æł·çļĦ
Ġfunction al
ĠN EW
Ġab road
åĨľæ°ĳ äººåĿĩçº¯æĶ¶åħ¥
æŃ£ è§Ħ
åĴ Ĩ
çª į
ãģ Ĺ
ĠA er
åĥµ å°¸
éĺ ª
Ä Ļ
å¢Ļ å£ģ
çİĭ çĪ·
çº¿ ç´¢
) $
1 12
ĠO cc
ä¾Ŀ æīĺ
ãĢĭ )
Ġsc an
ĠCarib bean
n ell
è¿ĩ æķı
æŀĹ æŀľ
Ð¸ Ñĩ
ç¦ıå»º çľģ
M W
Ġp add
ric ulum
èº« åĲİçļĦ
åľ¨ æĸ°
... "
çļĦ æķĻåŃ¦
åıĭ è°Ĭ
Ġtom orrow
ĠB ond
å½ĵ æĪĲ
å¥¥æŀĹåĮ¹ åħĭ
Ġle af
éľ² åĩºä¸Ģ
ist ent
æ± ¹
çĶŁçī© åŃ¦
Ġc her
æłĳ æŀĹ
ĠDen ver
æ´ĽæĿī çŁ¶
èİ« åĲį
å¾ģ æĶ¶
Ġconcent ration
em or
ä¸Ģ éģį
Ġdram atic
Ġc ous
è¿Ļ è®©
åİ¿ çº§
Ġconnect ing
Ġ å§ľ
çļĦ åħ³éĶ®
ä¹¦ åĨĻ
Ġdis aster
mark et
Ġ è¿½
æľ¬ æķ°æį®æĿ¥æºĲäºİçĻ¾åº¦åľ°åĽ¾
åŁº éĥ¨
Ġæľī äºĽ
E qu
ĠN ag
åĵ¥ ä¼¦
Ġin du
åĪĨ æĪĲ
æĥ³ æĿ¥
; (
E lement
ach ment
ĠFurther more
P e
ĠP RO
Ġprepar ing
8 85
ĠG ate
am el
Ġfin ishing
ĠGr ay
å¤© ç¥ŀ
åįķ è¯į
éĻĲ äºİ
ĠSer b
ç»© æķĪ
Ġcoast al
us her
Ġk it
Ġagric ulture
V C
Ġgen etic
ĠBarb ara
o op
ĠR io
åĨħ åľ°
we ek
Ġtreat ments
ie ve
Ġde eper
å¤§ è¿ŀ
yn c
ĠBr ight
l ov
çĲ ħ
ç¥ŀ åľ£
Ġparaphr ase
åĳ Ĳ
ä¿ º
å°ı åŃ©
ĠAirl ines
Ġt ape
ä¿ ŀ
qu er
Ġdevelop er
çĸ ¹
o ons
Ġspecial ist
èĢĥèĻĳ åĪ°
Ġrul ing
è§¦ æĳ¸
ä¹Ł å°Ĩ
Ġaud iences
Ġcontract s
Ġvolunte er
Ġ è¯¦ç»Ĩ
ĠCharl otte
ĠB it
Ġä¸į ç®¡
æ± Ĳ
å®ī ç½®
åıĺ ä¸º
Ġf illing
éª Ĩ
è´ ±
åĩł ä½ķ
è§Ĥ éŁ³
éĤª æģ¶
å¹³ æ°ĳ
ÑģÑĤ Ð²
Ġvent ure
ce eds
ur rent
ä»ĸ è¦ģ
ĠU pper
æ´» åĬĽ
çģ¾ å®³
æĦŁ æħ¨
è§£ æķ£
Ġrecord ings
ar ation
é«ĺ ç«¯
Ġâ Ĩ
ir ates
Ġlo ans
ĠL ost
éª¨ å¹²
å¥Ī ä½ķ
Ġmunicip al
ĠArgent ina
Ġ éĹ¨
Ġch ips
Ġ[ ...]
æīŃ æĽ²
çļĦ ç»ıæµİ
çºµ æ¨ª
Ġrare ly
ĠIndust rial
æĪĳ å®¶
åĩ» æĿĢ
æĶ¾ åĪ°
st op
Ġfl ows
å®Ĺ éĹ¨
åĬłåħ¥ äºĨ
åĤ¨ å¤ĩ
Ġg ifts
ä¸» åľº
å±Ĥ éĿ¢
çĽ Ķ
å®ŀ è®Ń
ä»» æĦı
ĠInd ex
ä¸Ģ åħ±
ig ma
Ġf inger
Ġ å®¶åºŃ
æĢ» çĽĳ
ç§° ä½ľ
t em
ç¿ ¡
w as
Ġcon clusion
pp ers
ĠV iol
è½¬ è®©
Ġ æ·±
ig o
ph ones
t ic
G O
æī§ å¯¼
ĠSy ria
Ġst range
8 94
Ġ ä»£è¡¨
çĭ ŀ
elf are
p in
èĲ İ
èŀº æĹĭ
è¿ĺ éľĢè¦ģ
ä¾Ľ çĶµ
ĠHun ter
ĠD rug
Ġpriv ile
ä¿ ı
ram ework
86 3
ol en
è¿ĩ å¤ļ
Ġob lig
æıĲé«ĺ äºĨ
åĲĮæł· çļĦ
æĹłæ¯Ķ çļĦ
ä½ ¬
å¸ĥ å°Ķ
æ½ľ åľ¨
Ġincred ibly
åĲį åı«
ãģ Ł
W ill
æ¸ħ éĻ¤
Ð¾Ð ·
é¡¶ å°ĸ
ä¸§ å¤±
åīį åĪĹ
ç½ĳ åį¡
ĠSing le
] ãĢĤ
åĲİ éĿ¢çļĦ
Ġcons ervative
è§Ĵ èĲ½
è¿ĺ æľª
æīĢ èĥ½
ĠéĤ£ ç§į
Ġmechan ical
é¾Ļ å¤´
ç»Ī ç«¯
Ġexecut ed
Ġconsecut ive
ç« £
ä½ľä¸º ä¸Ģä¸ª
Ġobvious ly
Ġelse where
çĶµ ä¿¡
åľ¨ è¯¥
ä¸¾è¡Į çļĦ
çĪµ å£«
ä¸įä¼ļ æľī
l aim
åī ¿
ä¸İ ä¹ĭ
ä¸¾ åĬ¨
ĠPict ures
Ġpre st
ĠEp isode
æı ½
ĠEm ail
B R
ĠThe ater
æĹ¶ æľº
ç¬¬ä¸Ģ æĹ¶éĹ´
åľ¨ å¥¹
å®ļ å±ħ
Ġ æĮĩ
Ġ åį´
wh ite
Ġbehav iour
od ed
oth y
ĠPh oenix
Ġreject ed
Å Ľ
it ol
ĠD est
ag ger
æĹł æŀģ
æ³ķ æľ¯
Ġdispl ays
p ub
ĠMur ray
æµ Ĭ
æ¹ĸåĮĹ çľģ
ĠåĽ¾ä¹¦ çĽ®å½ķ
v et
çļĦ ä¸įåĲĮ
äºĨ è¿Ļ
Ġre ly
ĠBir mingham
æ² Ľ
ocr atic
Ġ åħ¥
Ġhead ing
çļĦ çĶµå½±
æķ ŀ
èĪ¹ èĪ
Ġbreak s
ĠFreder ick
u ct
Ġann ually
ĠOper a
æī§ æĶ¿
ç¾İä¸½ çļĦ
åĹ ¡
ene z
Ġke ys
Ġd iam
mar ks
éĻ¤æŃ¤ ä¹ĭå¤ĸ
ä¸Ģ åı£æ°Ķ
per t
j u
åĹ ĵ
æľī çº¿
åŃĲ åĴĮ
åĩł çĻ¾
ç» ¸
åıįåºĶ è¿ĩæĿ¥
m ate
èĢĮ è¿ĩ
ĠE V
Ġhy d
ĠPriv acy
r in
ĠN O
å¿ĥ æĢģ
rou s
å¿« æį·
çº¢ åĨĽ
ĠNet flix
Ġut ility
Ġstrugg ling
éĻ¡ çĦ¶
\ \
ĠPet ers
éĩĮ äºļ
Ġå°ı æĹ¶
ä¸ľåįĹ äºļ
ä¸º æ°ĳ
èĢĥ éªĮ
Ġhy brid
Ġconvers ion
å¼Ģ åĪĽ
s i
çīĽ å¥¶
æłı çĽ®
Ġschol ar
Ġh ack
ĠPat ri
Ġconsist ing
åį¡ æĭī
åĢĻéĢī äºº
ord inary
min ute
ĠV eter
æī¹ åĪ¤
åĨ² åĬ¨
ĠFin land
ac ular
Ġgen us
ĠEvery thing
Ġcooper ation
87 5
çģ¾ éļ¾
ĠPlan ning
ĠN ar
ĠT ob
æĺ¯ä½įäºİ ç¾İåĽ½
åĴĨ åĵ®
id ad
ust ain
æ¤ Ń
Ġmar ine
ä¸ĩ å¹³æĸ¹ç±³
æł Ī
Mod el
çļĦç¥ŀ èī²
çļĦ è½¦
ĠA ren
çĶŁ åĬ¨
åĲĥ æĥĬ
ä¸Ń æīĢ
Ġp ounds
id al
åİ» çľĭ
Ġha z
Ġequ ally
s a
çłĶ è®¨
å½ ¤
é«ĺ éĽĦ
Ġ çħ§çīĩ
çļĦ åŃ¦ä¹ł
ip h
çĢ ĳ
. -
ĠBibli ography
as hes
æŀľ å®ŀ
åħī ç»ª
Ġoper ators
ĠApp ro
Ġbas ically
çģ° èī²
ä½İ å£°
åı« å£°
ep ing
ç¾İ é£Ł
éģĵè·¯ ä¸º
ib l
Ġbath room
èĳ« èĬ¦
éħĴ åĲ§
Ġbox es
æĢİä¹Ī äºĨ
Ġtrans formation
ĠIn v
al g
éĤ ¹
æĹł å¿Į
å°Ĩ èĩªå·±
Ġsing ers
çļĦ æłĩåĩĨ
ĠJer ry
ĠGl ass
ç»ĵæĿŁ äºĨ
å·¡ åĽŀ
Ġre ven
ĠSus an
N ode
æ¸ħ éĨĴ
Ġ æĶ¶
çļĦ æķĻèĤ²
çľŁ çĽ¸
ĠArch ives
é¢ģ å¥ĸ
im m
Ġsudden ly
åĮ ¿
osp el
åĴ³ åĹ½
çĻ» åľº
Ġ éŁ³ä¹Ĳ
åĩº å£°
ĠH orn
Ġrespect ive
ç¥Ń ç¥Ģ
æĸ¯ é¡¿
ent ry
å±Ģ çļĦ
Ġdep ression
ĠAlf red
Ġch ronic
æ°Ķ è´¨
ft en
çİ© æĦı
åĨħ èĴĻåı¤
Ġ æĶ¹
åħ¬ é¡·
AM E
æĥ© ç½ļ
è¾ŀ èģĮ
æľī ç§į
èº« åīį
ç¿ Į
æ·Ģ ç²ī
ĠH em
ik ip
Ġexcept ional
ç¡ķå£« åŃ¦ä½į
10 8
he astern
è´¨ ä¿Ŀ
çģ« è½¦ç«Ļ
ĠD iamond
ĠCD P
æ´Ľ åħĭ
éĢį éģ¥
th a
æľĪ çĲĥ
Ġear liest
å®¡ ç¾İ
ik h
æľīä¸Ģ å¤©
Ġparticip ating
åĨħ æ¶µ
Ġå¥½ ä¹ħ
o at
i u
Ġrep rodu
åįł æľī
åĨľæ°ĳ æĶ¶åħ¥
ric ane
Ġ æ±ī
éĢĥ è·ĳ
Ġ äºĮåįģ
Ġbe ans
Ġ ç»ıæµİ
ä¹Ł åıªæľī
å§ĭ å»ºäºİ
the less
ĠBar ry
çĶ¨ ä½ľ
å¸Ĥ çº§
Ġo d
ĠL ower
ĠManh attan
Ġcult ures
ĠÐ µ
ĠBl ock
åĲĽ åŃĲ
çº¢ çļĦ
ä¸Ģ åĽ¢
æİ¨ è¡Į
å¼¹ æĢ§
crib ed
Ġlin ear
å¸¸ å¹´
ĠIn it
ows ki
ĠEconom ics
Ġcrick et
' ).
ĠG ill
Ġtrack ing
æľŁ è´§
ä»ħ æľī
ĠSte ven
Ġtalk ed
æ¸ħ åįķ
S R
åīį æĻ¯
ä½ł èĩªå·±
Ġcompens ation
åĿļ åĨ³
Ġ è¿ĩæĿ¥
çĿĢ èĦ¸
äº® çļĦ
n ia
Ġsh ore
å¾· è¯Ń
Ġ6 7
Ġab stract
Ġex haust
ä»» æķĻ
åħĥ æ°Ķ
Ġg ay
t ains
Ġequ ity
thod ox
ç´« çĥŁ
Ġco aching
èµ¢ å¾ĹäºĨ
ç»Ļ å¥¹
å®¹ çº³
Ġtri als
Ġtarget ed
ä¾Ľ ç»Ļ
Ġ éĢīæĭ©
Ġb ags
ãĥ «
ĠMit chell
æıĲ åıĬ
åĪĨ èº«
ĠAfghan istan
U D
Ġst ability
Ġpop ulations
back s
ĠP ul
è®² ç©¶
Ġreve als
å¤§ æ®¿
ä¹Ł åıªèĥ½
Ġsu icide
Ġ ç®Ģä»ĭ
ĠK ate
Ġart ificial
çģ¯ åħī
éĤ ¨
ĠAn aly
é¡º ä¾¿
æĪ¿ äº§
Ġgr id
å²Ľ ä¸Ĭ
Ġresc ue
f ly
ĠCurrent ly
ra f
Ġenter prise
Ġcontrovers ial
ä¸¤ äººçļĦ
è¿Ļä¸ª ä¸ĸçķĮ
et he
ä¼ļ åĩºçİ°
å®ŀ æĹ¶
å®ģ æ³¢
In fo
çĻ½ å¤©
Ġme als
è¾ĥ å¤§çļĦ
åľ£ äºº
æ¯ Ĺ
P re
ä¸»ä¹ī èĢħ
è´¦ æĪ·
Ġ7 7
åħ¬ æŃ£
Ġwas h
ck er
èħ¹ éĥ¨
åĳ ĥ
Ġch opped
Ġdocument ation
Ġdial ogue
çļĦ ä»ĸ
çĶŁ æ®ĸ
éģĩ åĪ°äºĨ
éĩĩçĶ¨ äºĨ
Ġreported ly
æģŃ æķ¬
Ġintrodu ce
Ġaccompl ish
èĩª æĿ¥
ĠC er
ĠO ri
Ġmeas ured
æ¯ı åĳ¨
åħŃ åįģ
Ġcy ber
Go ogle
ĠCra ig
8 93
Ġâ Ĥ¬
ĠEv ans
éĺĲ è¿°
Ġ æĺ¾ç¤º
Ġ è¡£æľį
Ġoff ensive
åİĭ è¿«
æ¡Į åŃĲ
C reate
ul us
u ana
form er
ç»Ī èº«
è¦ģ æ¯Ķ
Ġinhab itants
av ed
æĭ¯ æķĳ
çļĦ æ¨¡æł·
ĠSh an
æģ¢å¤į äºĨ
IV E
å¤§ æµ·
è¯¥æĿĳ åĪ°
Ġ èĭ¥
Ġg ardens
Ġrespond ed
èĬ¬ åħ°
am an
èµ ģ
Ġcorrect ly
æ¸´ æľĽ
ç»Ļ æĪĳä»¬
ĠId ent
Ġre un
ac iÃ³n
åİŁ åħĪ
è¯· éĹ®
æĭį äºĨ
Ġfriend ship
ĠLiter ature
ç¡® ç«ĭ
å¤¸ å¼ł
Ġex clud
Ġexec ution
ä¹ĭ ç±»
Ġ éĿŀ
ĠE T
Ġçľĭ è§ģ
Ġple asure
Ġinvest ments
å¼Ģ çļĦ
å½ķ åĪ¶
Ġlaw yers
Ġ èº«ä½ĵ
åĸĿ éħĴ
8 92
s ource
ĠB rid
åŁİ éĹ¨
Ġas ks
8 40
ĠBill board
å¤§ å°ĨåĨĽ
ĠR ing
åī§ åľº
Ġh orses
å¤© çļĩ
Ġä¸į æķ¢
Ġcons ent
å®¾ é¦Ĩ
æ© ĺ
ĠCh ile
Ġsav ings
æĳ©æīĺ è½¦
M O
åĲ¬ åĪ°äºĨ
Ġ éĩįè¦ģ
Ġdr inks
ant ed
æ¸¸æĪı ä¸Ń
Man ager
ç¬¬äºĮ å¤©
éĹ» åĲį
çıį çıł
å¸Ĥ ä¸Ńå¿ĥ
åĲ¦ è®¤
Ġfem in
iat ric
Ġexperim ental
en h
Ġf ert
ut t
Ġmy stery
Ġest imate
è¯¯ ä¼ļ
çļĦ åŃ©åŃĲ
äºº äºº
æ²» å®ī
åİĨ ä»£
ĠL ux
ä¸» æľº
åģľ çķĻ
æĪĳ éĥ½
ĠComm ons
Ġassum ed
Ġper m
ç¥ĸ åĽ½
Ġfund ed
Ġjournal ists
Ġen vironments
ank a
Ġsynt hes
ĠB achelor
ĠR at
ĠG ot
åıį é¦Ī
å¹´ç¾İåĽ½ äººåı£æĻ®æŁ¥
å¤§ éĺµ
ĠW elsh
åħĭ å°Ķ
iter ranean
çıį è´µ
Ġdemonstr ate
Ġtermin al
Ġ ä¿¡
Ġass et
æłĸ æģ¯
å»ºè®¾ çļĦ
Ġadvert is
Ġattract ive
Ġ è®¾è®¡
orm al
èĭı æł¼åħ°
ç«ĭ è¶³
çļĦ æľĭåıĭ
å¿½ è§Ĩ
pl ed
Ġh ospitals
se arch
åıĪ èĥ½
æĿĢ æĪ®
Ġ å½ĵæĹ¶
10 3
åĨ² éĶĭ
Ġc ited
le tt
ĠM eg
ä¸ī çº§
éģĹ è¿¹
r ary
ĠAl ice
è¿Ļæł· ä¸Ģä¸ª
ĠEr n
éĩĳ é¢Ŀ
Ġleg it
isc hen
ĠIndones ia
s ky
erv ing
åľ¨ ç©ºä¸Ń
éĻĦ åĬł
d ec
ĠW onder
æŃ¦ æľ¯
æ¦ Ħ
è·ĳ åĪ°
Ġfest ivals
éª¨éª ¼
ĠG as
èĥ °
çĶ¨ èį¯
Ġautom atic
æ¸ħ ä»£
au c
æĻ¶ ä½ĵ
éħį ä»¶
Ġexpl icit
Ġ< <
ä¾ĭ å¤ĸ
Ġfol ks
Å ¼
è°ĥ çłĶ
Ġconsider able
Ġ åĵģçīĮ
æľĪ åľ¨
ä¸į éĢļ
ä¸į æĦ¿
ĠSt age
ä¸Ĭ éĹ¨
Ġlay ers
ĠH ud
Ġ å®¹æĺĵ
å¤§ èĥĨ
æ½ľ èīĩ
Ġ éªĤ
Ġc ow
Ġref resh
æģĴ æĺŁ
è¿ĺæĺ¯ è¦ģ
åħ¨ æĺ¯
ç»Ŀå¯¹ æĺ¯
è·¨ è¶Ĭ
çļĦå¤§ åŀĭ
ĠA bs
å¾Ī æ¸ħæ¥ļ
å°ģ éĿ¢
st ruct
æ³ķ åºŃ
æ¸© åĴĮ
ĠCle ar
Ġassoci ate
ĠRet rieved
åıĳ éĢģ
Ġbu ck
Ġtw elve
éĤ£ å¤©
rim ination
usal em
Ġc razy
åĨ ī
Ġse g
çĽĳçĿ£ ç®¡çĲĨ
g ins
ç į
è¾¹ å¢ĥ
ãĤ ¤
Ġlab els
p ing
è¨Ģ è®º
Ġboard s
éĢļ å¾Ģ
Ġ9 2
çĥŃ æ°´
Ġattack ed
æĽ´ ä½ķåĨµ
ĠBen jamin
é¥² æĸĻ
ä¸Ģ ä¸¾
Ġ Ø
èĬ Ń
ç±»åŀĭ çļĦ
æľī ä¸¤ä¸ª
Ġclass room
Ġè¿ĺ å¥½
çļĦä¸Ģä¸ª å¸Ĥéķĩ
m ax
Ġtrad itions
æľī éĴ±
ĠP arent
åıªæľī ä¸Ģä¸ª
åķ ¤éħĴ
Ġsm ile
æ°¸ ä¹ħ
éĶ Ĥ
ĠC ou
äº§ çī©
ling ton
ĠFor ces
ĠT itle
æłĩ è®°
Ġt ons
em ed
ä¸¤ å²¸
Ġâ Ī
åīį æľŁ
be gin
åĿ Ĥ
ä¸¥ è°¨
äºº æł¼
ĠP ant
10 4
A tt
ikip edia
æ³ķ åĪ¶
Ġlong est
ä»»ä½ķ äºº
r ise
çĿ ¹
æ¶Ī æ¯Ĵ
Ñ į
ob i
åĩĮ æĻ¨
ĠSqu ad
RE E
ol ished
ĠB ody
ĠV o
å¹³ å¸¸
æ°ĳä¸» åħļ
çºł ç»ĵ
é£ ĵ
åĭ º
Ġan alog
Ġ ä¿Ŀ
ä¸į æĿ¥
éĩĳ éĴ±
Ġ å¾®
ä½ł çİ°åľ¨
ĠÐ »
ä¿® ç½Ĺ
Ġ åħ³æ³¨
ĠAd vanced
æĻĭ çº§
ĠMalays ia
Ġy ard
Ġdiscuss ions
Ġf ictional
ĠG rey
éĺ¿ éĩĮ
ä»ħä»ħ æĺ¯
ä¸Ģ æĪĺ
Ġmem orial
ĠWar ner
ĠJenn ifer
åĺī å®¾
Ġstay ing
çīĪ æĿĥ
ĠC oun
æĿ¡ æ¬¾
æŃ¤ åľ°
éĩĳ çīĮ
ç§Ł èµģ
æĬ¥ å¤į
å¥ī çĮ®
å¹¶ åħ¥
ĠF al
çı ĳ
8 91
ä¸ļ çļĦ
ĠÐ ŀ
G S
è¯± æĥĳ
og an
å½ĵ æĹ¥
åĶĲ æľĿ
è¡į çĶŁ
è·¯ åı£
b n
Ġc ub
Ġre verse
è¿ĺ åİŁ
ä»ĭ è´¨
éĢ® æįķ
I E
ĠGra ce
Ġreg ime
çĶŁåĳ½ çļĦ
ĠInt el
build ing
Ġvulner able
it ate
åı° åįĹ
Ġ ä¼°è®¡
Ġf Ã¼r
ĠL uther
su ccess
ĠCreat ive
ä¸į æ¸ħæ¥ļ
æĿ¥ ä¸įåıĬ
ä¸Ĭ ç½ĳ
é¢Ĩ åľ°
Ġimm igration
åĽŀ åĽ½
åħħ çĶµ
ĠPark er
Ġaccur acy
çĶ¨ æīĭ
æĸĩ çļĦ
ä½© æľį
av id
Ġcont ents
åĽĽ éĿ¢
èĳ¡èĲĦ éħĴ
å¯¼ èĪª
åĨ· åĵ¼
ĠBrazil ian
ach t
æ±ĩ èģļ
1 90
éĩį ç»Ħ
Ġeval uation
é«ĺ åİŁ
rib e
æĪĺ åĽ½
act eria
isc al
f ix
åħ¨ æĸ°çļĦ
Ġ åīª
" ,"
å¹´ æ¯ķä¸ļäºİ
å®Ŀ çİī
Ġæĺ¾ åį¡
et e
a a
Ġb er
Ġre cept
æ·± æ¸Ĭ
c z
Ġ18 0
éª¤ çĦ¶
Ġ å¤§åŃ¦
ĠTh ink
æķ° åįĥ
ore n
çĲĨ åŃ¦
ĠS id
å´ĩ ç¥¯
f are
æ³¨ åħ¥
ç¡¬ åĮĸ
æ¹¿ åº¦
Ġmix ing
am on
å¾· åįİ
çĹħ æĥħ
ĠAnc ient
Ġb ell
ĠF ine
ĠK on
åĩº åľŁ
éĴ¥ åĮĻ
n ames
Î ¼
Ġd iamond
è¿ĩ æ¸¡
ĠÐ ĵ
ĠM all
åħ¬ ä¼ļ
è¯Ń æ³ķ
æµģ æ°´
å°ĳ çļĦ
t ail
å°ı åŃ¦çĶŁ
ä¸ĩ å¹´
Ġ æĪĸèĢħ
ĠCh ron
com mon
ç»ĵæŀĦ çļĦ
åĪĬ çī©
Ġconvent ional
Ġs our
Ġvari ables
e ur
ä¼ĺ éĽħ
éĢļ è½¦
ĠS ony
ĠTh ailand
ĠA ld
Ġsim ultane
w ear
Ġp ushed
çĿĢ æīĭ
Ġen ables
Ġact ively
Ġworks hops
n um
éĨĴ æĿ¥
Ġw ake
ill o
Ġt ap
æµ· åħ³
ĠBl u
è¿Ļ å¯¹
ĠK an
èĬĤ çľģ
æĤ£ èĢħçļĦ
Ġmult ip
Ġä¸ĭ åįĪ
çĸ¾çĹħ çļĦ
Ġhun ting
æĽ ¦
ä¸Ģ åĲĳ
çķĻ ä¸ĭçļĦ
ĠF ish
åıª å¾Ĺ
ç»Ŀ å¤§å¤ļæķ°
çŁ¥è¯Ĩ äº§æĿĥ
ä¼´ éļıçĿĢ
ĠR and
åĢº åĪ¸
çĿĢ ä»ĸ
ous ing
äºĨä¸Ģ çĤ¹
ĠColl ins
on om
Ġrat ings
ĠProduct s
ä½ĵ åĬĽ
Ġmy ster
ç¢ Į
Ġsuff er
Ġadapt ation
æľº æŀª
è¥¿ åħ°
æĬ¥ ä»ĩ
ç¬¬ åįģ
å¸¦ åĬ¨
è²Į ä¼¼
çĽ´ å±ŀ
Ġ å¿Ļ
æĭ¥æľī ç§»åĬ¨çĶµè¯Ŀ
æĹł å½¢
Ġtem por
ĠCor p
åĩłä¹İ æĺ¯
Ġupgr ade
çģ« æĺŁ
çļĦé«ĺ åº¦
å¹½ é»ĺ
åĨľæĪ· æķ°
ob ject
ĠAs k
c ia
ĠD im
Ġcomp act
Ġres ign
arch y
èĶĵ å»¶
å¹³ ç±³
åķĨ å®¶
Ġ7 1
åĪĽå§ĭ äºº
Ġ1 10
or ld
åľ¨ åĵªéĩĮ
ij ing
Ġ ÑĦ
éĽ¶ ä»¶
èĿ ī
Ġexplan ation
åºı åĪĹ
Ġar c
Ġevery where
ä»ĸä»¬ æĺ¯
æĪĳ èĥ½
ĠDan ish
éĴ» çŁ³
Ġbeg un
Ġb ull
Ġl oud
å§ Ĭ
æĶ» æīĵ
Ġ# #
ĠF isher
å¾®å¾® ä¸Ģ
æĶ¾ ç½®
86 1
ä¸įéĶĻ çļĦ
OR E
uk i
ä¸į å±ĳ
Ġ7 8
å¦Ĥæŀľ æ²¡æľī
ĠArt ist
Ġover come
æĻº åĬĽ
Over ride
æĸĩ ä¹¦
Ġneut ral
Ġdesign ers
u its
ĠDou ble
æ°´ ç¨»
8 87
ation ally
ĠJ en
at ile
åĲĮ ä¼´
Ġapp lying
çļĦ åĬ¨ä½ľ
ä¸į æĺİçĻ½
å¸® æĪĳ
Ġ ),
éĴ ¾
åºŁ è¯Ŀ
ä¸į çŃī
åºĶçĶ¨ äºİ
is an
è¯ ¶
è¿ĺ å¾Ĺ
Ġacc laim
air y
ĠInter est
M icro
ä»į æĹ§
åľ Ń
ä¸Ĭ åı¤
å°ĳ è®¸
å°ģ éĶģ
Ġwhe never
Ġaddress ed
åº ĩ
è¾ĥ å¤ļ
Ġcorrespond ing
Ġs id
ä¸ª äººçļĦ
Ġç¬¬ä¹Ŀ ç«ł
) {
8 86
ut ical
éĺµ åľ°
Ġrest ored
ä»·åĢ¼ çļĦ
æķĻ åĮº
å¾· å°Ķ
Ġdecl ined
Ġcab in
åĭĩ æķ¢
Ġt issue
åıĳ æİĺ
å¹¿ éĺĶ
æ·± çļĦ
çľĭåĪ° çļĦ
çī¹ èī²çļĦ
åĮ» åŃ¦éĻ¢
s ung
Ġ um
ĠM es
ĠW ol
éķ ¶
Ġthreat s
Ġin ch
Ġd anger
æį £
è¥¿ æĸ¯
æľĪ åºķ
å°± æŃ¤
éĩı åŃĲ
Ġre ct
åıĺ æį¢
æħ¢æħ¢ çļĦ
Ġwork er
ç«ŀäºī åĬĽ
æĥ³ è¿ĩ
IC E
Ġdemonstr ated
çıį æĥľ
Ġent ity
Ġtele phone
st ock
ĠH ockey
è´ ®
Ġm i
ĠA B
å«ī å¦Ĵ
è¿Ļ æ®µ
ĠUp date
ä¸Ń è¢«
ĠAdd itional
Ġarr anged
Ġh ide
æīĭ åĨĮ
ä¸ĭ æīĭ
ä¸ĵ èĳĹ
æ³ķ æ¡Ī
ĠL ad
ĠIs a
Ġliber al
è·Ł ä»ĸ
Ġinterpret ation
S ON
äºĨä¸Ģ åı£
Ġtri ps
Ġinflu ential
ĠBe gin
sp ring
Ġ ç»ĵå©ļ
å¹´ ä»¥æĿ¥
è¾ĥ é«ĺçļĦ
ĠP resent
Ġt ender
Ġwer en
åİ¿ éķ¿
ug s
çĴ ĭ
ĠEconom y
çĲ Ĳ
he rent
é¦ĸ å±Ĭ
åĮĪ å¥´
èµ° åĲ§
ĠRes ort
Ġdoll ar
è¯Ŀ è¯´
Ġem power
åĿĩ æľī
åī¯ æķĻæİĪ
ĠN one
å¾Ī ç®Ģåįķ
let ed
Ġflu id
Ġ åįĥ
çĥ ĺ
Ġpack ages
Ġaf raid
æ°ĳ èĲ¥
Ġm a
éļ¾ é¢ĺ
ĠSy n
N BA
ĠD ragon
åĥ ļ
åıĻ è¿°
Ġch ances
éĶ Į
åĲī å°Ķ
Ġ ç²¾
Ġrec ruit
r ator
åŁİ ä¸Ń
å®¢ åľº
Ġcab inet
çĶ¨ äºº
å¼Ģ è¾Ł
Ġd ess
ĠG T
Ġ ç«Ļ
Ġcollect ive
ç»Ŀå¯¹ ä¸įä¼ļ
Ġ å¿ħé¡»
Ġcamer as
éĺ¿ æł¹å»·
Ġ ç®Ĺ
le ased
ĠF ast
å¹´è½» çļĦ
f ind
Ġwor n
æĭ¼ éŁ³
æĿ° åĩº
n or
Î ¿
âĢĶâĢĶâĢĶâĢĶ âĢĶâĢĶâĢĶâĢĶ
Ġb orrow
æĶ¯ åĩº
de velop
Ġvert ical
ä½¿çĶ¨ äºĨ
ĠM orning
äºĭ çļĦ
Ġview ers
çļĦé«ĺ æīĭ
å®¶ åºĦ
å·²ç»ı æľī
d oc
å®¹ åĻ¨
å¯Ĩ çļĦ
ç¬ ĭ
ç²ī ç¢İ
ä¹Ł ç®Ĺæĺ¯
èĨ Ľ
åķĨ ä¼ļ
ç¬ĳ æĦı
Ġmed ieval
Ġcare ful
çĶµ ç«Ļ
Ġord inary
Ġper mit
é© ´
åľ¨è¿Ļ æĹ¶
ĠAnt i
Ġdifficult y
ĠSc reen
Ġ å¦ĤæŃ¤
is dom
åĬł å·ŀ
æĦŁ æ¿Ģ
Ġmin istry
ra pe
Ġsl ot
åįģ è¶³
ĠL isa
çļĦ ä»»åĬ¡
op les
å°ĳæķ° æ°ĳæĹı
Ġs rc
ĠM ale
d isc
ä½Ĩ æĪĳ
ĠRob in
ĠG ard
ĠA round
åĪº åı²
æĪĺæĸĹ æľº
Ġ ä¿Ŀä¿®
in te
Ġd uration
è§Ĥ çļĦ
lik ely
è¿Ļç§į æĥħåĨµ
Ġvac ation
ĠLar ry
æ¡ĥ èĬ±
Ġflav ors
Ġs ew
ĠRest aur
iÄ ĩ
Ġ ç»Īäºİ
Ġa ired
Ġ3 60
åľ¨ æľ¬
æĬĬ ä½ł
åħ¶ä¸Ń ä¸Ģä¸ª
åĮĪ çīĻ
åĮĹ æµ·
æŃ¤ å¤Ħ
writ ing
ĠImp ro
å¤´ éĥ¨
est y
èľ ĺ
ĠAlbum s
æĺĨ æĺİ
Ġ è¡¨
ĠM aj
åīį èĢħ
éĹ¨ æĪ·
Ġche st
be at
Ġdem ocracy
Ġ åĲĳ
ĠæľĢ å¤§
Ġstar red
Ġ ðŁ
åı¯ å°±
çĨ ı
è¿Ļ çŃī
çĽĳ è§Ĩ
ĠApp lication
ä¸Ģ èĦļ
ĠMan ufact
ãĤ ĭ
åĨį æĿ¥
4 80
ĠC ars
è®© åŃ©åŃĲ
é² ¸
è©¹ å§Ĩæĸ¯
æĿĢ å®³
æ³¢ æĸ¯
ä¸Ĭ çıŃ
ĠU RL
å°Ĩ éĤ£
Ã³ w
å¾Ĺ åĲį
æº ħ
è°ĥ åĬ¨
åĵĪå°Ķ æ»¨
ĠPri x
çĥ ·
ĠSpe ed
çļĦ è§Ĵèī²
IT Y
çı Ģ
op ter
ä¸¾åĬŀ çļĦ
Ġinst ant
éĩĳ å±±
Ġpenal ty
ä»İ ä¸ļ
ĠMed iterranean
ĠA G
ĠA w
ab a
åŃ ¢
ing ers
Ġmag azines
è¿ĺ ä¸įæĺ¯
ah n
å°¾ å·´
n bsp
çļĦ èº«ä¸Ĭ
èĥ ļ
åŀ Ħ
ob b
Ġa est
çļĦ çĲĨè®º
Ġcap s
ĠPar ks
ÃŃ n
g ow
s ong
åıĳçİ° çļĦ
å¯Ĥ å¯ŀ
âĢĿ ãĢģ
Ġb ills
åĿĩ è¡¡
Ġvol umes
Ġoccas ions
ä¼¤ åĬ¿
æĥ³ å¿ħ
é£ĵ é£İ
oc ese
ĠSt orm
Ġpan els
ĠHor se
æİĴ æ°´
åŁİå¸Ĥ çļĦ
èľĺ èĽĽ
Ġcomp rom
Ġemphas is
ĠQueens land
çļĦ çĶŁäº§
Ġd aughters
åľ¨ å±±
æĪĺæĸĹ åĬĽ
Ġdis order
ä¸į è¿ľ
ĠH ost
ĠN HL
akes pe
A ss
å¤§ æĺİ
ĠV el
Ġmer ely
åı¦ ä¸Ģç§į
A E
Ġst ops
ä¸įç®¡ æĺ¯
N O
è§Ĥ åħī
( {
ĠR ot
èĩª ç§°
åıĹ å®³
å´Ľ èµ·
Ġl iv
ĠåĲ ī
è¶Ĭ æĺ¯
Ġ æ¯Ķå¦Ĥ
èĴ¸ æ±½
atch ing
ĠM ack
Ġout er
Ġ9 4
ç¾İ å¥½
ĠBern ard
ç¿¡ ç¿ł
ä¼ º
but ton
W S
ä¹Ł å¾Ĺ
l as
æŃ¤ åīį
Ġsal ary
ou stic
åº ¶
all ing
æĵįä½ľ ç³»ç»Ł
èĢģçĪ· åŃĲ
ĠB asketball
Ġ6 9
ä¸Ń åŃ¦çĶŁ
ĠJust in
å¦Ļ çļĦ
å°¼ åħĭ
ĠKar l
è¿ Ń
Ġunder ground
æĹģè¾¹ çļĦ
ur u
åĵ Ħ
ĠN am
Ġviol ent
ĠPo etry
Ġwor ship
èģĶ åĨĽ
ç«Ļ äºĨèµ·æĿ¥
çļĩ åŃĲ
Ġcross ing
Ġsubst itute
ç¥ ·
æĦı åĽ¾
è¿Ĳ ç®Ĺ
Ġla pt
Ġengine ers
åľ¨ ä»ĸä»¬
å½ĵ ä»ĸ
ä¸Ģ è¯į
è¯´ è¯´
iss a
Ġpr ayer
ash i
æ² ¥
Ġarg uments
Ġremark able
éĺ´ å½±
ä¼¯ çĪµ
ĠChall enge
ĠUnt il
h al
IF A
èĽĭ ç³ķ
éķ¿ æŀª
Ġbound ary
ä¸Ĭ æ¶¨
Ġman ip
ĠMad rid
ãĢģ (
èĩªå·± åľ¨
ĠS i
ä¸ĩ çī©
) /
ĠR idge
åħĪ éĶĭ
ang a
Ġcar rier
è¢« è®¤ä¸ºæĺ¯
è¯Ħ éĢī
æĹ¥æľ¬ äºº
èĢĮ ä¸ĭ
ç»¼åĲĪ æĢ§
æķĻ å¯¼
l ined
Ð¸ Ñģ
ç¿ħ èĨĢ
åı° ä¸Ń
Ġexclus ively
åľ° å½¢
åĽł åħ¶
Ġp ars
Ġæĥ³ è¦ģ
Ġ __
ĠN ep
Ġenjoy ing
èĿ ł
ç¼ĺ æķħ
ĠN eg
Ġ9 3
æĺŁ çº§
Ġscholars hip
ä»Ĭå¤© çļĦ
å®ī å¨ľ
ç§» æ¤į
ĠJeff erson
Ġdepart ments
Ġ è¿ľ
ä¸Ĭ å®ĺ
Ġ è¶ħçº§
iv an
ace utical
çľ¼ ä¸ĭ
éĵ¶ åŃĲ
ĠGl as
Int el
å¾Ī åı¯èĥ½
ĠK rist
ath on
å¯¹ ä½ł
Ġad equ
Ġå¹² åĺĽ
ĠNev ada
Ġin sect
ĠLa ura
åıĳ åĶ®
å°ı è¡ĮæĺŁ
æĪĴ æĮĩ
Ġcert ificate
æĺ §
ĠJer usalem
Ġregul atory
å¹´ çĶ±
é«ĺ å³°
ä¹Łä¸į åı¯èĥ½
om etry
Ġac res
åĪ¤ åĨ³
mod el
Ġarrange ments
èĬĤ çº¦
åľ£ åľ°
åĶĲ æĺĬ
ç²Ĵ åŃĲ
Col or
èĪ¹èĪ ¶
M essage
éĺ ±
Ġking dom
äº§ åľ°
Ġ8 2
Ġtrad em
Ġapplic able
è¦ģ åİ»
èģĮ ç§°
Ġcal m
s or
Ġg athered
Ġ.... .
ä¸Ģå®ļ æĺ¯
åĺī éĿĸ
Ġf ruits
Ġcon vention
åºĹ éĵº
Ġcreat ivity
çļĦ è¯´æ³ķ
ĠM aking
æ©¡ èĥ¶
Å Ħ
ir i
Ġ ç¦»
éĿĴ éĵľ
88 1
Ġlog ic
Ġl ucky
è®¡ éĩı
ãģ ¨
Ġchar ter
åİķ æīĢ
Ġ æŃ¦
eth yl
Ġemploy ers
Ġb orough
Ġjud ges
è®© åŃ¦çĶŁ
ick ing
S H
is che
çĢ ļ
æĩ Ī
Ã¨ s
Ġ è½¯ä»¶
fl u
åĴĮ æĿİ
éļ¾ æĢª
ĠMet al
ç«Ļ èµ·æĿ¥
ä¸Ĭ éĿ¢çļĦ
æķĻ ç¨ĭ
æĢĿ ç´¢
H ere
M on
it ations
Ġsurv ival
çļĦ åı£
: Â¥
Ġ é¦Ļæ¸¯
éĤ£ æĹ¶åĢĻ
çĹħ åıĺ
çĭĲ çĭ¸
int endo
li ers
åĺ´ åĶĩ
ĠGre ater
æĬ¬èµ· å¤´
ä¸Ģ åıĮ
Ġshould n
Ġst em
Ġset up
ĠP in
ap ache
Ġf iber
ĠT on
Ġhe s
éĢī æĭĶ
86 5
Ġ åŃ¦ä¹ł
Ġc ra
äºĶ åįĥ
ĠRich mond
ĠP ic
è¯´ æľį
Ġshow c
èĲ¨ åħĭ
L D
éŃĶ åħ½
ann ah
åĿı äºĨ
ä¿ĥ ä½¿
æĳ© æĵ¦
Ġalgorith m
c n
Ġ è´Łè´£
ä¸į è¶ħè¿ĩ
äºº æĢ§
æłĩ æľ¬
éķ¿ åīĳ
çŁ¥ çļĦ
åıĹ äºĨ
ĠCom ment
ĠPro perty
ug g
ĠAut om
åı¯ ä¾Ľ
Ġun like
æŃ£ å¦Ĥ
ĠCo al
éĩĳ åħī
æĢ» å±Ģ
å¼ķ é¢Ĩ
çª ¥
åį° å°¼
æľĢ å¤ļçļĦ
ç»ıåİĨ äºĨ
Ġsupp lement
åı¶ çīĩ
Ġ é¥¿
åıĪ è¢«
ç²¾ åº¦
åĹ ľ
s ervice
ç»ıæµİ æŀĹæŀľ
Ġexpand ing
å¼º åĬ¿
æĿĳ åĨħ
Ġec osystem
Ġse ctors
Ġ ç¼ĸè¾ĳ
ä¸į è§£
çº³ ç±³
èĲ¨ æĸ¯
ĠW ang
Ġpr ide
åĪĩ æį¢
ĠS weet
âĢĿ ,âĢľ
æĭ Ĥ
Ġ7 3
çİ¯ ç»ķ
ĠÐ¾ Ð±
. ãĢĬ
Ġsh ower
å®īåħ¨ çĶŁäº§
e lect
å¸ ľ
dis play
] (
Ġa qu
or o
ĠB Y
å¼ķèµ· äºĨ
ĠH IV
éĻ¢ å£«
è§Ħ ç«ł
w er
å°ģ å»º
Ġveter an
æĢĢ éĩĮ
å¼º è¿«
ĠQuest ion
Ġ3 50
å¾ĹåĪ° çļĦ
Ġpet ition
Ã «
å°ı äºİ
Ġabs or
Ã ²
Ġw ides
æĪĳ è¿Ļ
Ġ å¦Ĥä»Ĭ
å¹´ åĪ°
è®º è¿°
Ä «
ĠL P
Ġrep orter
è¶ĬæĿ¥è¶Ĭ å¤ļ
Ġt ropical
åĢ ļ
Ġarrange ment
Ġc ust
Ġrad ical
ĠOsc ar
Ġb ab
æĢĴ åĲ¼
Ġ æľįåĬ¡
ot ing
å®ī ä¸ľ
Ġdest ruction
Ġed ges
çĺ ¾
Ġactress es
åįı åķĨ
ĠS ad
Ġnewsp apers
akespe are
T able
çİ° ä»Ĭ
Ġreg ulation
pl an
Ġmist ake
et on
åģ· è¢Ń
çĦ¦ èĻĳ
Ġun w
æľį å½¹
æ¸¸æĪı çļĦ
om ing
ĠC rick
ah l
ĠChrist ians
åŁİ åĨħ
Ġloc omot
ĠT ig
å¤© éŃĶ
Ġhol es
çļĦä¸Ģ æ¬¡
Ġdeliver ing
ĠC ool
Ġd as
Ð° Ð½Ð¸
ĠMe et
ĠC u
æīĵ çļĦ
å®Ĺ ä¸»
char ge
ij uana
éĽ ¯
æİ§ èĤ¡
åīĳ æ°Ķ
ĠL ov
Ġphys ics
ĠR ud
12 2
Ġshould er
oid s
çļĦ èĥ½éĩı
å¸¸ çĶ¨çļĦ
ĠCom merce
ä»Ļ çķĮ
Ġ çĽ¸ä¿¡
åĽł åŃĲ
çĥŃ çĪ±
» ¿
ï »¿
èĤ ĭ
æĦı æĸĻ
æĺĨ ä»ĳ
el ry
æĹ¶ åħī
çī¡ ä¸¹
ä¼ĺ è¶Ĭ
sec urity
æİ¥ è¿ĩ
part y
Ġdecre ase
t re
Ġn ights
åİŁ æĸĩ
æĦŁ åı¹
W est
Ä ±
åħĪ æĺ¯
å¤± è¸ª
Ġvari ations
Ġ åľŁ
ĠI C
Ġhol idays
æµ· å¤©
Ġany way
Ġph ones
åıª éľĢ
Ġ9 1
ĠP ad
Ġc ogn
anc ell
p read
âĢ »
Ġsubst ance
Ġas semb
ĠAm y
ĠL ion
ik o
çĻ½ äºĳ
Ġå¾Ī å¿«
å®ŀåľ¨æĺ¯ å¤ª
F P
Ġsw it
6 50
äº¤ æ±ĩ
åĢ ¦
çļĩ å®«
Ġdire ctions
per ties
ĠÐ ¢
éĺ» æĮ¡
S ource
æ¶Īå¤± äºĨ
Ġgrad ually
m other
ĠSt u
æĻ¯ è±¡
è¿Ļä¸Ģ å¹ķ
æĦī å¿«
ens ing
Ġview ing
åĢ¡ å¯¼
Ġr anks
ä¼ģ åĽ¾
æļĤ åģľ
ĠBul gar
åĳ¨ æľ«
******** ********
ĠB eng
Ð¸ Ð»
æĿ¿ ä¸Ĭ
Ġhard er
è·Ŀç¦» æľĢè¿ĳçļĦ
8 30
ä¸Ń çº§
éģĵ æŃī
87 1
ĠSe an
ä¼ĺ ç¾İ
Ġhistor ian
ä»ĸ ä¼ļ
Ġ7 4
ĠD ig
Ġmuseum s
is ch
Ġto ler
ĠCont ent
as i
çĲ ¦
è¦ģ ä¸į
ĠF ro
åł ķ
çļĦ åĲĦç§į
è§Ĥ èµı
c hen
Ġ é¬¼
ç§ĳæĬĢ è¿ĽæŃ¥
ĠFac ulty
Ġ å¥¥
at on
Ġo xy
Ġal s
Ġè¯´ å®Į
Ġres erv
ĠD elta
æľ¯ è¯Ń
ing ham
çŁ¥ åİ¿
èĥ¡ åŃĲ
F e
ĠF itz
em ail
Ð¾Ð ¿
ĠMore over
å¹¿å·ŀ å¸Ĥ
Ġvo ices
çļĦ æĸĩåĮĸ
s elling
å¤ļ è°¢
éĩįè¦ģ åıĤæķ°
å¸Ī èµĦ
ĠEx cell
AC K
ĠQ uality
Ġab und
æĹĭ å¾ĭ
ĠNorm an
çļĦ çģµ
æŃĮ åĶ±
Ġve ctor
Bl ack
è± ģ
Ġfunction ality
Ġant ib
å¤º åıĸ
æĮª å¨ģ
5 50
åĴĮ ä»ĸçļĦ
è¾ĵ éĢģ
Ġair line
Ġcan cel
é² ¨
. ),
çļĦ å¼Ģ
ä¸º èĩªå·±
co in
ĠÂ §
Qu ery
æ²Ļ åıĳ
av an
Ġ å¸ħ
Ġrel ating
èĥ½å¤Ł åľ¨
Ġfund ra
R ep
çĭłçĭł çļĦ
â ĺħ
æĺİ ä»£
æ²³ çķĶ
it ative
çĭ Ļ
å®ļ ä¸º
ä¸¾ äºº
çī¹ åĭĴ
N Y
S ize
ip er
è¿Ļ ä¸ľè¥¿
å¹´ åĴĮ
10 9
h as
Ġåı¯ æĥľ
Ġa ver
ĠK id
æĢķ æĺ¯
igr ant
ab out
ĠV ent
çļĦäºº åĳĺ
ĠLe ft
éªĮ æĶ¶
Ġwe igh
æĹł æķĪ
é© ¼
å¿« è¦ģ
è¯ķ é¢ĺ
ĠCommission er
B E
Ġtext s
Ġb ay
çļĦ èĬ±
ĠÐ¾ ÑĤ
ĠK ind
é¢Ħ å¤ĩ
x ml
ĠCamp aign
ĠæĻļ å®ī
m id
çľĭ å¾ħ
Ġpri est
æ² ģ
çľĭ è¿ĩ
èĨ ³
ä¸º ä½ł
Ġhe aling
åıĳ ç¥¨
Ġnot ably
Ġatt itude
ä¸ĩ åİĨ
åį´ åľ¨
æľī æĦı
Ġcl im
çĶµè§Ĩ æľº
2 01
Ġ éĿ¢å¯¹
ä¹Ł åıªæĺ¯
ious ly
ĠRe form
éĺµ å®¹
ĠEnter prise
O ff
ĠP oll
è¡ĮæĶ¿åĮº åĪĴ
Ġvess els
å¤ĸ åĽ´
åĨľ åľº
w he
å¸Ī å¼Ł
ĠBey ond
éĥ½ ä¸įçŁ¥éģĵ
Ġl ung
çļĦ æĢ»
ç¦ı å·ŀ
ĠMad ison
æī Ľ
Ġprovin cial
ä»ĸ æīį
çĥ¦ æģ¼
ĠTre as
ĠOl iver
æ·±åľ³ å¸Ĥ
éĿ¢ åĮħ
äºĨä¸Ģ ä¸Ŀ
åº§ ä½į
Ġ çĮ«
åıĳ éħµ
ç¾İåĽ½ äºº
======== ========
" /
Ġmem orable
Ġposs ession
å±ł æĿĢ
b ps
çĸ¯çĭĤ çļĦ
æľ¬ èĥ½
A I
Ġemploy er
åĪĨ åī²
çĪ±å¥½ èĢħ
æ¢ §
ĠÃ Ĺ
åį¡ æĸ¯
Ð¾Ð ¶
äº§ åĢ¼
Ġdec ent
åĭĩ å£«
Ġ æĹħæ¸¸
Ġb orders
éĢļ é£İ
Ġpost er
rag ing
Ġemot ion
éľ ĸ
æŀĹ æŀ«
çĿģ å¼Ģ
èº² éģ¿
yl er
ç» °
ĠL ag
ãģ «
ä¹¾ åĿ¤
åĪĨ åĮº
æĦŁ æĤŁ
ĠMP s
åģľè½¦ åľº
Ġre nown
! --
Ġd ivers
Ġd rain
æ¬§ ç¾İ
æĥħ æĻ¯
ass es
Ġcomp lement
ç¬ĳ äºĨèµ·æĿ¥
åİĨåı² çļĦ
èĪ¹ åıª
æĤŁ ç©º
ĠåĲ ķ
Ġ ç´«
å®¶ å±ħ
æĺİ æ²»
ç³» çļĦ
Ġspe aks
n an
88 2
Ġrece ives
ĠK az
Ġmat rix
æ°¨ åŁº
ä»ĸ è¿ĺæĺ¯
ĠApp lic
éĻ· éĺ±
A re
ä¸į ä¿¡
è¥¿ éĹ¨
Ġm ad
åĮĹäº¬ å¤§åŃ¦
ĠSol ar
æĬ Ĵ
åıĳ æĶ¾
Ã ¦
çļĦä¸Ģ åº§
ç»ĦæĪĲ åĳĺ
h ot
çļĦ éĤ£ä¸ª
äºĮ çĻ¾
ĠMove ment
Ġ åĲĪ
åĳ ķ
pe ction
Ġ çº¸
Ġaccess ories
åħ±æľī äººåı£
J an
ister ed
ĠSu ccess
Ġimm un
Ġro cks
ĠGener ate
ãģ ĭ
åı¬ éĽĨ
å¨ĥ å¨ĥ
åī¯ ä¼ļéķ¿
åĢŁ åı£
Å ĳ
é«ĺ è¡Ģåİĭ
èĮ ¹
f iction
Ġin hib
éĥ½ æĹłæ³ķ
Ġ å¾ħ
ul ator
ĠB ear
Ġcomm ander
åģ¥ åħ¨
abet es
ĠPop ulated
äºĨ ä¸Ĭåİ»
ä»ĸ å°Ĩ
ĠDe b
ç²¾ åįİ
æĺ¯ä¸į åı¯èĥ½
d est
ç«£ å·¥
ä½Ľ ç½Ĺ
èĿ ´
d irect
88 4
ç¼ Ģ
æĵį çºµ
Ġ æķĻèĤ²
ä¸į èĤ¯
èĮ ľ
æķ¬ ä¸ļ
åŁİ ä¸»
æĮī æĳ©
å¤ļ ä¸º
ĠK il
äºĨ èĩªå·±
Ġarch ae
ĠD E
Ġal umin
éĹ´ æİ¥
æīĭ æĮģ
Ġäºº çĶŁ
æ¯ Ļ
au nd
éĵ¶ æ²³
Ġvol t
Ġsh r
ç»Ł é¢Ĩ
Ġd ict
ĠPh arm
it ime
ĠM ason
çĮ ©
åĩĨ åĪĻ
ĠÐ¿ Ð¾
ç³» æķ°
èĢģ èĻİ
Ġdiam eter
ĠIn side
Ġrec ru
åĳ³ çļĦ
2 30
çħ¤ çĤŃ
produ ct
ĠNe il
Ġguitar ist
ä¸ĥ æľĪ
ĠFl ore
ç»´ æĸ¯
Ġpot atoes
ĠAct iv
èĩª å®¶
10 6
St ream
Ġappear ing
Ġ ä¹Ĳ
Ġd rives
åıĳ æĢ§
OS S
åīį æıĲ
ä¸ī åĮħ
Ġso ap
ç»Ħ éķ¿
åľ¨ é¦Ļæ¸¯
å¤© åĲİ
enn ial
Ġ å®ŀéªĮ
æ¨ Ĭ
Ġcomplet ing
n av
ass ion
Ġfootball er
æĲħ æĭĮ
b rew
æĺ¯ åı¯ä»¥
ĠG ive
ĠKir k
Ġtrib ute
Ġ æ´»
ãĢĭ :
å§Ķ å±Ī
å¤ĸåĩº åĬ¡å·¥
èį «
ĠAlbert a
Ġt ale
Ġæ²¡ äºĭ
ĠPract ice
r ating
ra ham
éļ¶ å±ŀ
æĤ² åī§
( \
is se
ĠèĢĮ å·²
ĠCl ay
æ®ĭ éħ·
ĠVal ent
Ġforest s
Ġ é¥Ń
ä¸ĭ æĦıè¯Ĩ
çļĦ åĩºçİ°
å¥³ å£«
orpor ated
ĠBar cel
Ġrepl acing
ä¾µ çĬ¯
æŁ´ æ²¹
lay out
ĠBapt ist
Ġ åħ¬
äºº é©¬
ĠEm ploy
æĢ» ä¹ĭ
ĠCom plete
ĠBroad cast
æŃ» åİ»
åħĪè¿Ľ åįķä½į
Ġlaws uit
Ġretail ers
é¥² åħ»
Ġsy mp
åĮĪçīĻ åĪ©
åĢŁ éī´
ou raging
ĠC arm
ĠL an
em ies
çļĦ å®¶ä¼Ļ
ç§įæ¤į ä¸ļ
æ¬¡ å¹´
ĠLead er
Ġbron ze
ä»ĸ ä¸º
åĪĩ æĪĲ
ĠT ak
åįĩ é«ĺ
Ġconsist ently
e an
ent o
å°±æĺ¯ è¦ģ
è¡¥ è´´
f ont
l t
ç² ª
ĠZ one
Ġspons ored
æ²¡ æ³ķ
å¼Ģåıĳ çļĦ
å¼Ģ éĹ¨
åħ¨ ç¨ĭ
pl ing
æĬĳ éĥģ
åľ¨ åĽ½åĨħ
ĠAl umni
ĠCost a
çļĦ çľ¼çĿĽ
æĺ¾ åį¡
çŁ¥ æĻĵ
åıĸ åĨ³
ĠG round
Ġsc roll
Ġc ups
ĠB ud
im ents
N T
Ġ åŁİå¸Ĥ
ag raph
åįģ ä¸ª
86 7
è®¸åı¯ è¯ģ
åĲĮæĹ¶ ä¹Łæĺ¯
Ġhe nce
Ġ æķ´ä¸ª
ĠV ersion
ĠKe ith
B ox
ĠG ay
ellig ent
j ar
æĥ ¶
ç¬ĳ è¯Ŀ
au ge
Ġb in
ic ts
ĠHar rison
Ġaccom p
W rite
éĢģ ç»Ļ
èĿ´ èĿ¶
em en
Ġsh irt
Ġanim ation
Ġneigh b
ĠD ise
åħī çº¿
æľī ä½Ļ
Ġres olve
Ġform ing
ĠL ate
çŁŃ ä¿¡
Ġ éŁ³é¢ĳ
äº¤æĺĵ æīĢ
Ġdisp ute
Ġclass ified
å¿ĥ åºķ
å¤ª åİŁ
Ġpower ed
Ġon ion
ĠP ain
ä¸į è®©
Ġbut t
Ġfasc inating
en ess
æķ´ å½¢
çĻ½ èī²çļĦ
Ġ è¯Ńè¨Ģ
æ°´ åĪĨ
çīĽ èĤī
å®½ åº¦
ä¸º ä¾ĭ
Ġj ail
Ġen abled
Ġaccommod ate
Cl ient
æĺ¯ æĹ¥æľ¬
Ġcom ics
æĶ¹éĿ© å¼ĢæĶ¾
ĠBuff alo
è¿½ æĿĢ
Ġw ur
omm y
æįŁ åĿı
Ġsp ray
cess or
e ffect
ch ron
åħ¨æĿĳ æľī
om on
éĻĦ ä»¶
è¿Ł çĸĳ
orks hire
åĲİ åį«
ĠK ay
F il
Ġd ough
åĲĪ ä¸Ģ
0 50
ä¸Ģä¸ª æĺ¯
èķ ĥ
Ġpack aging
Ġrecip ient
åı£ èħĶ
Ġphot ographer
ç»Ħ çļĦ
åĪ¶ä½ľ çļĦ
f olk
ç¨ £
äºĨ è¿Ļä¸ª
Ġg orge
ç»ıæµİ çļĦ
åīĤ éĩı
n ut
Ġw ings
Ġb ub
ä¸Ģ åı·
Ġl ib
é£İ åħī
al ph
æĹł æĦı
å¿ĥ ç¥ŀ
Ġsh apes
c od
Ġgr ants
Ġrest oration
Ġ ä½ĵéĩį
Ġcolon ial
Ġshel ter
Ġth inks
æĸĩçī©ä¿ĿæĬ¤ åįķä½į
è¿Ļ åĿĹ
du ctor
ä¿¡ å¿µ
ç«Ļ èµ·èº«
çĺ «
sec ond
ä¼ł åĩº
è´¯ ç©¿
äºĭåĬ¡ æīĢ
Ġaccord ance
ĠBe ijing
ĠExper ience
é ĳ
Ġs i
Ġ æ»¡
ĠWrit ers
Ġemer ged
æĽĿ åħī
d in
ĠSh akespeare
åĩ¡ çļĦ
Ġc ater
éķ¿ å¾Ĺ
Ġinv asion
ÐµÐ» ÑĮ
ĠB rist
Ġphys ician
................ ................
ä½£ åħµ
æĹ ·
Ġdep os
d ing
ä¸į å®¹
Ġ ä¸ĵè¾ĳ
Ġsc reens
åħ¥ éĹ¨
é«ĺçŃī æķĻèĤ²
ĠG host
æĸ° åĮº
Ġ8 9
äºĨ çļĦ
çļĦä¸» é¢ĺ
çĽ´åįĩ æľº
it ual
Ġn ortheast
87 6
Ġ åĪ¶
å¹´ å¹³åĿĩ
ber ries
é¦ĸ ä¸ª
ĠFl ash
Ġtra ils
åĩĢ åĮĸ
Ġm elt
çĭ ©
æĺ¯ æĥ³
å°Ĩ å£«
è¡¨çİ° ä¸º
Ar t
Ġgra ce
ro se
te ch
åģĩ å¦Ĥ
æĮĩæĮ¥ å®ĺ
èĿ İ
ä»ĸ è®¤ä¸º
ĠG on
é¡¶ ç«¯
ri or
æľº éģĩ
æ³¢ ç½Ĺ
D B
ĠP le
Ġacc um
çªģ åİ¥
åį«çĶŁ éĻ¢
Ġsusp ended
Ġ çĻ¾
çĦ¶åĲİ åĨį
ĠSol utions
Ġcontrovers y
Ġ è§Ĩé¢ĳ
ĠS ie
æī¬ å·ŀ
ĠR acing
ĠJ ob
Ġunder lying
ke ley
Ġ åıĳè¡Į
ĠGr iff
EE E
Ġtrans actions
çĹ °
å¯¼ åĲĳ
å¼ķ çĶ¨
åľ¨ åľº
å¹´ æĹ¶
æįķ æįī
ĠRes ults
ä»ĸ æ²¡æľī
åİĨ ç»ı
æľºæŀĦ çļĦ
Ġroll ing
Ġcoron avirus
ä¸» å¹²
ç«¯ åı£
åĬ¨ çĿĢ
Ġsurv iv
? )
Ġ èµŀ
Ġed iting
Ġspecial ized
ĠÐ¿ ÑĢÐ¸
ĠT it
Ġnorth west
Ġsevent h
ĠInt elligence
Ġ è°Ī
é© ¹
Ð°Ð» ÑĮ
he ro
å¤© çĶŁ
åĽĽ æĸ¹
çĴ ĩ
æłĩåĩĨ åĮĸ
r h
og g
hemat ical
çģ« åĬĽ
ç¯ Ĩ
å®īå¾½ çľģ
æµ·æĭĶ é«ĺåº¦
åī¯ å±Ģéķ¿
IL L
ĠH ub
åħ¼ å®¹
F R
R ed
Ġd ent
Ġpo ets
Ġapp le
åŃ¦ä¹ł çļĦ
åĲī ä»ĸ
åĲİ ä¸ĸ
Ġexperien cing
é¾Ļ è¾°
æķ´ é½Ĳ
ĠFl ight
½ åŃĲ
Ġr ugby
åĨľä¸ļ äººåı£
Gener al
ĠF at
ä»Ģä¹Ī äºĭæĥħ
Ġmet res
è¶³çĲĥ ä¿±ä¹Ĳéĥ¨
ĠLu ke
g ree
ĠO t
Ġpres erve
æł¸ æ¡ĥ
é¥® æ°´
çľŁ å¿ĥ
Ġar bit
ç»Ī çĤ¹
æīĢ éķ¿
Ġtra iler
Ġclass ification
æĸ¯ åħĭ
å¨ĺ å¨ĺ
Ġbank ing
çļĦ ç¬ĳå®¹
mar ine
è¦ģ ä¸įæĺ¯
Ġexhib it
Ġgar age
å½ĵåľ° çļĦ
åĤ¬ åĮĸ
ä¾ĽåºĶ åķĨ
åª³ å¦ĩ
ac co
çľŁ æ°Ķ
çĶŁæ´» åľ¨
èĢĲ å¿ĥ
er als
åĶĲ ä»£
ĠB orough
Ġ å·¦
Ġ åŃĺåĤ¨
éĹ µ
èĤ¡ ä»·
ä½ķ æĹ¶
Ġ8 4
Sc ript
åı¯ è¡Į
æĸ° åħ´
Ġexpl oration
åħĭ æľį
è®² å¸Ī
åĭĭ ç«ł
çļĦ ç»ĵæŀĦ
Ġcomp an
Ġ éħĴåºĹ
Ġb io
ĠG ardens
èĲ¨ å°Ķ
ĠGab ri
ä¸Ģ åīĳ
ĠP L
æĿ¥ è®²
éĤ£ æĪĳ
Pl ay
ç¨³å®ļ æĢ§
l ocal
ç§ ĥ
çĶļèĩ³ è¿ŀ
Ġa uf
pl ant
ing le
åħ¬ ç¤¾
H C
ĠV I
èĩªçĦ¶ æĿĳ
Ġcolumn s
P ost
ath y
ĠMer c
og s
æł¼ æĭī
èĢ¶ ç¨£
Ġexerc ises
å¾Ĺ åĩº
Ġcar ries
l ims
èĢĮä¸Ķ è¿ĺ
Ġmanufact ured
ĠCamp us
Ġgather ing
ĠR ic
ĠEn cyclop
y ll
Ġ çĮª
æĹ¶ æ®µ
Ġrepe at
ipp er
èĢ³ è¾¹
Ġflo at
n ik
Ġn ic
ä¸Ĭ è¯¾
ä¸ī çŃīå¥ĸ
åıĪ è¦ģ
Ġpub lish
86 8
Ġl on
ĠM L
æĹł åıĮ
éĺµ èĲ¥
èĤ Ľ
æīĵ æī®
äºº å¯¹
Ġhar vest
Ġestim ates
ĠS R
Ġfor um
èĩªå·± æĺ¯
ĠHud son
æ¼Ķ åĮĸ
æĹ¢ æľī
Ġreflect s
å¼Ģ è½¦
çº³ ç²¹
ç±»ä¼¼ äºİ
çĦĬ æİ¥
W A
ĠS QL
åı¶ éĿĴ
Ġless on
Ġ rib
comm unic
åį´ ä¹Ł
Ġh al
åĴĮ é«ĺ
æľĢ å¼º
è¾¾ å°Ķ
86 4
ç¯ĩ å°ıè¯´
Ġdepart ure
ĠCom ments
Ġinsp ire
Ġunivers al
Ġdist urb
Ġ éŃĶ
å¸½ åŃĲ
ĠVis ual
Ġn ose
ä¾¿ ä¼ļ
Ġbel t
çīµ å¼ķ
Ġany more
Ġ å®īåħ¨
ĠM ans
åħī åŃ¦
ith ub
ĠTer ry
Ġsoph istic
ç» ħ
ater al
è°ĥ æİ§
åľ° éĹ®éģĵ
Ġdon ated
Â Ń
Ġh ung
åĨ ķ
æ°ĳ æĶ¿
æľīåħ³ çļĦ
ä¸ī æľĪ
ĠCh a
æ®ĭ çĸ¾
å±± è°·
Ð ¡
Ġmeasure ments
end ant
çļĦ äº²
å¼Ģ å¹ķ
ke e
ä½įäºİ æ³ķåĽ½
medi ate
æĪ Ł
åľ¨ å®¶
L ine
Â ±
çªĹ æĪ·
ĠFle et
ĠWel come
ĠV enez
å¹¶ åıĳ
in ery
Ġcook ie
fr ame
ĠS ale
çŃī å·¥ä½ľ
åıĹ æįŁ
çļĦ å¥³äºº
ĠJ ah
æŁĵ èī²
Ì ģ
Ġprotect ing
Ġ ç¡®å®ŀ
å®Ī åį«
ĠCro at
ĠY orkshire
Ġe uro
æŀģ èĩ´
ĠComm ander
Ġsell er
Ġd rew
è®® è®º
åĿĲ æłĩ
á ĥ
å¤§ è¥¿æ´ĭ
å¤ĩ çĶ¨
æĭĨ éĻ¤
Ġm ath
Ġl ens
ab ad
åĨľ ä½ľçī©
æ²¿ éĿ©
éŀ ĺ
! !âĢĿ
Ġb ot
è¯¸ ä¾¯
æī© å»º
88 3
Ġsustain ability
Ġelect oral
Ġimpact s
çļĦ éĩį
Ġs hed
ç¤ ģ
çľģ çļĦä¸Ģä¸ªå¸Ĥéķĩ
ç´¯ ç§¯
ĠIS O
Ġsm oke
äºĳåįĹ çľģ
ĠEvery one
æ¿Ģ æĥħ
am o
èĢĮ ä¸Ĭ
Ġäºº çī©
Ġmeaning ful
g ence
ink le
å®¢ æĪ¿
æĶ¹ åĪ¶
ĠReview s
å¼¥ è¡¥
çĹ ĺ
éĿĴ é¾Ļ
èĲ½ åĪ°
çĸ² åĬ³
åıĳ äºĨ
Ġpe er
Ġå¿ĥ æĥħ
f i
æĪĳ æ²¡æľī
çļĦ èīºæľ¯
åİ¿ æĶ¿åºľ
åıĸåĨ³ äºİ
èĥ½ è®©
æĿĥ éĻĲ
éĺ² çģ«
ãĥ ©
ĠLead ership
éºĴ éºŁ
è¿Ļ åıª
çİĭ åºľ
ĠImp act
ç³ Ļ
ry pt
ĠãĢ ľ
å»º åĪ¶
ĠAn imal
Ġflex ibility
ä»¥ ä¸ĭçļĦ
æĿ¿ åĿĹ
ĠMur phy
Ġdis rupt
Ġcompet ing
Ġfollow ers
Ġsign als
ĠOrigin ally
Ġoverse as
ĠV oice
æŃ£ å½ĵ
é£ŀ èĪ¹
çĥŃ çļĦ
å¥ĳ çº¦
ĠSchol ars
Ġwides pread
ĠReg iment
am ents
æĹł è¯Ń
å¿ł è¯ļ
Ġinstrument al
Ġ æ¯ıæ¬¡
Ġtour ists
osit ory
ĠN i
æļĹ ç¤º
è¹ ¦
ä¸Ģ è¾Ĩ
86 6
e ctions
ĠGal axy
Ġimp ression
æĺĨ èĻ«
ac re
åħ¥ åŃ¦
å¾Ģ æĿ¥
å¥ĸ éĩĳ
ä¿® éģĵ
åĳ½ é¢ĺ
child ren
S QL
ĠP ent
ĠF iction
io x
86 2
ĠA aron
s ized
ĠF if
æīĵ å¾Ĺ
Ġ8 1
ä¸į ç»Ŀ
ĠY ellow
ä»ĸ åį´
ĠR s
U G
is p
ab ling
re qu
èº« æĹģ
æĥĬ åĳ¼
æĦŁ åĨĴ
ĠBarcel ona
ic ular
åī§ çĥĪ
é£ŀè¡Į åĳĺ
amb ling
Ġaccount ing
æĢ» æķ°
S N
ĠE in
ä»Ļ åŃĲ
ä¸ļ ä½Ļ
11 3
ĠPub lis
å¹¶ è¢«
ä¿Ŀ å¯Ĩ
M et
çŁ¥éģĵ çļĦ
çķĻ ä¸ĭäºĨ
åŃķ å¦ĩ
ant ine
å°ĳ éĩı
çłĶç©¶ ä¼ļ
cl ick
ier ra
æĵ Ĥ
Ġd ella
Ġ å¿ĺ
å¸Ĥåľº ä¸Ĭ
Ġg ross
ĠCom mercial
æ¼Ķ åıĺ
Ġspect rum
ä»ĭ åħ¥
ĠOtt awa
Ġman uscript
çĨŁ ç»ĥ
å®¶ åįıä¼ļ
ĠLie utenant
l n
R un
Ġ ä»¥ä¸ĭ
r aska
ĠS aints
å°Ķ å¤«
P T
ĠS ave
eng u
Ġinvestig ate
çĲī çĴĥ
Ġsp a
ä½ł ä¸įæĺ¯
åĹ ¤
or ient
ĠBack ground
ç¥ŀ åĻ¨
Ã¤ r
ä¸Ģä¸ª å¤§
çĽ ı
éķ Ģ
Ġ- ->
Ġun likely
è¶Ĭ å¤§
D NA
å¸Ŀ çİĭ
èĬĤ çĤ¹
Ġachieve ment
om i
Ġl ip
ĠD ocument
ä¹¦ çļĦ
ä¿Ĺ ç§°
åĲĪçĲĨ çļĦ
éĻķè¥¿ çľģ
å¤´ èĦĳ
Ġw ard
æķĻ ç§ĳ
åıĺ éĿ©
ĠSam sung
Ġ çĶµè¯Ŀ
Ġpassion ate
Ġd ancing
C al
e enth
Ġ æİĴ
æĬĢæľ¯ äººåĳĺ
ĠåĲĦ ç§į
Ġentreprene urs
Ġt ies
æĹ¥ è®°
Ġ æ¯ķä¸ļ
éĥĳ å·ŀ
Ġcon gress
åıĺ äºĨ
Ġed it
æŃ¥ ä¼Ĳ
ĠM asters
ä¹Ł å¼Ģå§ĭ
çĽ¸ å¤Ħ
ch ain
æ³ķ äºº
çł ²
Ġattract ed
Ġgl obe
ĠPlay ers
è¿Ļ ä¸ī
å®īåħ¨ çļĦ
éĺ» ç¢į
Ġ åĺ
å¼¯ æĽ²
ä¸º æľ¬
å¥½ çľĭ
æĶ¶ åıĸ
ĠAr men
ĠP el
åĮ¹ éħį
c ure
Ġbr id
ed e
çļĦäºº ä»¬
é¢ Ĭ
87 8
Ġgre y
m el
ĠC ell
å¤§ åĶĲ
ir k
çĤ ½
val id
P ress
ĠP un
ĠL oc
æľī ä¸įå°ĳ
æİ ·
å¤Ħ åľ¨
Ġcomm emor
çļĦäºº éĥ½
ä½¿ äºº
æĿ¥ æī¾
åĵ º
Ġse ar
éĤ£ æł·çļĦ
çĤ¼ åĮĸ
Ġ æĢİæł·
çļĦ åĲĮ
ene ath
åŃĻ åŃĲ
Ġdiagn osis
e als
p es
Ġth rows
åħĥ å¸ħ
ĠInd ians
Ġ çĽ´
èİ± åĿŀ
ĠGl en
V A
æĺ¯ä¸Ģ åº§
æİ¥ ä¸ĭæĿ¥çļĦ
Ġ å¸¸
Ġfoot age
ic i
% ãĢģ
çļĦ åĦ¿åŃĲ
ar g
Ġst ere
éĺ´ æ²ī
ç¼© å°ı
ĠR achel
æĭ ½
å¤´ çĹĽ
Ġst ain
uff er
æĥ ®
è¿Ĳ æ²³
Ġrenown ed
l ich
Ġw ars
æĪĳ çŃī
çİ° æĹ¶
Ġ æİ¨èįĲ
çļĦ åıį
Ġp ocket
Ġg host
ens ively
ĠâĹ Ĩ
$ .
ĠCh art
æ²ī åĲŁ
æ¼Ĩ é»ĳ
Ġ æŀľçĦ¶
æ¾ İ
im er
l ia
æĺ¯ çľŁçļĦ
åĲİ åĭ¤
çıŃ çº§
åĪļ å¥½
éĳ «
ĠS pect
10 7
çĲĥ ä¼ļ
Ġconv icted
8 01
w rite
Ġ æĬ¢
å¸¦ å¤´
æ¨¡ åħ·
ç¬¬ä¸Ģ ä½į
æĻº åķĨ
Ġcontroll er
èį£ èĢĢ
on ies
Ġen orm
çļĦäºº æīį
ol ar
Cont roller
P N
è¾¹ ä¸Ĭ
éĶĪ éĴ¢
m und
çļĦ æ´»åĬ¨
éĻ ĭ
ç¼© çŁŃ
éĤ£ ä½ł
amp a
C PU
Ġpl acing
åģļ è¿ĩ
ĠAr c
ç¾½æ¯Ľ çĲĥ
Ġ ç»ıè¿ĩ
ĠN intendo
æ¸ º
Ġqu otes
Ġdef ence
çĲĨè®º ä¸İ
Ġmain stream
Ġcor ruption
Ġæľī æ²¡æľī
æ½® æµģ
Ġc ir
ç±³ åħ°
pr ises
Ġå°ı è¯´
äººåĿĩ èĢķåľ°
ĠSing h
Ġ ÑĤÐ°
ĠS oph
æĩĴ å¾Ĺ
Ġappl ies
Ġ éĩĮéĿ¢
Ġre aches
Ġ8 6
Ġbo ats
åĽ½éĻħ æľºåľº
åĤ į
ä¸Ģ åıĺ
pt ic
ĠSal v
ĠPer ry
spe ed
ĠSt ay
æĸ° åįİ
äºĨä¸Ģ æĿ¡
æĺ¯ä¸Ģ éĥ¨
ĠWeek ly
è¡Į ä½¿
Ġ8 7
ĠSh ah
M ark
åĮĸ èº«
enn y
åĪĺ å¤ĩ
ĠLeg acy
æµģ æµª
Ġstri king
åĵ¥ä¼¦ æ¯Ķäºļ
Ġdis ag
åĩĿ éĩį
n umber
ĠG B
åħ« åįģ
t ml
å¾® çĶŁçī©
ĠB eth
Ġmax im
éĵ ł
Ġelect ro
bor ne
ĠIran ian
B ack
d ied
n amed
Ġob l
æĵį æİ§
Ġ å¤´åıĳ
ç§ĳ çĽ®
ĠSte vens
âĢ² âĢ²
æİ Ĳ
æĶ¶ è§Ĩ
å®Ľ å¦Ĥ
Ġvess el
Ġd il
ä¸Ń å¤ĸ
èĬ ·
Ġgr ateful
æĪĸèĢħ è¯´
Ġdev oted
n ode
Ġr Ã©
ĠSp ot
Ġconsist ed
. :
ĠN ut
ĠAgain st
éĴ Ŀ
è¿ĩåİ» çļĦ
æĬĺ ç£¨
åłª ç§°
ä»į åľ¨
éħ± æ²¹
Ġ ãĢĭ
æĪ· å¤ĸ
Ġexam ination
Ġ åŃ¦çĶŁ
Ġor al
æİ§åĪ¶ çļĦ
W orld
éĢļ å¤©
ãĥ Ī
ĠF resh
ĠK o
æī¾ ä¸ª
Ġç¬¬ ä¸Ģæ¬¡
Ġconsult ation
åįļ è§Ī
Ġdev ast
Ġburn ing
è¶Ĭ å¤ļ
Ġhum or
åĵİ åĳĢ
Ġst ating
æµ· æ°´
é¦ĸ çĽ¸
æ¯« åħĭ
Ġs its
Ġåĵ Ł
åĬł æĭī
åħ¨ æĸ°
ãĢĬ ãĢĭ
ç¨į ç¨į
INS EE
Ġis t
r iger
Ġsynd rome
çļĦ ä¹¦
ell ers
Ġthreat ened
åĲĳ ä»ĸ
Ġdes per
Ġremov ing
å°± ä¸įä¼ļ
æ¿ Ĵ
ĠAust rian
å¥¥æĸ¯ åį¡
éĩĮ åħĭ
av el
en berg
ĠN ort
ĠS hip
åĪ© æĸ¯
Ġpat ent
Ġclos ure
Ġt ang
in als
åįģ æľĪ
çł´ äº§
æĬĹ æĪĺ
Ġsaf ely
Ġjud gment
ĠLe ban
ĠåĽŀ å¤į
æĪ İ
ĠæĪĳ ä¼ļ
å¾· æĭī
å¼Ģ çİ©ç¬ĳ
Ġev olved
Ġimm igrants
æķĻ çļĦ
åĽĽ åŃ£
æľĽ åİ»
èŁ Ĵ
s im
ĠOper ations
D I
å¼Ģåıĳ åķĨ
j son
ĠI BM
çģŃ äº¡
Ġmir ror
ĠPier re
f eld
èĩ Ģ
Ġreview ed
oc ent
ç¤º å¨ģ
Ġi OS
33 3
he ll
Ġconcert s
æľĽ è¿ľ
ĠMin or
Ġbre w
i ability
ĠC itiz
ĠL ot
ĠAud io
ĠGro ve
Ġve gan
Ġ è·³
å°ı äºº
Ġwhe els
æİ¨ çĲĨ
ĠCat hedral
Ġlegend ary
ĠK el
å®¹ ç§¯
çļĦ è®¡åĪĴ
æľ¬ ä½ĵ
åĳ½ ä¸Ń
ä¸º æ³ķåĽ½
ä¹¡ è¯ķ
çĻ «
E nd
è§£ çŃĶ
Ġcol ours
åĨħ æľī
å¹² é¢Ħ
éģĩ è§ģ
äººä»¬ çļĦ
çģ« çģ¾
Ġd rag
Ġinter actions
ĠJ ama
Ġo ch
æĭŁ è®¢
m u
Ġsw ing
è¦ģ æĬĬ
Ġcur riculum
Ġent ries
p aper
Ġ åĳµåĳµ
Ġcoc onut
Ġcomp ound
é£ŀ çļĦ
Ġd ad
Ġpar ad
åħ¼ èģĮ
am ma
Ġç¬¬ åįģç«ł
çĸĹ æķĪ
ç«Ļ åı°
èĩªè¡Į è½¦
87 7
Ġsymbol s
åľ¨ åįĹ
å°ı å°ıçļĦ
Ġag greg
åĲĦ æľī
Ġa us
çĶŁ æķĪ
Ġag enda
est on
ä¸Ģ æĭ³
Ġdis orders
çģŃ ç»Ŀ
Ġæĺ¾ åŃĺ
è¢« åĳĬ
åıĪ æĺ¯ä¸Ģ
Ġcheck ed
åº µ
çļĦ å¸Ĥéķĩ
Ġm ush
è¿ģ ç§»
é¥® çĶ¨
Ġcred ited
åĵªæĢķ æĺ¯
æ¯ĶåĪ© æĹ¶
Ġ å±ħçĦ¶
æ¯ ¯
æ²¡ èĥ½
ont al
ĠEm ily
H O
ĠB R
ä¹ĭ ä¸»
å¯Į è´µ
84 8
çªģ åĩ»
G roup
çķ ¸
pl us
çī¹ å°Ķ
è´Ł éĿ¢
AS T
pro of
é¢ģ å¸ĥ
ĠVi enna
Ġth irty
Ġcomp ilation
ĠR ank
çļĦ å¾Ī
å½ Ŀ
Ġmon ument
æĹĭ åį³
Ġwire less
è´ ¿
Ġvibr ant
ĠCap itol
å¯¹ å¥¹
ä½ĵ åŀĭ
ĠNeb raska
èıľ åįķ
Ġclaim ing
ĠPict ure
Ġgu ided
åĪĻ åľ¨
Ġ è·Ŀç¦»
Ġb acteria
ĠM ick
ay out
æķ° åĢ¼
Ġz u
çļĦ éĹ¨
è¿Ļæł· åģļ
H R
S w
Ġm g
Ġequ ation
ĠLiber ty
Ġlett ing
or f
Ġp ap
æŃ» äºİ
L in
Ġb om
ĠS ter
ern ess
Ġåľ¨ å®¶
å¤ª å¤ļçļĦ
æ¬¢ ä¹Ĳ
ĠG raph
Ġch amber
æĢİ æł·çļĦ
åĢĴ åħ¥
åĪ°åºķ æĺ¯
ĠGlas gow
åĬł éĩį
Ġä¸į åĲĮ
estab lished
h n
Ġwh isk
ĠEd ge
Ġf its
åı¤ åŁİ
èĮĥ çķ´
g reen
éª ¸
ix on
æİ¨ æµĭ
Ġgl ob
ä¾¦ å¯Ł
Ġoxy gen
Ġ èĳĹ
Ġ åĩıèĤ¥
go ogle
ĠTurn er
Ġp airs
äºº æ°Ķ
ĠSy mphony
Ch rist
åĨ ¢
Ġbe aches
ç³Ĭ æ¶Ĥ
om ed
Ġinter section
æ¶Ī æķ£
ĠAv ailable
Ġt ube
Ġun em
ä¿¡ å¾Ĵ
ĠM B
æĹ¶ æĬ¥
èĢģ é¼ł
ĠC ris
Ġsec ured
æ¢ ĵ
åĴ ª
Ġprom ised
ĠB ass
ĠK it
ĠAg reement
Ġ ç¿»
ill ery
èµĦ æ·±
çļĦ è§Ĵåº¦
éĹ º
ett ings
ĠTrans l
Ġeleg ant
Ġ é¢Ħ
or se
Ġf oss
åħ Ģ
ĠRem ove
å°ĳ äºĨ
cel and
Ġd ub
ĠL ud
ĠVin cent
Ġdis pos
é¢Ŀ å¤´
Ġdifficult ies
b ottom
Ġd ental
çĶ¨ åľ°
ah o
çİ º
ĠL en
Ġactiv ist
ĠR ange
Ġmunicip alities
éŀ į
he art
ä¸į åĸľæ¬¢
Ġcitiz en
N ET
Ġd ried
ĠN othing
Ġexist ed
ĠSt op
iz ard
çļĦå¿ĥ æĥħ
Ġvirt ually
Ġinc idents
ott a
è¹ Ń
ĠB ranch
ä¸Ĭ çĻ¾
éĤ ¸
å¤ĩ æ³¨
éŃĶ çİĭ
Ġcompat ible
ĠM ail
ry ing
Ġextra ordinary
Ġpack ed
æīĢåľ¨ çļĦ
åĲĮ ä¸Ģä¸ª
åı¯ åĪĨä¸º
åıĺ åĬ¨
sh ot
å²Ĥ ä¸įæĺ¯
æľĿ éĺ³
äººåı£å¯Ĩåº¦ ä¸ºæ¯ı
Ġ ç¾¡æħķ
Ġc am
åħµ é©¬
ä¾į åį«
ut o
ĠGr ade
Ġsubs cription
Ġbatt les
æ´ ½
å¼Ģ ä¸ļ
é« ħ
Ġ: =
Ġto oth
Ġst er
em a
å¼ł ä¸ĵè¾ĳ
87 2
è¿½ åĩ»
ĠAren a
Ġ æī¾åĪ°
çī ł
è¦ģ ä¸įçĦ¶
Ġret ain
ä¸ºä¸» çļĦ
ĠBet ter
ĠC ad
Ġre vers
åĲİ æĿ¥çļĦ
ä¾ ĥ
ant i
æĥĬ äººçļĦ
ĠPar ish
l ang
Ġ7 9
Ġem ails
Ġmag netic
ç¬¬ä¸Ģ çĻ¾
ĠBrist ol
G L
å¹´ äººåı£
é¦ĸ ä½į
g us
Ġle ts
Ġdead line
Ġd ated
form at
å» ĵ
åĢ Ń
Ġattempt ing
çĭ °
æĶ¹ åĲįä¸º
Ġarg ue
æľĢ å°ı
æĢĴ çģ«
ĠCh ampion
È Ļ
ĠF ly
ĠE ug
Ġevery body
Ġrespons ibilities
èķ Ĭ
ä¸Ĭ ç©º
çĦ¶ å¤§
Ġn uts
ĠAssoci ate
çĦ¦ çĤ¹
ĠCele br
çļĦ å®¶
éĨ Ľ
Ġconf usion
ĠN at
com fort
éŃĶ æĹı
ä¸ĭ è½¦
çİ° ä¸º
Ġind oor
ĠF BI
Ġexperim ents
Ġintegr ity
b ach
if le
æ¥¼ æ¢¯
Ġt el
AC E
çĽ¸ ä¼ł
ourn als
!! !!
ĠArchitect ure
çī¹ æĦı
çŀ »
Ġexp at
éĢĥ ç¦»
ĠFe ature
Ġpeace ful
çĶŁ çģµ
Ġtw ist
æĶ¹åıĺ äºĨ
éķ¿ åŁİ
Ġres igned
Ġfun eral
Ġrank ing
F irst
Ġ ä»¥ä¸Ĭ
ç§ĳ æĻ®
åĢ ª
åĳ¼ åĲģ
çļĨ æĺ¯
Ġs ie
æĪĲç«ĭ çļĦ
opt ion
åĨľ äº§åĵģ
ä¸Ģ åĩº
ç¦ ¾
Ġimpress ed
ĠL akes
Ġpush ing
åĸĥ åĸĥ
Ġvar iant
Ġche cks
éĽ· æĸ¯
E very
ĠThe ory
æ°´ è´¨
fer red
äº¬ éĥ½
ĠA ve
çĤ® å¼¹
Ġcop per
Ġ( ;
Ġconf used
å¾Ĺ åĪĨ
å°Ĭ æķ¬
ç»Ī ç»ĵ
2 11
æīĢ æľª
Ġphys ically
Ġadopt ion
Ġad mission
ç½ĳ è·¯
äºļåİĨ å±±å¤§
; "
æīĭ æŀª
çľ ·
un s
èĲ ±
é¢ Į
OR T
åĩº åħ¥
Ġv ir
çĤ ³
Ġpart ial
èĢĥ çłĶ
Ġround s
Ġpre ference
åĪĩ åī²
è¾ĸ åĮº
ĠNich olas
è¦ģ æ³¨æĦı
ä»ĸä»¬ éĥ½
èĥĮ åĲİçļĦ
çĶ¨ æ³ķ
èĢħ åĴĮ
çł Į
æľ Ń
Ġp ine
çĶŁ æľº
Ġam id
åħ» æĪĲ
Ġref riger
å¤§ åį«
pect ives
èį¯ æĿĲ
Ñ Ĭ
on ed
Ġbr ush
Ġ ç©º
Ġprov isions
Ġgr at
æµ© çĦ¶
ow ell
æĮī éĴ®
Ġfootball ers
Ġpoll ution
ge bra
ç»ĦæĪĲ éĥ¨åĪĨ
Ġä¸Ń æĸĩ
æĺ¯ è¿Ļæł·
å®Įç¾İ çļĦ
ç µ
éħ ¥
éļ¾ åħį
nab is
èµ° å»Ĭ
æĬ½ è±¡
ĠCarl os
ç³Ł ç³ķ
ä½Ĩ ä¸į
å¿« çĤ¹
æĶ» åĬ¿
res ult
Ġ åĪļåĪļ
ra ction
87 3
.... .
æĹł ä¸Ģ
ĠS W
ä¸İ ä¸ŃåĽ½
Ġ8 3
Ġ å¿ĥéĩĮ
çļ Ĥ
ĠCan al
Ġ æĹ¢çĦ¶
ut able
æľĪ ä»»
èĢģ çĻ¾å§ĵ
åĪĻ ä¸º
èģĮ åĳĺ
æ¸¸æĪı åĲįç§°
Ġlab our
ĠH at
ĠL ocation
ĠCas ino
Ġen cl
åģļ å¾Ĺ
çļĦ èĦ¸ä¸Ĭ
ĠM C
å·´ å°Ķ
ĠHel en
Ġtw in
ĠE asy
çīĪ çļĦ
ag ne
ĠVictor ian
ĠEgypt ian
r ates
w ill
è½¬ åĬ¨
è¿Ļä¸Ģ åĪ»
Ġrest ore
fect ure
Ġ éħį
Ġhe ating
Ġä¸Ģ å¹´
ĠBes ides
å±± å¸Ĥ
å¥³ äººçļĦ
ble m
ĠMe eting
èºº åľ¨
Ġp oker
ä¹ĭ çī©
ç¬ĳ å£°
ä¸¤ çĻ¾
ç½® ä¿¡
Ġnews letter
ä¿ĺ èĻı
Ġ æŃĮ
æľī å¤§
ĠR ou
çŀ ¥
Ġ éĢĤåĲĪ
Ġ é£Ł
æħ ĳ
éĺ´ éģĵ
èĭ Ł
åıĤ çħ§
æĬ¤ å£«
ç¨³å®ļ çļĦ
Ġ æĴĴ
åĲį èªī
Ðµ Ñģ
ĠIm port
Ġ å¼Ħ
Ġh anging
åĵ ī
ĠC urt
åĲĳ ä¸ĭ
Ġass ass
çļĦå¤§ å°ı
Ġæ¸¸æĪı ç±»åŀĭ
Ġcert ification
ont in
Ġdess ert
al ion
åŀ ¦
Ġ çī©ä¸ļ
Ġwork place
br and
ĠAdd ress
åĩ ¿
äºĨä¸Ģ éģį
Ġintern ationally
Ġc ute
st ory
ĠD od
ÑĤ Ð¾
ä¸Ģ æĬ¹
æĪĲä¸º ä¸Ģä¸ª
ä¸Ģ åĳ¨
è¯ ħ
ond e
Ġactiv ists
ĠW es
å°± æ²¡
å°Ĩ è¿ĳ
Ġtest im
ä¸İ åıĳå±ķ
æĸĩ ä¸ľ
pl it
åįı ä½ľ
æ¿Ģ æ´»
åĿĹ éĴ±
Ġ åĮ»éĻ¢
ab e
Ġ ä»Ĭå¹´
å®Į å·¥
åı¦å¤ĸ ä¸Ģä¸ª
æıĴ åħ¥
ä¸º éļ¾
å°± è¡ĮäºĨ
æ¬¡ çļĦ
uel a
ĠH unt
ĠUp dated
éª ·
ä¾¿ æį·
çĤİ çĹĩ
Ġconvers ations
åĮ ķ
èĶ ļ
è¿½ æº¯
ĠT ed
æķ° çĽ®
Ġwant ing
ĠCo ach
Ġ çĶµåŃĲ
çļĦ åıĳçĶŁ
Ġ è¯»
æĪĳ äºĨ
çļĦ ä»·åĢ¼
Ġsurf aces
ç½ĳ çĲĥ
å¹¸ å¥½
S ystem
çĿĢ èĩªå·±çļĦ
å¹¶ å¯¹
Ġcar go
åĲĮ è¡Į
Ġstr ings
Ġheart s
, ,
Ġ ç§ĭ
re ck
ĠC atherine
ĠAgric ulture
id el
è¯¥ æł¡
ern ame
Ġbes ides
b est
b age
h l
Ġtr im
è®² è¯Ŀ
ĠæĢİä¹Ī åĬŀ
åıĳ éŁ³
çº¢ å¤ĸ
éĤ£äºĽ äºº
åı¸ å¾Ĵ
äºĶ æľĪ
èĤ¡ å¸Ĥ
åħ¶å®ŀ æĺ¯
èĩªæĿ¥ æ°´
å¨ ¥
èĩªçĦ¶ çļĦ
iffer ent
åıĺ æĢģ
çł´ äºĨ
13 5
Ġ è¯ķ
ĠS ax
è¢« è§Ĩä¸º
æĬĢæľ¯ åĴĮ
87 9
ĠB io
Ġover view
Ġbl ow
cast le
Ġincorpor ate
our t
éķ¿ æĺ¥
å®Įåħ¨ åı¯ä»¥
8 20
P ol
Ġmatch ing
Ġfarm ing
G l
ri en
æīį è¡Į
åºŁ çī©
Ġnom ination
Ġident ical
Ġevalu ate
ĠE sp
11 4
ed a
äºĭ åħĪ
ä»»åĳ½ ä¸º
on ing
åħĭ ç½Ĺ
æĤ² ä¼¤
## ##
å¯¹ ç§°
Ġinter vention
edd ed
Ġchem istry
éº ¾
è°Ī è¯Ŀ
Ġdress ing
Ù ħ
éĺ ľ
ri ors
ro d
å¤ļ å°Ķ
P ort
Ġ ä¼Ĭ
r ative
Ġf ran
äºļ åĨĽ
ĠOr thodox
ĠSo on
Ġarchitect ural
çķı æĥ§
Ġsome how
çŃ¹ å¤ĩ
ĠStr ateg
æ®ĸæ°ĳ åľ°
ĠNash ville
ĠC T
ĠTh or
åİĭ æĬĳ
çļĩ å®¤
æĦıæĢĿ æĺ¯
Ġep ic
S I
urn ame
Ġhabit at
ä¸» å®°
çľģ åĴĮ
Ġimp rison
æĹ¥æľ¬ çļĦ
æ© Ħ
Ġin clusion
ä½ł åĪ«
au kee
é¢Ħ æĸĻ
æĬĽ å¼ĥ
Ġfold er
k ind
m us
Ġä¸Ģ åĪĩ
2 60
Ġ çĮľ
au er
ĠFran ces
æ°´å¹³ çļĦ
åı¤èĢģ çļĦ
ro e
è° į
çļĦ éĹ®éģĵ
è¿½ è¸ª
Ġobject ives
ĠOther s
Ġtouch down
b ul
åĴ ¦
ä¹Ĳ åĽŃ
ç»Ĩ èħ»
åĲĪéĢĤ çļĦ
éģĵ å£«
æĢ» é¢Ŀ
ĠMon te
Ġ Ï
ä¸ĢçĤ¹ çĤ¹
Ġ Ä
æĥĬ æģĲ
ĠCons ervation
u um
ç¿¼ ç¿¼
ä¸Ĭ çº¿
ä¸īä¸ª æľĪ
ç¹ģ åįİ
Ġ åį°
ä»¥ åįĹ
ãģ ¦
æ²¹ çĶ»
æľī å®³
Ġv intage
éĢī é¡¹
atter ed
ĠForm ula
it ivity
ĠY u
Ġ æ¢ģ
ir s
Ġprevent ion
çŃī å¤ļç§į
é£İ åĲ¹
æ¼ ĵ
ĠH R
åĴĮ æĬĢæľ¯
åĩº èī²
Ġres on
åĨľ åİĨ
Ġ å½±åĵį
ĠB ag
Ġy oga
åı° éĺ¶
c ap
Ġ å¸ĥ
ĠR ugby
éĽ ı
æĹ§ å¸Ĥéķĩ
ĠNov a
ä¸Ń è¥¿
ĠB ert
éģĵ åħ·
Ġpro sec
è½¦ ä¸Ĭ
æĬĬ è¿Ļ
id ency
ip her
åľ£ è¯ŀ
Ġhuman ity
ĠCommun ist
z el
ãĢĭ ("
Ġ æ¡Īä¾ĭ
Ġdo zen
Ġprot ests
é¢Ĩå¯¼ çļĦ
Ð´ Ð¸
Ġprogress ive
ĠK itchen
ix el
Ġlo ose
ĠConf eder
Ġ åºĶçĶ¨
èĢĮ è¿Ļ
ĠæĪĳ å®¶
Ġsc rew
åĵª æľī
Ġsouth west
ĠCour se
å¾Ĺ ä¸į
ç§Ĵ éĴŁ
ĠUk rain
G M
O h
ĠM i
æĮĩ çļĦæĺ¯
å®ĺ åħµ
m ons
éĢļè¿ĩ äºĨ
Ġrese mb
AR D
åĽº ä½ĵ
Ġlabor atory
G Hz
åĽŀ åĲĪ
ä¿Ŀ åħ»
æ¸© é¦¨
çĪ¶ åŃĲ
å¤ľ éĹ´
Ġtre m
AC T
list ed
Ġenhan ced
Ġ å·²
Ġher bs
åįķä½į çļĦ
ĠM ann
åıĮ çĽ®
ĠS A
æĭ Ļ
å¥¥ å°Ķ
éĵ¸ éĢł
Ġl ady
Ġl ibraries
ĠY am
æĿĢ æ°Ķ
éħĴ ç²¾
Ġfast est
ä»ĸ æīĢ
ä»¥ èĩ³äºİ
ĠG ov
Ġnav igation
æ¼Ķ ç»İ
Ġinflu ences
Ġparam eter
å¤ĸ è¯Ń
å¢ŀ å¤ļ
Ġb rick
ĠF ellow
èµŀ åĬ©
ĠT ell
ĠF ROM
éĤ» è¿ĳ
ĠOper ation
Ġaccompl ished
Ġapolog ize
è¿ŀ è½½
ç»¼ èīº
èĬ ľ
Ġbl ess
éľ¸ éģĵ
Ġton ight
Ġre actions
Ġthe rap
åĩł åı¥
çĶ¨ å¿ĥ
æ¡Į ä¸Ĭ
M en
ĠIn novation
Ġh iking
ĠE aster
d rop
Ġ éĽ¨
Ġl aser
Ġn erv
åĨĽ ä¸Ń
ä¼¸ åĩº
ĠBeaut iful
Ġ çĶ·äºº
Ġh o
éĤ ¢
ĠLe ave
Ġs outheast
è¿Ļ åı¯æĺ¯
äºĮ æ°§åĮĸ
çļĦ æĢĿæĥ³
æĿ¨ å¸Ĩ
Ġcharacter ized
ĠFa ith
c up
Ġre hab
let te
æĢ¥ éĢŁ
ich ael
cover ed
Ġ éĵģ
Ġt ension
ĠC M
K e
L ink
Ġper mitted
asc ular
à ¦
å½ĵ å¹´çļĦ
ĠSh aw
ĠBel ow
é¢ĩ æľī
lim ited
Ġco ins
Ġem p
åĪ» æĦı
Ġt weet
åī Ķ
Ġmind s
ç¦ģ å¿Į
âĪ Ĵ
Ġ ä»»åĬ¡
å¦Ī çļĦ
Ġinc ent
ç«ŁçĦ¶ æĺ¯
Ġestablish ing
Ġbank rupt
ä¸į çĽ¸
od ium
æĺ¥ å¤©
Ġbi ological
æĽ´å¥½ åľ°
éª· é«ħ
äºĭ åĲİ
éĺµ éĺµ
D irect
ster dam
é» ¯
æ¯Ĵ æĢ§
ĠNC AA
çļĦ çĽ¸åħ³
ç¥ŀ ä»Ļ
åħĭ æŀĹ
86 9
åĪĨ ä¹ĭä¸Ģ
Ġmeasure ment
çŀĦ åĩĨ
Ġbenef icial
ĠLar ge
è¯ ł
æľīæķĪ åľ°
ĠCov id
è¿ĺæľī ä»Ģä¹Ī
åºŁ éĻ¤
Ġmat hematics
ĠB urg
ä¹³ èħº
Ġsh orter
æĪĺ åĬĽ
Ġcare ers
ER T
Ġ å®¶éĩĮ
Ġen emies
Ġh itting
å°± èĥ½å¤Ł
sh ore
Ġau ction
Ġ æīĢ
ĠF IFA
Ġsound track
ĠFant asy
: ãĢĤ
å¼Ģ å·¥
çºª å¾ĭ
æ©Ħ æ¦Ħ
ä½ľ äºĨ
å· į
åĪĽéĢł äºĨ
èĭį çĻ½
åļ İ
B ig
O UR
u er
Ġ åį·
ç²¾ éĢī
Ġcompos ers
Ġin duct
æ²ī éĩį
Ġminor ity
Ġpart ially
åİ¿ çļĦä¸Ģä¸ª
Ġread s
æª Ĳ
ä¸Ģ å¿ĥ
Ġopp onent
æĺ¯ å¦Ĥä½ķ
iv ic
ĠK le
é¦ ħ
ov o
Ġcompet itions
Ġwal ks
ĠQu ick
Ġmiss ions
åĨį ä¹Ł
æİĮ éĹ¨
å¼¹ èį¯
åĬ¨ åĳĺ
Ðº Ð¾
ĠCamer on
ç¢ ¾
è·Ł åľ¨
æ·ĭ å·´
çī Ł
åļ£ å¼ł
L oad
ä¸į è¯¥
Ġsh aped
å£° åĵį
Ġdis k
ĠAd m
Ġstruct ural
Ġb unch
Ġsc ar
Ġbar rel
çļĦ æİ§åĪ¶
ĠS ustain
Ġr ated
æĽ² çĽ®
Ġprison ers
it ro
Ġdu o
çļĦ ç¬¬
ĠB our
æıĲ åĢ¡
åıĪ ä¸įæĺ¯
èµ £
ä»¥ åĮĹ
Ġscreen ing
m ill
Ġ é¥°
ç» ¥
ĠE C
æµ· çĽĹ
æ²» æĦĪ
25 6
åĩłä¸ª æľĪ
çļĦåīį æıĲ
èİ º
éĺ² èĮĥ
çĭ° çĭŀ
Ġ æł·åŃĲ
it Ã©
ur st
æŃ¤ ç±»
e vent
ĠÐ ĺ
åŁİ æ±ł
ç§° èµŀ
å¹ ¢
inc inn
ĠH TML
Ġj ury
æįĲ èµł
æ°ĳ ä¿Ĺ
åĲĳ å¤ĸ
åıĺ éĩı
çº¦ æľī
ç£ ķ
æĭįäºĨ æĭį
as se
è½¦ åİ¢
å¸Į å°Ķ
Ġbuy ers
éĶģ å®ļ
âĢĿ )
ä¸ĸçºª çļĦ
ĠInvest ment
Ġv in
æİ¢ éĻ©
Ġrhyth m
Ġth rown
Ġpost ing
ian ces
åŃĺ æ¬¾
Ġinvest ing
Ġpre t
ĠPlan et
çķħ éĶĢ
M ac
Ġb rowse
æĹł ä¸į
Ġbl ues
orig inal
ä¹ł ä¿Ĺ
å¹´çļĦ æĹ¶éĹ´
Ġ æ¢ħ
çļĦ çĪ¶äº²
åį³ æĺ¯
8 10
é³ Ħ
Ġbu nd
é£İ æ°´
Ġå°± ç®Ĺ
Ġconst ra
Ġmount ed
è¶ģ çĿĢ
Ġ( ),
ĠArch ive
ç²¾ åĩĨ
çļĦ æ¸¸æĪı
æ°´ åĩĨ
åįı åĲĮ
87 4
Ġlimit ations
ä¸Ģ æŀļ
iz able
Ġsum mit
ĠÐ½ Ðµ
Ġmist akes
èº« ç©¿
éĶ ¯
ç²¾ éĶĲ
åĽºå®ļ èµĦäº§
ri ven
éĢł æĪĲäºĨ
Ġm aj
å¦ Ĭ
æ¶² æĻ¶
éģį å¸ĥ
æĺı è¿·
åĲİ äºº
çľŁ è¯ļ
æģ ³
?? ??
Ġnegoti ations
Ġr anges
land o
å¦ĸ æĹı
ĠHind u
D D
çģ« çĤ®
Ġn est
Ġspec ify
ĠæĹ© ä¸Ĭ
: #
ä¸¤ åįĥ
çĸ ¤
Ġsp ir
ç«Ļ çļĦ
Ġcru ise
æ°Ķ ç®¡
è¿Ļä¸ª å°ı
åħ´ èµ·
è¿Ļ æ®µæĹ¶éĹ´
è¿ľ å¾ģ
å±ĭ é¡¶
å·¡ éĢ»
ĠF an
Ġshow case
ĠRel ated
Ñģ Ð¸
Ġhon our
bre aking
ĠT ol
ine a
Ġcompl aint
F I
è¡Į äºĭ
Ġæĥ³ åĪ°
85 9
Ġse am
åĽł æŀľ
cl ient
" ]
ä¸Ģ äº®
Ġvisit or
b ot
æľĢ å¿«
åĽ´ æĶ»
Ġsk illed
èĭ Ķ
Ġrequ iring
Ġimm une
ĠLeg end
èĻ½çĦ¶ æĺ¯
itc her
è¿ĺ æĥ³
Ġdon ations
ä¾µ çķ¥
Ġscient ist
ä¸ªäºº ç®Ģä»ĭ
å²Ľ çļĦ
ä¸į çĶĺ
Ġre nov
åħĥ ä»¶
å¤į åį°
ç¥ĸ åħĪ
ID S
ett a
Ġenc ouraging
çļĦ å°±
åı¯æĢķ çļĦ
ĠNaz i
ĠT ab
ä¹Ł æĽ¾
Ġtravel ed
Ġ æİī
åĬ¨ æľº
é¡µ éĿ¢
Ġacqu ire
Ġaccommod ation
Ġeffect iveness
ä¹ĭ æĹ¥èµ·
å¤ª çĽĳ
ateg ories
H el
Ġst eal
æľĪ çĶŁ
æĹł èģĬ
ĠChristian ity
ott o
ĠRec ip
Ġauthent ic
Ġex ch
ass y
ĠCol lect
ĠB und
æĮĩ è´£
ãĤ ĵ
ed ly
è¦ģ è¯´
ĠÐ Ľ
ç»Ł çŃ¹
è¯ħ åĴĴ
c ss
æ³ķ åĬĽ
ç½Ĺ å¾·
ĠN ancy
ĠBas ic
Ġpra ised
ugh t
è¿Ļä¹Ī åģļ
Ġam en
O pen
d epend
if ice
Ġ åĲįåŃĹ
è§ģ è¯ģ
ĠArab ia
Ġdistinct ive
å¾· åĨĽ
å·´ å·´
ĠBer keley
ä»» æľŁ
æĻĵ å¾Ĺ
æķ°éĩı ä¸ºäºº
Ġ æķĻ
ĠH P
ĠD rama
åħ° å·ŀ
Ġsole ly
Ġ æĪ´
ol ia
and roid
ich t
æł¼ éĩĮ
ĠPh one
è¶ħè¿ĩ äºĨ
f ers
éĩĳ ä¸¹
Ġ çĲĨè§£
äºĮ æĪĺ
åĲĪ åĶ±
ĠCh an
Ġ æłĩåĩĨ
ĠB L
æĸ¯ æŀĹ
çľ¨ çľ¼
ç¼© åĨĻ
ä¹ĭ åĲį
ĠNorth west
çĶµ ç¼Ĩ
ĠMus lims
åĲĦ æł·çļĦ
is ure
ä¸į æľį
å¾ Ļ
æ¼ ©
æ°Ķ æĹĭ
( (
åīį éĶĭ
å¹² æİī
Ġprop ag
Ġload ed
ĠCho ose
å¯¹ çŃĸ
çĤ ĸ
ĠH ab
Ġpre de
ä½Ĩæĺ¯ åį´
å°Ĩ äºİ
çļĦäºº ç±»
Ġpropos als
T op
çļĦ åĽĽ
min ster
H K
in ite
per form
Ġam pl
Ġlast ing
Ġadvoc ate
Ġ éļıåĲİ
å¨ Ł
lin ary
Ġse al
Ġinv al
Res ult
ĠThrough out
ç§ī æī¿
incinn ati
ĠVal ue
Ġachie ving
ä¸Ģ åĪĨ
Ġeconom ics
é¦ĸ æī¹
è¿ĳ ä¹İ
æķĮ äººçļĦ
ä¸Ģ åĪĢ
åĽ½ éģĵ
ĠPublic ations
ĠH alf
Ġf ut
ĠP ink
æĲŃ å»º
å¤ļ åįĬ
Ġprogram mes
i w
am ine
Ġachieve ments
Ġ å®¶æĹı
an im
æ»¡ æĦıçļĦ
åģľ ä¸ĭ
è¯Ĺ è¯į
Ġrob ust
Ġearth qu
Ġit er
% (
å¯ ħ
Ġret reat
æĹłè®º å¦Ĥä½ķ
ĠColumb us
Ġbook ing
Ġdistingu ished
éĢī ä¸º
Ġh ills
éĥ½æĺ¯ åľ¨
Ġsusp ension
m ind
Ġ æ´»åĬ¨
st ad
è¿Ļ æĶ¯
anth rop
æİ¥å£¤ çļĦå¸Ĥéķĩ
å¹´ç¾İåĽ½äººåı£æĻ®æŁ¥ çļĦæķ°æį®
ment ed
ĠQu arter
å³¡ è°·
äººåı£å¯Ĩåº¦ä¸ºæ¯ı å¹³æĸ¹åįĥç±³
è® ³
èĩª åľ¨
çİĭ èĢħ
ä¼ł æİĪ
Ġä¸¤ å¤©
æļĳ åģĩ
çļĦ çľģçº§
ä¸į å¹¸
å°ı éº¦
ç«¯ çļĦ
Ġcomplex ity
ĠRog ers
èĪĨ è®º
L et
Ġover night
sum mary
è¿ĺ ç®Ĺ
Ã§ Ã£o
Ġdepend ent
Ġ$ (
Ġquant ity
Ġdomin ant
p ot
z ens
Ġlegisl ative
ĠD ennis
å¢ ©
Ã© r
Ġdivor ce
ĠRe qu
æķ£ çĥŃ
Ġauthor ized
ĠDirect ors
éĥ¨ éĥ¨éķ¿
åĩł åĲį
åľ¨ è¥¿
åĴĮ æĸ°
Ġsee ks
æģ¶ åĬ£
Ġs isters
ä¸Ń å°Ĩ
ä¸¤ è¾¹
æ»ļ æ»ļ
b ling
Ġas c
con f
ĠHoll and
æĸĩ æ¡£
è½¬ è¿ĩ
Ġè¯´ æĺİ
im mer
æİĴè¡Į æ¦ľ
åı£ çļĦ
å½ĵåľ° åħ±æľīäººåı£
ĠTre k
ĠBang l
ĠA x
ĠB ring
ĠR av
Ġhom eless
But ton
g t
it udes
ĠA part
èĢĮ äººåı£å¯Ĩåº¦ä¸ºæ¯ıå¹³æĸ¹åįĥç±³
æ¯ı æľĪ
Ġfro zen
ĠM ills
Ġcur ious
è¢« åĬ¨
åŃĺ çļĦ
ĠTer min
æĶ¾å¼ĥ äºĨ
b at
éĴ ŀ
è®² åº§
ä¹Ł ç®Ĺ
Ġret ained
c ery
Ġoff ense
Ġ ç»¿
åıĹ çĽĬ
åĩ» ä¸Ń
ĠNe uro
ĠCle an
Ġnav igate
: ãĢĲ
Î ²
Ġ æ£Ĵ
ĠM ak
ä¸ī ä¸ĸ
ĠY ank
Ġag gressive
å®¢ åİħ
ĠEx hib
Ġtack le
ve ment
ĠMont ana
ĠDemocr at
Ġattend ance
Ġ çĶľ
ĠCont emporary
Ð¼ Ð°
Ġpregn ant
: -
å¤ª å¤ļäºĨ
åºķ éĥ¨
éĺģ ä¸ĭ
çĽĪ åĪ©
Ġ åĿļæĮģ
Ġc inema
th lete
ĠWe ather
åıĳçİ° èĩªå·±
éĿ¢åīį çļĦ
ĠTod d
æŀ¢ çº½
it ement
æľī ä½ķ
åĲĦ åľ°çļĦ
äºĨä¸Ģ ä¼ļ
äºĨä¸Ģ çķª
Ġess ays
ĠKen ya
ĠPy thon
Ġm ouse
ĠPal m
ĠPop ular
ĠJos Ã©
Ġ äº¤
Ġg ig
çĶ¨ ä»¥
æ¥ ·
Ġchemical s
P I
ä¸ļ ä¸»
çº¿ æĿ¡
ãģ Ĩ
æĭ± æīĭ
ç®Ģ åİĨ
Ġfall en
ĠStat istics
imens ional
b ishop
ä»Ģä¹Ī ä¸ľè¥¿
å·¥ä½ľ ä¸Ń
æī ³
ä¸Ń æµ·
åĲ¬è¯´ è¿ĩ
Ġ è§ģåĪ°
Ġ ä¸¢
æĮĩ çĤ¹
H ar
Ġhe t
å¼ł å®¶
New s
åĬ¨ çĶ¨
ĠInd ividual
ĠX box
Ġ æŁ³
Ġb its
Ġbi ography
Ġsuppl ied
ĠRel ig
è¿ Ħ
ä¸į å½ĵ
ĠE lection
Ġä¸į çĦ¶
çİ¯å¢ĥ çļĦ
Ġstat ue
Ġdi agram
Ġ å®ģ
ĠR ico
ĠK ill
ail ing
åįĩ èµ·
Ġv ib
éĥ½ ä¸įèĥ½
æĸ¹ åľĨ
æĥ³ åĬŀæ³ķ
ĠV irtual
åħ± è®¡
Ġdiv isions
å¤§ çģ«
ä¸ĭ éĿ¢çļĦ
O H
è¿Ļ ç¾¤
ĠL ands
ĠL amb
Ġpract ition
ĠVer mont
Ġagre ements
çģ¿ çĥĤ
Ġsimultane ously
ĠD oll
Ġhe lic
ç»Ħ ä»¶
ĠCirc le
å¤Ħ éķ¿
çıł å®Ŀ
om o
Ġg rain
è¿Ľ åº¦
æº¶ è§£
å¹¶ çĶ±
åŀĦ æĸŃ
çļĦ èĦ¸èī²
Ġcompet itors
ä»ĸ èĥ½
äºĨä¸Ģ æ¬¡
Ø ±
å¥ ķ
ac ious
Ġcou rage
Ġpregn ancy
éĢļ ä¿Ĺ
ancell or
r ors
Ġ$ $
Ġrev ised
B ase
æĪĲ äº¤
åª Ľ
Ġhapp iness
çļĦ è´¨éĩı
åįİ ä¸ľ
éĺ² ç©º
å¤§ çº²
Ġst raw
Ð½ Ñĸ
11 8
Ġ çİ°ä»£
å¤§ çİĭ
æĪĳ æ²¡
è´§ è¿Ĳ
çĮĽ çļĦ
Ġtun nel
w aukee
Ġexpl ores
ĠLet ter
å°ı æĹ¶åĢĻ
Ġ æŃ£å¸¸
èµ· ä¼ı
æĽ´ é«ĺçļĦ
Ġtom atoes
ĠChel sea
çĭĻ åĩ»
åŃĲ åŃĻ
Ġde lete
çľ¼ çľ¸
Ġjurisd iction
Ġst om
èĤ ĩ
ad ows
åħī æ»ĳ
ä¿® çľŁ
éĺ³ åİ¿
asp oon
ä¸Ģ æĹģ
st age
æĿŁ ç¼ļ
ä»Ļ å¥³
Par am
ĠQ ual
Ġm arch
à ®
Ġo s
è¿ľ æĸ¹
çī¹ æĭī
èĤº çĤİ
Ġgenu ine
Ġ èĮĥ
se lect
ĠHar bor
ograp hers
åľ¨ æµ·
ĠM ong
ve c
ä¸½ èİİ
æĬĺ èħ¾
åħ¨ éķ¿
åĮº åĮº
ĠLe x
i pt
æĻ Į
ĠPass age
Ġt we
æĪĳ è¿ĺæĺ¯
æľĪ ä¸Ń
isc her
ä¹ĸ ä¹ĸ
ĠF ight
å¸¸ å§Ķä¼ļ
æĮĩ æİ§
ĠTr inity
ä¼ł è¾¾
çĶ· çĶŁ
ĠDel aware
Ġto ile
éĤ®æĶ¿ ç¼ĸçłģä¸º
æĺ¯ä¸Ģ ä»¶
P age
æĪĳ èĩªå·±
ä»»ä½ķ ä¸Ģä¸ª
çļĦ å¸Ĥåľº
åı£ å¾Ħ
Ġste ep
å¼Ģ åĬŀ
Ġcur ve
V er
çļĦ çŁ¥è¯Ĩ
æĿĨ èıĮ
éĥ½ çĿ£
æĽ´ å¿«
åıĪ ä¸Ģæ¬¡
ç»ĵ æĻ¶
Ġ èĥĮæĻ¯
Ġt ired
Ġsh ield
è¡ĮæĶ¿ ç®¡çĲĨ
AS E
æŁĶ è½¯
Ġsil ent
ä½į éĿ¢
è¾ĥ å°ĳ
Ġun ve
ĠEduc ational
ol ves
Ġ( @
åĲĮ æĢ§
æīį èĥ½å¤Ł
ç§ĳæĬĢ å¤§åŃ¦
é¢ģ åıĳ
b one
Ġ ç»Ħç»ĩ
å¹³ è¡Į
åĲĦ çķĮ
æī¾ åĩº
éĽ· çĶµ
def ault
ç° §
Ġinvent ory
Ġ ç¡¬çĽĺ
ĠT ib
æĪĳ å¾Ī
äºĭ å®ľ
éĺ² æ°´
ç¯ĩ æĸĩç«ł
éĺ² çº¿
Ġrow s
åĮº éĹ´
Ġwe ird
ĠArt ists
ĠY OU
ä»ĺ æ¬¾
Ġt orn
Ġsl ight
äºĨ ä¸ī
[...]
