ä ¸
Ġ å
ç ļ
çļ Ħ
ä º
ã Ģ
Ġ æ
Ġ t
ãĢ Ĥ
ä »
Ġ a
i n
h e
è ¿
æ ľ
ä ½
å ¤
å ı
ä ¹
æ ĺ
e r
å ħ
o n
äº Ĩ
ä¸ Ģ
Ġ ç
ä¸ į
å Ī
å ®
æĺ ¯
r e
Ġt he
å Ĳ
å ľ
Ġ è
æ Ī
Ġ s
o r
â Ģ
a t
å °
è ¯
e n
Ġ ,
a n
ç Ķ
Ġ w
æ Ŀ
e s
Ġ o
ç »
Ġ c
i t
i s
å Ń
æ Ĺ
å Ĭ
ä ¼
å Ľ
äº º
æľ ī
Ġ é
ä½ ł
å į
e d
å ¹
Ġ f
ĥ ½
a l
Ġa n
ãĢ ģ
a r
Ġ p
æ ĸ
è¿ Ļ
in g
o u
Ġ b
åľ ¨
. .
æ ī
å ¾
ä¸ ª
Ġ çļĦ
Ġo f
Ġ in
è ®
å ·
å ĩ
å ¥
é ĩ
Ġan d
Ġ m
i c
å ¼
å Ĩ
Ġt o
å ĵ
æĪ ĳ
è Ģ
a s
å ¸
Ġæ Ī
i on
Ġ d
l e
Ġ äºĨ
å¤ §
ĠæĪ ĳ
ä¸ º
æĿ ¥
å º
ä¸ Ń
¦ ģ
è §
æ Ģ
ç ľ
o m
ä¸ Ĭ
å ¿
è µ
å İ
å ¯
æ ł
æ ķ
ä» ¥
Ġ h
ä» ĸ
è ¡
ç Ľ
æ Ń
ç §
ç İ
é Ģ
ä¹ Ł
é Ĺ
æ ²
ä¹ Ī
âĢ ľ
å Ĵ
âĢ Ŀ
Ġ ä¸į
å Į
ç ī
ä¼ ļ
Ġ T
å¹ ´
åĪ °
é ģ
Ġ ä½ł
Ġ !
i l
Ġ S
Ġ ãĢĤ
è ¦ģ
en t
æ ĥ
è ĩ
æ Ĭ
é Ŀ
å ½
æĹ ¶
æ °
åĴ Į
Ġ C
Ġ A
å ±
Ġå Ĳ
å ĳ
r o
å° ±
ç º
ä¸ ĭ
è ´
æ ŀ
è ĥ½
è¿ ĺ
e l
Ĥ £
Ġt h
ä» ¬
æ ³
Ġ l
Ġ 1
æ Ķ
åĩ º
s t
è¿ ĩ
Ġ re
åŃ ¦
Ġ I
éģ ĵ
åĽ ½
é Ļ
åŃ Ĳ
åĲ İ
Ġæ ĺ
c t
è ¾
å¤ ©
Ġå ı
e t
ä ¿
çĶ Ł
Ġ n
åı ¯
æ ĭ
å¥ ½
å ī
æ İ
æ µ
ç Ŀ
æ ¯
ä¹ ĭ
Ġå °
Ġ ä¸Ģ
ç Ĳ
ç «
æ Ħ
o l
åĵ Ī
åľ °
Ġ e
a m
å ¦
Ġæ ľ
ç Ĥ
çĶ ¨
å¤ ļ
Ġ M
å¾ Ĺ
å® ¶
é ĺ
i d
0 0
å¯ ¹
äº İ
æ ¬
Ġ 2
Ġ ?
è ½
Ġæĺ ¯
ç Ħ
è¯ ´
Ġ g
Ġå ¤
v e
Ġå ¥
Ġå ķ
ç Ń
èĩ ª
ä½ ľ
é ¢
åı ĳ
æĪ Ĳ
u r
o t
Ġf or
u t
çĦ ¶
a d
c h
Ġ B
çĿ Ģ
Ġ is
Ġ on
Ġ P
o w
u s
é ĥ½
at ion
é Ĥ£
ç ®
i g
Ġ (
Ġ y
æ Į
a y
çľ ĭ
i m
è¡ Į
v er
c e
å¿ ĥ
æĸ ¹
æ² ¡
éĿ ¢
l y
å Ł
éĩ Į
ä ¾
u n
ç ¬
å Ģ
çĤ ¹
ç Ł
è °
ç» ı
é ķ
åĪ Ĩ
Ġb e
æ ¸
è ·
ä¸ ļ
äº ĭ
è Ĥ
çİ °
èĢ Į
æ ´
ĠT he
Ġå° ±
åİ »
Ġ H
i r
å° ı
Ġ è¿Ļ
åĬ Ľ
æ³ ķ
Ġç ľ
é ĥ
åĬ ¨
çĲ Ĩ
Ġå¥ ½
« ĺ
æ ±
æľ ¬
it h
å¼ Ģ
Ġs t
ä¸ »
å® ļ
t er
Ġ R
å ģ
å® ŀ
æ Ľ
å §
åī į
Ġ D
ä» Ģ
è ī
èµ ·
å¦ Ĥ
ç ½
Ġ W
Ġy ou
Ġåķ Ĭ
ä»Ģ ä¹Ī
ä¸ İ
éĹ ´
é Ľ
æ Ļ
Ġå ĵ
åħ ¶
Ġè ¯
Ġw ith
r a
ä¸ ī
æł ·
Ġ F
æ ģ
é £
é «ĺ
ç ¥
ä½ Ĩ
Ġæ ²
u l
ä½ ĵ
Ġå ľ
å £
Ġth at
å· ±
æī Ģ
ç§ į
Ġ L
ä¸Ģ ä¸ª
æĥ ³
è ¢
è Ĭ
ç ¾
çŃ ī
ç ©
è¿ Ľ
æī ĭ
Ġa s
åħ ¬
æľ º
é ¡
éĥ ¨
.. ..
äº Ľ
ç Ļ
Ġ âĢľ
å· ¥
he r
é ļ
è º
éķ ¿
è ¶
å Ŀ
Ġæ² ¡
Ġæ ī
åĲ Į
s e
' s
g e
æĹ ¥
Ġæľ ī
æĦ ı
æľ Ģ
Ġa l
å ķ
Ġ è¿ĺ
er s
è ĭ
åħ ¨
æĸ ĩ
Ġé ĥ½
æľ Ī
.. .
åĵĪ åĵĪ
Ġ G
ç ķ
Ġ N
Ġ E
ç Ī
Ġ ~
æĥ ħ
Ġå ĳ
Ġ it
æĹ ł
i f
ç ¨
èº «
èĢ ħ
Ġw as
ç ģ
æ¬ ¡
Ġ ä¹Ł
é Ķ
is t
es t
ä¸ ¤
Ġp ro
an d
e m
ç ±
è Ħ
Ġw h
ãĢ ĭ
æ ı
ãĢ Ĭ
å¾ Ī
è Ī
åı ª
æĢ §
åĮ ĸ
ç ³
äº Į
r i
å¤ ´
Ġåľ ¨
ç ł
åĨ ħ
åĲ į
å½ ĵ
u m
t h
æŀ ľ
è¢ «
o d
a c
il l
Ġc on
æ²¡ æľī
åº ¦
o p
éĩ į
Ġå Ī
åį ģ
æĺ İ
åĲ Ī
Ġå ¾
ä½ į
è ģ
¥ ¿
ä» İ
Ġ or
æ į
Ġå ħ
å »
åĽ ł
åħ ¥
è ĥ
Ġ ...
Ġå İ
Ġ he
çī ©
åĬ ł
å¤ ĸ
0 1
çĶ µ
æĸ °
a b
çŁ ¥
Ġçľ ĭ
æ° Ķ
ãĢĤ âĢĿ
Ġ "
éĩ ı
ç ¤
Ġæ Ĺ
æķ °
è Ĳ
r om
æ° ´
ou n
é ľ
at e
äº §
èĩª å·±
Ġå ®
æ¯ Ķ
è¯ Ŀ
åħ ³
Ġå Ľ
Ġa t
å° Ĩ
Ġa re
é Ĵ
Ġ v
éĢ ļ
Ġ O
Ġc om
åı Ĭ
es s
a k
p p
åĵ ģ
å¹ ¶
ç ´
æķ Ļ
å· ²
æŃ ¤
è ¥¿
ç ĥ
o re
åľ º
âĢ Ķ
åĪ ¶
ç¬ ¬
æŃ £
o c
e w
çľ Ł
ä¸ ľ
Ġç Ķ
åı¯ ä»¥
å¸ Ĥ
æ Ł
it y
Ġd e
Ġb y
Ġ J
åº Ķ
Ġç ¬
Ġç »
æ ¶
è į
ç³ »
å ¢
æ ·
çĽ ¸
åĢ Ļ
é ħ
èī ²
o s
å ĸ
ig h
re s
ç¥ ŀ
Ġè¯ ´
Ġå ĩ
ä¿ ¡
ä» £
ç ¼
å¸ ¸
l d
ç¾ İ
åĮ º
çī ¹
é ¦
q u
or t
Ġé Ĥ£
: âĢľ
Ġåı ¯
çĽ ´
åı £
é »
é ©
m ent
å¹ ³
a in
æİ ¥
Ġs e
èĢ ģ
i es
çĽ ®
éĹ ®
é¢ ĺ
è® ¾
Ġf rom
æľ Ł
åĽ ŀ
ç ²
è Ļ
i v
å» º
Ġe x
è® ¡
Ġç¬ ¬
ĠI n
é ª
ar t
å° ĳ
æĪ ĺ
åĪ «
å® ī
ç ¦
ç® ¡
ç Ĺ
an t
åĳ ĺ
ĠåĲ §
è§ ī
æĽ ´
åĨ Ľ
ä»ĸ ä»¬
p e
Ġs u
ç ĸ
ä» »
å°± æĺ¯
éĹ ¨
æĪĳ ä»¬
Ġ äºº
ç» Ļ
è¡ ¨
æĦ Ł
Ġh a
ä¹ ¦
å¸ Ī
ä¸į æĺ¯
Ġæ ĥ
è· ¯
è§ ģ
æ ¡
éĩ ĳ
ç ĭ
è® ©
é ĵ
åĪ ©
æı Ĳ
ç ¡
Ġåİ »
ç¨ ĭ
ä¸ ĸ
ä¿ Ŀ
æ° ĳ
åĬ ¡
æµ ·
İ ä¹Ī
Ħ ¿
Ġ r
ä½ ¿
åŁ º
è½ ¦
è¿Ļ ä¸ª
al l
è İ
æľ ¯
Ġ 3
å± ±
u d
é Ł
Ġå Ĩ
Ġ U
è £
åģ ļ
å¼ ı
Ġè Ģ
Ġå¾ Ī
i ve
åĲ ĳ
ar d
æī ĵ
Ġæ Ģ
Ġè ¦ģ
è¯ ¥
ç§ ĳ
åħ ī
å¤ ª
en d
è§ £
æ »
ç» ĵ
ĠåĲ Ĺ
çĶ ±
Ġc h
èĩ ³
å¥ ¹
å ŀ
èµ Ħ
æī į
é£ İ
æĸ ¯
åİ Ł
å¥ ³
å½ ±
Ġå ¿
æ ®
ç« ĭ
å¼ º
å Ħ¿
å± ķ
çĻ ½
æĪ ĸ
åĩ ł
ä» Ĭ
- -
æ´ »
ĠåĲ ĥ
Ġç İ
æĶ ¿
å ²
å£ °
u st
ä¸ ĩ
åĽ Ľ
ou r
a g
å¤ Ħ
æĬ Ĭ
i al
ĥ ı
Ġæ Ŀ
åı Ī
Ġå į
çľ ¼
åį Ĺ
åı ĺ
åĨ į
ä» ¶
e ar
Ġs h
å Ķ
Ġ un
çİ ĭ
æ ¼
çº §
Ġ K
igh t
u re
ä½ ķ
Ġæĥ ³
åı ¸
ä¹ Ĳ
Ġc an
) ,
Ġha ve
è¾ ¹
äº Ķ
el l
ä¼ ł
o g
åı Ĺ
ou t
ç± »
in e
a ge
Â ·
Ġå Ĵ
ĠS t
å® Į
ç© º
çķ Į
å ĺ
Ġ k
åį ķ
å° Ķ
æľ į
Ġå ¼
Ġ us
Ġp l
ç® Ĺ
ç» Ł
u p
äº ¤
Ġè ®
ä¸ ĵ
çº ¿
è¯ Ń
o k
æł ¼
è ±
Ġå¤ §
å¿ «
Ġn ot
æĶ ¾
å Ļ
Ġåĵ Ī
Ġè ĩ
åħ ĥ
åħ Ī
as t
Ġ le
æĬ Ģ
a p
å½ ¢
b er
ä¾ ¿
æµ ģ
åŁ İ
ic h
id e
om e
æ º
ct ion
èĬ Ĥ
ä¸Ń åĽ½
! âĢĿ
i a
åĮ Ĺ
æĹ¶ åĢĻ
æĶ ¶
å ¨
éĺ Ł
å ĥı
o st
è´ ¨
i p
Ġæ ¯
æĮ ģ
å§ ĭ
Ġè µ
çĲ ĥ
åŀ ĭ
éĻ ¢
Ġw e
æģ ¯
é© ¬
è¿ Ĳ
ç« ł
é ¥
Ġç Ŀ
å¸ ¦
æ ĳ
å¼ ł
çĪ ±
å® ¹
æĢ Ŀ
æ¬ ¢
ä½Ĩ æĺ¯
é ¾
Ġå ĸ
.... ..
Ġth is
è® º
ä½ ı
çł Ķ
æĢ »
Ġa b
g h
èĢ ĥ
æ Ĥ
çī ĩ
è Į
Ġå ¹
æ £
9 9
å·² ç»ı
è§ Ĩ
æ¸ ħ
åĲ Ħ
æł ¡
åħ ĭ
ç¬ ĳ
Ġå¤ ļ
Ġè §
Ġèĩ ª
åı °
ç» Ħ
æŃ »
éŁ ³
a re
Ġw or
ä¹ °
at ed
éĢ ī
éļ ¾
è¿ ĳ
ĠåĽ ŀ
äºĨ ä¸Ģ
æ ħ
Ġ 4
f or
r y
æĮ ĩ
èµ °
æĹ¶ éĹ´
å£ «
? âĢĿ
Ġ V
éĿ ŀ
Ġçľ Ł
on g
ou ld
å¾ ·
å¤ ĩ
i an
è¾ ¾
Ġæ Ĭ
å¯ ¼
è ħ
æ ¢
ç½ ĳ
Ġå ¯
ç¤ ¾
d er
i re
è® ¤
ä¸ Ķ
æĿ ¡
çİ° åľ¨
Ġç Ł
i e
èĬ ±
Ġå ģ
åĻ ¨
é Ń
åĽ ¾
am e
æį ®
ç ı
æŀ Ĺ
ac k
Ġå° ı
æ± Ĥ
Ġ -
Ġåĳ ¢
åı į
ĠT h
è® °
åĽł ä¸º
åį ´
c c
ar y
p t
çŁ¥ éģĵ
åı ĭ
ç Į
oun d
Ġ ä»ĸ
Ġh as
Ġh is
åķ Ĩ
éľ Ģ
åĬ Ł
ä¿ ®
è¿ ŀ
ä» ·
ic e
f f
u b
åŃ Ĺ
Ġ ä¸Ĭ
ç Ĭ
æł ĩ
i z
å·¥ ä½ľ
Ġå ·
åķ Ĭ
æ ļ
e ct
ic al
p er
çĻ ¾
ç© ¶
Ġ j
æ¸ ¸
æ ¨
åĲ ĥ
t her
Ġcom p
Ġ ä»Ģä¹Ī
ĠC h
åı ·
ç ª
s o
è¯ ķ
æ¯ ı
ç± ³
è° ĥ
Ġa d
er e
æ Ĵ
Ġyou r
Ġå ¸
èģ Ķ
ľ æ¬¢
è§ Ħ
1 0
æŃ ¥
as s
è½ ¬
åĮ ħ
âĢĶ âĢĶ
ç ħ
æ ¥
åĩ Ĩ
¨ Ģ
é¾ Ļ
çļĦ äºº
æĭ ī
Ġ 5
åħ¬ åı¸
ou gh
åħ ·
è¿ ľ
ĠæĹ ¶
å¤ į
c l
Ġ Y
è¾ ĥ
u e
ç¦ »
a v
æķ ´
åĳ ½
f er
éĽ Ĩ
è¯ Ĩ
éĢ ł
è£ ħ
å® ĥ
æľ Ľ
ç² ¾
p l
Ġa r
åĳ ¨
åĬ ŀ
åĪ Ļ
i k
ä¹ ī
è ¨Ģ
åį İ
æ² »
è¶ Ĭ
ç« Ļ
ou s
çģ «
åĲ ¬
Ġw he
¦ Ĥ
ä¹ ł
âĢ ĵ
Ġ è¿ĩ
Ġthe ir
Ġal l
Ġè ·
Ġ ä¼ļ
æĺ ĵ
Ġm e
å¸ ĥ
in d
Ġå Ĭ
Ġåĩ º
æĺ Ł
ç§ °
r an
Ġ en
¥ éģĵ
èĭ ±
è¿ĺ æĺ¯
Ġc l
Ġæ ĭ
Ġw ill
Ġæ Ħ
Ġå Ń
çĹ ħ
è§ Ĥ
o ok
è° ¢
Ġåı¯ ä»¥
èµ Ľ
ion s
ab le
å· ŀ
Ġt e
Ġcon t
æĿ ĳ
åĩ »
ĠR e
for m
is h
Ġæľ Ģ
Ġä¸Ģ ä¸ª
Ġb ut
èĤ ²
Ġwh ich
åı¯ èĥ½
çľ ģ
æĪ ·
åİ Ĩ
åħ ±
Ġåķ ¦
æĶ ¹
2 0
æĢ İä¹Ī
åı Ĥ
æł ¹
k s
ĠæĿ ¥
it e
Ġ ä¸ĭ
ig n
åĽ ¢
é¢ Ĩ
å¤ Ł
Ġn e
å¦Ĥ æŀľ
å¹ ¿
æº Ĳ
Ġd o
åĪ° äºĨ
çī Ī
éĹ® é¢ĺ
åį ³
d u
ç® Ģ
Ġç» Ļ
Ġæ Ń
æ ¹
m er
è ı
è ĳ
æķ Ī
æ· ±
ç¡ ®
æĬ ¥
éĢ Ł
è¯ ģ
è¡ Ģ
im e
Ĺ ¯
åĲ §
éĶ Ļ
åı ĸ
Ġå¼ Ģ
Ġ im
æĸ Ļ
Ġåı ª
æĹ ı
ul t
on e
Ġé Ģ
æ³ ¨
Ġal so
a ct
è½ »
åŃ ĺ
ĠçŁ ¥éģĵ
åĨ ³
äº ²
å ¡
è´ ¹
å¢ ĥ
Ġæ Ķ
å ł
å¿ ħ
çłĶ ç©¶
a il
å¹ ²
Ġg o
en ce
ak e
ĠI t
é£ ŀ
çŁ ³
æĪ ı
Ġå¯ ¹
åĪ Ľ
é¡ ¹
i b
ç®¡ çĲĨ
é¦ ĸ
as e
æŀ ģ
ç ¢
Ġm ore
Ġçİ °
äº ļ
Ġèĩª å·±
åıĳ å±ķ
Ġin t
Ġw ere
ä½ İ
éĺ ³
Ġå¤ ª
ation s
æĶ ¯
ĠåĪ °
è¿Ļ æł·
ĠA n
é» ĳ
éĴ ±
æīĢ ä»¥
è® ¸
çļĦ ä¸Ģ
æŀ Ħ
æ¼ Ķ
Ġå°± æĺ¯
èĪ ¬
ç ¿
æĿ İ
åı ¤
éĥ½ æĺ¯
åº ķ
oun t
00 0
Ġo ut
Ġå ĺ
åĨ µ
Ġæ²¡ æľī
éļ ı
åĪ ļ
ä¸ĸ çķĮ
p ort
ç¤ º
ä¹Ł æĺ¯
å¼Ģ å§ĭ
å ĭ
çº ¢
a ch
èµ· æĿ¥
Ġæ ĸ
æĹ ©
Ġç Ľ
åı ²
Ġ up
è¶ ³
çº ¦
al ly
ç» Ń
è± ¡
åĮ »
æ® µ
è¿Ļ äºĽ
æ¨ ¡
å¾ ®
æ² ¹
æĿ Ģ
Ġä¸į æĺ¯
a ce
è® ®
è¿Ľ è¡Į
ĠæĢ İä¹Ī
Ġre s
ä¼ ĺ
o v
Ġ 6
çģ µ
ow n
ĠåĴ Į
r u
æĿ ĥ
æ¶ Ī
½ çĦ¶
ä¹ĭ åĲİ
éĿ Ĵ
å¤ ±
ç½ ®
äº ĳ
Ġé ĩ
é Ĥ
åį Ĭ
å® Ŀ
c es
èĲ ¥
an g
ç½ Ĺ
Ġwh o
æ» ¡
éª Į
Ġå ½
ä¼ ģ
æĪ ¿
Ġè °
or d
å± ŀ
äºº çļĦ
å¾ Ģ
ĠæĪĳ ä»¬
çİ ĩ
Ġon e
æĸ Ń
ä¸» è¦ģ
æĺ ¾
Ġab out
ä»ĸ çļĦ
éĻ ħ
è· Ł
ĠU n
å® ¢
9 8
re n
æĢ ģ
ä¼ Ĺ
åĩº æĿ¥
Ġthe y
i le
ä» ĭ
Ġm an
er v
it ion
å± Ģ
Ġa pp
æī ¾
çİ ¯
æİ ¨
æŃ ¦
Ġç Ī
or y
Ġæ ķ
ver s
Ġé Ĺ
Ġè ĥ½
ç» ´
èİ ·
èĲ ½
çĥ Ń
æĬĢ æľ¯
çĶ »
åĵ į
æ Ĳ
ar k
éľĢ è¦ģ
at er
Ġp er
åº ľ
è§ Ĵ
ä¹ ħ
äº ¬
æĬ ¤
æ± Ł
en s
ent s
æĢ ķ
åĪ Ĺ
t e
é£ Ł
ä¸Ń çļĦ
æľ ª
ç» Ī
é ¸
åħ Ń
Ġè¿ĺ æĺ¯
Ġçİ° åľ¨
èĦ ¸
c k
ĠH e
å ©
Ġæ Ļ
an ce
Ġs o
åĬ ¿
åĪ Ĵ
çħ §
å¤§ åŃ¦
åĨ ľ
åħ «
åħ »
Ġ ä¹Ī
æĻ ļ
r ic
ä½¿ çĶ¨
è¶ ħ
ä¼ ¤
1 2
l l
ç¬¬ ä¸Ģ
re e
ç´ ł
æµ İ
Ġre c
å¼ ķ
ter n
åĪ ĩ
Ġåĳ Ģ
åį ¡
å¤§ çļĦ
ä¸ ĥ
æĬ ķ
èģ Į
ä»Ĭ å¤©
Ġo ther
e p
Ġy ear
ĠçĿ ¡
åĳ Ĭ
èĩªå·± çļĦ
Ġè ¡
åı Į
è¯ ·
å§ Ķ
ä¼ģ ä¸ļ
ä¹ Ŀ
æŁ ¥
Ġp art
ä¾ Ľ
ä¼ ¼
on d
åį ĥ
res s
çı Ń
åĵ ¥
ç» Ĩ
el y
åŃ ©
Ġåĸ ľæ¬¢
å± Ĥ
Ġæī ĵ
' t
åĨ Ļ
åĢ ¼
ç» Ŀ
ç§ ¯
éĻ ¤
åħ µ
æ¡ Ī
n e
éħ į
r it
Ġåģ ļ
èį ¯
åĪ »
l ic
ĠåĵĪ åĵĪåĵĪ
Ġç ī
Ġs p
or s
ver y
ĠæĦ Ł
Ġn ew
åĽ½ å®¶
åĵ ª
Ġh ad
Ġit s
ä¸į è¿ĩ
Ġåı Ī
çİ ©
Ġ Ð
ä¹ İ
çļĦ æĹ¶åĢĻ
åİ ¿
åİ ĭ
p h
Ġåı ĳ
Ġåĵ ª
ä¸į ä¼ļ
Ġpro v
éĺ ²
åĬ ©
æ² ³
è¿ĺ æľī
Ġ ä»¥
å® ¤
å¢ ŀ
in t
x t
èī º
æĻ ¯
ä¸ľ è¥¿
Ġ qu
æİ Ĵ
re at
å® ³
ç³» ç»Ł
æŃ Į
è Ľ
çĬ ¶
è¯ Ħ
å¿ µ
Ġd is
æĺ¯ ä¸Ģ
ç¦ ı
é» Ħ
å® ĺ
ir st
Ġå º
o b
v el
w n
Ġs c
åľ Ł
Ġè§ ī
è¯ ¾
å· ´
Ġ 7
Ġè¿Ļ ä¸ª
ä¸į èĥ½
ãĢ į
ç« Ł
æĸ ½
ãĢ Į
Ġæ Į
o se
éħ Ĵ
Ġ ro
çĶ ·
ç Ĩ
æİ §
ing s
å· ®
é ²
åī §
åĪ Ŀ
cl ud
åĽ ´
è¿Ļ ç§į
è´ £
çª ģ
ä¸¤ ä¸ª
ik e
ä½ł ä»¬
Ġan y
1 1
äº ī
æľ Ŀ
èĩ ´
é¦ Ļ
Ġs ome
il d
Ġ ä¹°
éĻ Ĳ
åĲ Ĺ
åħ °
Ġe v
5 0
è¿Ļ ä¹Ī
è¯ »
-- --
o ve
ä¸º ä»Ģä¹Ī
äº§ åĵģ
å¥ ĩ
ĭ åıĭ
ay s
Ġç Ń
ä¸Ĭ çļĦ
Ġs a
å± ħ
æµ ĭ
ĠåĨ į
Ġp e
ä» ½
ol d
ç ĵ
éĢ Ĥ
Ġè§ī å¾Ĺ
å¸ Ŀ
ä¾ ĭ
å Ĺ¯
at es
Ġs pe
çł ´
åı ¥
Ġa cc
ä» ħ
) .
Ġè¿Ļ ä¹Ī
Ġp re
ä¾ Ŀ
ä¸º äºĨ
ä¿¡ æģ¯
o ol
ĠèĢ ģ
è®¾ è®¡
Ġ her
Ġo ver
çļĦ æĺ¯
Ġ ä¸ª
Ġ âĢĵ
éĥ¨ åĪĨ
å¤ «
Ġbe en
o y
åı ¶
å½ ķ
è¿Ļ ä¸Ģ
o od
å Ĥ
Ġa g
éĺ ¿
æĿ Ĳ
Ġwor k
Ġç ¾
çļ ®
åį ĩ
åħ ´
è Ĵ
æķ ħ
he d
è´ Ł
çķ Ļ
Ġd es
ol l
æĻ ®
Ġ '
åŁ Ł
Ġé ļ
åī ĳ
æľį åĬ¡
ç»ı æµİ
åį «
æľ ¨
äºĭ æĥħ
Ġæ İ
å¾ ħ
Ġ 8
éŃ Ķ
3 0
æ ĵ
ç¼ ĸ
ç¾ ¤
Ġt ime
éķ ĩ
åĳ ¢
ĠèĢ Į
Ġå ī
ĠS e
ad e
æī ¿
f ter
Ġæ¯ Ķ
éĵ ģ
é º
æķĻ èĤ²
åĨ ·
å¾Ī å¤ļ
Ġg r
æĽ ¾
ä¸ ¾
Ġæ Ľ
ç´ §
éĢļ è¿ĩ
ic k
ç¤¾ ä¼ļ
çļ ĩ
ĠæĹ¶ åĢĻ
æĭ ¿
Ġin clud
g r
Ġthe re
Ġæī į
ĠçĿ Ģ
Ġk n
èĤ ī
Ġå¾ Ĺ
Ġè ¢
Ġm y
ä» ¤
éĻ ©
9 7
0 2
å¯ Ĩ
ĠåĪ «
åŃ¦ çĶŁ
op le
èĭ ı
Ġt w
Ġthe m
çº ª
èĮ ĥ
æĽ ²
åħ¶ ä»ĸ
ĠTh is
ä»¥ åıĬ
Ġof f
on t
ä¸ĵ ä¸ļ
æĥħ åĨµ
Ġf irst
åĲĮ æĹ¶
æ ¤
æĿ ¿
æ± ī
Ġæ ¸
Ġå Į
l es
åĽ Ń
, âĢľ
ç» ĥ
ç» ĩ
èĦ ĳ
Ġé Ļ
åıª æĺ¯
an s
Ġåĩ ł
å§ Ĳ
on s
è Ĺ
Ġç º
é¥ Ń
ĠA s
am p
æ³ ¢
æį ¢
åı «
ation al
éĤ£ ä¹Ī
çī Į
å¿ Ĺ
çĭ ¬
é¡ »
Ġå¿ ĥ
Ġæī ¾
f t
æĶ »
èĻ ½çĦ¶
Ġå¤ ©
ĠçĪ ±
å° ¼
Ġ =
Ġ 9
ĠçĶ Ł
åıĳ çİ°
Ġå¿ «
Ġbe c
åĢ Ĵ
ç¾İ åĽ½
ç ŀ
Ġ if
åĨ ²
å¸ ®
å° ½
Ġcom m
æĭ ©
Ġæī Ģ
æĪĲ ä¸º
èĤ ¡
åħ¶ ä¸Ń
æ¸ ©
å¥ ĸ
ur n
Ġf e
Ġå½ ĵ
è¿Ļ éĩĮ
ä¸į åĲĮ
Ġint o
å¤ ľ
ä½ľ ä¸º
é Ĩ
Ġåĺ Ľ
åĳ ³
ä¸Ģ äºĽ
w e
Ġè¢ «
ĠçľŁ çļĦ
ĠC an
Ġå¥ ¹
è¯ į
æīĢ æľī
Ġ ä¸ī
Ġåĵ ¦
å¼ Ł
at h
éĿŀ å¸¸
çŃ Ķ
é ¼
ä¹Ł ä¸į
çĶŁ æ´»
åģ ĩ
å¼ Ĥ
if ic
çľŁ çļĦ
è¯´ éģĵ
Ġwhe n
Ġo ur
éĩ ĩ
Ð ¾
çĽ´ æİ¥
æķ ¢
Ġw ould
l and
æŃ ¢
æĥ Ĭ
Ġè Ĥ
ä¹ĭ åīį
Ġ 0
åŁº æľ¬
Ġç Ĥ
Ġè ¶
æ¸¸ æĪı
ä¸Ģ èĪ¬
Ġå ¦Ĥ
åº Ĺ
åĿ ĩ
Ġè· Ł
i o
as ed
al s
å® Ĺ
r ough
ĠåĵĪ åĵĪ
çļĦ è¯Ŀ
Ġæĺ İ
ĠçŃ ī
æ¥ ļ
éĩį è¦ģ
æľī äºĽ
åį ı
t s
èĥ½ å¤Ł
éĻ Ī
ä¸ ¥
Ġh ow
is s
ä¸Ģ æł·
èĢĮ ä¸Ķ
çĦ¶ åĲİ
éĺ µ
è¡ £
ĩ Ĥ
ĠåŃ ¦
Ġpl ay
èĥ Į
å¸ Į
åĩº çİ°
å¨ ģ
m an
åħ ļ
ĠC om
Ġé Ŀ
Ġ1 0
è¯ ī
åºĶ è¯¥
ĠéĹ ®
a w
ĠæĹ ©
Ð °
è° ģ
ĠæĬ Ĭ
æĸ Ĺ
us e
å¾ ĭ
åº §
äº ®
åį °
æ¯ į
i ous
Ġad d
æ¥ ¼
ä» Ļ
è® ²
it ed
ä¸Ģ å®ļ
åĿ Ĺ
ĠE n
æħ ¢
èĭ ¦
æ¯ ķ
ä¸ Ŀ
è ŀ
å¯ Į
9 6
ä¸ª äºº
èĥ½ åĬĽ
Ġ .
æĸĩ åĮĸ
èĭ ¥
åŃ© åŃĲ
è§ī å¾Ĺ
Ġa m
ĠA r
Ġt ra
åį ļ
éĢ ģ
åŃ¦ ä¹ł
Ġc o
éĽ ·
ĠD e
ĠN ew
æĭ ħ
Ġåħ ¶
çĶ ļ
Ġæ °
è¿Ļ æĺ¯
å ³
1 5
Ġè ĥ
ç ¯
ä¸ĭ æĿ¥
çľĭ åĪ°
æĶ¿ åºľ
æĮ ī
æ ½
Ġé ĺ
in k
åľ £
ĠW h
æģ ©
çĸ Ĺ
æĦŁ è§ī
æĸ¹ éĿ¢
èĩª çĦ¶
¿ Ģ
å¸Ĥ åľº
åħ¶ å®ŀ
Ġåľ °
Ġf l
ĠA l
éĶ Ģ
Ġl ike
re d
æĭ ¬
æ ¦Ĥ
Ġpe ople
Ġtw o
oc k
é¢ Ħ
éĴ Ł
éĿ Ļ
Ġè ½
ç» §
c ed
å¥½ çļĦ
éĵ ¶
åĳ µ
form ation
å½± åĵį
ĠæĹ ł
åī ¯
çº ³
çŃ ĸ
or n
éĻ Ĩ
ä½ Ļ
åı ¦
åħ ħ
æ¬ ¾
Ġin d
æ´ ¾
ĠW e
Ġth an
i ew
Ġåķ ¥
Ġè® ©
Ġé «ĺ
è¿ ½
ç ĳ
åŃ¦ æł¡
å¦Ĥ ä½ķ
b s
è® Ń
) ãĢĤ
ä¸Ģ ä¸ĭ
çĪ ¶
± ¼
Ġ $
ĠçĶ µ
c om
å² ģ
le ct
Ġå Ŀ
éĽ ¨
æł ¸
Ġç ĥ
æŀ Ĳ
ä¸į è¦ģ
he n
åħ³ ç³»
å¯¹ äºİ
ur ing
Ġè¿Ļ æł·
it ies
ç»Ħ ç»ĩ
èĳ Ĺ
âĢĿ ,
mer ic
å¤§ å®¶
Ġspe c
ĠçĶ ¨
çĽ ĺ
Ġpro du
æĴ Ń
Ġæ µ
åı ³
é¡ ¿
Ġè ´
Ġ ä¸Ń
Ġun der
Ġm ay
Ġé ķ
åº ·
ch ool
æĸ¹ æ³ķ
ic s
åĵĪåĵĪ åĵĪ
éĢī æĭ©
w ard
æĢ ª
åıª æľī
ĠåĲ İ
Ġin ter
Ġä¸į è¦ģ
Ġs erv
Ġç ©
éĻ į
Ġb l
Ġç §
ĠéĤ£ ä¹Ī
Ġçİ ©
Ġ ra
æ£ Ģ
Ġg et
æĪĸ èĢħ
ol og
çİ ī
ç¥ ¨
åĲ ¸
ä¹ ¡
è´ ¢
å· ¦
è Ĩ
æĭ į
Ġå® Į
è¿ °
ran s
Ġä½ł ä»¬
æľĢ åĲİ
Ġb et
Ġwh at
å° Ħ
u al
Ġs he
åį ł
æ¸ ¯
çķ ¥
æĪĳ çļĦ
Ġç¾ İ
Ġa ct
åľ° æĸ¹
Ġæ ł
ä¼ ĳ
æİ ī
. "
j ect
h ip
æıĲ ä¾Ľ
er t
çĽ ĳ
g et
åĿ Ĳ
ĠæĽ ´
ar ch
ä¹ ±
if e
æ¯ Ľ
Ġc ol
åĲ ¦
Ġm ost
Ġ ä½Ĩæĺ¯
åģ ľ
) ;
ĠåĬ ł
9 4
Ġå ±
Ġ ä¸¤
çĽ Ĭ
æķ° æį®
Ġp r
ot h
å· ¨
åħ į
æĢ ¥
èī ¯
ä¸ ´
æĿ ¾
en er
åĮħ æĭ¬
æľ ĭåıĭ
Ġin formation
é ½
Ġcon s
Ġèµ °
çŁ Ń
i ed
æ¯Ķ è¾ĥ
æ ¿Ģ
å¥ Ĺ
ä¸Ģ çĽ´
Ġp o
ĠæĻ ļ
æĻ º
Ġa fter
Ġt r
Ġå· ²
or k
¯ å®ļ
Ġèµ ·
åĪ ĺ
é ±¼
è®¤ ä¸º
ç« ¯
èı ľ
æĭ Ľ
Ġl oc
ä½ Ľ
Ð µ
Ġth rough
é¡¹ çĽ®
u g
Ġre g
å¯ Ł
ĠA meric
äº Ĵ
æĿ¥ çļĦ
ç§ Ģ
Ġn o
ç £
éĢ Ģ
1 6
åĸ Ħ
Ġè Ħ
è´ §
ĠL e
Ġæ ³
åł Ĥ
çł ģ
9 5
ĠP ro
Ġé »
ä¸Ń å¿ĥ
Ġyear s
p s
ç´ ¢
i vers
Ġä¸į è¿ĩ
Ġon ly
å¥ ¥
Ġe m
è ĵ
Ġæ ´
ul ar
é¢ ĳ
Ġat t
æĸ¹ å¼ı
il y
Ġå¥ ³
ä½ł çļĦ
æĦ ¿
Ġç ®
éĽ ª
f ul
t t
Ġæī ĭ
éĤ£ ä¸ª
èĹ ı
ã ģ
åŁ ¹
å® «
ĠåĲ ¬
èĦ ļ
çĶļ èĩ³
æĺ ¥
ri b
æķ £
at ing
Ġus e
åĩº äºĨ
Ġhe l
å² Ľ
è´ µ
Ġb u
ä¹ĭ éĹ´
m s
Ġæľ ¬
Ġs y
åĸ ľ
ĠæĶ ¾
åıĳ çĶŁ
è¾ ĵ
ç¬¬ äºĮ
ĠçĤ ¹
is e
Ð ¸
å®Į åħ¨
å·¥ ç¨ĭ
äºº æ°ĳ
ç§ĳ åŃ¦
ers on
ment s
æ´ ²
et h
1 8
Ġne ed
æ¹ ĸ
èĥ ľ
Ġéķ ¿
g an
Ġæ¯ ı
¬ ¼
Ġp ub
åŃ £
ic t
ç§ »
Ġæ į
åĽ½ éĻħ
Ã ©
åħ ¸
åĲ «
å® Ī
Ġé £
æİ Į
åı¯ æĺ¯
...... âĢĿ
æļ Ĺ
Ġwhe re
ä»» ä½ķ
Ġä¸į ä¼ļ
æ¯ Ĵ
æ´» åĬ¨
Ġj ust
éľ ²
å¦ Ī
æĬ Ĺ
éģ ĩ
ä¸ ½
Ġin c
é¦ Ĩ
Ń ¦
ĠæĦŁ è§ī
Ġsu ch
ä¸Ģ èµ·
çĶ ²
Ġç Ħ
ĠS h
Ġre l
ro w
Ġ |
e ver
æł ĳ
çļĦ å¤§
Ġ Â·
n ing
i x
ä¸Ģ æ¬¡
r ing
åį Ī
åģ ¥
è¡ ¥
ç¡ Ģ
åĨħ å®¹
å¾ ģ
id ent
Ġp h
é ¹
çī Ľ
èį ī
èŀ į
è¦ģ æ±Ĥ
æĭ ¥
çŃ ĳ
Ġm od
Ġ ãĢģ
çİ¯ å¢ĥ
ç» ľ
è½ ½
Ġçľĭ åĪ°
çĸ ĳ
éĿ ł
f ore
Ġw ell
t on
åĪ Ģ
é¡ º
éĹ »
åİĨ åı²
éĤ£ äºĽ
1 4
ĠF or
Ġre m
èİ· å¾Ĺ
he s
å¤ ı
u res
æī ¹
è ĸ
Ġst ud
åĸ ľæ¬¢
en ces
Ġ [
Ġsa id
Ġd if
çĶŁ äº§
åĬŁ èĥ½
ĠåĽŀ æĿ¥
ou se
æ² Ļ
è¿Ľ åħ¥
åº ı
Ġm ake
Ġ ä»Ĭå¤©
è½ ¯
çī Ļ
Ġre t
å®ī åħ¨
å»º è®¾
å¦Ĥ æŃ¤
a z
ow er
Ġä¸Ģ èµ·
è· ĳ
è· Ŀ
al e
Ġè ¾
ĠçĶ ·
æ¢ ¦
é¡ ¾
çľĭ çĿĢ
åĶ Ĳ
æ² ī
æ¬ §
ç© ¿
Ġè Ĭ
d ay
éĩ Ĭ
Ġå¹ ´
æİ§ åĪ¶
é¡ ¶
ä»£ è¡¨
åŃĺ åľ¨
Ġsu pp
Ġç¬¬ äºĮ
Ġå¸ ¦
t ing
Ġå·² ç»ı
åĪĨ æŀĲ
Ġ &
æī ĺ
Ġim p
é¢ Ŀ
æĿ Ĥ
1 3
os s
æĿ ¨
ä½ľ åĵģ
" ,
çĹ Ľ
å¼ ¹
å° ģ
åľ° åĮº
å¿ħ é¡»
Ġin v
æĵ į
æĹ¥ æľ¬
a h
ĠæīĢ ä»¥
Ġ ä½Ĩ
Ġä¸Ģ ä¸ĭ
è´ Ń
an y
Ġè ĭ
âĢĿ ãĢĤ
ç¤ ¼
y s
çĤ ¼
ar s
at ive
ä» ĺ
ĠH ow
éª ¨
æĦı æĢĿ
Ġas s
å© ļ
æŁ Ĳ
å ´
åĳ ¼
å® £
el f
2 5
ĠçĦ ¶
Ġthe se
åŁº ç¡Ģ
Ġse c
Ġ /
Ġ ãĢĬ
Ġs et
Ġåº Ķ
è ¸
è Ń¦
Ġè º
åį ĸ
Ġb ack
æ· ¡
Ġ ä»İ
o h
Ġè¿ĺ æľī
in s
as h
çĶ °
ĠE x
æŀ ¶
è´ ¥
a u
è¿ĩ ç¨ĭ
Ġä¸į èĥ½
åĩ ı
it s
è¾ ĳ
ĠåĽ ł
Ġprov ide
éĺ ¶
Ġman y
çĶµ å½±
èĻ ļ
ç ĩ
ç¬ Ķ
åĽł æŃ¤
åĿ ļ
å® ģ
Ġè ģ
Ġf il
æĹł æ³ķ
ow s
ĠæŃ £
Ġus ed
Ġhel p
il ity
ä¸Ģ çĤ¹
çĨ Ł
ä¼ °
Ġf am
æ· ·
æĿ¥ è¯´
Ġ äºĮ
Ġç ¥
Ġåħ ³
, "
æĤ ¨
Ġp ol
Ġè° ģ
Ġéļ ¾
æĪĲ äºĨ
ç» į
Ġar t
å¹´ çļĦ
è¯ Ĺ
i er
Ġf in
st em
æī §
ĠY ou
è¿Ĳ åĬ¨
Ġæ ±
a ir
Ġin st
ä½ľ çĶ¨
c ess
å¿ Ļ
æİ Ī
T he
åĸ Ŀ
ak ing
åĨ °
ĠåĲ Į
åĶ ±
a use
i el
Ġm ed
Ð ½
01 0
æĮ ¥
Ġf un
ä¸ °
Ġå® ¶
vel op
Ġç Ļ
1 7
Ġé ģ
Ġ :
èĽ ĭ
æĶ¯ æĮģ
è ľ
e y
è´Ł è´£
å° Ĭ
ä¸į çŁ¥éģĵ
èĪ ª
åĲĦ ç§į
çĿ ¡
i ence
è¿ ·
é ¬¼
Ġa c
ĠA d
ä¼ Ļ
å½ Ĵ
å³ °
= =
åĩº çīĪ
Ġæĸ °
ç®Ģ ä»ĭ
ä¸į åĪ°
¤ Ĳ
ä¸ ¹
å½ ©
ĠæĪ Ĳ
Ġ ent
8 0
ĠO n
åŃ¦ éĻ¢
æķ ĳ
åĬ ³
å® ¡
c y
åĶ ®
Ġp res
pe ct
Ġc ould
Ġs m
éĿ ©
åħ· æľī
Ġé Ĵ
ãĢģ ãĢĬ
ĠC l
æģ Ĳ
t y
t le
w ay
Ġh im
ç§ ĺ
çĥ Ī
æ¤ į
Ġm em
s s
å½ĵ çĦ¶
ç»ĵ æŀĦ
éĶ ®
Ġthe n
ib le
a x
éĨ Ĵ
å¡ Ķ
at a
am es
ic es
ou p
4 0
Ñ Ģ
9 0
äºº åĳĺ
ç»ĵ æŀľ
ãĢ Ĳ
ire ct
ĠS c
åĺ ¿
t en
äº «
v en
è¡ Ĺ
in es
Ġä¸Ģ æł·
ä¸į å¾Ĺ
æĭ¥ æľī
ul l
çĪ ·
9 3
iz e
Ġn um
çĶ± äºİ
ç² ī
Ġç¬¬ ä¸Ģ
ä¹ĭ ä¸Ģ
Ġ *
å¸Į æľĽ
èĮ ¶
æĢ Ģ
Ġç ĭ
å½ĵ æĹ¶
åĺ ´
è° Ī
éŃ Ĥ
éĺ ´
Ġm ade
å ª
Ġå¦Ĥ æŀľ
å¦ ¹
Ġs er
ãĢ ĳ
èĪ ¹
Ġéĩ į
çĻ »
ĠB e
æ¯ «
çĪ Ĩ
éĩ İ
âĢ Ļ
ç¯ ĩ
è¿ĩ åİ»
Ġc re
åĩł ä¸ª
è¿ĩ æĿ¥
Ġex per
ĠéĤ£ ä¸ª
i ent
ç ĺ
Ġæ ¬
æķ Į
Ġe very
ä¸Ģ ç§į
éľ ĩ
ã ĥ
as on
ä¿Ŀ æĬ¤
åĩ ¡
åİ Ĥ
Ġh igh
ç¼ º
ra ct
Ġéĩ Į
ç¿ »
Ġp op
Ġm in
èº« ä½ĵ
åĩĨ å¤ĩ
e k
Ġt rans
æĹ ħ
c ial
å¼Ģ åıĳ
Ġç» ĵ
åŁİ å¸Ĥ
ç¨ ³
ç¥ ĸ
æ° ¸
ä¹ĭ ä¸Ń
çŁ¥ è¯Ĩ
ĠAn d
Ġc all
Ġ end
an ge
æłĩ åĩĨ
æĬķ èµĦ
ar g
èµ µ
Ġ äºĭ
éŁ³ ä¹Ĳ
Ġfor m
Ġçī ¹
i et
è¶ £
éº »
éĿ¢ ç§¯
å¤Ħ çĲĨ
æĳ ĩ
Ġç Į
Ġé ¢
in ce
æŀ ª
èİ «
åº Ĭ
éķ ľ
Ġ1 2
6 0
åĬĽ éĩı
ä¼ Ĭ
ĠåºĶ è¯¥
ĠåĪ Ĩ
æ¸ Ĳ
æľ «
æĶ¶ åħ¥
in ess
Ġ2 0
æģ ¶
ĠAmeric an
æİ ¢
ivers ity
åº Ń
p r
èĪ ŀ
oll ow
åįķ ä½į
Ġå Ł
å»º çŃĳ
èĻ ĳ
is hed
ç§ ¦
æ´ Ľ
ĠçĽ ¸
Ġä¸Ģ çĽ´
Ġåĩº æĿ¥
Ġåı «
u es
ç¼ ĵ
Ġl ook
we en
Ġ Z
Ġæ Ĳ
Ġå Ķ
Ġo wn
æł¹ æį®
Ġsu b
u ch
Ñ Ĥ
t ed
Ġç Ĳ
ist s
è½ ®
e x
çĽ® åīį
èīº æľ¯
Ġg u
gr am
éĢ ı
Ġkn ow
Ġ <
Ġé Ľ
å° ļ
p en
é½ Ĳ
Ġag ain
å· Ŀ
çĶµ è§Ĩ
åħ¨ åĽ½
æĹ §
åĿ ı
åľ Ī
åĲ Ľ
is ion
èį £
ç¡ ¬
ot her
éĻ Ħ
åħ Ħ
Ġé ľ
çĽ ĸ
us ic
åº Ĩ
ĠåĽł ä¸º
æĹ ¢
æ£ ®
Ġdif fer
ä¸į æĸŃ
éļ Ĳ
ction s
Ġèº «
Ġæ ģ
ç»§ ç»Ń
è®¡ åĪĴ
åº ĵ
ä»¥ åĲİ
çĿ Ľ
at ure
Ġåĸ Ŀ
c o
Ġå· ¥
åĮĹ äº¬
Ġ Q
æĪĲ åĬŁ
é² ľ
o ot
æ¹ ¾
åĽ º
åıª è¦ģ
Ġc he
åĪ ¤
æķĻ åŃ¦
çģ Ń
éħ ¸
Ñ ģ
ç¨ İ
çī¹ åĪ«
Ġe ar
Ġåī į
åıª èĥ½
ĠæĢ »
Ġa v
ä¼ ¦
åŃ Ļ
æ´ ĭ
åºĶ çĶ¨
éŁ ©
å¨ ĺ
ä½ ³
Ġp erson
Ġå¥½ çľĭ
Ġå Ĺ¯
Ġ ed
çĽ¸ åħ³
éĿ¢ çļĦ
æł¹ æľ¬
ª åĬĽ
Ġs ur
ä»ĭ ç»į
r al
éĽ Ħ
å® ĩ
Ġè¯ ·
ä» į
ĠæĹ¶ éĹ´
Ġde f
åį ·
Ġé ħ
çĹ ĩ
ra ph
èģ ļ
Ġde c
ç©º éĹ´
å¹ ķ
1 9
è´ Ŀ
æľī äºº
åĲ ī
åĢ Ł
æĬ ±
è¿Ļæł· çļĦ
æļ ´
al th
Ġbe fore
Ġw ant
Ġbe ing
Ġf ind
åĪ º
Ġ {
é» ĺ
Ġc ount
èĥ ¡
01 1
Ġl ong
å¼ ĥ
Ġæ »
çº ¸
åĵ ¦
æı ¡
ä¸ĭ çļĦ
ĠçĦ¶ åĲİ
Ġbet ween
le ase
æį Ł
v ed
at her
Ġv ar
åľ Ĩ
ĠB l
è¡Į ä¸ļ
Ġc ent
ç½ĳ ç»ľ
äº§ çĶŁ
æĳ Ħ
å¼ ±
èµĦ æºĲ
Ġsh ould
èĤ ¥
æķ´ ä¸ª
Ġd uring
Ġåı¯ èĥ½
Ġæ ¼
çº ¯
Ġd et
æĿ Ł
æŁ ĵ
Ġç ħ
æ ¾
åį ±
ä¾ §
Ġç «
ur y
l ine
Ġæ ŀ
ç» ¿
ver n
æĺ¯ åľ¨
ĠåĨ ħ
b le
2 4
00 8
n er
èĴ Ļ
åħ¬ éĩĮ
g g
1 00
çĭ Ĥ
ion al
an k
Ġd on
el s
éĴ Ī
å «
ĠC ol
Ġåħ ¬
çªģ çĦ¶
Ġè§ ģ
ç´ ¯
Ġdes ign
ç®Ģ åįķ
Ġå Ģ
Ġn ow
æ¶ ²
Ġæ ·
Ġå §
00 9
è¿ İ
Ġa ut
---- ----
Ġst art
8 7
Ġè® ¤
u c
Ġe ff
æĺ¯ ä¸Ģä¸ª
æ´ Ĺ
ter s
å¾Ĺ åĪ°
ce pt
å§Ķ åĳĺ
éģ į
Ð¾ Ð
ä½į äºİ
äº ¦
Ġde velop
Ġè Ļ
Ġb us
Ġç ²
ĠIn d
æľº æŀĦ
ã Ĥ
Ġte am
Ġb el
å® ľ
ĠI s
ou th
or th
å¡ ŀ
2 2
ch n
Ġw ay
ĠI f
èĢģ å¸Ī
Ġc ur
Ġse e
ä¸į å¥½
Ġç ½
å®¹ æĺĵ
ç¬ ¦
Ġ }
å¤ļ çļĦ
èĢ ³
ä¼ ¯
åĨ ł
iv es
çĲĨ è®º
Ġé ¦
Ġwor ld
v iew
Ġç© ¿
åĨ³ å®ļ
ĠP l
åķ ¥
iel d
èĤ ¯å®ļ
é ¤Ĳ
ĠæĮ º
er n
Ġm on
åħ ½
æ ĩĤ
a ve
ĠS p
Ġin s
ag es
èĦ ±
ãĢĭ ãĢģãĢĬ
Ġé Ķ
ç ¦ģ
æĥ³ è¦ģ
Ġå® ī
c on
Ġé ª
åıĤ åĬł
Ġd own
äº ¡
çĽ Ł
m in
Ġev en
Ġç ´
èµ ¶
Ġle ad
l ed
Ġç ģ
Ġåİ Ł
è´¨ éĩı
å¹ ¸
Ġc ar
ĠåĽ Ľ
Ġwh ile
at ch
c ent
ç§ĳ æĬĢ
a j
éĹ ª
Ġè¶ ħ
åĺ Ľ
Ġé ¡
ĠèĢ ĥ
Ġ ä¸º
Ġä¸į å¥½
Ġd id
od e
Ġinclud ing
å Ĺ
äº ¿
æ´ ŀ
åĽ½ åĨħ
æĿ ¯
ĠG r
å£° éŁ³
Ġæĭ į
çĥ Ł
en e
Ġå¹ ²
å®ŀ åĬĽ
æ³¨ æĦı
ar m
è¯ ¯
æľī ä¸Ģ
ç§ ĭ
ä½į ç½®
et s
æıĲ é«ĺ
ãĢĭ ,
æĥ³ åĪ°
æ° ı
Ġp ass
Ġè° ¢
) ãĢģ
Ġ â
Ġ ä»ĸä»¬
Ġè® °
è Ķ
Ġåıª æĺ¯
Ġf ollow
è® ¨
Ġåħ ¨
01 2
ä¸» ä¹ī
Ġdo es
å» ¶
00 7
Ġl ife
çļĦ å°ı
çĭ Ĺ
Ġs im
åİŁ åĽł
Ġre qu
ç²¾ ç¥ŀ
ä¸į äºĨ
è° ĵ
Ġ very
00 6
çĿ £
è¯ º
ĠEn g
id er
olog y
ç´ «
çĶµ è¯Ŀ
åĲ ¯
ä¸ ģ
ĠUn ited
ĠThe re
Ġb est
ut ion
è§ ¦
Ġcl ass
Ġæ ı
éģ ¿
Ġgo od
è· ³
an n
æ¡ ¥
é² ģ
Ġå¤ ĸ
Ġ est
è®¸ å¤ļ
Ġf ound
éĢ Ĳ
èĵ Ŀ
éģ Ĺ
ri v
è§£ åĨ³
åĽ °
çĽ® æłĩ
Ġsy stem
Ġçľ ¼
éĻ¤ äºĨ
ĠP h
ĠåĪ ļ
Ġpub lic
2 3
Ġæĺ¯ ä¸įæĺ¯
Ġåį ģ
Ġr ight
Ġim port
æĥ ľ
å± Ĭ
ä»· åĢ¼
Ġs ign
o x
Ġæľ º
u ally
Ġg ener
å®Į æĪĲ
Ġb r
ç³» åĪĹ
åĪĨ éĴŁ
ä¹Ł æľī
åİ ħ
le y
éĽ ħ
ĠC on
æľī åħ³
Ġre ad
ren t
Ġg reat
çĥ ¦
Ġåĳ ¨
å¯ Ĵ
Ġb ook
Ġé» ĳ
Ġæľ Ī
Ġæ ĩĤ
Ġex t
åĲĪ ä½ľ
è®¡ ç®Ĺ
im es
å¸ Ń
ĠS he
æ Ĥ£
l ish
å¤ ®
åİ ļ
Ġ ä¸ľè¥¿
us s
éĢŁ åº¦
ä¼ ´
ĠUn iversity
Ġd ist
Ġå® ŀ
ç« ¥
Ġ1 8
æµ ª
Ġcomp le
çĥ §
æľĢ ç»Ī
Ġre p
èį Ĳ
Ġs chool
Ġcomm un
/ /
Ġe ach
æħ ķ
Ġç¬¬ ä¸ī
æĹ ģ
æĿ¥ è¶Ĭ
ä¸į åı¯
å¥ ¶
Ġv is
b ers
äº§ ä¸ļ
Ġåı į
å®ŀ çİ°
ç½ ª
åº Ħ
æľº ä¼ļ
Ġex p
æĢ Ĵ
ut e
æĸ¹ åĲĳ
Ġt y
ur al
å¯ »
Ġpro gram
æ¼ «
å¹¶ ä¸į
è¡¨ çİ°
æľī éĻĲ
èĻ İ
Ġw rit
Ġå ¦
iv ing
å· §
it al
Ġth ree
i ver
å½¢ æĪĲ
èĪ į
Ġ1 1
èĦ ī
å±ŀ äºİ
çĮ ®
å®ŀ éĻħ
ç±» åŀĭ
çģ ¯
çľŁ æŃ£
Ġèµ· æĿ¥
ç«Ł çĦ¶
æī ¬
Ġsupp ort
Ġch ar
è¯ ¸
åĩº çļĦ
Ġth ose
Ġç» ı
å¿ į
in a
2 1
å»º ç«ĭ
oh n
ĠéĹ® é¢ĺ
ç» ©
å¹¶ ä¸Ķ
Ġm ark
re ad
Ġå¼Ģ å¿ĥ
ä¼¼ ä¹İ
ire d
v ent
Ġæľī çĤ¹
and s
å¿ĥ ä¸Ń
èĢĮ æĺ¯
è®¾ å¤ĩ
èµ ŀ
Ġt er
ç¼ ĺ
Ġc ap
ä¸Ĭ æµ·
is m
ant s
å¤ļ å°ĳ
ak es
ĠçĽ ´
Ġprov id
Ġ i
en g
èĲ §
Ġ1 6
éĩĮ çļĦ
Ġde p
Ġåħ Ī
Ġb oth
Ġdiffer ent
é¢ ľ
æĢ§ çļĦ
èº« ä¸Ĭ
Ġsh ow
iz ed
æ²» çĸĹ
åĲ ´
å°± ä¼ļ
éĥ¨ éĹ¨
i qu
ĠM ar
Ġte xt
èĲ ¨
ç» ¼
Ġl ist
åĩº åİ»
èĭ± è¯Ń
Ġbec ause
ç« ŀ
æķĪ æŀľ
æĶ¿ æ²»
åĭ Ĵ
è·Ŀ ç¦»
éļ ľ
ä»· æł¼
00 5
Ġch ild
è¾ Ī
ist ory
è¿ ª
ä¹ Į
t il
ī å®³
æĬ ĵ
æĿ °
åĪ© çĶ¨
Ġs k
èģ Ĭ
ĠæĦ ı
ĠçĻ ½
ç¬¬ ä¸ī
m ber
Ġn ame
n ess
æ¨¡ å¼ı
Ġ1 5
è¡¨ ç¤º
æ¯Ķ å¦Ĥ
æ± ł
å¦ ĸ
Ġè¡ ¨
ç³ ĸ
å® ½
ang u
Ġc are
æ® ¿
Ġ ä¸
åıĺ åĮĸ
æĿ¡ ä»¶
al k
ĠThe y
o ad
è¡Į ä¸º
å¯¹ æĸ¹
çĶ ³
çĤ İ
ro ss
é¦Ļ æ¸¯
Ġ #
Ġå¥½ å¥½
è± Ĩ
r on
ur ch
ç¦» å¼Ģ
åħ¨ éĥ¨
èĪ °
é¥ °
äºĨ è§£
äºº åı£
ä» ª
fer ences
é¸ ¡
Ġd ay
ĠåĪ« äºº
Ġéĺ ¿
åģ ı
Ġm uch
å¢ŀ åĬł
æĸ° çļĦ
ä¼ł ç»Ł
æĻ® éĢļ
= "
åĩ Ģ
æķħ äºĭ
è° ·
* *
ä¼° è®¡
Ġä¸Ģ å®ļ
ĠT e
Ġæľ ĭåıĭ
Ġv al
åĩł ä¹İ
è°¢ è°¢
æĿ¥ äºĨ
ä»ĸä»¬ çļĦ
er y
éĩĮ éĿ¢
ä¸į å¤ļ
Ġh ome
å°ı æĹ¶
åŃĲ çļĦ
Ġå¾Ī å¤ļ
å° ¤
ç§ ģ
æľī çļĦ
é ŀ
Ġt ake
m m
Ġd irect
æĬ ĺ
æ± ĩ
Ġæĺİ å¤©
Ġl ast
èİ ±
ä¸ĸ çºª
ĠCom m
ord ing
éĢ Ķ
å¸ ħ
2 7
çİ° ä»£
è¾¾ åĪ°
çİ Ħ
Ġæ Ĵ
çĽ Ľ
éĢ ĥ
Ġnum ber
å® ĭ
æ¸ħ æ¥ļ
ä¸ĭ åİ»
çļĦ äºĭæĥħ
Ġè¿Ļ ç§į
Ġhe re
æĿĲ æĸĻ
Ġä¸Ģ çĤ¹
2 6
ä½ľ èĢħ
éª ĳ
ical ly
i am
Ġm ain
æĹ¶ ä»£
æ³ °
Ġus ing
Ġå¤ ´
2 8
Ġé ¥
Ġar ound
al ity
äºĮ åįģ
Ġè Ī
Ġret urn
ĠB ut
ĠA ll
Ġæ ĳ
t he
en n
å¸® åĬ©
01 8
Ġs l
èī² çļĦ
åª Ĵ
å°± ç®Ĺ
éĩĩ çĶ¨
d e
Ġ äºĶ
01 9
æ¯Ķ èµĽ
ä»¥ ä¸Ĭ
çĶ¨ æĪ·
' m
éĥ½ æľī
å¸ ģ
! !
Ġå¼Ģ å§ĭ
è¡Į æĶ¿
åĵ İ
æīį èĥ½
Ġwe bs
Ġpl ace
åĵģ çīĮ
éĶ ħ
é¢Ĩ å¯¼
éĥ½ ä¸į
æ¯ķ ä¸ļ
åĬŀ æ³ķ
éĴ ¢
ĠHow ever
s on
åī Ĥ
æ°´ å¹³
Ġçĥ Ń
è¾ °
b e
äº ©
æĭ ľ
æ¢ ħ
äºİ æĺ¯
åĩ Į
ä¸į ä½ı
ç¢ İ
ç»Ŀ å¯¹
Ġæ° ´
Ġbus iness
in al
ä»» åĬ¡
æĶ» åĩ»
ç Ĵ
çĤ ¸
t o
è§Ħ å®ļ
Ġåı ĺ
Ġr un
Ġacc ess
Ġs ame
æĵį ä½ľ
og raph
Ġåħ¶ å®ŀ
Ġå ĥı
å¥¹ çļĦ
r ist
I n
çľ ī
æĽ ¼
çľ¼ çĿĽ
å¯¼ èĩ´
å¹³ æĸ¹
çº ·
èĮĥ åĽ´
çĸ ¼
ĠéĴ ±
å¿ Ĩ
i um
Ġç ¡
Ġè £
å± ĭ
å§ ĵ
æ ¦
åıĹ åĪ°
¨ å¤©
ĠæŃ »
Ġper form
Ġæ¸ ¸
ĠW or
æĮ ĳ
Ġ ä¸ºä»Ģä¹Ī
å·¥ ä¸ļ
ç¾ ½
Ġçľĭ çľĭ
åĪ¶ ä½ľ
00 4
Ġ âĢĶ
ĠåĬł æ²¹
ä» ¿
çŃ ¾
åĶ ¯
æ± ½
å° ¾
è¿ ¹
Ġæ ¢
å¯ ¸
Ġo pen
f l
Ġæį ¢
Ġd el
ä¸į å°ĳ
Ġl a
Ġå¥½ åĲĥ
ĠJ ohn
Ġæ Ĥ
d s
em ber
Ġ ä¸»
Ġè°¢ è°¢
æĪĲ ç«ĭ
äºº ç±»
ĠC ount
çĤ¹ å¤´
Ġè¡ Į
Ġb ro
Ġprodu ct
b all
æģ ĭ
å¾ Ħ
ä¸Ģ æŃ¥
æĺİ çĻ½
è ª
Ġg l
çĶµ åŃĲ
åĳ Ģ
è¯Ń è¨Ģ
éĽ ¶
Ġsec ond
Ġå® ĥ
è£ Ĥ
Ġfam ily
re en
ĠO r
Ġm usic
éĵ¶ è¡Į
are d
ç¼ ©
Ġto p
Ġare a
Ġs om
Ġå·¥ ä½ľ
Ġc our
Ġav ail
æľ ±
å·¦ åı³
Ġun til
å¦ ĩ
Ġé ©
al es
ç»ı éªĮ
æı ı
0 20
ä»¥ ä¸º
ä¼ĳ æģ¯
äº Ī
çĵ ¦
Ġæ ļ
åįģ åĪĨ
å¢ Ļ
åĲİ æĿ¥
Ġæİ ¥
l ished
ä¼ĺ ç§Ģ
ĠC ar
ĠéĿ ¢
Ġæīĭ æľº
ĠåĽ ½
Ġè¯ Ŀ
ä¿ ©
Ġæĭ ¿
æĹ¶ æľŁ
é¥ ®
Ġåĵª éĩĮ
ä¿ ĥ
Ġå¹ ³
æĶ¿ çŃĸ
e b
çľĭ çľĭ
Ġe le
r is
Ġor gan
h or
æĽ´ åĬł
åį´ æĺ¯
çŀ ¬
ä¸Ń å¤®
Ġéļ ı
Ġs oc
ĠæĻļ ä¸Ĭ
Ġl it
âĢĶâĢĶ âĢĶâĢĶ
ä¸ī ä¸ª
ĠåĽŀ å®¶
Ġcont in
çĸ ¾
éĹ Ń
æ¨ ª
ä¸Ģ å£°
a pp
çı ł
è± ª
åŃ Ķ
Ġçħ §
ä¸ļ åĬ¡
Ġg ame
æĲ ŀ
ĠM an
w w
Ġo per
o ber
å¿ ĺ
éĽĨ åĽ¢
æī ©
æĺİ æĺ¾
è ¹
in ed
çĲĨ è§£
Ġä»¥ åĲİ
çĮ Ľ
å¹³ åı°
' re
Ġpro f
åģ¥ åº·
ĠA t
çĬ ¯
è Ŀ
Ġst ill
ĠSt ates
åĨ Ĵ
E R
u ro
01 7
Ġ x
å½ »
å¿« ä¹Ĳ
Ġbu ild
ĠäºĨ æĪĳ
æ³ķ å¾ĭ
Ġ1 3
åĮ» éĻ¢
ĠåĴ ĭ
ri end
5 00
iv en
Ġm ov
Ġo b
Ġres ult
é¢ Ĺ
g y
cc ess
è´ ´
Ġpo int
Ġp ost
Ġsm all
å§ Ĩ
éĺ »
Ġä¸į éĶĻ
Ġ el
é¢Ĩ åŁŁ
ä¸į ä»ħ
ç® ±
å¸¦ çĿĢ
æĪĺ æĸĹ
Ġp ar
Ġre port
äº¤ éĢļ
è¯ ĳ
èĻ «
Ġèĥ ĸ
åĵĪåĵĪ åĵĪåĵĪ
å± ı
ç»ı è¿ĩ
è¯´ çļĦ
æĥ ¯
ä» ģ
Ġst r
æĺ¯ åĲ¦
Ġkn own
Ġåĳ Ĭ
ç»¼ åĲĪ
åĳĬ è¯ī
angu age
o ard
Ġk e
äºº ä»¬
ä¸į éĶĻ
00 1
ĠçĲ Ĩ
åĩ Ŀ
ä¿Ŀ æĮģ
Ġw ater
è§Ħ åĪĴ
ä¸ĩ åħĥ
åĵ ĩ
m e
æķĻ å¸Ī
è ļ
ul ation
Ġth ink
åĲİ çļĦ
èµĦ æĸĻ
çĬ¶ æĢģ
Ġcomp any
at or
Ġç ¼
Ġs ing
å¤§ éĩı
Ġåį ķ
äºĨ ä¸Ģä¸ª
èħ ¿
ä¸į çĶ¨
åıĤ ä¸İ
at ely
åıį åºĶ
ĠS chool
æ¯ķ ç«Ł
od y
å¥ ı
çĽ¸ ä¿¡
è¯ ¢
å®¢ æĪ·
èģĮ ä¸ļ
is ter
å»º è®®
æ± ¤
è¯ ļ
ru ct
èĥ ŀ
01 6
ä¼ ¸
é¡ µ
Ġspec ific
Ġpart ic
æīĭ æľº
æľī æķĪ
çĤ ®
p or
ĠM ay
a i
ĠC ent
un d
çĶŁ çī©
Ġæ Ł
Ġre st
æŃ¤ æĹ¶
ar n
ä¸į èµ·
7 0
æİ¥ åıĹ
åĢ į
ĠåĨ ·
Ġæĸ ¹
åĨ Į
Ġapp ro
è® ¿
æĺ¯ ä¸įæĺ¯
æ® ĭ
Ġå· ®
æĳ ¸
Ġres p
00 3
æ£ Ĵ
å¾ Ĳ
Ġs ol
ĠF ran
æľī çĤ¹
åĩºçīĪ ç¤¾
ä¸¥ éĩį
Ġ1 4
ĠéĢ ģ
Ġ ãĢĲ
éļ Ĩ
b um
Ġ3 0
éĶ ĭ
Ġcon st
ç»Ī äºİ
è¶ħ è¿ĩ
Ġæĥ ħ
å¥½ åĥı
r id
éĺ ħ
æł· çļĦ
åħĪ çĶŁ
Ġte chn
Ġpro cess
æĳ Ĩ
æ³ ½
Ġavail able
çĮ «
å®ŀ éªĮ
åĺ »
å¥½ äºĨ
åĪ ·
æĭ ³
Ġç ĺ
èĤ ¤
Ġh ouse
ĠU S
le t
in ks
åľ¨ è¿Ļ
Ġç Ĺ
ĠåĨ Ļ
Ġ X
at s
å¿ĥ çĲĨ
k e
c he
éº ¦
Ð »
èĩ £
l ing
r am
Ġå¸ Į
è¢ ĭ
çľŁ æĺ¯
vern ment
Ġfil m
èħ ¾
ĠçļĦ è¯Ŀ
ä¿ Ħ
ater ial
åĪ¶ åº¦
w ays
èĭ± åĽ½
Ġæĸ ĩ
åı Ķ
Ġéľ Ģ
çĳ ŀ
Ġè¶ Ĭ
: //
Ġæ¸ ħ
ĠæľĢ è¿ĳ
è¡ ¡
ç»ı èĲ¥
iss ion
Ġçĭ Ĺ
æ¬ ²
åĽŀ æĿ¥
Ġè Ĳ
æĻ ¨
åĪ° åºķ
èĢħ çļĦ
æĺ¯ ä»Ģä¹Ī
v ing
åı° æ¹¾
Ġwebs ite
çļĦ ä¸Ģä¸ª
Ġo pt
åĳµ åĳµ
ĠC o
éĹ® éģĵ
åĬł åħ¥
å° º
ĠæĿ İ
) :
æĹ Ĺ
åįģ äºĮ
ot t
å§Ķåĳĺ ä¼ļ
Ġcon f
ust om
I N
Ġan n
éĩį çĤ¹
ĠåĮ Ĺ
çĶŁ åĳ½
æŃ£ åľ¨
Ġå¸ ®
Ġth ough
Ġä¸į æĥ³
ain s
æŃ£ å¸¸
Ġç ¤
Ġæ¯Ķ è¾ĥ
Ġæı Ĳ
å¾ ¡
Ġé Ł
ç¡® å®ŀ
åı¦ å¤ĸ
Ġç½ ĳ
Ġc ity
Ġre ce
Ġse ver
æĳ ©
çľĭ æĿ¥
æĹ ¦
a ut
Ġç ķ
un e
æĮ º
æķ ı
Ġw on
o int
äº¤ æĺĵ
æľŁ éĹ´
è¿Ļ æ¬¡
tern ational
ri ed
01 5
y n
éĥ½ ä¼ļ
g er
Ġf ew
åº Ł
äºº çī©
Ġè· ¯
è½¯ ä»¶
åħ³ äºİ
ĠèĬ ±
æıĲ åįĩ
åĿ ¦
ĠT o
² Į
Ġad v
Ġc le
åĤ ¨
æĭ Ķ
Ġex pl
± ä¹Ĳ
ä¸¤ äºº
om m
tern al
ĠG o
å¿ĥ éĩĮ
èĢĥ èĻĳ
Ġåĩ Ĩ
Ġä»¥ ä¸º
çļĦ æĥħåĨµ
Ġcur rent
Ġçĺ ¦
Ġo ld
Ġè¯ ¥
s h
Ġf our
åĨį æ¬¡
ĠR es
Ġen g
Ġd ata
ĠJ an
Ġç® Ģ
çļĦ åľ°æĸ¹
æĪĺ äºī
ä»¥ åīį
Ġof fer
åİ» äºĨ
S t
iv ed
å¹´ ä»£
å¹¶ æ²¡æľī
åĿ Ģ
èı ²
æĽ ¿
æ¡ £
ä½ĵ çļĦ
éļı çĿĢ
" .
ill ion
æ¢ ģ
ĠåŃ¦ æł¡
éĢł æĪĲ
Ġor ig
Ġe as
æĺ ł
Ġåıĳ çİ°
in ing
ä¸Ń åįİ
å¹´ è½»
ĠP r
b y
3 3
00 2
i or
iv id
éļ Ķ
èĥ ĸ
æľī ä»Ģä¹Ī
åĪĨ åĪ«
é¼ ĵ
çļĦ é«ĺ
Ġagain st
Ġå¥½ åĥı
æķ ¬
ĠWor ld
è¿ ħ
æĬ µ
é¸ Ł
ent ion
äºº å®¶
A T
æ® Ĭ
01 3
çĽ® çļĦ
æĹ ĭ
c er
oc i
Ġç ł
ĠG e
å° ¸
Ġst ate
ĠèĢĮ ä¸Ķ
ri pt
Ġp oss
âĢ ĺ
Ġå¸Į æľĽ
Ġè½ ¦
èµ ı
re t
æľĢ è¿ĳ
Ġh and
è¾ Ĩ
Ġa ge
Ġhe ad
Ġå¹ ¸
ä¸º ä¸»
ĠåĲ į
Ġ )
æŁ Ķ
åĬĽ çļĦ
åĩ Ń
è®Ń ç»ĥ
åģ ·
Ġinter est
e c
Ġå¼ ł
ĠæľĢ åĲİ
æĻ ¶
Ġis s
om en
Ġåį Ĭ
åĵª éĩĮ
ĠåĽŀ åİ»
ãĢĤ ãĢĤ
ĠRe ferences
ä¸° å¯Į
æĮī çħ§
æ³ ī
æĢĿ æĥ³
Ġè· ĳ
¹ ģ
ç¨ĭ åº¦
çĶ¨ äºİ
ç»ĵ åĲĪ
Ġdis c
Ġw in
åĬ ªåĬĽ
æĭ Ł
ĠN ational
.... ....
åĽŀ çŃĶ
çĮ ª
Ġrec ord
Ġs ince
è ķ
ĠéľĢ è¦ģ
r um
çģ °
ç± į
æ½ ľ
ĠCom p
æĦı ä¹ī
ç§° ä¸º
ĠA m
Ġçī¹ åĪ«
Ġç ¦
ä¹ ĥ
ĠF l
Ġä¸Ģ å¤©
Ġb ased
ä¹Ł æ²¡æľī
Ġp os
çļĦ äºĭ
ĠåĳĬ è¯ī
å¦ Ļ
3 5
Ġåı¯ çĪ±
s elf
åĩº ä¸Ģ
çļĦ æĹ¶éĹ´
å£ ģ
æĮĩ å¯¼
åĪ« äºº
å¹ »
ä¿ Ĺ
ä½ĵ ç³»
åĴ ±
ĠæĶ ¶
çŁ ¿
ert ain
Ġå° ĳ
æĿ ľ
Ġpro ject
Ġm ar
åħ ¼
Ġm aterial
4 5
Ġåı¯ æĺ¯
çŀ¬ éĹ´
å¤ º
ç»Ħ æĪĲ
01 4
ç£ ¨
Ġhe alth
äºĨ èµ·æĿ¥
Ġre f
Ġst at
è¶Ĭ æĿ¥è¶Ĭ
ĠS o
å° ĺ
Ġt ry
ä¹ ĺ
æľ Ĺ
Ġa ir
èı Į
ãĢĤ [
2 00
é¾ Ħ
Ð º
en se
Ġæ³ ¨
æĦı è¯Ĩ
åı ¹
ãĢĭ (
éľĢ æ±Ĥ
Ġse ason
Ġæ ¶
æ¶ ¦
iet y
å² ©
æľīéĻĲ åħ¬åı¸
Ġloc al
å½¢ å¼ı
çĭ ł
çļĦ éĹ®é¢ĺ
éģ Ń
è® ¢
Ġre al
Ġ è¿Ľ
Ġl ater
å¨ ľ
åħ³ éĶ®
è¯´ æĺİ
ĠåŁ º
æĬ ½
èĩª çĶ±
Ġl anguage
ri es
Ġre le
è¿ «
g in
åĨľ ä¸ļ
ĠWh at
8 8
ĠCount y
ĠçĿ¡ è§ī
Ġm et
å¾ Ĵ
Ġoff ic
çĽ¸ å½ĵ
çĦ¶ èĢĮ
å© Ĩ
¢ å¤į
Ġä¸Ģ æ¬¡
æĸĩ åŃ¦
å®ŀ æĸ½
ot e
ä¼ Ł
Ġmod el
èĥ ¸
a f
èĪ Ĵ
è¢ Ń
ä¾¿ æĺ¯
æķĻ æİĪ
æ¶Ī è´¹
v es
Ġå¤§ å®¶
are n
ä¿Ŀ è¯ģ
éĿ¢ åīį
ĠA ust
åĨ ¬
ä» Ķ
Ġè ħ
æľĢ é«ĺ
è¯¾ ç¨ĭ
å®ĥ ä»¬
Ġle g
Ġp rom
æī¾ åĪ°
çī¹ çĤ¹
Ġto wn
Ġ2 5
Ġser ies
Ġp at
æĿ¥ èĩª
Ġæ¯ ķ
æĶ¹ åıĺ
ĠY ork
è½ °
åĬ ±
èĢĥ è¯ķ
Ġ1 7
ĠåĿ Ĳ
åĺ ī
ĠçĽ ®
æļ ĸ
or m
å±ħ çĦ¶
m p
ĠèĦ ¸
æī İ
åĭ ĩ
æ³ķ åĽ½
æĺ¯ ä¸į
os ed
æı Ĵ
èª ī
æŃ£ å¼ı
æĪĳä»¬ çļĦ
op e
éļ¾ éģĵ
Â °
Ġre se
åķĨ ä¸ļ
ç¡® å®ļ
ro l
åĮº åŁŁ
éĻ ·
Ġ ä»Ĭ
ĠP ol
æī§ è¡Į
è´ ¸
Ġf act
å¼ Ħ
å° ĸ
çĶ¨ çļĦ
Ġ z
å¹ ¼
ition al
åĬ ²
è® ¯
è§£ éĩĬ
ĠW ar
ent ial
èī ¾
æ §
ä¸Ģ åĪĩ
ä¸Ĭ äºĨ
2 9
Ġp ower
ar ge
Ġåľ° æĸ¹
æĮ Ĥ
Ġal bum
ç» ª
çĲ ´
çĵ ľ
l ess
en cy
éĹ ²
ne y
Ġinclud e
æ» ĳ
Ġmark et
è¯´ è¯Ŀ
èĨ ľ
éĺ¶ æ®µ
Ġo pp
aj or
åĨħ çļĦ
æĻ ĵ
Ġç¬¬ åĽĽ
è¿ĺ è¦ģ
æ» ´
Ġc or
å¢ ¨
å² ¸
èĤ Į
Ġimport ant
s p
éĶĢ åĶ®
å®ŀ åľ¨
çķ ª
as ter
Ġmon th
Ġs ong
åŁ¹ è®Ń
ĠE d
Ġæ´ Ĺ
æł¸ å¿ĥ
as es
¡ æħķ
re am
åķĬ åķĬ
Ġ +
èĩª åĬ¨
è®¤ è¯Ĩ
ç¬ĳ éģĵ
ĠåĵĪåĵĪåĵĪ åĵĪ
å¥ ĭ
Ġ1 00
è¿ Ł
ç ¹ģ
éĩĳ èŀį
å¦Ĥ ä»Ĭ
æ´ ¥
æİ¨ èįĲ
Ġeff ect
ir d
åħ³ æ³¨
çĭ¬ ç«ĭ
Ġpres ent
us h
ĠæĹ ¥
èĢ Ĺ
çŃī çŃī
Ġæķ Ļ
æĺ¾ ç¤º
ĠB rit
ä¸Ģ è¾¹
å¤ļ æķ°
ĠW hen
Ġcall ed
Ġchar act
ric t
å¥ Ī
y le
ä¼ĺ åĬ¿
Ġç ª
éĥ İ
éķ¿ çļĦ
å°± ä¸į
å¯ º
è¯Ħ ä»·
è®© äºº
éĥ ĳ
ç½ĳ ç«Ļ
äº¤ æµģ
Ġ ide
Ġæ´ »
% ,
Ġç ĸ
Ġåĩł å¤©
å®¶ çļĦ
Ġæ £
æµ ĵ
æ°ĳ æĹı
t ain
i pp
ĠåĴ ¯
ĠCh rist
ĠN o
ä¸» ä»»
æ¯ı å¤©
Ġf ree
å¹ ħ
æµ ®
Ġpl an
Ġç¬ ĳ
åŁ¹ åħ»
Ġè ¥¿
æ¯ ģ
åİŁ æĿ¥
åį« çĶŁ
ĠW ith
Ġl ine
Ġqu est
. ,
çº ¹
ä¼ļ è®®
ĠåĮ ħ
Ġé£ İ
em s
Ġæ¸¸ æĪı
Ġ vers
çĽ Ĳ
n g
y l
è¾ Ľ
æ½ ®
ä¹Ł ä¼ļ
Ġinc re
çĬ ¹
Ġå¿ ħ
åľ¨ äºĨ
Ġsever al
æ³ Ľ
ĠåĲĥ é¥Ń
ç»Ĩ èĥŀ
end ed
æ¢ °
Ġåĵ Ĵ
Ġé© ¬
å°± åı¯ä»¥
å ĥ
ĠP e
æ´ ª
æ¶Ī æģ¯
ĠA fter
or ies
Ġåı ·
éĹ ¹
åŁº éĩĳ
pl oy
Ġserv ice
Ġn ear
ĠåĩĨ å¤ĩ
Ġan other
æ±½ è½¦
åŁ ĥ
çĭ ¼
åĪĽ æĸ°
Ġl aw
æµ ©
ĠåĬ ¨
Ġå¥½ å¤ļ
Ã Ĺ
çĪ ¸
éĶ ģ
åĽ½ çļĦ
æ¯ı ä¸ª
8 6
Ġgr oup
åł ¡
åĲĮ æł·
Ġl ove
Ġh um
r ation
is ed
æļ Ĥ
ç»ı åİĨ
ĠèĤ ¯å®ļ
åĬŀ åħ¬
Ġè ī
Ġor der
Ġst and
åĩ ¤
éĢĤ åĲĪ
æ² ¿
æīĢ è°ĵ
éľ ¸
å°¤ åħ¶
02 1
Ġl inks
Ġsu ccess
A R
Ġä¸į åĪ°
Ġc ustom
Ġe lect
Ġçİ ĭ
è´£ ä»»
Ġåıª æľī
Ġdes c
åĿļ æĮģ
èĢ Ĳ
er man
ĠèĻ ½çĦ¶
æ¶ ī
it ions
æĽ¾ ç»ı
Ġ ä¸¤ä¸ª
ward s
ian s
åĩºæĿ¥ çļĦ
Ġcons ider
ç¨ į
åĪ Ĭ
ĠçĶŁ æ´»
Ġre ally
ĠæĪ ĸ
Ĥ äº®
ĠTh at
p ar
åĩ ¯
Ġwith out
è° ĭ
èº« è¾¹
m ed
åģ ¶
æ³ ¡
æĺ¯ ä¸ª
ĠæĢ ķ
åĲĮ åŃ¦
åįģ ä¸Ģ
ro p
amp le
ç§ Ĵ
on y
ur s
Ġha pp
æ ĩ
Ġs um
æĻļ ä¸Ĭ
æģ ¢å¤į
ä¸į çŁ¥
ç»ĵ æĿŁ
çĶ ĺ
Ġwe ek
äºĨä¸Ģ ä¸ĭ
Ġt ell
Ġev ent
Ġçº ¦
ĠC ity
ĠG u
et er
éĩį æĸ°
æľ¬ æĿ¥
è§Ħ æ¨¡
éĵ ¾
c ing
æ» ļ
æĭħ ä»»
ä¹ĭ å¤ĸ
Ġæķ °
== ==
ĠS outh
Ġ ve
un g
èº« ä»½
ĠP ar
Ġne xt
åĽ¾ ä¹¦
ä¼ į
çĸ «
åĬ¨ çī©
' ve
Ġe qu
Ġb re
Ñ ĥ
çļ Ĩ
iz ation
åħĦ å¼Ł
ãĢģ âĢľ
st and
èģĶ åĲĪ
Ġf ac
ĠD o
i ents
e e
Ġè Ľ
æĲ Ń
ĠåĬ ŀ
Ġfe el
ä¾ µ
O N
Ġ2 4
Ġs it
ç¨³ å®ļ
ĠW ill
åı¥ è¯Ŀ
è¿ Ķ
æ² Ł
Ġcol le
æĹł è®º
Ġd em
ç¨ĭ åºı
åĵ ¼
æ¹ ¿
æľī çĿĢ
ä¹Ł å°±æĺ¯
å°± åľ¨
çľĭ äºĨ
Ġä¸Ĭ çıŃ
ç¿ ¼
è¾ ħ
Ġçº ¢
åªĴ ä½ĵ
ĠM ed
åĩ ī
Ġal ong
w are
èĥ Ĩ
éĢ ¼
éĢ Ĵ
å¿« éĢŁ
Ġdet ail
Ġå¤ ±
çĶŁ çļĦ
åįı ä¼ļ
Ġ âĢĿ
æ´ ģ
æī «
åĮĸ çļĦ
åĪ¶ éĢł
Ġchild ren
æ£Ģ æŁ¥
w ork
Ġle vel
èĩ³ å°ĳ
ĠM in
ĠB ro
Ġ ä½ĵ
æĪ ª
Ġåħ¶ ä»ĸ
å¥³ äºº
if ied
åĪļ åĪļ
çĩ ĥ
ç¾ Ĭ
our s
ä¹ł æĥ¯
Ġç Ĩ
p le
å¼ķ èµ·
éĥ½ æ²¡æľī
as k
Ġè®° å¾Ĺ
ĠE uro
ĠæŃ ¤
ä¸Ģä¸ª äºº
éĿ¢ å¯¹
åī ©
ight s
å§ ĳ
åıĺ å¾Ĺ
èĩ³ äºİ
ĠM e
ä¸į æķ¢
æĤ Ł
Ġpol it
ĠN orth
Ġå Ļ
con om
å¿ ł
å®¶ åºŃ
ä¸įåĲĮ çļĦ
æĽ´ æĺ¯
st er
æĢ İ
æĪĲ æľ¬
res ent
Ġm il
8 5
æģ ¨
å°± èĥ½
s c
æľī äºĨ
åıĸ å¾Ĺ
äºĭ ä»¶
Ġs ay
ä¸ĵ å®¶
ĠB y
Ġto o
è®© ä»ĸ
å¾Ī å¿«
è ²Į
Ġwith in
çĦ ¦
ĠC al
åĵ Ń
èį Ĵ
au gh
99 9
æĸ ¤
é¡¿ æĹ¶
I S
çĪ¶ äº²
Ġç¡ ®
Ġç ³
å®¶ ä¼Ļ
æĭ ¼
Ġle t
èĥ ¶
æĪ ´
èµ ¢
ir on
éĤ ¦
æĻ ĭ
iqu e
å® ¾
Ġm ust
ent ly
æľª æĿ¥
iv ely
ç»ı å¸¸
A S
u ck
Ġinv est
æĲ ľ
Ġexper ience
ī ´
æĮ ¯
in c
Ġbec ame
Ġä¸į äºĨ
æĴ ŀ
æķ° éĩı
' ll
ä¸Ĭ åİ»
çĽ® åħī
Ġest ab
çļĦ éĤ£
è¯ ¦
Ġæ¼ Ķ
Ã ¡
ĠæĶ ¹
è¯ Ĭ
æĸ° éĹ»
çļĦ åľ°
g ed
ç§ Ł
æĪĳ è¦ģ
Ġç® Ĺ
åķ ¦
åł Ĩ
è¿ ģ
ĠA b
ä½ ©
Ġal ways
Ġke ep
Ġ ä¹ĭåīį
æľ¬ èº«
ĠN e
åħ¨ çĲĥ
èĦ ı
åıĤ æķ°
ä¿Ŀ éĻ©
æł· åŃĲ
am ed
é£İ éĻ©
Ġfollow ing
Ġsu gg
çļĦ æīĭ
ic le
ide o
ĠCan ad
Ġsugg est
ç» ķ
æĬ ¢
ort un
æĹħ æ¸¸
æĮ ¡
Ġ es
Ġt urn
ut es
m b
3 6
è· µ
æ¡ Į
æĺ¯ä¸Ģ ç§į
åĳ Ī
Ġvis it
åĪ ĳ
ub lic
èİ ²
åħ· ä½ĵ
åľ° çļĦ
å£ ®
çĽ¸ å¯¹
å¹ ½
åĲį çļĦ
Ġæķ ´
åĲ Ĳ
Ġ1 9
Ġåĵ Ń
Ġg row
Ġgo ing
è¿ĩç¨ĭ ä¸Ń
å» ·
Ġtr ad
èĸ Ħ
Ġçģ «
ç« ¹
çĵ ¶
æĪĲ åĳĺ
ä¸į ç®¡
è°ĥ æŁ¥
Ġå «
é£İ æł¼
ĠéĢ ī
è®¾ æĸ½
Ġt est
è¡Į åĬ¨
å®ĥ çļĦ
Ġé ĵ
Ġm at
èħ °
at ic
E S
Ġof ten
Ġperson al
Ġspec ial
èħ ¹
Ġf riend
ĠO ne
ĠåĽ ¾
Ġä¸į çĶ¨
çı į
çº µ
Ġè¯ ķ
æĢ ĸ
Ġv iew
o f
Ġèĭ ±
Ġear ly
ĠåĲ Ħ
å¥ Ķ
èµ° äºĨ
Ġmem bers
æ° §
ĠH is
åĬ³ åĬ¨
åĲį åŃĹ
our n
il le
Ġè§ £
Ġpro per
Ġn on
éĤ£ éĩĮ
å° Ŀ
u ary
Ġo cc
éĥ½ åľ¨
å°± è¦ģ
Ġå¹¸ ç¦ı
Ġæ¯ı å¤©
åĬ¨ ä½ľ
ç® Ń
å¤ª å¤ļ
ĠJ u
æĸĩ ä»¶
å¯ ¿
Ġgo vernment
ä¹Ł åı¯ä»¥
Ġcom e
ĠçľŁ æĺ¯
çİ Ľ
æĸĩ ç«ł
e ad
om an
è¿ Ŀ
æĸ¹ æ¡Ī
çĸ ¯
ä¼Ĺ äºº
Ġå½ĵ çĦ¶
Ġc r
éķ¿ æľŁ
ĠéĢ ļ
æĺ Į
è§Ĩ é¢ĳ
çľ ł
åĸ Ĭ
Ġåģ ĩ
v ious
åĪĽ éĢł
ç«ĭ åĪ»
Ġcont act
ard s
Ġ Â
åħ´ è¶£
åħ± åĲĮ
Ġg iven
am b
ro du
Ġch ang
ä»¥ ä¸ĭ
Ġæ¢ ¦
ç»Ļ æĪĳ
å¹¿ åĳĬ
ĠM y
Ġm aking
ĠæĲ ŀ
Ġg ive
Ġ ä¸İ
Ġ è¿ŀ
åĲ¬ åĪ°
A N
å¦ »
for d
in o
æĤ ī
ä¹ĭ ä¸ĭ
æĥ ł
Ġåĩº åİ»
å¾· åĽ½
è§ Ī
ab ility
é¼ ł
è¦ģ æĺ¯
çī¹ æ®Ĭ
get her
Ġto gether
æŁ ±
Ġl arge
Ġche ck
æıĲ åĩº
Ġ ......
åĨľ æĿĳ
æı ´
åĲį ç§°
if y
æĬ ¬
Ġé ĥ
æľĢ å¤§
äº ķ
è£ ģ
Ġç© º
åľ¨ è¿ĻéĩĮ
Ġå¤ļ å°ĳ
em ent
æĬ¥ åĳĬ
æĥ ¨
æ² Ī
3 2
Ġæĭ ī
th ing
åĵ ²
ä¾ ¯
ä¹Ł æ²¡
é«ĺ çļĦ
Ġf ull
ĠS y
Ġaut hor
åı ¬
æĶ¹ éĿ©
Ġind ust
Ġæ ħ
éĢ ¸
Ġ äº²
Ġçķ Ļ
åİ Į
ç¬¬ä¸Ģ æ¬¡
Ġp lease
Ġæµ ·
èį ·
æĮģ ç»Ń
é© ¾
ĠAs s
an e
Ġl ot
Ġstud ents
ĠH ar
il t
id d
ĠB r
çª Ĺ
æĹ¢ çĦ¶
ĠP art
åĬł ä¸Ĭ
end ing
èĬ Ĵ
Ġè½ ¬
Ġ âĢ
Ġæ¯ Ľ
m it
ver age
Ġå¹ ¿
Ġserv ices
åĳ Ĩ
çļĦ ä¸»
eth ing
å¤§ éĥ¨åĪĨ
èģĶ ç³»
Ġ er
èĦ¸ ä¸Ĭ
çĶ³ è¯·
æ± ¡
ä»¥ æĿ¥
Ġç ı
éĻ µ
ĠThe se
one y
åĢ º
èĴ Ĥ
æĪĳ åĽ½
o id
es e
æ¤į çī©
ur ther
Ġle ft
æĦ¿ æĦı
åı£ æ°Ķ
Ġpro t
Ġè¿Ļ äºĽ
Ġæ ¡
Ġæ· ±
Ġäºº å®¶
Ġbet ter
å°Ĩ åĨĽ
Ġf r
Ĩ Ĵ
Ġfe at
at t
ç¥ Ŀ
å·¥ åħ·
é ī´
æ³ ª
æĺİ å¤©
Ġact iv
çļĦ åıĳå±ķ
å® ¿
æģ Ĵ
èį ¡
Ġch o
æ± Ĺ
o on
Ġprof ess
Ġm ajor
Ġcommun ity
ä¼ ı
æ¦Ĥ å¿µ
ä¾Ŀ çĦ¶
s w
Ġå »
ist or
z e
äºº æīį
Ġsoc ial
Ġç¥ Ŀ
m y
æĪĲ ç»©
ĠB ar
ç«ŀ äºī
ĠA f
Ġde ath
èĭ Ĺ
èĥ½ éĩı
æĽ´ å¤ļ
æŃ£ æĺ¯
ĠE l
ra ft
I D
ĠSt ate
ç»Ļ ä½ł
Ġå¿ ĺ
Ġon line
åľ¨ åľ°
ä½ı äºĨ
Ġæ³¨ æĦı
è¿ħ éĢŁ
åĪļ æīį
åİĭ åĬĽ
ĠH igh
he re
ĠO ct
æ® ĸ
Ġå ¨
è¡Į çļĦ
s ide
èĦ Ĥ
èµ «
ç» ĺ
æ³ ¥
é© ±
Ġé£ ŀ
Ġne ver
ĠèĤ ī
æ¬§ æ´²
åĶ¯ ä¸Ģ
Ġc amp
a im
è¾ £
ore d
Ġåį Ĺ
åįģ ä¸ī
çļĦ ä¸ľè¥¿
Ġc ase
Ġ ....
åĢ ¾
ä¼ļ æľī
Ġ2 1
ĠåĲ Ī
åĲ ¹
èµĦ éĩĳ
èĢĮ å·²
ä¸Ģ å¹´
ç§» åĬ¨
Ġpop ulation
Ġhow ever
Ġèµ ¶
Ġ ä¼ĳæģ¯
Ġç ±
Ġbel ie
Ġab le
éĶ ¦
5 5
æĤ ²
ĠA pr
ä¸Ń æĸĩ
æİĮ æı¡
ä¸į è§ģ
ĠäºĨ ä½ł
Ġp ot
ä¸ĭ äºĨ
ĠIn st
Ġp ut
ç¡ ķ
ĠæĪĳ è¦ģ
éĿĴ å¹´
ĠCol le
ĠA ug
Ġé ¸
é© »
ä¹ ĸ
ĠEuro pe
æ²¡ äºĭ
éĵ º
å¤ļ å¹´
re et
Ġall ow
Ġh istory
Ð ²
ä¹ Ķ
Ġc reat
äºĭ ä¸ļ
åĳ¨ åĽ´
çĩ ķ
è° ±
Ġä¸Ģ èĪ¬
ä¾ĭ å¦Ĥ
Ġsh ort
ĠAust ral
ĠæĦı æĢĿ
Ġbe h
Ġåĩ ı
ä¹ĭéĹ´ çļĦ
ĠéĢ Ĥ
çĶ ľ
Ġst ory
æµĭ è¯ķ
os p
æŁ ³
Ġp ast
Ġå¤© å¤©
æĢ§ èĥ½
ä¸į æĥ³
Ġt em
ĠM c
ĠéĿ Ĵ
æ¡ ĥ
åĸ ·
åĽł ç´ł
Ġind ivid
åįģ äºĶ
p ut
é¼ »
å¥½ å¥½
pl ay
çģ ¾
åĪĽ ä½ľ
Ġè į
Ġb ig
å¡ ĳ
å¾® å¾®
å®ī æİĴ
: :
3 1
ç§¯ æŀģ
åħĪ è¿Ľ
ĠEng lish
ĠEx ternal
åĽ¢ éĺŁ
Ġæ° Ķ
le v
åĴ± ä»¬
ä»İ äºĭ
åĺ¿ åĺ¿
èĤ ł
ac es
ä¸Ĭ éĿ¢
æ¾ ³
_ _
æĥ ĳ
å¤ª éĺ³
Ġrese arch
å°ı çļĦ
æľĢ å¤§çļĦ
å¤§ åĪ©
ç®Ĺ æĺ¯
Ġè®¤ è¯Ĩ
åĿ Ľ
è°ĥ æķ´
è´ ¯
I I
Ġ ä¸ºäºĨ
éĤ ®
ill s
éĥ¨ éĺŁ
è¾ ī
Ġé º
æĽ ¹
j oy
ç² ®
éĢļ å¸¸
a pe
åĤ ²
è®© æĪĳ
éŀ ĭ
ä¹¦ è®°
è¯´ äºĨ
éĺħ è¯»
ä¹Ł å°±
ĠæĶ ¯
è§Ĵ èī²
åıĳ å¸ĥ
A C
ç² Ĺ
âĢĿ ãĢģâĢľ
ä»ĸ åľ¨
ap er
Ġcount ry
åĨħ éĥ¨
Ġä»¥ åīį
her n
è®¾ ç½®
éĩįè¦ģ çļĦ
O S
ä¸Ń åŃ¦
ĠM arch
å¤© ä¸ĭ
è½ ¨
å¼ Ĺ
Ġty p
å°± åĥı
Ġc ult
è ¦
re w
èĤ ©
Ġpop ular
( )
Ġt it
èĤ ¿
Ġed uc
è¯ģ æĺİ
çļĩ å¸Ŀ
Ġc ost
åı¦ ä¸Ģ
Ġæł ¹
æĤ£ èĢħ
ä¸ĵ è¾ĳ
èµ· äºĨ
ç© ·
Ġp ract
çĸ¾ çĹħ
çĨ Ĭ
å¤§ éĻĨ
ç¢ °
ag ue
ĠéĿ ŀ
å¹¶ ä¸įæĺ¯
ĠçĶµ å½±
Ġpro ble
åĮ» çĸĹ
ä¹ ³
Ġl ess
åĪĨ ä¸º
ĠP re
u ed
åįļ å£«
7 5
oc us
Ġl ight
Ġwor ks
Ġä¸ĭ æ¬¡
åħ¨ éĿ¢
æĬĢ èĥ½
Ġç ¢
ĠH er
é½ ¿
å°ı è¯´
åŃ¦ ä¼ļ
Ġå® ¹
éª Ĥ
äº« åıĹ
è½ ´
çŃī äºº
ç½Ĺ æĸ¯
æ Ĩ
æħ¢ æħ¢
æī °
æĸĩ æĺİ
is c
æİ ª
èĬĤ çĽ®
éĺ ģ
Ġcre ate
æħ §
Ġm ight
our ce
ra p
Ġå ²
ĠéĶ Ļ
Ġåı ¦
çĽĳ çĿ£
åĿ ¡
Ġlit tle
n ot
al t
ĠW est
èµ ¤
ç½ ¢
Ġ et
çī §
å¿ĥ çļĦ
a us
åħ± åĴĮ
ĠA pp
Ġf oot
ä¸į ä¸Ĭ
ĠåŃ ©
al f
Ġwork ing
ĠK ing
åĽŀ åİ»
Ġè¿Ļ éĩĮ
è· ĥ
: ãĢĬ
å¹³ åĿĩ
Ġs w
ĠæŃ Į
åŃ ¤
Ġå§ Ĳ
Ġsom ething
ç«Ļ åľ¨
or g
çļ® èĤ¤
æľº åħ³
Ġh tt
age ment
ul a
æ¶Ī å¤±
å¯¹ æīĭ
å®ŀ è·µ
on es
ĠT r
Ġæľī äºº
éĥ ģ
å¤§ æ¦Ĥ
id es
å¼Ģ å±ķ
Ġfor mer
å¤į æĿĤ
Ġre fer
Ġf ood
å² Ĺ
c hes
Ġè¡ £
ãĢĤ âĢľ
ä¸Ģ å¤©
ĠG erman
å½» åºķ
æĢ ľ
ff ic
ĠSe pt
Ġh ard
å½ ¹
èĥ İ
ç³ Ĭ
çĻ Į
Ġ ä¼¤
ĠJan uary
ä»¿ ä½Ľ
éĥ Ń
åıĬ åħ¶
æ®µ æĹ¶éĹ´
å®£ ä¼ł
av or
port s
Ġs ite
èħ Ĳ
Ġç ¿
èĩª èº«
Ġapp ear
Ġå Ĥ
è®° å½ķ
ĠApr il
ĠS w
ĠQ u
Ġm illion
99 8
æĸ¹ ä¾¿
h am
Ġç¥ ŀ
æ¬ £
ĠN ot
é» İ
Ġæĺ ¨å¤©
èĽ ĩ
Ġè£ ħ
èĢ Ģ
r or
is ing
Ġæİ ¨
Ġsu re
Ġp ay
éª Ĺ
æīį æĺ¯
è· ¨
ĠP ark
ĠG l
Ġd ays
ru ction
åĿ ĳ
åİ īå®³
Ġth ings
è¾ ŀ
ç² Ĵ
art ment
è¾ ĸ
ĠT ra
Ġm ove
éĵ ľ
å¥ ī
ä»İ èĢĮ
çļĦ ç¥ŀ
Ġs ide
ç½ ļ
Ġl and
çİ© å®¶
Ġåıª èĥ½
a ff
Ġrec omm
e le
Ġas k
çļ ±
åľŁ åľ°
3 00
Ġre n
èĻ ½
åįģ å¹´
åĮĸ åŃ¦
ĠJ une
v iron
Ġè¿ĺ è¦ģ
æİ¥ åı£
è¦ Ĩ
è®º æĸĩ
r ay
çİ° å®ŀ
éģĩ åĪ°
Ġph ot
èµĦ äº§
æĶ¾ åľ¨
æĺ¯ åĽłä¸º
Ġme et
Ġ ä¿Ŀ
èĳ £
er ing
ĠæĤ ¨
Ġåı £
our ces
Ġèĩ ³
Ġp ain
çĮ ľ
èİ ī
ä¸ª æľĪ
é ³
Ġéĩ ĳ
ĠD es
åıĳ è¡¨
åĩı å°ĳ
ĠBrit ish
çī© è´¨
ra w
åĪ ¸
Ġä¸į è¡Į
äºº éĥ½
ip s
å°ĳ å¹´
Ġcon d
å¼Ģ äºĨ
ograph y
in ation
éĢĲ æ¸Ĳ
ĠçĶŁ æĹ¥
Ġch ange
éŃ ı
é¸ £
Ġæľ Ł
ĠéĻ ¤
ĠçĽ´ æİ¥
ĠèĬ Ĥ
è´ ¦
an ces
çĲĥ éĺŁ
æĪĺ çķ¥
åĬ «
Ġimp ro
å®¶ æĹı
åĨł åĨĽ
çļĦ å¿ĥ
æŃ» äº¡
è´ ¡
ĠP er
ĠéĻ ª
æĭ Ĵ
æľº æ¢°
h old
æĪĳ å°±
pe cial
Ġs ound
a ur
å¿ħ è¦ģ
åį³ ä½¿
Ġin f
S B
eth od
éĵģ è·¯
è¿ĺ åľ¨
Ġbec ome
Ġå £
Ġåħ «
i od
o le
Ġå¿« ä¹Ĳ
Ġç¦ »
Ġb ir
Ġåħ »
it ive
éħĴ åºĹ
ĠP res
ä¿® çĤ¼
ä¸ľ åĮĹ
æŀ «
Ġex ample
æ»¡ è¶³
Ġf ore
ĠåĬ ªåĬĽ
çī¹ å¾ģ
åį± éĻ©
3 4
ut ure
Ġ ãĢ
éĿ© åĳ½
Ġfun ction
çªģ çł´
t al
çĽ ¾
Ġ \
b r
ä» ĩ
Ġt ri
çĺ ¦
Ġt imes
b ack
ĠAug ust
ond on
Ġç² ¾
ir l
Ġ ..
èµ ĸ
ĠSe e
åıĤ èĢĥ
å¾ ª
èĦ¸ èī²
åĵª äºĽ
çĪ¶ æ¯į
éģĵ è·¯
æį ·
Ġå ĭ
O R
éĽ ķ
Ġm ult
åĨĽ éĺŁ
åį ¢
è½¦ ç«Ļ
ĠSe c
Ġl arg
å¼º èĢħ
æĹ¶ çļĦ
Ġacc ording
åĦ¿ ç«¥
Ġplay ers
um ent
æĳĩ å¤´
åİŁ åĪĻ
Ġè İ
å®ļ çļĦ
Ġ5 0
æľ µ
n ect
ĠJu ly
èĤ Ŀ
ĠC he
è¿ĩ äºĨ
6 6
iv al
åıĺ æĪĲ
ä¸į å¦Ĥ
éļ¾ ä»¥
E D
ĠD av
c il
c le
Ġp ort
v al
ĠåĪ ĺ
çĭ ±
ain ed
åŃ¦ æľ¯
Ġæ ¥
éĤ£ ç§į
åĲ ĵ
å® ħ
å½ĵ åľ°
ĠèĢģ å¸Ī
å¥³ æĢ§
ç±» ä¼¼
è¯´ æĺ¯
ä¸Ģ çľ¼
ĠA I
99 0
Ġå® Ŀ
åĲį ä¸º
Ġæĺ ¾
Ġæĺ Ł
Ġåİ īå®³
3 7
ä¸Ģå®ļ è¦ģ
Ġå¹ ¶
u f
å¥¹ ä»¬
å¥³ åŃĲ
an a
Ġse arch
èĭ į
ate g
· åŃĲ
Ġåį ĸ
æķ° åŃĹ
è¿Ļ ä½į
æľ¬ ä¹¦
ä¼ļ åĳĺ
Ġåĵ İ
ä¸Ģ éģĵ
Ġ @
çĶµ èĦĳ
é¦ĸ åħĪ
ãĢĭ ãĢĤ
u k
Ġé¦ ĸ
Ġæ» ´
åĲ ķ
çī¹ èī²
n d
ä½ĵ èĤ²
Ġ ä½ľ
ĠAd d
Ġé» Ħ
åĦ¿ åŃĲ
å¢ ĵ
ove mber
ĠRe g
ĠOct ober
e f
ä½ĵ éªĮ
éĤ Ģ
al y
Ġloc ated
I T
ĠåĨħ å®¹
Ġåı Į
å¿ ½çĦ¶
o or
-------- --------
I C
ce mber
æıı è¿°
çľŁ å®ŀ
ä» ĵ
åİŁ æľ¬
Ġinv ol
å° ¿
l er
Ġdevelop ment
Ġp riv
ä» °
Ġg ames
Ġåĳ Ĺ
Ġåĵ ¥
Ġf ield
Ġab ove
ĠSept ember
åľ¨ ä¸Ģèµ·
Ġå¼ º
æĹł æķ°
åīį çļĦ
éĤ ª
å¸Ŀ åĽ½
Ġåĵ ĩ
æľī æ²¡æľī
éĽ ¾
le x
Ġw ar
çļĦ å£°éŁ³
å¾Ī éļ¾
ĠæĬ ±
ç»Ł ä¸Ģ
Ġç» §
7 87
åķ ¡
ĠS er
99 7
C h
Ġoffic ial
Ġè¿Ļ æĺ¯
Ġåı Ĥ
æ¶ Ĥ
p ro
Ġd ue
Ġcom b
Ġa ff
ĠåŃ© åŃĲ
æĭħ å¿ĥ
èģĶ çĽŁ
ĠCh ar
èĥĮ æĻ¯
ä¸į åĩº
åĪĻ æĺ¯
ç¬ĳ çĿĢ
ĠåĢ Ĵ
il ar
åįģ åħŃ
ä¸į è¶³
Ġæµ ģ
ure d
ä¿ĥ è¿Ľ
äº ı
æľĢ ä½³
Ġ ä¸»è¦ģ
å® Ļ
u ff
Ġ äºĭæĥħ
éģ ¥
èĩ Ĥ
Ġl im
Ġex c
Ã ³
02 2
ĠAr t
Ġæ» ¡
éĴĪ å¯¹
æĮĩ æĮ¥
ä¸Ģ æĿ¡
ä¼ļ åĦ¿
Ġrele ased
c hed
æĪĳ æĺ¯
ãĢį ,
g o
èµ ĭ
Ġem ploy
Ġåħ Ń
åĩ ¶
çĴ ĥ
ĠA cc
Ġposs ible
ĠC ont
è·Ł çĿĢ
Ġs ize
åĪĨ å¸ĥ
çĶ· äºº
Ġæľº ä¼ļ
éĥ ¡
å§ ľ
Ġde v
8 4
Ġè® ²
ct or
åĳĺ å·¥
Ġç ŀ
èµ ļ
è®¡ç®Ĺ æľº
Ġ ä½ı
ĠRe p
Ġk ey
ac y
Ġco ver
é©¬ ä¸Ĭ
% ãĢĤ
Ġcon c
n a
Ġ ä¸ŃåĽ½
ĠåŃ Ĺ
è¡¨ è¾¾
ä¸į åı¯èĥ½
å°ı åŃ¦
ĠåĶ ±
æİ¥ è§¦
æ¸ ¡
Ġsing le
Ġl iving
Ġw omen
è¿ĺ èĥ½
ent al
ĠT w
è¸ ı
éģ¿ åħį
åįģ åĽĽ
è§Ĵ åº¦
åºĶ å½ĵ
Ġto ok
ab ly
å¿ ½
Ġm en
ed er
åıĳ åĩº
åĤ »
å¤§ äºº
è¡£ æľį
ap an
æĭ ĸ
Ġcomp et
Ġçľĭ çĿĢ
éĻĦ è¿ĳ
éĢ Ĩ
Ã Ń
ĠæĶ¯ æĮģ
ĠS oc
åĽŀ åĪ°
ĸ åķ¡
åĨľ æ°ĳ
æĿ¥ åĪ°
ĠF eb
å¿ §
èĢĮ è¨Ģ
Ġç¬¬ äºĶ
, ãĢĬ
ot s
æľī ä¸Ģä¸ª
ä¸Ģ æĹ¦
Ġty pe
åĲ ¼
Ġc ook
Ġç¤ ¾
Ġre view
ç»Ł è®¡
ĠL ondon
åĭ ¤
è¿ŀ ç»Ń
æĢĿ èĢĥ
Ġè¡£ æľį
çļĦ æĸ°
æµ ħ
æŃ¦ åĻ¨
Ġç´ ¯
viron ment
æŀ Ŀ
æ ©
ab or
æĿ¥ æºĲ
å¿ Į
åįģ åħ«
æĺ¾ çĦ¶
Ġçª ģ
ç¾İ åħĥ
æ¡ ĳ
éĻ ¶
Ġè¿ĩ æĿ¥
Ġcomm on
ĠN ovember
å® ı
ro ll
Ġa way
Ġd ri
æĴ ¤
è¿Ľ ä¸ĢæŃ¥
Ġéģ ĩ
Ġèĥ Į
å¼Ł åŃĲ
Ġf ocus
Ġåħ ī
çĲĨ å¿µ
èĢ ¶
Ġæ± Ĥ
Ġå® ļ
a ul
Ġ ä¹¦
99 6
å½ĵ å¹´
ĠåĿ ļ
Ġapp lic
åĩł å¹´
Ġb and
åĬł æ²¹
ĠDe cember
ä¾¿ å®ľ
éĻį ä½İ
ĠC or
æĴ ĳ
ç½ ²
æ¶ ¨
å®ī è£ħ
l in
Ġv ol
è¶³ å¤Ł
f ect
å½ĵ ä¸Ń
éľ į
ur g
ĠåĮ »
ä¸ĵ éĹ¨
ĠAf ric
Ġex pect
æĸ ©
åĢĴ æĺ¯
ic y
Ġvar ious
Ġå¥½ ä¹ħ
Ġj o
A M
Ġha ving
it or
è¿Ľ åİ»
æĸ¹ çļĦ
åģ ¿
al d
æľĢ å¥½
Ġsa f
åĴ ¬
A L
Ġac ross
Ġto day
Ġä¸į æķ¢
çŃ ¹
ç§į æ¤į
Ġb as
ç£ ģ
å¯¹ è±¡
ĠçŁ Ń
ä¿ Ĭ
Ġn et
l oad
E N
3 8
æģĲ æĢĸ
Ġéģ ĵ
ĠS m
Ġ2 2
Ġ ident
åĩº æīĭ
Ġå» º
èģĶ ç½ĳ
Ġcharact er
è¸ ª
åĪ° çļĦ
Ġother s
Ġg ot
å·¨ å¤§çļĦ
6 4
Ġåĳ µ
ä¹ ı
æį ķ
ä¸į çĦ¶
é£ ĺ
Ġ ä¸ĸçķĮ
å¢ŀ éķ¿
åĲİ éĿ¢
è®© ä½ł
èµĦ æł¼
Ġç ¨
Ġéª Ĥ
é«ĺ çº§
Ġ ä¹ĭ
ĠçĶ »
åŁº åľ°
ä»į çĦ¶
Ġè¯´ è¯Ŀ
ĠA g
è´ ·
ãĢĤ (
èĥ ĥ
it ing
Ġl ive
è§Ĥ å¯Ł
ä¸ ¢
Ġç»ĵ æŀľ
åľ ³
Ġç»§ ç»Ń
èĤ ¯
Ġmed ia
åĪ« çļĦ
æĦŁ åĪ°
Ġc rit
æĤ Ķ
ä¸ Ī
ĠåĮĹ äº¬
å· ¡
å·¥ èīº
i en
ä¾Ŀ æĹ§
æķ° åŃ¦
åĲ ŀ
Ġå® ¢
Ġf ive
æ¶ Į
å¼º å¤§
æº ª
ä½¿ å¾Ĺ
æĥ³ æ³ķ
æ¬¢ è¿İ
ĠA ir
éļı åĲİ
A P
æĿ¥ çľĭ
è¿ĩ çļĦ
åī ²
ib r
æĪ Ĵ
Ġè¿ĩ åİ»
çļĦ å·¥ä½ľ
ĠH ouse
è¿½ æ±Ĥ
< /
çī© çĲĨ
gr ound
åĪĨ ç±»
ĠéĻ Ī
åĲĪ åĲĮ
ç¬¬ åĽĽ
åº Ļ
å´ ĩ
Ġj ob
ļ åŃĲ
æħ °
ä¹ Ļ
ĠåĴ ±
er gy
Ġæ²¡ äºĭ
Ġunder stand
t ime
Ġ ä¸ĩ
æīĢæľī çļĦ
at ural
è§Ħ åĪĻ
n ow
çİ° è±¡
Ġ2 3
äºĭ å®ŀ
um n
ill ed
n ers
éĻ ª
æ¼Ķ åĳĺ
ad em
é© ¶
Ġé Ĥ
u x
å¥ ´
Ġam ong
æĸĩ åŃĹ
Ġs ays
Ġå®¹ æĺĵ
Ġf re
an ies
å½ ¼
p x
å½¢ è±¡
ä¸į çĿĢ
è´Ń ä¹°
Ġcare er
æĿ Ĩ
èĢģ æĿ¿
pl es
Ġen joy
Ġp ie
id s
ĠéĤ£ ç§į
åħħ æ»¡
th ough
Ġm ag
ãĢĤ "
åıĳ æĮ¥
èľ ľ
æī £
op s
æĪĸ è®¸
Ġcour se
ä¸Ģ ä½į
åıĳ è¡Į
Ġèģ Ĭ
éħ ·
ing ton
åĬł å¼º
åĲĪ çĲĨ
åħ±åĴĮ åĽ½
ç¢ į
æĥ §
å¦ Ĩ
çĦ °
åĩº çĶŁ
çľĭ è§ģ
Ġprovid ed
åľ° åĽ¾
å± Ī
Ġå¹² åĺĽ
æĤ ł
æĬ ĳ
um b
åĮ» çĶŁ
éĽĨ ä¸Ń
T h
le ment
0 5
å¤§ å¤ļæķ°
Ġé¡ º
åĽ° éļ¾
ç¥ Ń
ur ity
Ġæ¸ ©
é£Ł åĵģ
èĭ¥ æĺ¯
ç§ĳ çłĶ
æĪĲ æŀľ
Ġro le
Ġv ideo
Ġev ents
çĥ Ĥ
im ate
çŃĶ æ¡Ī
ĠD ep
çļĦ ä¸»è¦ģ
Ġe conom
Ġpartic ular
b ook
ren ch
0 4
ç¬¦ åĲĪ
ä¸Ģ ç¬ĳ
ä¸į åĨį
å¾Ģ å¾Ģ
åħ ģ
¨ è¯¢
Ñ ı
èĲ¥ éĶĢ
çĽ´ åĪ°
æĭį æĳĦ
i ber
æİ¥ çĿĢ
op p
æµ Ļ
æ¢ ¯
ĠE ar
Ġst yle
Ġplay ed
Ġæ ¨
Ġh ig
è¶ ĭ
æ¶ ¯
Ġå¿ Ļ
çļĦ å½±åĵį
ä½ł æĺ¯
Ġb o
æģĲ æĢķ
Ġm ention
éĥ½ è¦ģ
åģļ çļĦ
å¤§ å°ı
çĶ· åŃĲ
Ġhe ld
Ġorig inal
Ġb ody
Ġdetail s
6 5
Ġçī Ī
æ¸© åº¦
Ġper iod
Ġme an
a e
Ġc ame
ĠIn ternational
o ver
ĠWill iam
Ġ ä¼°è®¡
Ġproduct s
Ġåıį æŃ£
è´ «
æģ Ń
çĽ Ĺ
ĠSt ud
åıį æŃ£
å¼Ģ æĶ¾
Ġåı Ĺ
åıĳ åĬ¨
å¾Ī å¤§
Ġfeat ures
op h
is on
Ġcont rol
ĠJ apan
åĩº çİ°åľ¨
Ġl ik
è¿ĺ æ²¡
Ġæľ¬ æĿ¥
æľī æīĢ
Ġéħ Ĵ
æ°Ķ æģ¯
è¿Ĳ èĲ¥
Ġmin utes
0 7
åĲ¦ åĪĻ
ĠRe c
ĠæĻļ å®ī
Ġrep resent
Ġç» Ī
æī ¶
åħ¬ åħ±
Ġå± ħ
Ġh old
ç³ ķ
åħ¬ å¼Ģ
è®° å¿Ĩ
Ġbuild ing
Ġval ue
Ġvers ion
éĩĳ å±ŀ
ra g
å°ı å¿ĥ
Ġç» Ŀ
Ġå°ı æĹ¶
Ġæŀ Ĺ
Ð ¼
ä¹ĭ ä¸Ĭ
Ġe p
o e
~ ~
Ġåĩł ä¸ª
Ġf uture
èģ ĺ
Ġ ä¸ĥ
éĹ ·
ĠH istory
it es
ä¾ ł
ä¸į æĩĤ
èµĦ æľ¬
æĪĳ ä¹Ł
æ¯į äº²
Ġde b
ru ary
ĠColle ge
Ġ Ã
Ġle arn
Ġé ¥¿
B C
çļĦ å¤©
Ġf urther
Ġç»ĵ å©ļ
è¶³ çĲĥ
Ġann oun
è®¨ è®º
Ġre du
99 5
è§Ħ èĮĥ
Ľ èĭ¦
Ġn amed
è®° å¾Ĺ
æ¦ ľ
¡ èĲ
åĮ ¹
ĠL a
çİ° åľº
Ð ´
éĤ£ å°±
æĪĳ æĥ³
Ġmem ber
æŃ» äºĨ
Ġr ange
Ġfin al
æī ĳ
Ġçħ§ çīĩ
æŃ£ ç¡®
ç¯ ®
Ġèģ Ķ
ç¤¾ åĮº
if t
ĠH ere
åĪ© çĽĬ
å ļ
Ġåĩº çīĪ
æĭ ĵ
ç»ı çĲĨ
çİ°åľ¨ çļĦ
åĤ ħ
çĶŁ æĢģ
å¤© çļĦ
è¿ Ī
ak en
p os
ä»¤ äºº
ä¿Ŀ éļľ
çĥ ¤
åį° åº¦
Ġå Ĺ
ĠM ich
Ġæ¶ Ī
æĻº èĥ½
ä¸ ĳ
ut ions
èĲ Į
æ¶ µ
è¡¨ æĥħ
Ġre pl
åº ŀ
Ġéº »
Ġb ene
å¼Ģ å¿ĥ
Ġd i
èĭ± éĽĦ
ç«ĭ åį³
m a
ç©º æ°Ķ
Ġè° ĥ
åĢ¼ å¾Ĺ
æĢ ¨
æķ´ ä½ĵ
æĪĲ éķ¿
ç¨ Ģ
æĸ¯ çī¹
m ar
Ġf em
æŀ ļ
Ġæħ ¢
ĠèĢĮ å·²
Ġåħ³ æ³¨
is k
ĠM ark
åĬł å·¥
åł ª
Ġsp ace
è§ģ åĪ°
è¿Ĳ è¡Į
og n
å£ ³
æīĭ æ®µ
è½ ©
æĹł æ¯Ķ
æīĵ å¼Ģ
ĠA ct
æ¨¡ åŀĭ
ap s
é£Ł çī©
Ġå± ±
Ġ ä¿¡
çĪ µ
é¥ ±
è¶ħ çº§
æ°¸ è¿ľ
Ġso ft
åħħ åĪĨ
Ġp age
å®£ å¸ĥ
èº ²
æ· »
å°¤åħ¶ æĺ¯
ver t
Ġstr ong
çĤ ī
Ġro om
Ġf ar
ĠAn g
Ġ/ /
ä¸Ģ åĲį
oun cil
Ġt reat
ra in
çĮ İ
ĠS ome
å¼º çļĦ
åĲ¬ è¯´
Ġdesc rib
ä¸Ģ çīĩ
ie f
ĠG ener
Ġen s
er ed
ĠM on
Ġbu ilt
ä»ħ ä»ħ
è¢ ĸ
ç¿ °
æĹ© å°±
è¡¨ éĿ¢
Ġa verage
Ġpub lished
¹ æŀľ
ç¢ ĳ
her s
Ġè¿ĺ å¥½
Ġnew s
Ġç Ĭ
re g
ĠS ch
ĠåŁº æľ¬
ĠS un
æ§ ½
ä¸» åĬ¨
ä¹Ł è®¸
é£ŀ æľº
ä¸į è¡Į
ic a
éĥ½ èĥ½
Ġbe aut
Ġhum an
æĥħ ç»ª
b or
r ight
éĻĲ åĪ¶
æĬ ĸ
æĢģ åº¦
u pp
å¹¿ æ³Ľ
æīĭ ä¸Ń
åį ĵ
Ġn ight
å¤§ ä¼ļ
æĦ £
99 4
è´ ¤
ä¸į åľ¨
Ġfe ature
Ġåħ¬ åı¸
Ġbir th
Ġé¥ Ń
åĨĽ äºĭ
è Ł
Ġin it
è¿ĺ æ²¡æľī
ĠFeb ruary
Ġl ow
éº» çĥ¦
Ġ ä¹ĭåĲİ
æĬķ åħ¥
it her
Ġacc ount
éĶ Ĳ
å¼Ģ åı£
åľ° çĲĥ
ä¸» æĮģ
ä¸Ģ éĺµ
98 0
å¤ļ ä¸ª
Ġè ı
çļĦ å¥½
è½» è½»
Ġcle ar
» è¾ĳ
4 00
: "
ĠS erv
å±± ä¸ľ
c ast
8 00
åĬŀåħ¬ å®¤
åŃ Ł
Ġwh y
l i
éħį åĲĪ
m l
æŃĮ æĽ²
å§ ¿
è¾Ī åŃĲ
æĶ¾ å¼ĥ
Ġbel ow
å² ³
Ġè Į
Ġgener al
ä»¶ äºĭ
æĤ ¬
Ġindust ry
åĨľ æĪ·
è¾ ¨
lev ision
æ£Ģ æµĭ
åŃ ķ
Ġçľĭ è§ģ
æł ı
I P
ä¸ľ æĸ¹
Ġæ° ¸
Ġan t
äºº åľ¨
åħ¬ è·¯
Ġinclud ed
ab les
åĴ ¨è¯¢
å¹³æĸ¹ ç±³
Ġe ver
æīĵ ç®Ĺ
è¯ ŀ
å¤Ħ äºİ
åĮ» åŃ¦
åħĪ åĲİ
il ities
æĪĲ çļĦ
' ,
Ġéĩį è¦ģ
Ġsign ific
èĢ ķ
ç»Ļ äºĨ
ind ows
c ont
ç¢ Ĺ
æ¤ Ĵ
um p
ä¿Ħ ç½Ĺæĸ¯
Ġex am
Ġp urch
Ġçī Ľ
æ¯ı æ¬¡
åľ° ä½į
è¢ ģ
ĠS an
æĺ¯ æľī
ĠD on
è± «
el t
æ² ĥ
æ¯ı å¹´
çĤ Ĵ
ir m
æĦı è§ģ
Ġä¸ª äºº
read y
å¹¿ ä¸ľ
å¼º å¤§çļĦ
åķĨ åĵģ
çĽ¸ åĲĮ
èħ Ķ
åħĥ ç´ł
Ġ2 6
Ġs elf
u ation
åį³ åı¯
å®ĩ å®Ļ
f ic
çļĦ çłĶç©¶
åĽ½ æ°ĳ
Ġæľ ¨
çīĪ æľ¬
Ġå¿ħ é¡»
at ors
Ġn ational
ĠF il
åĲ¸ å¼ķ
ç¥ŀ ç»ı
å¤ĸ çļĦ
åľ ¾
æ²¡ æĥ³åĪ°
Ġåĵ Ł
çĽ¸ æ¯Ķ
Ġbe gan
Ġå¸ ħ
æī Ń
ĥ åľ¾
åİ ĺ
å¼ ¯
ĠI I
Ġr ad
Ġ2 8
å°º å¯¸
èĤ ĥ
Ġlook ing
åŃ¦ ç§ĳ
0 6
æĹ ¨
Ġrece ived
m ost
è¾¹ çļĦ
Ġåī §
ç©º ä¸Ń
å¨ ĥ
æŃ¤ åĪ»
å¡ «
¡èĲ Ħ
èĩª æĪĳ
ic ro
çº ½
e al
Ġd oc
å¦Ĥ åĲĮ
Ġs ix
æľº åĻ¨
å·® ä¸įå¤ļ
ĠF rom
çĽ Ĩ
ä¸» å¸Ń
æĦ Ī
è° Ĳ
ä¹Ł ä¸įæĺ¯
ĠA c
Ġpre vious
å¤ļ äºĨ
çĿĢ ä¸Ģ
éĤ »
å¹¸ ç¦ı
Ġeng ine
Ġèº« ä½ĵ
Ġp ri
Ġstud y
èĤ º
å¤ ¹
Ġè¦ģ æĺ¯
Ġm akes
Ġs qu
çĤ¹ äºĨ
è¯¥ æĿĳ
æµ ĳ
çķ ħ
ä»ĸ æĺ¯
ä¸ ²
Ġyou ng
use um
ç»ĥ ä¹ł
èĲ¥ åħ»
å¾Ī å¥½
d ing
Ġman ag
å¤© åľ°
æĦ ¤
ric k
Ġåİ Ĩ
Ġæķ ħ
å°½ ç®¡
o ff
åģļ åĪ°
i pe
ĠæĪĸ èĢħ
ç½ ©
é¢ľ èī²
åħį è´¹
Ġen c
Ġå¦ ¹
Ġs ent
èĬ ¯
ĠV al
è¿ŀ æİ¥
Ġæľī æ²¡æľī
Ġ >
Ġåī ª
ä¸į å®ļ
çĪĨ åıĳ
ar a
åıĳå±ķ çļĦ
ç®Ģ çĽ´
ĠR uss
ä¸ĭ éĿ¢
åīį å¾Ģ
Ġ2 7
Ġstart ed
Ġme ans
æĺ Ĥ
é¸ ¿
å¸ ķ
åĬ¨ çĶ»
éĴ »
ä¸Ń éĹ´
ourn al
Ġa ud
ç¬¬ ä¸Ģä¸ª
Ġon ce
et t
Ġ ä½İ
ä¸ī å¹´
èĽĭ çĻ½
Ġl at
æĢĿ ç»´
ĠF in
it ch
é¼ İ
æĦı çļĦ
Ġsu per
æī¿ æĭħ
çĬ¶ åĨµ
Ġle ast
å¾Ī æľī
å¤§ åŀĭ
Ġå¿ĥ æĥħ
du ct
éĥ¨ çļĦ
ĠF rench
it ary
å¹¿ å·ŀ
ĠY es
é¥ ¼
èĩ³ ä»Ĭ
æĦŁ åıĹ
Ġsim ilar
Ġç¾ ¡æħķ
å¥³ åĦ¿
å¸¸ è§ģ
æĪ¿ éĹ´
å¤§ å¸Ī
Ġcomp anies
ä¹Ł è¦ģ
åŃ Ŀ
ac ed
è¯Ħ è®º
è¿Ĳ è¾ĵ
Ġh ot
æĪĳ ä¼ļ
Ñ ĸ
åħ¬ åĽŃ
he l
Ġé¦ Ļ
Ġm ethod
åıĬ æĹ¶
æīĢ åľ¨
å¤ļ ç§į
ĠæĮ ĩ
fer ence
Ġto tal
æĴ Ĵ
ãĢį ãĢĤ
Ġopp ortun
ä¸´ åºĬ
( "
æº ¶
å¯¼ æ¼Ķ
Ġrequ ire
at tle
Ġcre ated
çº ł
Ġw ent
Ġup d
6 00
Ġph ys
Ġh ost
Ġk ind
if orn
äºº çĶŁ
èµ¶ ç´§
ĠãĢ ľ
çļĦ ä¸į
åįģ ä¸ĥ
è¿Ľ äºĨ
u le
ĠæĹ ħ
ç© Ĩ
è¡Į äºĨ
ĠçĽ¸ ä¿¡
åĲ¸ æĶ¶
" )
99 3
ord s
æĺİ ç¡®
ä¹Ł ä¸įä¼ļ
Ġin fl
s el
å®¶ éĩĮ
Ġv ill
æĬ ¹
Ġc ertain
Ġare as
ä¸¤ ç§į
èį¯ çī©
æķĻ æĿĲ
Ġc al
id ence
Ġ4 0
çļĦ æĦŁè§ī
Ġrel ations
99 2
Ġst ore
çļĦ åīį
am a
åķĨ åĬ¡
è£ ¤
å®ŀéĻħ ä¸Ĭ
ĠR iver
äºĴ èģĶç½ĳ
ª æĺİ
ro om
æĥ³ è±¡
er m
ç¥ ¥
ĠSt e
åİŁ çĲĨ
æĺ Ĩ
E C
é¢ ĩ
Ġass ist
ä¸ĭ ä¸Ģ
Ġm ot
åħ ¹
ob al
æĺ Ĭ
Ġbe gin
Ġç¿ »
or ge
Ġth ird
Ġé Ń
ä»Ķ ç»Ĩ
Ġè¯ »
un ic
éĨ ī
åĨ ¥
Ġneed s
Ġåľ¨ å®¶
ĠD em
ĠD ist
un ch
ĠS up
Ġä¸ĭ åįĪ
çģ Į
Ġæ Ħ¿
Ġçªģ çĦ¶
Ġ è¿½
Ġc ut
å¢ĥ çķĮ
è¿Ĳ çĶ¨
ĠAmeric a
d om
åħ¬åı¸ çļĦ
çĸ Ĩ
Ġ --
Ġcl aim
ĠçĮ «
Ġl o
ad es
f ace
ĠPh il
è¾ ½
åįĥ ä¸ĩ
ep end
Ġåı ¶
è¡ °
ir t
Ġst ation
ĠåĽŀ å¤į
éĩį å¤§
åŀ Ĥ
Ġåģ ¶
Ġå¼ Ħ
ol ution
ĠPres ident
Ġc oll
Ġs on
" ãĢĤ
ĠæĬ ¥
Ġæł ·åŃĲ
Ġåĩı èĤ¥
w h
Ġw r
è´¸ æĺĵ
çľŁæŃ£ çļĦ
Ġch all
ak er
Ġ è¿ľ
iforn ia
çī µ
è¿Ľ æŃ¥
ict ion
æ¡ Ĩ
è´ ¼
Ġç¬¬ä¸Ģ èĬĤ
Ġse en
æ¼ ı
Ġfam il
ç¾İ çļĦ
äºĨ ä¸ª
v ille
Ġç¬¬äºĮ èĬĤ
Ġal ready
å¥³ åŃ©
Ġå¤´ åıĳ
i ol
ĠæĪĳ å®¶
ä¸ §
4 4
é«ĺ åº¦
" >
å¤± è´¥
å®Į åĸĦ
çĲĥ åĳĺ
ĠBl ack
Ġbl ack
çľĭ èµ·æĿ¥
P S
um e
æĮ ĸ
æŁ ı
å§Ĳ å§Ĳ
ĠéĩĮ éĿ¢
ch ie
çĹ ķ
ww w
çĨŁ æĤī
éĤ£ æł·
çļĦ æĸ¹å¼ı
åĩº åı£
i ences
æľī ä¸ª
åĽĽ ä¸ª
ä¼ł æĴŃ
èĦ Ĩ
çº ¤
a el
éķ¿ èĢģ
ĠæĪĳ ä¼ļ
åľ¨ è¿Ļä¸ª
Ġå±ħ çĦ¶
ĠéŁ ³
ç¨ ¿
è¿Ľ æĶ»
Ġåį ĥ
å Ħ
æľº åĪ¶
æĸ¹éĿ¢ çļĦ
Ġåĳµ åĳµ
æĵ ¦
ç»Ħ åĲĪ
å®ļ ä¹ī
ä¸į çĶ±
Ġst ep
æİª æĸ½
æľŁ çļĦ
Ġre d
æĢ» æĺ¯
ä¸į åıĬ
s hip
ĠçĮ ľ
Ġè¶ħ çº§
å±ħ ä½ı
æĻ ķ
ir c
çļĦ åĬĽéĩı
æ¯ ħ
ç¾İ æľ¯
Ġm oney
è§Ĥ ä¼Ĺ
æĽ´ å¤ļçļĦ
ĠWh ile
ĠO ur
æĺ¯ æĪĳ
ãĢĤ ãĢĬ
Ġæ¯ı æ¬¡
åĳ½ ä»¤
çģµ éŃĤ
Ġqu ality
æķĮ äºº
g es
Ġb ar
å¹´ åº¦
é «
Ġå½ ±
ç»ı åħ¸
è½» æĿ¾
98 5
å¾ ½
0 8
éļ ¶
av y
an cial
em pt
å¼ ¥
Ġç¡® å®ŀ
o o
æĺ ¨å¤©
end er
ä¼ Ĳ
an ks
çĽ Ī
åı¯ æĥľ
Ġadd ress
çĻ¾ å§ĵ
ĠT V
Ġå¯¹ äºİ
Ġèµ ŀ
Ġp ress
æģ °
Ġadd ition
çĽ ¯
è´¢ åĬ¡
a id
Ġresp ons
Ġåĳ ³
ĠæĢİä¹Ī åĬŀ
æĹ¥ å¸¸
çħ§ çīĩ
æĭ Ĩ
å¨ ±ä¹Ĳ
å°ı åŃĲ
åħ¬ ä¸»
Ġme as
Ġen ough
äºĨ ä¸ĭæĿ¥
Ġh y
Ġcent ury
ĠD r
é»ĳ èī²
çľ¼ ç¥ŀ
ĠéĤ£ äºĽ
i j
7 7
æ°ĳ ä¸»
æĢİ æł·
Ġæİ Ĵ
Ġquest ion
es tern
åľ¨ æŃ¤
as ing
ĠU K
ä¼ł è¯´
ä¸į å¤Ł
æ» ĭ
åıį èĢĮ
on se
Ġæĥ³ è¦ģ
è¿Ļ å°±æĺ¯
he ad
å¸¦ æĿ¥
Ġh alf
å°¼ äºļ
Ġperform ance
Ġå¤ ı
çĳ Ł
å£« åħµ
Ġpr int
ĠCal ifornia
E T
3 9
æĶ¾ å¿ĥ
å¦Ī å¦Ī
æ³¨ åĨĮ
æķĪ çİĩ
Ġm ess
Ġo il
æ± ģ
Ġen vironment
å¦Ĥæŀľ ä½ł
Ġæī¾ åĪ°
åºĶè¯¥ æĺ¯
Ġè® ¨
èĥ ģ
ĠT rans
çĽ Ĵ
éŁ© åĽ½
Ġcom es
åĬ¨ åĬĽ
ou d
Ġå ¢
çŃī çº§
åħ¶ å®ĥ
æĭĴ ç»Ŀ
å° ¬
åĪ¤ æĸŃ
oci ation
Ġmonth s
Ġst ruct
çł´ åĿı
ĠR ed
Ġcont ent
èĬ ³
if f
éģĵ çĲĨ
ar i
ä»Ĭ å¹´
åľ¨ ä¸Ģ
Ġbre ak
åįģ ä¹Ŀ
an c
æĢİä¹Ī æł·
åĲĦ ä¸ª
ä¹Ł èĥ½
Ġhe art
Ġè ±
èģĶ èµĽ
ä¿¡ åı·
æī ®
Ġserv ed
Ġb ring
å§ĳ å¨ĺ
çļĦ éĩįè¦ģ
éĺŁ ä¼į
å¯» æī¾
åĽŀ å®¶
c ript
èĴ ¸
ĠçļĦ æĪĳ
æĽ´ æĸ°
ĠåĨħå®¹ ç®Ģä»ĭ
Ġæİ ī
Ġhouse hold
æ£ ĭ
ç¼ Ŀ
at o
æĮĳ æĪĺ
çļĦ æĸ¹æ³ķ
æŀľ çĦ¶
ĠçĶ ±
Ġar ch
Ġç§ ĳ
ĠCent er
å¤ļ æ¬¡
å´ ©
W h
ĠPe ople
» çĴĥ
Ġ `
b l
åįı è°ĥ
ĠåŁ İ
Ġt our
Ġéļ¾ éģĵ
å·¥ èµĦ
çľ¼ åīį
å±ħ æ°ĳ
Ġestab lished
æİĴ åĲį
ä¸¥ æł¼
Ġ _
æĤ Ħ
æĺ¾ å¾Ĺ
Ġimp act
ä¾ į
ĠæĢ Ŀ
çĻ¾ åº¦
æĬĢ å·§
çļĦ åŁºç¡Ģ
æĦŁ æŁĵ
è£ħ å¤ĩ
Ġ ä½ķ
è¡¨ æ¼Ķ
åĮº åĪ«
èĳĹ åĲį
æįŁ å¤±
Ġå®¶ éĩĮ
Ġoff ice
åŃĲ éĩĮ
äºĨ åĩł
Ġrecomm end
æŁ ľ
ĠIs land
å®Į æķ´
ĠJ ust
e xt
ç´ł è´¨
Ġä¸¤ å¤©
Ġåį ´
ĠæĹ© ä¸Ĭ
éĺ Ķ
åĬ¿ åĬĽ
ĠæĪ ¿
Ġp ur
u el
ä¸¾ åĬŀ
Ġsh are
åĽº å®ļ
ĠG od
res h
åŃ¦ å®¶
äºĨ åĲ§
æİ¨ å¹¿
åľ¨ ä»ĸ
çĺ ¤
Ġd one
G B
uf act
ä¹ĭ åĬĽ
ific ation
å§ ¨
Ġcan not
èħ º
min ist
en ed
æĸ ĳ
Ġå¤ ľ
ä»İ æĿ¥
Ġh istor
è¿Ļ æīį
å§ ¬
ĠæĬ ¢
å®Ŀ å®Ŀ
re st
Ġan im
èĽ ®
Ġ ess
äºĨä¸Ģ äºĽ
Ġl ink
ĠH ol
åĩ ½
idd le
å§Ķ ä¼ļ
Ġpos ition
Ġg en
Ġæľ ª
ä¼ ª
ĠP at
åıĪ æĺ¯
å¤ĸ éĿ¢
Ġåĵª ä¸ª
é¢ ¤
æīĭ æľ¯
Ġun ique
ĠéĻ Ħ
ĠCanad a
y ear
å°± æľī
åĵª ä¸ª
Ġdisc uss
ä¼¤ å®³
çľ¼ ä¸Ń
Ġåį ¡
èĪª ç©º
ĠåİŁ æĿ¥
å½ĵ åĪĿ
k y
Ġoff ers
f ield
Ġprodu ction
æĿĤ å¿Ĺ
Ġç¬¬ åħŃ
Ġinclud es
æľĿ çĿĢ
çĽ¸ äºĴ
æĢ» ç»Ł
g ress
Ġè® ¾
ĠæĮ ī
æ¯Ķ ä¾ĭ
åĳ¼ åĲ¸
æ·± åħ¥
ä¸į åĬ¨
Ġh ours
ĠçĲ ĥ
Ġpriv ate
å» ī
ĠåĻ ¢
åĽ¾ çīĩ
æİ¥ è¿ĳ
w ood
çŁ Ľ
Ġa p
Ġå¤ ¸
Ġl ate
åģļ å¥½
è´ ¾
å¦ ®
ĠM r
Ġæ£ Ĵ
æ¸ Ĭ
ç»´ æĬ¤
Ġè¡ ¥
Ġcol or
Ã ¼
Ġtra vel
Ġä¸Ģ å¹´
ä¸ĭ åįĪ
Ġå° ½
ä¸į åİ»
¨ æĻļ
ell ing
Ġst e
åĪ© äºļ
ä¸Ĭ ä¸Ģ
ä¹Ł åľ¨
æ» ¨
ç¬ĳ äºĨ
çĶ¨ æĿ¥
n y
æĻ °
Ġåģ ¥
ä¼Ļ ä¼´
amp ions
é«ĺ æīĭ
åĴ ĸåķ¡
ĠæĿ ¨
æŃ¤ å¤ĸ
çº· çº·
Ġä¸ ¢
Ġæ¯ķ ä¸ļ
ĠDav id
åı¯èĥ½ ä¼ļ
Ġå¤ į
çļĦä¸Ģ ç§į
ä¿® å£«
æĩ Ĵ
Ġopt ions
ä¸į å¤ª
æº ĥ
çĹĩ çĬ¶
ĠæĴ Ĵ
éŁ ¦
åįĹ äº¬
ç±» çļĦ
og le
æ³ķ éĻ¢
ĠSt reet
å¹´ æĿ¥
Ġå Ħ¿
éĶĻ è¯¯
99 1
Ġcont rib
èİ İ
çĹħ æ¯Ĵ
ä¼ļ è®¡
éĢĤ åºĶ
n es
äºº æķ°
åĽŀ äºĭ
è¾ ©
åĪ¶ å®ļ
ĠéĹ ¨
ä½ Ĳ
ĠçĻ ¾
Ġéħ į
Ġex ist
Ġä¸Ģ åı¥
æµĻ æ±Ł
åĪĨ åŃĲ
è¯ķ éªĮ
èĨ Ģ
Ġm ind
åĮħ åĲ«
Ġå¿ĥ éĩĮ
è´¡ çĮ®
Ġè¯ķ è¯ķ
ur b
æĪĳ è§īå¾Ĺ
éĩı çļĦ
ç¡ķ å£«
è· Į
Ġde al
åĶ ī
æ¯« ç±³
Ġqu ick
Ġpartic ip
å± ģ
ib ility
ar ing
op y
èī ³
Ġeas y
id ed
ĠåĲİ æĿ¥
æľº åľº
Ġèħ ¿
å² Ń
Ġd er
æľ¬ ç§ĳ
ig ital
è´¹ çĶ¨
ä¸º ä½ķ
B A
çļĦ ç¡®
ĠèĦ ĳ
å¹³ è¡¡
ĠéĻ¤ äºĨ
å¯¹ çĿĢ
èĳ Ľ
Ġæŀ ľ
å¨ ĩ
Ñ Į
ĠæľŁ å¾ħ
h ib
Ġå ŀ
åŁºæľ¬ ä¿¡æģ¯
åĮ Ģ
ĠåĪ Ŀ
Ġp ack
ear ch
Ġn ov
at form
çļĦ èĢģ
it ute
ä¿ ±ä¹Ĳ
çĲ ³
çĲĨ äºĭ
æķ ¦
ĠE ast
Ġm om
Ġe y
åī ª
Ġtechn ology
åıĮ æĸ¹
èµ Ķ
Ġf all
åĨĽ çļĦ
ĠC our
Ġiss ues
é¢ Ī
æ¸ ł
ou ps
ĠP ort
åĵª æĢķ
Ñģ ÑĤ
ĠåĬŀ æ³ķ
ãĢĭ ãĢĬ
Ġro ad
æ° Ľ
Ġtit le
Ġwh ite
Ġl og
Ġæµ ª
åĤ ¬
ĠEng land
Ġpot ential
åĿĲ åľ¨
éĤ£ ä¸Ģ
Ġpart y
ud e
Ġsignific ant
Ġæ¼ Ĥäº®
éŃĶ æ³ķ
æ¶ī åıĬ
Ġper fect
Ġm iss
åľ¨ äºİ
Ġplay er
4 8
è¯¦ ç»Ĩ
åİĺ ç±³
çĪ ½
åįı è®®
çĸ ı
Ġpr im
W e
åİ ī
çŃĸ çķ¥
æ¯« æĹł
æĪĲ å°±
Ġç« Ļ
çĪ ¬
Ġpolit ical
åıį å¯¹
Ġfoot ball
æĳĦ å½±
ĠIn ter
Ġåıª è¦ģ
æľī å¤ļ
Ġb orn
Ġæ¯ķ ç«Ł
è®¤ çľŁ
Ġè¾ £
m ing
Ġæ ®
T V
åīį éĿ¢
ist ic
çļĦ åİŁåĽł
æİ ©
åį µ
co ver
Ġé£ Ł
è§Ĥ çĤ¹
ä» ²
U S
av a
çĥĪ çļĦ
Ġh ope
ĠE m
O M
çº¢ èī²
Ġdid n
éĿ¢ ä¸Ĭ
åĽ Ĭ
Ġåľ Ł
çļĦæĥħåĨµ ä¸ĭ
Ġto ol
end s
éĢ »è¾ĳ
Ġm ix
ul es
å±ķ ç¤º
Ġbene f
é«ĺ éĢŁ
ens us
æĭ ¾
4 7
æĦı åĳ³
ad u
å¯ Ħ
ĠåĲį åŃĹ
ç¬ ¼
Ġint rodu
Ġåĺ ¿
åı¯èĥ½ æĺ¯
Ġè¯ Ń
ĠæĢİä¹Ī æł·
lect ed
Ġä¸į çĦ¶
´ å°¬
Ġthough t
è´¢ æĶ¿
Ġprot ect
çļĦ åŁºæľ¬
Ġæ¬ ¡
Ġadd ed
Ġc aus
Ġwrit ten
èĳ ¡èĲĦ
Ġo p
è¡¥ åħħ
ĠL ist
Ġåģ ľ
if ul
èĭ± æĸĩ
éĥ½ æ²¡
ĠNew s
Ġsome one
èĸ ª
Ġcomm it
Ġth ing
é«ĺ ä¸Ń
ä¼¼ çļĦ
Ã ¶
âĢ ĭ
Ġç® ¡
Ġå· ¦
Ġd est
ĠåİĨ åı²
çº ²
âĢĶâĢĶâĢĶâĢĶ âĢĶâĢĶâĢĶâĢĶ
Ġn atural
æ²³ åįĹ
åŃ¦ ä½į
m on
ĠÐ ¿
ĠA ut
æĹ¥ åŃĲ
å¹¶ åľ¨
çļĦ èº«
åŁº äºİ
Ġpass age
å© ´
çł ĸ
Ġin ternational
ĠM ore
åĶ ¤
ĠF irst
éĩį è§Ĩ
ä¸Ģ çľĭ
åģļ åĩº
ĠåĲ ĵ
Ġsh ows
ach ing
åĪĨ äº«
ĠK e
æľŁ å¾ħ
ĠçĲĨ è§£
éĥ½ åı¯ä»¥
å§ĭ ç»Ī
åĵģ è´¨
ä¸ Ľ
ĠD ay
Ġcl ub
ç»Ļ ä»ĸ
åħ¥ äºĨ
å¥ĩ æĢª
ĠM usic
A D
ç¢ ³
Ġa chie
Ġ ä¹Ŀ
ĠåĨ °
ç»¿ èī²
Ġè ĳ
ec ut
Ġcon nect
å¤ ¸
Ġide a
æ· ĺ
éŁ µ
å¤ ķ
a it
æ£® æŀĹ
åĮº çļĦ
æĺ¯ çĶ±
rid ge
a ult
æĪĲ çĨŁ
Ġf ail
ç¿» è¯ĳ
çħ ¤
pecial ly
å¹´ é¾Ħ
om in
åħ¨ æĿĳ
æĲ ¬
æ¼ Ĥäº®
Ġt ax
è¥¿ åĮĹ
Ġé ¾
ĠAcc ording
ĠåķĬ åķĬåķĬ
ĠJ ames
æ°Ķ çļĦ
0 9
ä½ł è¯´
Ġä½ł å¥½
b orn
Ġå¦Ĥ ä½ķ
c i
æĤ ¦
æ¬ º
Ġtra ck
ap t
Ġs old
èĢĮ ä¸įæĺ¯
98 8
Ġprofess ional
Ġeduc ation
Ġé ¼
Ġ äº¤
Ġob ject
è¿Ľè¡Į äºĨ
Ġf ire
ĠB u
èĤ ¾
iv il
å¥ ĳ
éħ ±
ä¸ľ åįĹ
s y
Ġèĭ ı
s et
é£ŀ è¡Į
åŃ¦ èĢħ
Ġgr ound
æī ¯
Ġt re
å£ ¤
ç´§ å¼ł
éĢ Ĭ
åİ ¨
ain ing
ĠæĶ¾ åģĩ
c ks
ĠO ther
Ġl ed
ç³»ç»Ł çļĦ
ĠO ff
æŀģ ä¸º
è¿Ļ ä¸¤
Ġt alk
ĠåķĬ æĪĳ
çī¹åĪ« æĺ¯
olog ical
Ġä¸Ģ äºĽ
åģļ äºĨ
ä¿® ä¸º
æ¶ Ľ
æ·¡ æ·¡
ĠB ook
ç¾ ŀ
98 9
a ign
äºĴ çĽ¸
åı Ľ
Ġdesign ed
æ· ĭ
ä¸ĭ æ¬¡
å¾Ĺ äºĨ
97 0
æĬ ļ
ä¸ ĺ
ä¸Ĭ æĿ¥
Ġfr ont
çĶŁ æĹ¥
ar get
Ġè· ³
Ġ äº§åĵģ
æ¼ ł
g ar
é¦ĸ æ¬¡
çĻ½ èī²
åĲĮ æĦı
ç¼ĸ è¾ĳ
Ġåİ ĭ
Ġé¢ ľ
ĠæĿ ¡
ain t
éľ² åĩº
æĢ» ç»ĵ
æŁ Ħ
Ġh om
ä¸Ģ å®¶
u als
çĭ Ĳ
å£° éģĵ
é»Ħ éĩĳ
è®¾ ç«ĭ
av ing
æŁĲ äºĽ
å®¹ éĩı
çºª å¿µ
æī ĩ
å¹¶ éĿŀ
Ġwhe ther
åĨ »
æĿĢ äºĨ
Ġè¶Ĭ æĿ¥è¶Ĭ
å¤§ åĵ¥
çŃī å¥ĸ
Ġart icle
Ġc ode
av es
ĠN et
ĠC ons
åĳ ľ
Ġå·® ä¸įå¤ļ
æĽ °
ä½ĵ åĨħ
Ġd r
å°ĳ å¥³
ĠL aw
éĩĩ åıĸ
Ġt aken
æħ Ī
è¿Ľ æĿ¥
' d
it ar
Ġprovid es
ĠLe ague
ä½ĵ çİ°
çī ¢
çĤ¹ åĩ»
èĬ ¬
å¤§ äºĨ
Ġâ Ĺ
æĻ ĥ
ĠåŃ ĺ
å¿ħ çĦ¶
èŃ¦ å¯Ł
Ġresult s
è¡ į
cept ion
Ġ2 9
æŃ ī
Ġå¹´ è½»
Ġå£ °
ç¼ĵ ç¼ĵ
çĲĨ æĥ³
st r
ĠR ober
æ³ Ħ
ä¸Ģ èĦ¸
äºº å£«
ĠæĢ İ
çĻ¾ ä¸ĩ
ĠåĪ ¶
R E
åĬ¨ çļĦ
Ġam ount
Ġh on
è·¯ ä¸Ĭ
Ĵ æľį
æĺ¯ æĮĩ
Ġè ĵ
æĪ Ī
ens ive
éģĵ çļĦ
äºº åĿĩ
Ġst ay
åĽĽ å·Ŀ
P C
éĤ£ è¾¹
å¼Ĥ å¸¸
ĠæľĢ å¥½
ĠY our
Ġen ergy
åĵ Ł
oy al
h tt
ĠS im
éģ µ
Ġan sw
Ġb it
ic o
Ġp aren
te xt
Ġper cent
å°± ä¸ļ
åĥı æĺ¯
åĲĦ ç±»
çłĶ åıĳ
Ġreg ard
è¿ĺ å¥½
èĴĻ åı¤
Ġæľī äºĽ
åĲ ¨
ut er
æĦŁ æĥħ
å¹¿ åľº
ĠInd ia
ĠAustral ia
Ġwrit ing
åĩºçİ° äºĨ
ä¸Ĭ ä¸ĭ
ĠåĲĮ åŃ¦
ä¸Ģ äºº
çª Ŀ
ic les
Ġç³ »
æĦı å¤ĸ
ĠçĪ Ĩ
i res
hip s
å·¨ å¤§
Ġå° Ĩ
åľ° ä¸ĭ
åı¯ è§ģ
çĪ± æĥħ
åı¤ ä»£
è®° èĢħ
Ġbu y
æ²¡ ä»Ģä¹Ī
Ġimpro ve
ou ble
Ġatt ack
Ġtra ining
Ġn orth
æľĢ å¥½çļĦ
ĠâĢ ¢
æĶ¯ ä»ĺ
ĠInd ian
Ġåķ Ĩ
Ġäºº çĶŁ
åº¦ çļĦ
æĮ ¤
ä¿±ä¹Ĳ éĥ¨
åľ° äº§
ĠIn c
ĠT own
çıŃ çīĻ
eng th
Ġç¼ ĸ
å¼ ¦
Ġadd itional
ĠI m
Ġf avor
ĠB er
åħĭ æĸ¯
Ã ¤
çĸ¯ çĭĤ
éª ¤
æĸ ľ
ä¸į è¯´
çĤ¹äºĨ çĤ¹å¤´
å¤´ åıĳ
æĪĺ åľº
çĭ¬ çī¹
Ġåģ ·
ç¢ §
ĠæŃ£ å¸¸
èĹ ¤
Ġa ction
ä¸Ń åħ±
cent ury
èĤ ĸ
ĠéŁ ©
Ġwork ed
åį ľ
éĹ¨ åı£
æ³ ³
ç§ĺ å¯Ĩ
ac hed
Ġt aking
ä¸Ģ åıª
Ġb ase
åħ· å¤ĩ
Ġrec ogn
Ġcl os
ç¾ ¡æħķ
åŁºæľ¬ ä¸Ĭ
ĠO f
çļĦ æł·åŃĲ
åľ¨ ä¸ŃåĽ½
ed s
ip le
çĵ ·
æĶ¹ åĸĦ
æµ ¦
Ń å·ŀ
at ory
ĠR ich
ĠCh ina
Ġmod ern
ĠæĬ Ģ
ĠçĶ ľ
ĠéĢĤ åĲĪ
å°Ĩ åħ¶
5 6
ä½ł å¥½
ä¸ī äºº
tern et
Ġent ire
ĠM ag
Ġel se
is es
Ġpoint s
è¯ ±
èĳ ¬
Ġeff ort
Ġæİ¨ èįĲ
Ġcl ose
éĩį çļĦ
å¢ŀ å¼º
ä¹Ł å¾Ī
ĠWh ite
ĠçĦ¶ èĢĮ
å®ļ ä½į
Ġçľ¼ çĿĽ
ĠP aul
çº§ çļĦ
è®¾ æľī
Ġproble m
æīĵ éĢł
åĩĨ ç¡®
åıĮ æīĭ
ä½ı æĪ¿
Ġf ace
Ġd ate
æĢ» æĶ¶åħ¥
Ġmention ed
at ur
æĸĩ çĮ®
è¯» èĢħ
å¦ ĥ
çĶŁ éķ¿
æľº çļĦ
é¹ ¿
Ġä¸Ĭ æµ·
åĬ Ŀ
Ġæĺ ¥
ĸ åŃĲ
æĥħåĨµ ä¸ĭ
Ġre lease
ĠO ver
æħ İ
æĺ ı
æ¤ ħ
çĶ» éĿ¢
Ġåħ ĥ
Ġtr ue
4 6
ç© ´
b oard
or ry
i us
d en
Ġsuccess ful
äººæ°ĳ åħ±åĴĮåĽ½
ä¸» é¢ĺ
ĠéĤ£ éĩĮ
ä¸¾ è¡Į
ou ch
å® ª
åŁ ĭ
ä½ľ æĪĺ
çļĦ è¯´
Ġman ufact
å¨ģ èĥģ
Ġst ar
Ġte levision
ĠçĮ ª
Ġdoes n
åĲĮ å¹´
ä¸ĭ éĻį
Ġb oard
æĬ Ľ
ĠD uring
äºĳ åįĹ
çĶŁ æ¶¯
Ġç¬¬ä¸ī èĬĤ
Ġe ither
å¤« äºº
Ġd ied
çħ ®
ĠåĲĦ ç§į
å¿į ä¸įä½ı
Ġdo ing
è´ º
ç¾İ ä¸½
å±Ĥ æ¬¡
è¿ĺ ä¼ļ
è¾ĵ åħ¥
äº Ń
fic ult
éļı åį³
7 6
é»ĳ æļĹ
Ġde g
Ġçĸ ¯
ç¬¬ äºĶ
æ·± åľ³
ä¸Ģ æĬĬ
ä¹ĭ å¤Ħ
am er
åı ī
äº² èĩª
Ġä»Ĭ å¹´
Ġf ather
ou l
æ°ĳ åĽ½
éĤ£ æĺ¯
0 3
è¢« äºº
led ge
å°ı ç»Ħ
Ġ| |
Ġå¥ ĩ
Ġorig in
cl us
Ġthrough out
Ġ è¿ĳ
é¹ °
çŁ ©
åŃ¦ çļĦ
Ġd am
ov ed
ĠI SB
æµ· åĨĽ
åŀĭ çļĦ
æĻ ´
er c
åŁº åĽł
v an
æ¸ħ æĻ°
åºĶ çļĦ
ĠM or
½ åŃĲ
ĠçŁ ¥
h a
ĠM il
ĠISB N
Ġç¤ ¼
Ġ ri
Ġinc ome
èħ Ĭ
Ġæ°¸ è¿ľ
ĠD is
è¥¿ æĸ¹
Ġå¤§ åŃ¦
è®° è½½
ä¼ļ çļĦ
Ġå® ¿
è§ģ è¿ĩ
98 4
ad o
æł¼ åħ°
ĠæĬ ĵ
ĠCh urch
éĺ² å¾¡
P U
Ġè° Ī
Ġa ward
ĠD irect
çĲĨ çĶ±
Ġem ail
96 0
å±ķ å¼Ģ
Ġbook s
æħ Į
Ġreg ion
Ġc ele
æĢ§ è´¨
e es
æ±¡ æŁĵ
è¿Ļ è¾¹
é«ĺ çŃī
ç² ĺ
å¹³ æĹ¶
é¹ ı
Ġéģĩ åĪ°
ok e
èĦĳ è¢ĭ
æ¡ Ĥ
çķĻ ä¸ĭ
Ġè´ µ
Ġc ell
ĠJ e
æģ ¼
èµĽ åŃ£
äºĨ åĩºæĿ¥
Ġy et
at ter
Ġ ill
98 7
Ġc red
æĸ½ å·¥
çľĭ åĲĳ
ĠG reat
ĠæĹ© çĤ¹
ĠD an
Ġexp ress
et y
å¹´ åºķ
å¯ ¨
ĠTh om
ĠM em
èĮ «
Ġw ind
åľ° è¯´éģĵ
Ġä¸į å¤Ł
åĺ» åĺ»
åİ ¦
ĠåĿļ æĮģ
P h
Ġrec ent
åĪ© çļĦ
å®¶ éķ¿
ĠåĨ ¬
Ġç»ı å¸¸
äºĨä¸Ģ å£°
Ġdif ficult
Ġå°± è¦ģ
æķ° çļĦ
ä¸į å¯¹
ĠW ash
ĠçĶ· äºº
Ġgr oups
Ġå ©
å¦ ¥
ĠC ouncil
è° ¨
Ġre ason
Ġå¤ Ł
Ġç»Ī äºİ
Ġæ± Ł
Ġçī ©
im ately
å¤Ħ çļĦ
èĭı èģĶ
Ġ ä¿®
Ġcle an
åĴ ³
. )
èī ĺ
çł ¸
æĦı å¤§åĪ©
ä¸ī åįģ
èĪ Ł
æĢİä¹Ī åĬŀ
æıĲ åīį
ĠåĤ »
æİ¨ åĬ¨
Ġæľ į
Ġes pecially
æĪĳ è¯´
éĥ½ è¢«
ĠJ ack
Ġé¢ Ħ
Ġins p
ä½ł è¦ģ
Ġinfl u
çļĦä¸Ģ äºĽ
Ġå®Į åħ¨
Ġs outh
è¿Ļä¸Ģ çĤ¹
æ´ Ĵ
n et
Ġinst all
æī¿ è®¤
Ġbr and
98 6
Ġd iv
æĢĢ çĸĳ
åĩł å¤©
æĬ ¥éģĵ
ĠP ost
Ġloc ation
C D
ibr ary
åı¯ çĪ±
Ġget ting
è®© ä»ĸä»¬
and er
çľĭ åĪ°äºĨ
ä¸Ń åĮ»
Ġå® ³
Ġcurrent ly
éļı ä¾¿
å¾ª çİ¯
I t
Ġf ile
åį §
b ased
å· «
Ġh ous
Ġhtt ps
æĶ¶ çĽĬ
æ°§ åĮĸ
ä¸» è§Ĵ
Ġpro p
æ²¡æľī ä»»ä½ķ
Ġrequ ired
éĹ®é¢ĺ çļĦ
éħį ç½®
æĹ¶ åĪ»
ĠU s
Ġquest ions
åħģ è®¸
èŀ º
éĶ ¡
S T
Ġå² ģ
æµ Ĩ
- >
Ġres pect
al ys
f ort
åľº æĻ¯
ĠR oad
åĪĽ ä¸ļ
ĠåĿ ı
Ġman agement
ä¸Ģæł· çļĦ
M P
ÑĢ Ð°
Ġpl atform
ĠåĢ ¼
Ġæ³ ķ
åı¯ æĢķ
çŀ ª
ĠS en
H z
åľ° ä¸Ĭ
Ġw alk
du c
est s
å¼ ĵ
Ġro ck
at ives
re m
» çĤ¼
Ġconsider ed
ĠH all
çİ »çĴĥ
èº« åĲİ
åĭ ¾
å¹¼ åĦ¿
Ġin j
éĢ Ŀ
ä¸»è¦ģ æĺ¯
è§£ æĶ¾
ä¼Ĺ å¤ļ
ĠP al
ĠéĢī æĭ©
æĭ ¨
Ġg ra
è·¯ çº¿
ĠS ure
Ġbeh ind
å¸Ĥ éķĩ
ĠÐ ²
å¾Īå¤ļ äºº
ĠæĽ ¾
å°Ŀ è¯ķ
æ¼Ķ åĩº
ĠEurope an
Ġå¸ ¸
Ġpres ident
Ñ ĭ
ru g
ī å¿«
Ġä¸ ĳ
ĠS l
ĠB el
æŃ» çļĦ
Ġsystem s
Ġé ĨĴ
çłĶç©¶ çĶŁ
Ñ ĩ
æľ ´
èĲ Ŀ
ĠéĿŀ å¸¸
or der
æİ¨ è¿Ľ
b and
Ġreg ular
çĶŁ åŃĺ
æµģ ç¨ĭ
Ġpr ice
re l
å®¶ äºº
ç¾¤ ä¼Ĺ
Ġsub ject
åĪº æ¿Ģ
Ġæħ¢ æħ¢
et imes
ĠçĶµ è§Ĩ
è¥¿ åįĹ
ĠA re
ĠN ow
æ²Ł éĢļ
åĲĪ éĢĤ
âĢĿ (
åħ¬ åŃĲ
èĻ ¾
Ġw atch
==== ====
å¤§ æĪĺ
ĠRep ublic
Ġchang es
Ġproper ty
æ¯ı ä¸Ģ
æĪĳ åľ¨
ä»£ çĲĨ
Ġåı¦ å¤ĸ
c m
Ġæļ ĸ
Ġåı °
ad d
éĺŁ çļĦ
Ġact ually
æ¶Īè´¹ èĢħ
éĤĢ è¯·
E L
è® ¶
ä¸ «
ag o
çī© çļĦ
ç½ĳ ä¸Ĭ
å½¢ æĢģ
Ġfil ms
æļĤ æĹ¶
ç¬ĳ å®¹
èĪ Į
ĠæĻ º
è¦Ĩ çĽĸ
æĲ º
Ġus ually
02 3
Ġcontin ue
åį± æľº
éģĵ å¾·
ä¼ĺ è´¨
Ġl ab
ä½ł å°±
Ġh it
æĺ Ń
æµģ è¡Į
è¯· éĹ®
qu e
Ġm us
èĶ ¡
äºĭ åĬ¡
è½¬ ç§»
ĠGr oup
Ġ ä½ľèĢħ
Ġnet work
åĵ¥ åĵ¥
Ġens ure
om b
Ġæ¥ ¼
ĠDep artment
çĶµ æ±ł
çļĦ åħ³ç³»
æĢ§ æł¼
å®ĺ æĸ¹
ç¼ ł
Ġb i
Ġf it
æĮĩ æłĩ
è¿ĺ åı¯ä»¥
Ġannoun ced
Ġåį °
Ġæĥħ åĨµ
ĠGe orge
ĠæĪ ĺ
Ġç« Ł
Ġ ä¹Ĳ
åįļ çī©
eder al
ĠçĶ· æľĭåıĭ
æĪĳ ä¸į
ell ow
o ice
Ġå§Ĳ å§Ĳ
Ġse par
äºļ æ´²
è¾ĵ åĩº
Ġep is
Ġä¸į ç®¡
Ġfriend s
çļĦ æ°´
en ing
çŃĶ åºĶ
Ġst aff
éĵ ĥ
èĬ Ŀ
å¾Ĺ åĪ°äºĨ
Ġne cess
Ġiss ue
ĠçŃ Ķ
ro te
a ction
ä½ľ å®¶
8 9
ro wn
ran ge
ĠB est
id ents
æ³ķ çļĦ
Ġto ld
å¸ Ĳ
ç©¶ ç«Ł
Ġæ¬ ¢
çĹĽ èĭ¦
Ġpro b
è¶ĭ åĬ¿
Ġp aper
çŃī å¾ħ
Ġwho le
ĠQ ue
Ġal most
Ġé¾ Ļ
æĪĺ å£«
Ġfin ancial
Ġ ä¸ľ
Ġus er
Ġre v
ĠåĪ ·
æĲľ ç´¢
ay er
èŀį åĲĪ
ä¾Ľ åºĶ
Ġè¾ Ľèĭ¦
åĨ ¯
åħ¨ èº«
ĠHe alth
C l
ĠéĽ ª
Ġå®¿ èĪį
æĹģ è¾¹
ĠS am
Ġå ¡
ro id
st on
Ġfamil ies
ve y
ast ic
å¾Ī å°ĳ
sel ves
è¯Ħ ä¼°
ĠèĽ ĭ
osp ital
R e
Ġr out
ĠçĶµ è¯Ŀ
O T
ä¸Ŀ æ¯«
ä¸į ä¹ħ
ut ed
ĠæĢ ª
åħ± äº§
å¹¿ æĴŃ
èī² å½©
è´§ å¸ģ
åħ± æľī
ç»´ æĮģ
éŃ ħ
Ġlik ely
è° ¦
æĻº æħ§
ĠU p
çĪ ¹
Ġm er
éľ ľ
èĥ½ æºĲ
ĠæŃ ¦
ĠB us
å¼º è°ĥ
Ġf ig
Ġ ä¿©
h ood
Ġbro ad
å¹² éĥ¨
æĦŁ è°¢
å¤§ çº¦
è¿Ļä¸ª æĹ¶åĢĻ
r up
Ġt akes
Ġresp onse
æ¯ı ä¸Ģä¸ª
èº ¯
ç»Ļ äºĪ
id a
èī¯ å¥½çļĦ
çĿ ģ
un k
ber t
Ġbec om
Ġæ¨ ¡
éĢļ çŁ¥
Ġplay ing
Ġèµ Ħ
åĵ² åŃ¦
èµ ´
éĢī ä¸¾
ĠåĲ ĳ
é ¥¿
å¤´ çļĦ
Ġcomple te
æ» ¤
c ol
åĿ Ĭ
èľ Ĥ
ĠåĨ ³
æ¸Ĳ æ¸Ĳ
äºĮ äºº
æī¹ åĩĨ
çĽ¯ çĿĢ
é«ĺ åħ´
it ect
æĹł å¥Ī
Ġdef in
èĤ¡ ç¥¨
Ġåº Ĺ
Ġåĺ ´
æĹ º
çļĦ ä½ľçĶ¨
ä¸º ä¸Ģ
æł ª
ar ies
Ġå¤ Ħ
éĵ Ń
ĠåĮ ĸ
ç»Ĩ èĬĤ
l ight
å¦Ĥ ä¸ĭ
åĭ ĥ
Ġcount ries
g ing
air s
Ġèĵ Ŀ
æĢ§ åĴĮ
** **
Ġst ri
æĭ ¦
Ġlead ers
ä»Ĭ æĹ¥
Ġåħ ¥
èħ »
å¹³æĸ¹ åħ¬éĩĮ
Ġr ather
åĲİ æľŁ
Ġs al
èĩª æ²»
Ġæīį èĥ½
k a
åħ Ķ
Ġåı ¤
æ¼« çĶ»
Ġcolle ction
Ġp ict
åĵ Ģ
èĢĮ æĿ¥
çĮ ´
ç¼º ä¹ı
Ġl ost
Ġç± ³
é¢ ģ
ĠY ear
åĪ° è¾¾
Ġ ä¹ħ
ç½Ĺ é©¬
æĿĥ åĪ©
å® ł
ĠA ward
p ly
Ġint e
est ival
è¿Ļä¹Ī å¤ļ
k i
ç§ĺ ä¹¦
Ġå± ı
èµ Į
æ¹ĸ åįĹ
è¥¿ çıŃçīĻ
å± ł
ä¸Ģ è·¯
oc al
äºº ä½ĵ
æľĢ ä¸º
Ġç¬¬ ä¸ĥ
? ?
çĨ Ļ
åĨ² åĩ»
Ġè ¸
Ġrel ated
Ġass oci
è®¤ è¯ģ
Ġæīĵ ç®Ĺ
Ġwor ds
ä¸¤ å¹´
çļĦ èĥ½åĬĽ
æİ¢ ç´¢
ĠAss ociation
v in
é Ħ
Ġindivid ual
M A
oc r
åĶ ĩ
97 8
Ġcamp aign
z z
çļĦ æľºä¼ļ
Ġ ä¸ĵä¸ļ
çĭ ®
Ġp ark
éļı æĹ¶
ä¸Ģ åľº
èĩª ä¸»
Ġcour t
å· ħ
åı ł
æŃĮ æīĭ
ĠO ut
all s
çļĦ åĲĮæĹ¶
Ġne g
æł¼ å¼ı
æ°ĳ éĹ´
æ³ķ è§Ħ
ç¿ Ķ
Ġactiv ities
æŀĦ æĪĲ
Ġæ ½
è¿ĺ ä¸į
Ġvill age
æ±Ł èĭı
å½± çīĩ
ç»Ł æ²»
èĢĮ åĩº
Ġneed ed
Ġéª Ĺ
åį° è±¡
ĠPart y
æİ¥ ä¸ĭæĿ¥
ĠM od
ĠGener al
å¯¹ æ¯Ķ
ĠG old
Ġc and
åħ¬ ä¼Ĺ
é¡º åĪ©
æķ ²
Ð½ Ð¸
éĥ¨ éķ¿
ĠæīĢ æľī
ĠL ou
Ġé ¬¼
Ġèµ¶ ç´§
çŃ ĭ
çķ ľ
æİ ĺ
ĠT er
çľī å¤´
Ġsim ple
ĠM ac
ĠJ er
èµ ł
Ġpro te
åĪĹ è½¦
4 2
ĠDist rict
b it
C C
Ġs il
Ġå¸ Ī
ĠM art
ä¹ĭ åľ°
è¿Ļ æĹ¶
Ġåĺ¿ åĺ¿
éľ ī
åı Ļ
çĤ¹ çļĦ
åĴ ĭ
Ġåĵ ģ
Ġright s
éĤ ĵ
Ġt able
å°±ç®Ĺ æĺ¯
éĩį åºĨ
Ġout side
Ġæ ĩ
å·® å¼Ĥ
r ound
æ¡Ī ä¾ĭ
åıª ä¸įè¿ĩ
Ġa f
åįģ ä¸ĩ
åħ´ å¥ĭ
Ġå¾ ®
Ġbeaut iful
æľĽ çĿĢ
Ġac cept
Ġmar ried
Ġ ;
Ġå¿ į
iz ing
éĩį éĩı
ĠåĲ¬ åĪ°
Ġab ility
Ġå¤© æ°Ķ
Ġso on
ĠC ap
Ġo bs
ĠCour t
he m
åģľ æŃ¢
in n
äº¿ åħĥ
çº¿ çļĦ
åįĥ ç±³
Ð¾Ð ²
l ier
ĠG reen
åıĳ çļĦ
ĠåĪļ åĪļ
ĠæĹł èģĬ
ob ile
ĠæĢ» æĺ¯
å¯ Ĥ
Ġä¸Ģ ç§į
ĠWash ington
ä¸Ĭ å¸Ĥ
Ġs we
åĲĥ é¥Ń
Ġprodu ced
ĠT H
åĵģ ç§į
çī¹ æĢ§
augh ter
Ġar g
ä½Ĩ åľ¨
ä¼ĺ åĮĸ
Ġ3 1
Ġmov ed
Ġä¸Ģ åĪĩ
ĠV ol
Ġåĺ »
Ġm other
èĥľ åĪ©
åĨĻ ä½ľ
è¯» ä¹¦
Ġm atch
Ġcent er
Ġv ia
h ing
æĮ £
ĠN or
æŁ ¯
mer cial
æľĢ å¤ļ
æľī æĹ¶
ç¥ŀ ç§ĺ
å°Ĩ ä¼ļ
çĪĨ çĤ¸
Ġter m
ol ic
Ġåĩº éĹ¨
ĠM et
ĠM ary
åı¦ ä¸Ģä¸ª
Ġ< /
98 2
å¤§éĩı çļĦ
æĽ´ å¥½
å« ģ
æĺ¯ è°ģ
se qu
Ġc up
ens ion
çĬ¹ è±«
y pe
ĠE duc
Ġå¯ ¼
éĢļ éģĵ
Ġinst ead
èĥ Ģ
ä¿® æĶ¹
ĠSy stem
? "
ree k
æĬ ¼
ĠæĢİ æł·
Ġdoc ument
æĮĩ åĩº
è¢ į
Ġr ound
ĠæĢ Ģ
98 3
çģ« çĦ°
te e
Ġè¿Ļ è¾¹
è½¬ èº«
æ¶Ī èĢĹ
Ġab s
åħī èĬĴ
Ġå½ĵ æĹ¶
Ġç» ĥ
ĠäºĨ è§£
åıį æĺł
çļĦ çĶŁæ´»
Ġs at
çŀ §
åĦ Ĵ
éĩĬ æĶ¾
ail y
åľ° åĿĢ
9 50
æ¼Ķ åĶ±
Ġ9 0
æ¡Ī ä»¶
ä¸ĵ åĪ©
Ġæ ¹
ä¼ł æĿ¥
Ġç» Ħ
Ġè¯ ¾
Ġatt empt
Ġincre ase
Ġ ä¹±
è° ħ
æ²¡ éĶĻ
Ġb ox
æķ´ çĲĨ
Ġcont ract
åĪĽ å»º
O L
åľ° éĿ¢
Ġæĺİ çĻ½
åĻ¨ çļĦ
çłĶç©¶ æīĢ
ag ing
Ġèµ µ
c ome
ort hern
èĳ ±
æīį ä¼ļ
Ġå¥³ äºº
as c
im ent
éĺ² æŃ¢
Ġp an
ĠMich ael
ĠåĪ° åºķ
ĠB ra
èį£ èªī
åľ¨ å¤§
æĻ® éģį
A r
èī °
il i
ĠTe chn
ic ation
Ġra ce
ä¸Ģå®ļ çļĦ
Ġschool s
è¯´ çĿĢ
çŁ¥ åĲį
ol f
å®ŀ è¡Į
æĪĸ æĺ¯
å®Į ç¾İ
Ġc ard
ä¸ŃåĽ½ çļĦ
ĠT ex
åĪ¶ çļĦ
ä¸į éľĢè¦ģ
ĠComp any
éĤ£ å°±æĺ¯
æĪĲ ä¸ºäºĨ
ç¥ ¸
åĳ³ éģĵ
Ġ6 0
ä¾Ŀ æį®
åĥ §
åį ¿
Ġå¥³ çĶŁ
æ¨¡ æĭŁ
Ġè ¹
Ġlead ing
Ġç¬¬ ä¸Ģæ¬¡
Ġevery thing
Ġs ense
å¡ ĺ
éļ¾ åº¦
ĠéĢ Ģ
Ġèı ľ
åĲĦ èĩª
in ter
ĠæĻ ®
ç»§ æī¿
1 50
åĴ Ĵ
çĶµè§Ĩ åı°
çĻ» è®°
out hern
Ġc irc
ä¾ĭ åŃĲ
ĠPro f
M S
ä¸» ç®¡
ç» µ
ĠåĲİ éĿ¢
å°ĳ æķ°
C on
se c
å·²ç»ı æĺ¯
Ġg old
ä¸įå¾Ĺ ä¸į
ac hes
Ġve h
Ġgrow th
Ġçĥ ¦
ä» Ĺ
äºĨ åĲĹ
èµ° åĪ°
Ġvar iety
ä¸Ģ èĤ¡
ĠL it
g en
Ġåĳ¨ æľ«
E x
åľ¨ æĪĳ
èī ĩ
Ġ ä½ľä¸º
æĻ Ĵ
å« Į
Ġç®Ģ åįķ
Ġç± »
med i
Ġin n
å¤© æ´¥
è§Ħ å¾ĭ
or ing
p ite
çĻ¾ å¹´
éĺ¿ å°Ķ
Ġé¸ ¡
P ro
Ġæ¬ §
éĻ ķ
Ġèİ «
åĪĨ éħį
Ġç» ¿
Ġ ä¼ł
è¶ ģ
åĲĦ åľ°
Ġåĳ Ĳ
æł¡ åĽŃ
Ġter ms
Ġdirect ly
æ»¡ æĦı
alys is
å®ŀéªĮ å®¤
( );
åĨ³ èµĽ
å¿ĥ æĥħ
æĹı çļĦ
å®ŀ è¯Ŀ
e ared
ç¿ ħ
Ġreport ed
å·¥ä½ľ çļĦ
Ġè¾ ĵ
çħ Į
ç¿ ł
Ġread ing
Ġp ers
å² Ĥ
Ġv iol
h an
ĠèĽ ®
ä¸ ¸
Ġè® ¡
u it
æı Ń
ĠèĦ ļ
Ġ ver
Ġw ays
è½¦ è¾Ĩ
........ ........
ar ter
ä¸Ģ åı¥
äºĨ ä»ĸ
åķ ¸
Ġwor d
å¤± åİ»
Ð ¹
ä¸Ńåįİ äººæ°ĳåħ±åĴĮåĽ½
è¿Ļä¸Ģ æ¬¡
Ġag re
B S
Ġåĸ Ķ
Ġinvol ved
Ġtrad itional
åıĺ æĪĲäºĨ
Ġindivid uals
èķ ´
Ġåı¯ æĥľ
Ġ6 5
èĿ ¶
ĠçĽ® å½ķ
ä¸Ģ å¼ł
èĬ¯ çīĩ
åī§ æĥħ
Ġestab lish
ĠèĢĥ è¯ķ
Ġçľĭ è¿ĩ
Ġc ross
ess ion
èĭ ¹æŀľ
æĬĬ æı¡
å°ı å§Ĳ
Ġtry ing
Ġdevelop ed
Ġsong s
Ġc y
æĵ ħ
ç®Ģåįķ çļĦ
çİ© ç¬ĳ
æĦŁè§ī åĪ°
æĺİ çļĦ
Ġèģ Į
Ġvar i
Ġpre vent
èĻ ¹
èĢĮ ä¸į
Ġprom ot
od es
ä»ĸ ä¹Ł
ĠäºĨ éĤ£
æĸ ¥
æīĵ åĩ»
è¥¿ äºļ
o om
Ġg re
Ġlit er
æĥ ¹
Ġä½ł å®¶
Ġæł¹ æį®
æŁ ´
( '
ä¸°å¯Į çļĦ
ä¼ģä¸ļ çļĦ
Ġpl aces
åĨħ å¿ĥ
äºĨä¸Ģ çľ¼
Ġr ate
å¯¹ ä»ĺ
Ġtyp es
ĠçĨ ¬
ĠAr ch
Ġm ach
å°± è¢«
Ġæĥ³ åĪ°
å®Ĺ æķĻ
å¸ Ĩ
çªģ åĩº
æĦıåĳ³ çĿĢ
Ġè½ ¯
ĠP ress
ĠèģĶ ç³»
å°½ éĩı
ä¸ī å¤§
æ¼ Ĩ
Ġhig her
çĳ ¶
E E
æĹ© æľŁ
åĽ¢ ä½ĵ
èĴ ĭ
ĠåĨ ľ
æıĲ éĨĴ
é©¾ é©¶
å°± æ²¡æľī
et ry
é¾ Ł
Ġlat est
Ġå¾ Ģ
çĬ¯ ç½ª
çŁĽ çĽ¾
Ġ âĢĶâĢĶ
it z
Ġåį ³
Ġrec ipe
èº º
èĩª è¡Į
Ġst ates
åĽŀ å¤´
æķĻ ç»ĥ
ĠæĬ ķ
æĶ¶ èĹı
è¿ľ è¿ľ
åĲ Ł
Ġs orry
èĥĮ åĲİ
am ent
Ġä¸ĭ éĽ¨
éĻ¢ æł¡
Ġmil itary
äººæ°ĳ æĶ¿åºľ
ç¼ ´
åĨĻ çļĦ
æĢĿ è·¯
Ġwe b
å¼ ĺ
ĠP ublic
Ġ ä»¬
ĠM ount
æĹ¥ æľŁ
iv ity
çļĦ æ°Ķ
è¾ ±
çĪ ª
Ġim m
å¤ª å¹³
èĩ Ń
Ġm id
ad a
u ge
è¿ĻäºĽ äºº
èĦ ¾
ĠAng el
åıĳçĶŁ äºĨ
ä¹ĭ äºº
y m
Ġæĥ Ĭ
Ġt arget
åįļçī© é¦Ĩ
Ġw rote
er ve
Ġè®¨ åİĮ
Ġ ä»Ļ
Ġs ource
ĠS ing
Ġp ick
ĠFran ce
Ġçı Ń
Ġmov ie
Ġ ãĢĭ
è°ĥ èĬĤ
æłĩ å¿Ĺ
Ġm ass
ĠåĲ Ĳ
Ġè¿Ļ æ¬¡
åħ¶ ä»ĸçļĦ
å¦ Ĵ
ä¸į ä½Ĩ
Ã ¨
Ġå¤ĸ éĿ¢
Ġåĵ ¼
Ġun d
æĨ ¾
ä¸ĵä¸ļ çļĦ
æĪĲ åĪĨ
éĢļ ä¿¡
Ġpl ant
éĽ Ģ
ä½ľ ä¸ļ
é¢Ħ éĺ²
çİ ²
c raft
ĠRober t
Ġde cl
Ġ ing
å¸Ī èĮĥ
h t
Ġh ol
Ġæ¯Ķ å¦Ĥ
ä»£ çłģ
æĬ «
Ġsec urity
pp er
è£ħ ç½®
ä¸Ģä¸ª ä¸ª
éĽĨ ä½ĵ
è´· æ¬¾
Ġcult ure
Ġç«Ł çĦ¶
Ġconc ern
å¤© å¤©
Ġm ount
çĶ¨ äºĨ
ç² ¹
ĠåĶ Ĳ
à ¤
ç °
Ġè´ Ł
Ġpie ce
ĠåĢ Ł
ä¹ĭ åĨħ
ä¸ĸçķĮ ä¸Ĭ
Ġrun ning
ĠL ife
Ġfor ward
Ġag o
i os
çļĦ åĨħå®¹
ĠæĢ §
S S
Ġæ¯ı ä¸ª
Ġ è¿ĲåĬ¨
åŀ ĥåľ¾
çļĦ æĦıæĢĿ
Ġæ ¿Ģ
Ġprogram s
ĠCl ass
Ġ* *
æľī å¾Īå¤ļ
çľ ¸
ub e
Ġsum mer
un t
ä¿Ŀ çķĻ
å µ
Ġåħ ħ
Ġw ife
Ġ Ñģ
çŃ Ĵ
Ġpol icy
as ons
Ġg irl
Ġè§ Ĥ
Ġpol ice
æľĢ åĪĿ
æĥ³ çĿĢ
è ł
è¯ģ æį®
ç¬Ķ è®°
ĠC up
Ġv ot
åĪ° æĹ¶åĢĻ
ĠåĲ ¹
Ġè½ »
ĠæŁ Ĳ
en c
Ġæ³ ¡
Ġsoft ware
ä¸º åķ¥
èĮ ¨
Ġspec ies
Ġtem per
ri an
å·ŀ å¸Ĥ
Ġå½ ¢
ä¸į å¼Ģ
æĥħ æĦŁ
åĬ¨ æīĭ
Ġany thing
æĺ¯ è¦ģ
åĵİ åĳĢ
æĹ¶ å°ļ
ĠR ock
åį ĳ
æŃ£ å¥½
çļĦ å¤ĸ
5 7
ç»ĵ å©ļ
Ġcap t
er ous
Ġæł ĩ
è¡¨ æĺİ
å±ŀ æĢ§
åľ° éĿ¢ç§¯
ä¸¤ ä½į
Ġbelie ve
ä¹ĭ æĹ¶
am s
åī Ĭ
è¿ŀ å¿Ļ
ot a
ore s
è¿Ļ ä¹Łæĺ¯
æµ ´
Ġsa w
ä¸ĩ äºº
9 00
è¿Ļ è¯Ŀ
å® µ
åĲ ¾
Ġåº Ĭ
Ġçı į
è£ħ é¥°
% ;
è¯Ĭ æĸŃ
å¹¿ å¤§
å±ı å¹ķ
å® °
land s
Ġè¯ ¶
ĠCanad ian
m ark
Ġde ep
Ġits elf
Ġcomple x
æľ¬ äºº
æİ¨ åĩº
se y
å¹´ äºº
ä¸» äºº
æ» ©
ä¸į æĪĲ
è¿Ļä¸ª éĹ®é¢ĺ
A A
Ġem b
ĠèĢ ³
ĠL et
çĬ ¬
Ġse ction
Ġup on
Ġdist rib
Ġrest aur
Ġæ²¡ äºº
ill ing
Ġè Ĵ
ĠèĪ Ĵæľį
Ġæķħ äºĭ
ä¸´ æĹ¶
ou b
ce ed
Ġhim self
å¤§ éģĵ
ur t
: (
åįĩ çº§
ic ated
Ġse em
ut h
åĪ ¹
Ġchall eng
éĿ¢ è¯ķ
éĿ ĸ
å°± å·²ç»ı
Ġim age
Ġlong er
å¯¹ ä»ĸ
çł Ĥ
éĨ ĩ
é¸ Ń
Ġcons um
ç²¾ çģµ
ar ning
æī© å¤§
è¿Ĳ æ°Ķ
è¯´ ä»Ģä¹Ī
Ġd en
ç³ Ł
èĢĮ åİ»
çļĦ å°±æĺ¯
æĪ¿ åŃĲ
åĽĽ åĳ¨
Ġv ict
Ġext ra
c el
æ¡ ¶
è¯ģ åĪ¸
ä¸į åģľ
Ġdirect or
Ġapp oint
æľ¬ è´¨
ĠM at
Ġaff ect
æµ ¸
Ġstand ard
Ġpart s
åĽ½ å¤ĸ
le ction
N A
E O
é«ĺ æł¡
åĩ ĳ
ĠB ay
éļľ ç¢į
Ġf resh
Ġpri or
éªĳ å£«
Ġl ower
å¤© çĦ¶
ly ing
ber g
id ing
ĠR oyal
è¯´ å®Į
æ² Ĳ
in ary
ä¼ļ åľ¨
Ġè ĸ
æĺ¯ ä»¥
Ġinvest ig
Ġæī ¿
åĩº åľº
ç§¯ ç´¯
ĠM al
c is
Ġlarg est
ĠåĪĨ æīĭ
ĠåĪ« çļĦ
Ð ·
p an
èĪ¬ çļĦ
Ġå¥ ¶
ä¸º äºº
Ġw ood
æĪĳ å®¶
ä¸Ń æľī
Ġç¡ ¬
Ġåħ³ ç³»
Ġl ives
Ġind epend
å³ ¡
åĭ ĭ
Ġä¸į åĲĮ
Ġcustom ers
éĺ³ åħī
Ġc ases
å¹´è½» äºº
ĠçĿ¡ ä¸įçĿĢ
Ġdec ision
ä¸Ģ ä¸Ŀ
æ£ ī
èĳĹ ä½ľ
å¯Ĩ åº¦
åĩ °
çĶŁ ç´ł
Ġr isk
å¾Ī å¤§çļĦ
æĦ §
I L
ĠP lease
Ġèĩ³ äºİ
å¯¹ å¤ĸ
æĦ ģ
åħ¬ åħĥ
Ġh or
Ġnov el
ĠCl ub
çĩ ¥
Ġpract ice
Ġå¾ ħ
Ġd raw
Ġl oss
èĢĮ åľ¨
æĴ ķ
Ġåı ĸ
ĠAfric an
ĠåĨį è¯´
e ks
ĠM ost
Ġm ale
ĠçĹ ħ
Ġåº ¦
il s
äºĭ æķħ
ĠR em
åĩº åıĳ
å¼ķ å¯¼
å²Ĺ ä½į
ĠO h
Ġ4 5
Ġf ul
Ġçł Ķ
ĠTex as
Ġdis play
Ġwant ed
ä¸į å¤§
Ġs un
çķ ı
éĹ¨ çļĦ
ĠAc adem
Ġold er
Ġt en
ç¦ ħ
æĹł äºº
ĠåĪ Ľ
a res
ou ra
æľĢ æĹ©
Ġsc reen
t ra
åľ° çĲĨ
æĥĬ è®¶
Ġcharact ers
ĠM useum
è¿Ķ åĽŀ
97 9
ĠR oman
ri e
åħ¬ å¸ĥ
Ġele ction
çĸ ²
åĸ Ĥ
Ġ3 2
Ġçľĭ æĿ¥
Ġinit ial
æĶ¹ éĢł
ä¸ĸçķĮ çļĦ
åıĳ å°Ħ
Ġæł¹ æľ¬
ĠL at
èĸ ĩ
éĹ´ çļĦ
éķ¿ æĹ¶éĹ´
æµ· æ´ĭ
Ġç´ ł
å®ļ äºĨ
ĠæĻ Ĵ
ĠSc ott
4 3
æ¸ Ķ
ä½ł åı¯ä»¥
p ose
èµ° åĲĳ
im um
å§ »
ĠSc ience
ĠçĽ® åīį
Ġw ide
ĠS al
æµĭ éĩı
æĳ ĺ
ĠèĢĥ èĻĳ
å®ĺ åĳĺ
ĠLe g
åĭ ī
èµ Ĳ
ä¸į æ¸ħ
Ġå®Ŀ å®Ŀ
è¡Ģ ç®¡
Ġcom ing
å²ģ çļĦ
æī Ķ
æ¾ ¡
pp ed
åĴĮ å¹³
åħį çĸ«
ly mp
is l
äºº ç¾¤
å® ´
åĽ¾ä¹¦ ä¿¡æģ¯
Ġcons ist
ast e
åį ¦
m ission
æĹ© ä¸Ĭ
æĴŃ æĶ¾
éģ ®
åĴĮ è°Ĳ
ĠRes earch
ä¸Ģ èĩ´
Ġéĺ ²
äºº å·¥
åķ §
çľŁ çļĦæĺ¯
ç¨ »
ĠV ir
Ġmed ical
çĽ® å½ķ
Ġ3 5
åĮħ è£ħ
æĸ¯ åĿ¦
ines e
Ġcomple t
éķľ å¤´
Ġs n
Ġw id
ag ed
Ġåĵ¥ åĵ¥
ĠéĤ£ è¾¹
èĢģ åŃĲ
Ġæķ ¢
Ġ è¿·
Ġæ² ¹
orn ing
98 1
è¿Ļ å°±
ĠRe ad
Ġtrans l
èģ ªæĺİ
èĸ Ľ
å·¥ åİĤ
å¼º åº¦
æĪĲ éĥ½
ĠUn ion
ĠA lex
åĲ¯ åĬ¨
Ġp ric
Ġé¦ĸ åħĪ
å¤ļ ä¹ħ
æ ª
å« ©
éľ ŀ
ĠAn n
Ġhtt p
ĠS pe
æĶ¶ éĽĨ
ro s
åĲĳ çĿĢ
Ġs ens
å¾ĭ å¸Ī
Ġè´ ´
Ġåĳ³ éģĵ
t r
åĬ £
æ·· åĲĪ
Ġä»Ĭ æĻļ
å®ŀ çĶ¨
le g
æĶ¯ æĴĳ
ĠM iss
Ġstud ent
Ġapplic ation
it ation
unic ip
åŃ¦çĶŁ çļĦ
æıĲä¾Ľ äºĨ
ĠInst itute
Ġal tern
å¸¦ æĿ¥çļĦ
éĢ ¢
ough t
4 1
æĺİ æĺŁ
è¯¾ é¢ĺ
åĥ µ
ĠF e
Ġp ath
ĠL ake
Ġb all
æ¬ ł
ag er
it a
ĠèĢ ħ
it ter
ĠH ome
èĤĮ èĤī
Ġéļı ä¾¿
Ġæĩ Ĵ
iz es
Ġå°± ç®Ĺ
Ġad j
è¯ģ ä¹¦
è´Ŀ å°Ķ
Ġçĥ §
åĻ ¬
å¹² åĩĢ
åĲ Ĭ
ä¾ ¦
æĬ Ħ
ann el
S h
Ġleg al
U T
ä½¿çĶ¨ çļĦ
ist ry
ĠèĲ §
v is
Ġç¬¬ä¸Ģ çĻ¾
Ġä¸į å¦Ĥ
æİī äºĨ
Ġmain tain
äºī åıĸ
Ġç¾İ å¥½
Ġç´ §
å½ Ń
Ġwon der
åĬŀ çĲĨ
ĠW il
æ²³ åĮĹ
åĮĸ ä¸º
ow ers
Ġçĸ ¼
æĿĳ æ°ĳ
Ġs us
ĠæĻ ĵ
ĠS ub
å·ħ å³°
çļĦ éĢŁåº¦
Ġc oup
äºº åĴĮ
Ġ ut
çĪ± çļĦ
ç» ³
Ġæĺ¯ åĽłä¸º
oun ter
åĽ½ çİĭ
m en
ĠH en
è· ª
å°¸ ä½ĵ
æĵ İ
å± ¥
åĲĪ å¹¶
Ġåķ¥ æĹ¶åĢĻ
æĽ´ ä¸º
çŃĸ åĪĴ
Ġçº ł
è´ ª
Ġ2 00
æĦı å¿Ĺ
ĠGr and
ä¹ī åĬ¡
ĠC ong
4 9
ow l
ç½¢ äºĨ
çļĦ ä¸Ń
å¯¼ å¸Ī
ç»´ ä¿®
éĻ Ľ
Ġrequ est
å±Ģ éķ¿
Ð ¿
on a
åįĬ å¹´
åįı åĬ©
æľĪ ä»½
ĠComm un
1 20
ĠM ont
æł ½
å®ŀåľ¨ æĺ¯
Ġb ad
åĨ³ çŃĸ
op er
å· ¾
ĠF ore
ä¹Ł è¢«
ab y
ĠèĤ ¥
Ġæģ Ĳ
Ġdist rict
d own
åį³ ä¾¿
è¿Ļ ä¸¤ä¸ª
Ġcond itions
ĠP ri
æĹł çº¿
il es
ä¿ º
å¤ª åŃĲ
å¢ĥ åĨħ
z a
ç¡® ä¿Ŀ
ä»¥ ä¸ĬçļĦ
m as
ĠD el
ĠSoc iety
Ġexam ples
çĭł çĭł
èĤ¡ ä»½
rough t
æµ· æĭĶ
åĮ Ĩ
é¢ ĸ
éģ Ĥ
ĠåķĬ ä½ł
ä¿ ±
åĳ½ è¿Ĳ
ĠF re
ĠåĨ ²
Ġopen ed
Ġad minist
å¦¹ å¦¹
Ġus es
az ine
Ġins ide
Ġä¸ĭ åİ»
èĵ Ħ
ç¡® è®¤
Ġteam s
Ġé©¬ ä¸Ĭ
ro y
ç¦ı å»º
U R
éħį å¥Ĺ
è¸ ¢
ĠChrist ian
ä¹¦ æ³ķ
çł į
çļĦ æķħäºĭ
Ġto wards
å®³ æĢķ
ĠR ad
Ġe mer
Ġproject s
Ġaut om
æ¨¡ æł·
Ġknow ledge
Ġc ause
é¢ĳ çİĩ
çļĦ çľĭçĿĢ
Ġqu ite
èĮ Ĥ
æ² Į
Ġus ers
Ġç¥ ¨
å¤§ å¤ļ
ĠèĪ į
Ġs ports
Ġä¸Ń åįĪ
Ġg reen
Ġéĺ ³
ish ing
Ġproble ms
Ġask ed
ĠS um
Ġ8 0
os h
Ġfun d
åĳĪ çİ°
Ġt al
æľ¨ æľī
Ġä¸ĭ æĿ¥
ĠC O
Ġç¼ º
éģ £
å¨ģ åĬĽ
ĠFl or
ren g
æł ĭ
ĠG ood
åĪ ĥ
Ġå· ´
Ġgl obal
ir it
åĨ² çªģ
y th
æĳ Ĭ
he st
åį Ĵ
åį³ å°Ĩ
Ġä¸º åķ¥
Ġå°ı å¿ĥ
Ġæķ Ī
6 7
èº ģ
Ġn ature
å¼ı çļĦ
Ġn ames
å¥½ çľĭ
åħļ åĳĺ
ĠçŁ ³
Ġæĭ ħ
æŃ¦ æ±ī
æĸĩ çī©
èĩª ä¿¡
æ¹ ĺ
æľĿ å»·
Ġg e
Ġsu bs
Ġä¸į åĲĥ
è¯Ħ ä¸º
Ġbl og
çļĦ ä½įç½®
çĤ¹ çĤ¹å¤´
ī å¦Ĵ
g l
æĿ¥ æĿ¥
Ġmult iple
ĠIn t
ä¹Łä¸į çŁ¥éģĵ
cont ent
Ġrec ently
åĳ¨ è¾¹
ä¸ĢèĪ¬ çļĦ
éĩĮ æĸ¯
us ed
å¤ ·
ä¸¤ æ¬¡
èİ·å¾Ĺ äºĨ
ĠT om
çºª å½ķ
Ġç¬¬ åħ«
Ġt ru
Ġå¥½ çİ©
å®Į äºĨ
Ġc ast
ä¿Ŀ åŃĺ
äº§åĵģ çļĦ
èĤ ª
Ġå¥³ æľĭåıĭ
ĠFran k
U n
st e
å¥¥ è¿Ĳ
in i
ĠO lymp
éªĳ åħµ
Ġst age
Ġsub st
èĤ ļåŃĲ
Ġé ²
h ol
åıĳçİ° äºĨ
) )
æľī åĵªäºĽ
ar c
k ey
é¥® é£Ł
ä¾Ŀ éĿł
Ġbro ther
å© ī
èĢ į
æ²ī é»ĺ
åĪ© æ¶¦
Ġc at
æīĭ ä¸ŃçļĦ
w or
æĺİ æĺİ
éĿ¢ ä¸´
Ġæ± ī
ed y
Ġorgan iz
æīĭ éĩĮ
Ġæ²¡ ä»Ģä¹Ī
Ġle arning
ra b
éĺŁ éķ¿
Ġcon duct
éĵ ¸
Ġdis e
ĠéĽ ¨
ĠR ob
çĶ· æĢ§
ĠæĺŁ æľŁ
çİ¯ ä¿Ŀ
re ct
æį Ĳ
æĺŁ æľŁ
ç½ ķ
ĠM er
Ġorgan ization
Ġsc ience
Ġ çļ®
å¯ ĵ
Ġåį İ
ist ics
æīĢè°ĵ çļĦ
æĺ¯ æľĢ
Ġcele br
Ġf ight
Ġsim ply
Ġåįķ èº«
A l
ĠæĦ¿ æĦı
äºĶ å¹´
Ġc ool
ä»ĸ å°±
ur ance
æį ī
ĠC r
ĠåĶ ī
Ġmess age
ch an
Ġac qu
èĦ Ĭ
æº ľ
ard en
n ame
t ic
Ġå¤§ æ¦Ĥ
or por
è¡Ģ æ¶²
åįģ åĩł
Ġres ources
ĠThom as
Ġæĥ³ æĥ³
èµ· èº«
Ġart ists
ĠæĽ´ å¥½
ä¸Ĭ åįĩ
Ġg ave
Ġevery one
ç§° åı·
åıĪ æľī
æħ ¨
Ġd u
èĢģ äºº
èĳ£ äºĭ
Ġåħ³ äºİ
Ġj ud
ĠéĽ Ĩ
åħ¨ åĬĽ
Ġçİ ¯
ĠèĢ į
è¿Ļ ä»¶äºĭ
Ġèĥ ¡
oc ol
æī¹ è¯Ħ
Ġmom ent
åĪ© äºİ
i ers
ĠAustral ian
ä¸Ģ ä»¶
é© ³
çļĦ åİĨåı²
Ġse ems
å¹³ éĿĻ
è¶³ ä»¥
æ³ Ĭ
ful ly
er o
Ġcontin ued
æĥ³ æĥ³
æ¦Ĥ è¿°
ĠEduc ation
l ike
ĠM ex
Ġle ave
æľī æĹ¶åĢĻ
é© °
è¯ Ģ
çŁ¥éģĵ äºĨ
ä¸į å®¹æĺĵ
Ġç¤¾ ä¼ļ
p art
çĹ ´
Ġcom mercial
ĠSt ar
åĮĹ æĸ¹
çļĦä¸Ģ åĪĩ
ĠR ail
åł µ
) (
ĠC amp
æīĭ æĮĩ
ä¼ļ éķ¿
ä¼ ŀ
Ġwor th
Ġinte gr
è¾ħ åĬ©
Ġhe at
Ġav oid
ĳ åģĩ
åįĹ æĸ¹
ĠS ol
å¤ĸ åĽ½
é¢Ħ æµĭ
ĠF ound
ä¸Ģ åĿĹ
åĴ ¸
Ġappro ach
ĠCh ampions
ĠçļĦ ä½ł
å»º éĢł
ä¿¡ çĶ¨
åı¯ä»¥ åľ¨
äºĨ è¿ĩæĿ¥
ĠE v
Ġex act
ĠL ove
k n
çľĭ åĩº
ri al
æĤ į
å¹´ éĹ´
æľī åı¯èĥ½
çº ±
æĺ¯ æĢİä¹Ī
è¡Ĺ éģĵ
æĹł éĻĲ
ĠS ince
or ial
Ġimp lement
çľĭ å¾Ĺ
åĪ ł
ä¹ĭ æīĢä»¥
ĠS ur
èģĶ éĤ¦
Ġb ank
ĠåĽ ¢
Ġs ales
z h
A n
Ġw ear
Ġä¸ī ä¸ª
al a
Ġæ´» åĬ¨
ä¸į åĩºæĿ¥
æģĭ çĪ±
Ġrece ive
z y
Ġè¿ĩ å¹´
ven ue
ĠSm ith
b on
t ies
V D
l or
ãĢĤ ãĢį
Ġè´ ¨
èĢģ çĪ·
ĠT op
Ġinter view
åŁİ çļĦ
åıĹ ä¼¤
Ġd igital
Ġthem selves
¬ èıľ
Ġapp eared
æ½ ĺ
çĶµ è·¯
Ġconst ruction
ĠæĪĲ åĬŁ
ran ch
Ġpurch ase
ul ated
åĳ¨ æľŁ
çĨ ¬
red ients
ç²® é£Ł
Ġansw er
Ġmaterial s
ian ce
å¾Ī æĺ¯
ign ed
æĹ© å·²
Ġdis cover
ot o
æĶ¾ åħ¥
ip ment
aren t
Ġåĵª åĦ¿
æł¡ éķ¿
Ġåľ º
éĹ ¯
æĺ¯ ä¸ºäºĨ
çĽ¸åħ³ çļĦ
Ġcho ose
æ± ª
æĴ °
Ġb al
ĠæĮ ĳ
Ġne igh
Ġrel ig
Ġæľī ç©º
ä¾Ŀ æ³ķ
ition ally
èĤ ¢
ĠæĲ ľ
Ġem ot
Ġmat ter
! "
å¥½ å¥ĩ
r ast
åħ¶ ä½Ļ
é¼ĵ åĬ±
Ġmeet ing
ri ef
ĠC D
çķĮ çļĦ
5 8
ç¤¾ä¼ļ ä¸»ä¹ī
ĠSup er
é¹ ħ
åĮ Ļ
: ãĢĮ
Ġpre p
ä¸Ģ çĻ¾
ĠP o
ecut ive
èĪŀ åı°
ä¹ ¾
Ġch urch
åĿ ¤
å¤ļ äºº
æŁĲ ç§į
u ce
çī© æµģ
åĩ» è´¥
Ġé¢ Ĩ
ĠéĢ Ľ
l a
Ġç¦ ı
Ġpo em
Ġcom fort
Ġra il
az ing
æ¢¦ æĥ³
y a
ĠåĴ ¬
Ġæľī éĴ±
os ing
sy ch
Ġst op
Ġst ories
it c
çī ²
ä¸įæĸŃ çļĦ
Ġæľ¨ æľī
å¤© æ°Ķ
Ġmed ian
ĠPl ay
Ġç®Ģ çĽ´
æĶ¹ ä¸º
Ġæ ĵ
æĪĳ åİ»
Ġg ar
ĠDe f
Ġst ru
ĠJ ew
Ġopportun ity
ĠM ad
è¹ Ī
èĥ½ ä¸įèĥ½
com ing
æ²¡ äºº
ĠBus iness
åħ³ å¿ĥ
æ¸ł éģĵ
I V
çļĦ åĲİ
çİ° æľī
Ġs le
å¹´ åīį
Ġfre qu
Ġf ast
Ġèĩª çĦ¶
å½ĵ ä»£
erv ed
ĠM any
ä½Ĩ ä»ĸ
Ñ ħ
Ġè§ģ åĪ°
ĠçľŁ å¿ĥ
ĠæĹ ģ
i xt
æĿĥ åĬĽ
åŃ©åŃĲ çļĦ
åŀ «
å½¢ æĪĲäºĨ
åı¸ ä»¤
Ġdescrib ed
Ġdel iver
ĠåŃ¦ çĶŁ
äºĭ é¡¹
éŃ Ħ
å®¤ åĨħ
é«ĺ èĢĥ
se e
è¶ Ł
å·® è·Ŀ
Ġw oman
Ġç» Ĩ
å» Ĭ
çĪ± å¥½
èº« ä¸ĬçļĦ
æĪ¿ åľ°äº§
ĠServ ice
ä½ł åİ»
æ· ®
çŁ ®
ä¸Ģä¸ª æľĪ
Ġre ach
im s
ir ing
ä½ł åľ¨
Ġtrans port
Ġè®¤ çľŁ
æĬĵ ä½ı
Ġwe eks
èĢķ åľ°
å· ¢
æĶ Ģ
O P
æ¸ £
çĶµ åĬĽ
ä¸Ģ æĹ¶
æĭ Į
Ġgo al
çķĻ åľ¨
Ġåį ļ
å¿ĺ è®°
Ġé ŀ
æĥ³ èµ·
çļĦ è®¾è®¡
ç¬¬ åħŃ
Ġéļ¾ è¿ĩ
åģļ ä»Ģä¹Ī
åĬŁ å¤«
Ġå¦ Ī
ĠD iv
çļĦ å®ŀåĬĽ
æĸĩ èīº
ĠM us
ä¸ī è§Ĵ
å¤§ å¤§
æ·· æ²Į
å¥³ çĶŁ
çĶµ æºĲ
Ġå« Į
Ġbirth s
IN G
ĠW ell
Ġfam ous
b urg
é£İ æĻ¯
ig er
Ġåĸ ľ
Ġæģ ĭ
Ġåĳ ¦
æĮĩ æķ°
è¯ ¡
Ġçŀ İ
ĠH am
N D
Ġsom etimes
æµģ éĩı
ä¸¤ å¤©
èĬĤ å¥ı
ĠAfric a
h r
æĭī æĸ¯
I M
Ġpl ans
ãĢ ı
èĪ° éĺŁ
Ġpos itive
ĠçĶ± äºİ
å°± è¿ŀ
æĥħ æĬ¥
k g
çº¤ ç»´
ĠA v
æĺ¯ å¯¹
æ·± åĪ»
ĠH ill
å¦» åŃĲ
ĠThe n
ĠåİŁ åĽł
ĠB ur
Ġd ed
å¹´ åľ¨
Ġall ows
ĠçĪ± æĥħ
Ġ ãĢĮ
Ġch arg
Ġå ´
åĨį è¯´
çİĭ æľĿ
è®¿ éĹ®
ĠGerman y
ĠæĹħ æ¸¸
an o
è¿Ļ æĹ¶åĢĻ
éĩį å¤į
Ġmean ing
åı« åģļ
ĠV ict
Ġph one
!! !
æŀģ åħ¶
ä»¬ çļĦ
æŀ ¯
Ġn orm
S P
Ġfavor ite
Ġå¸ Ĥ
æ£ į
ĠB ased
ĠCh inese
ĠB ill
Ġç¥Ŀ ç¦ı
Ġéļ¾ åıĹ
Ġs ell
éº Ł
æĳ Ķ
Ġd og
æķħ æĦı
éĥ½ å¾Ī
æ· Ģ
ä¹Ł åı¯
Ġ ä¸ĵ
ak ers
å¤© ç©º
æĦ¤ æĢĴ
ä¸Ģä¸ĭ åŃĲ
åĬ¨ æĢģ
Ġå®ŀ åľ¨
e ction
Ġal though
éļĲ èĹı
Ġå¼Ģ æľ¬
Ġèµ ¢
èģĮ å·¥
ens ity
æ£Ģ éªĮ
Ġc m
Ġtreat ment
ç²ī ä¸Ŀ
ĠM o
è®¤ åı¯
æľĿ é²ľ
ĠçłĶ ç©¶
ä¼ĳ éĹ²
èĬ ½
I A
ĠJapan ese
åĬł éĢŁ
Ġè·¯ ä¸Ĭ
Ġprob ably
èĤ¿ çĺ¤
T M
æ¿Ģ åĬ¨
Ġsaf ety
ĠB i
è¶ħ è¶Ĭ
ic on
Ġqu al
åħ¬ å®ī
ĠB en
Ġcustom er
ä½ķ åĨµ
åĽ½å®¶ çļĦ
Ġç½ Ĺ
Ġexpect ed
Ġæ· ·
ä¸Ģ å¤§
çľĭ å¾ħ
çº½ çº¦
ĠLou is
ä¼ł æī¿
ĠæĤ ²
ĠK n
Ġè® ¸
Ġnecess ary
æ°Ķ åĢĻ
Ġfem ale
7 00
ç»ıæµİ åŃ¦
ĠR el
Ġe ight
Ġcom ment
åıª è§ģ
Ġåħ ´
um ber
èĳĹ åĲįçļĦ
Ġprovid ing
å¤§ åĨĽ
ĠCar ol
Ġsc ient
ĠåĮ º
éĻĽ ä¸ĭ
Ġopt ion
æ²¡æľī ä»Ģä¹Ī
ä¸Ĭ è¿°
åıį å¤į
Ġim medi
çļĦ éķ¿
ĠG et
ĠI r
Ġlevel s
çļĦ ç¬¬ä¸Ģ
Ġse x
å¸¦ é¢Ĩ
æĹł çĸĳ
ĠP eter
æľĢ æĸ°
çļĦ äº§åĵģ
è½¬ æį¢
ĠçĶµ èĦĳ
åĲĮ ä¸Ģ
d iv
è½» æĺĵ
Ġnum bers
Ġsur round
Ġsqu are
ç Ģ
èı ĩ
è¡ Ķ
è ¤
åĩºæĿ¥ äºĨ
çĸĳ æĥĳ
è£ ¹
æľī æľº
äº¤ æį¢
ag s
Ġsur v
ĠæĹ¥ åŃĲ
æŃ ĩ
è¾¹ ç¼ĺ
I F
ĠåĬ Ł
Ġå½± åĵį
ar r
ĠäºĨ å¥½
éĻ Į
Ġphys ical
ĠT or
ĠP et
å±ķ çİ°
Ġl ength
ä¸ĭ è½½
ç®Ģ ç§°
æ³¨ éĩį
åĲ« éĩı
ĠCh ic
02 4
Ġide as
Ġd ark
Ġover all
å½¼ æŃ¤
Ġcap ital
æĪ ļ
åıĮ çľ¼
ä¸Ģå®ļ ä¼ļ
row s
éĺ Ģ
ĠæĻĵ å¾Ĺ
æĪĳ åĴĮ
Ġocc ur
çŀ İ
ĠæĪ ´
åľº çļĦ
ap ter
Ġd om
æ³¢ åĬ¨
Ġinst it
Ġparen ts
ill a
Ġä¸Ĭ è¯¾
b our
l iam
æĹ Ń
Ġhousehold s
å°Ķ æĸ¯
ĠCent ral
å¤ª è¿ĩ
æ·» åĬł
Ġeconom ic
Ġl ines
è¯Ĩ åĪ«
ott om
Ġsk in
éĢļ è®¯
ä¼¸ æīĭ
éĿł è¿ĳ
ä¹ĥ æĺ¯
â ĨĴ
Ġquick ly
ĠUn der
åħ¶ä»ĸ äºº
çº¿ è·¯
h ouse
ĠÐ ½
v est
94 5
è¦ģ ä¹Ī
Ġçł ´
åĵį èµ·
çĵ £
å¤§ èµĽ
Ġve get
Ð ±
åº ¸
ä¸Ģ å¼Ģå§ĭ
è¢« ç§°ä¸º
çĿĢ çļĦ
Ġt ouch
Ġä¸Ģ å¼ł
è¿Ļ éĥ¨
Ġå¦Ĥ æŃ¤
åĬł æĭ¿
å·¥ç¨ĭ å¸Ī
ut s
å¼Ģ åĲ¯
éĶ ¤
è¿ľ å¤Ħ
çĹħ äºº
Ðµ ÑĢ
Ġhapp y
åħ Ĩ
Ġè¡¨ ç¤º
çŃī åĪ°
ĠAl though
Ġåĸ Ĭ
Ġåĸ Ĥ
äºī è®®
Ġsc he
ä¸ª æĢ§
Ġ äºĳ
åľ° éĵģ
çļĦ åŃĺåľ¨
éĢĲ æŃ¥
Ġç¢ °
äºĴ åĬ¨
åĴ ¯
çİ¯ èĬĤ
åħ¨ å¸Ĥ
Ġeas ily
F L
ä½ł ä¼ļ
ç» ĳ
Ġåĺ» åĺ»
æľį è£ħ
Ġ ä»£
Ġè¯ ģ
ĠçŃ ¾
r ont
Ġè ľ
Ġcomp os
èĪĴ æľį
97 6
Ġå ł
Ġcomple ted
ĠåĽ¾ ä¹¦
Ġ ä¾¿å®ľ
æĻļ å®ī
ĠæĦŁ åĨĴ
æ²¡æľī äºº
åı¯ æĢľ
Ġinterest ing
Ġv ac
Ġtrans fer
ra el
é¹ ¤
ĠChar les
ar ily
Ġst reng
ĠJ o
ĠDe velop
Ġachie ve
Ġte ac
# #
æ·± æ·±
æ¡£ æ¡Ī
å¹´ çºª
çĿ¡ è§ī
Ġcomp uter
ant a
åĲ »
Ġsu ff
ĠVir gin
w in
ĠåĽ½ å®¶
Ġä¸į æĢķ
re y
] ,
Ġç ĵ
Ġæĺİ æĺİ
è¾Ľ èĭ¦
ä»ĺ åĩº
åĨį åº¦
è¾ Ĳ
ĠæĬĢ æľ¯
ch ange
çļĦ ç¾İ
å·® çĤ¹
ä¹Ł ä¸įèĥ½
Ġcand id
èĶ ½
Ġdec ided
Ġçĥ ¤
Ġgu itar
Ġb rought
Ġå¤ı å¤©
Ġç¡® å®ļ
ç¨į å¾®
ä¸Ģ åº§
Ġsk ills
liam ent
æ¸ Ĺ
æľĢ ä½İ
è´¢ å¯Į
å®ŀ ä¹ł
Ġrelations hip
å¤§ ä¼Ĺ
Ġart ist
Ġgr adu
ĠAl so
ĠåĮ» éĻ¢
por ary
çļĦ è¦ģæ±Ĥ
Ġmarket ing
ĠæĽ´ æĸ°
Ġå£° éŁ³
Ġ äºİ
o oth
Ġarch itect
Ġcoll abor
Ġåı ĭ
å¤´ ä¸Ĭ
Ġåı¯ æĢľ
äºĨ è¿ĩåİ»
Ġä¸Ģä¸ª æľĪ
æµģ åĬ¨
se mb
ĠF am
åİŁ å§ĭ
ĠRich ard
å¤§ åĬĽ
ĠE r
i ation
ä¸į ç¦ģ
èĢ »
åĽ¾ä¹¦ é¦Ĩ
ad y
æĭ¿ åĪ°
çĽ¸å½ĵ äºİ
é¦ĸ æŃĮ
97 5
Ġb ed
åĽŀ å¿Ĩ
Ġä¸į å¤ª
umn i
ĠU se
Ġ ä»»
çļĦ ä¸ī
è¿ĺ çľŁ
Ġb oy
Ġde ad
Ġä»İ æĿ¥
èģĮ è´£
M B
Ġrad io
Ġè§ Ĵ
ĠF rid
Ġjo ined
å¤§ åľ°
èŁ ¹
æĺ¯ ä»İ
Ġsaf e
çĽĳ ç®¡
ĠæĦŁ æĥħ
ĠåĨ³ å®ļ
ä»Ģä¹Ī æĹ¶åĢĻ
åįģ ç«ł
Ġåĩº çİ°
ĠH um
ĠSt ep
ru it
T S
Ġéĵ ¶
è®© å¥¹
è®¤ çŁ¥
Ġcreat ing
Ġc orn
ĠO ffic
åľ°åĮº çļĦ
éĥ¨ èĲ½
Ġç« ĭ
Ġç§ ¦
Ġåĳ Ĩ
Ġreturn ed
ĠC ur
ĠG ra
Ġæİ¥ åıĹ
åī© ä¸ĭ
ĠCon st
ĠäºĨ æĺ¯
æ° ¨
Ġun its
Ġå¤ª éĺ³
Ġé ±¼
Ġèģ ļ
Ġæĺ ¨æĻļ
æīĢæľī äºº
è¯ķ åĽ¾
åĩ½ æķ°
ill er
æī¿ åıĹ
æĪĳ æĿ¥
æ» ŀ
Ġc ensus
Ġæį ®
å·²ç»ı è¢«
è´¢ äº§
Ġd aughter
æİ ł
Ġwho se
å¼º çĥĪ
ĠåĢ¼ å¾Ĺ
Ġæĳ Ķ
is ions
è¾ Ł
å¹´ èĩ³
inc ip
çĶŁ æĦı
ĠIt al
Ġqu e
äº ¨
ä½ı å®ħ
Ġè¾ ¹
åįķ åħĥ
Ġcho ice
p ress
è¿Ļ åľº
ĠçĤ Ĵ
éĻķ è¥¿
ĠTw o
Ġre ve
am ic
Ġæĸ¹ ä¾¿
ĠéĽ ¶
Ġcon ne
C an
Ġpre m
ĠAr my
Ġl ic
æĺ¯ ä»ĸ
us band
Ġæ¸ħ æ¥ļ
ĠB oard
Ļ åŃĲ
Ġcont ext
çļĦ ç»ĵæŀľ
Ġfollow ed
ä¿® å¤į
åģļ æ³ķ
æį ı
Ġchang ed
Ġä¸Ĭ æ¬¡
Ġæļ ´
åĬĽ äºİ
Ġpart ners
å¥½ ä¹ħ
Ġh ands
Ġcon cept
èĢĥ çłĶ
ĠåĨ¬ å¤©
Ġ ä½¿çĶ¨
ĠæĹ ¢
ĠF ace
ĠOff ice
å¥½ å¤Ħ
èĢģ å¤§
è§Ĩ è§ī
çī© åĵģ
èİ· åıĸ
èĻļ ç©º
æµª è´¹
ä¿¡ ä»»
Ġæł ¡
Ġcolle ge
Ġs em
ĠC ath
Ġbl ock
l o
è¥¿ å®ī
Ġgo vern
åĲ« æľī
ĠRe view
Ġm ax
ĠDem ocr
å¿ĺ äºĨ
rum p
å¥ĸ åĬ±
ĠS k
Ġlim ited
Ġè± Ĩ
çļĦ æķ°æį®
è®© æĪĳä»¬
å¹¶ æľª
Ġro ll
Wh at
ĠæĲ Ń
Ġsp read
å¼º åĮĸ
æŁĲ ä¸ª
ĠGo ogle
åħ±äº§ åħļ
ĠPro gram
æĿ Ńå·ŀ
Ġser ve
ĠæĪĲ éĥ½
et te
tt y
b u
b re
å¯¹ æŃ¤
A d
æĭ¿ çĿĢ
w ell
n o
Ġit ems
Ġç§ į
t ar
å£ ¶
æ¹ĸ åĮĹ
çĪ¸ çĪ¸
éĢī æīĭ
æĹħ è¡Į
Ġdown load
åĽ¾ åĥı
Ġæīĵ çĶµè¯Ŀ
çľģ çº§
ķ æīĢ
åı¸ æ³ķ
ĠR et
ĠM el
åĽł èĢĮ
çļĦ éģĵ
åĬ¨ äºĨ
97 2
Ġwr ite
97 3
Ġè¡¨ æĥħ
åĲĦ ä½į
åįķ è¯į
Ġear lier
Ð ³
å¸Į èħĬ
Ġèº« è¾¹
çĩĥ çĥ§
ĠC ould
Ġå¿ĥ çĸ¼
çĽ ²
ä¹ĭ èī²
åĲĳ åīį
Ġæľī ä¸ª
ĠT od
ĠO pen
Ġnot hing
é©¬ åħĭ
Ġå¤ļ ä¹ħ
ved io
l og
éľĩ æĥĬ
èļ Ģ
Ġs en
Ġatt ention
ĠåŁİ å¸Ĥ
at re
æĺ¯ ä¸ŃåĽ½
ĠRec ords
å®¡ è®¡
å®Ŀ è´Ŀ
æ¯ı ä¸ªäºº
C H
ä¸ľ äº¬
ĠåĲ ĸ
åŃĺ åĤ¨
ãģ ®
åİĨåı² ä¸Ĭ
åľĨ å½¢
Ġex hib
Ġrem ember
åĽŀ å½Ĵ
Ġå¥½ ä¸įå¥½
w est
èĬ ¦
g a
è® ½
ĠT ime
Ġå¯ Ħ
äº§çĶŁ çļĦ
åı¯ä»¥ è¯´
ä½ ¬
Ġv an
è§Ĥ å¿µ
Ġå¯¹ è±¡
Ġå®ī åħ¨
ç¼ĸ åĪ¶
çĶµè§Ĩ åī§
ĠC le
Ġç»Ŀ å¯¹
ĠKing dom
ĠL os
å±± è¥¿
ant ic
Ġè¯ Ħ
å»º æĪĲ
Ġdet er
åĨį åĬłä¸Ĭ
é¥ ¶
P A
94 9
ä¸º æŃ¢
çĶŁ äºİ
I ON
Ġhigh ly
Ġl ay
å·¥ åķĨ
Ġåĸ Ħ
Ġear n
çīĩ åĪ»
å¯ ŀ
éħ ¶
ä¸į ä¸ĭ
è£ ķ
Ġç¬¬åĽĽ èĬĤ
ĠH ot
åĲĮ å¿Ĺ
ä½ĵ åĪ¶
Ġæĭ Ľ
ç¤º èĮĥ
åĽ½ åĬ¡
ĠåĽ °
ĠC are
Ġ ä»ĭç»į
éĿĴ æĺ¥
èĬ± åĽŃ
Ġrecord ed
ä¸ĢçĽ´ åľ¨
åĬŁ çİĩ
ä¸Ĭ åīį
æĺ¾ èĳĹ
riv ing
Ġet c
éĻ¢ éķ¿
ĠFil m
æģĲ æĥ§
Ġæĳ Ħ
çľ¼ éĩĮ
om a
u a
è¯¾ åłĤ
ĠO b
ĠE very
èº« åŃĲ
çº§ åĪ«
çĤ Ń
Ġdeg ree
Ġé¡ ¹
è®¾ å®ļ
Ġd rug
en a
è®º åĿĽ
ä¸į æĿ¥
å¸Ī åĤħ
çħ ŀ
èĦĤ èĤª
åħ» æ®ĸ
ul ations
Ġæĭ ¼
ĠçĶ· çĶŁ
ä¿¡ å¿ĥ
ĠæĢ ¥
ĠI N
æĶ¶ åĪ°
åĴ ½
é¡¾ éĹ®
åĩŃ åĢŁ
æĪ¿ å±ĭ
åª ļ
å¼ķ åıĳ
p m
t a
éĢł åŀĭ
ĠçĬ ¶
Ġå¦¹ åŃĲ
ĠæķĪ æŀľ
ä¸į ä¸Ģæł·
ç§į åŃĲ
Ġåī ©
Ġå© ļ
Ġ ä¸¾
è° Ĭ
Ġå± ŀ
æ³ Į
åİļ çļĦ
k en
åĨ Ī
å½ ¦
ĠB re
åŃ¦ åİĨ
çľĭäºĨ çľĭ
åĲį åįķ
ä¼ ½
åĸ »
æµ· å¤ĸ
é«ĺ æķĪ
Ġb ud
æĹ¥ èµ·
7 8
Ġd ress
ä¼ļ è¢«
éĺ» æŃ¢
æĿĥ çļĦ
Ðµ Ð½
Ġç £
at ively
è¥¿ éĥ¨
ĠW ood
Ġå® ¤
åİ» ä¸ĸ
æĽ´ æľī
ç½ Ĳ
ĠéŃ Ķ
Ġé¢ľ èī²
n el
Th is
Ġl if
å¾Ī å®¹æĺĵ
é¦ ¨
åľ¨åľ° ä¸Ĭ
Ġs ch
åĽĽ å¹´
Ġgo als
Ġse ven
äºĶ ä¸ª
en ge
åºĶ å¯¹
ĠC ast
ç¾¤ ä½ĵ
ä¸Ĭ æ¬¡
9 2
é¢Ħ ç®Ĺ
æĭ ±
æ³ķ åĪĻ
ĠçĨ Ł
Ġb ur
ĠæŁ ¥
æĹłè®º æĺ¯
2 50
Ġæ º
ĠS il
97 7
æķ´ åĲĪ
ĠJ ose
çĻ¾åº¦ åľ°åĽ¾
h ire
å¡ Į
ell a
Ġpro gress
t d
Ġp le
å± ĳ
è¾¾ åĪ°äºĨ
ĠMin ister
åľº æīĢ
è´ ŀ
ĠW estern
ĠåĪ° æĹ¶åĢĻ
åĩº èº«
å°Ĭ éĩį
ĠAb out
åħ¨ éĥ½
çĻ¾ åĪĨ
it ely
çŁ¥ ä¹İ
kn own
n ew
ol k
Ġåħ ·
Ġc ivil
äºĨ ä¸¤
Ġf arm
Ġback ground
Ġcont ain
97 4
åĴĮ ä»ĸ
ä»İ æŃ¤
ĠW ork
ä½į çļĦ
ro ad
Ġw arm
çĳ °
å¦ĩ å¥³
w here
Ġéº» çĥ¦
ãĢĤãĢĤ ãĢĤ
G A
ĠFran cis
è½¨ éģĵ
å¥½ å¤ļ
Ġç§ ĭ
éĻ Ģ
d is
Ġd ire
Ġj ournal
Ġfe ed
å¯¹ æĬĹ
æ±Ł è¥¿
è¡ «
Ġpat ients
Ġparticular ly
m ary
Ġeffect ive
Ġæİ §
è¸ ©
å¹³æĸ¹ åįĥç±³
åıĳ èĤ²
æķĪ åºĶ
çº¦ ç¿°
Ġset t
ĠåĲĹ æĪĳ
Ġfor ce
çħ§ é¡¾
D R
Ġact ive
å°± å¥½
ĠAcadem y
L E
äºĭ åĦ¿
ĠåĩºçīĪ æĹ¶éĹ´
htt p
ĠPar is
ent y
Ġçĭ ¬
Ġind ic
Ġå¿ĺ è®°
Ġè¡ Ģ
ĠåĲ ¸
åĸ ĥ
æ¸ ´
ĠComm ission
__ __
Ġçľ ģ
um ents
æ°´ çļĦ
ĠGo vernment
ĠT ur
çŃī çĿĢ
f ortun
èĨ Ŀ
Ġess ential
æµĳ èº«
å¿ĥ èĦı
m ore
ĠFrid ay
çģµ æ´»
çĽ¸ ä¼¼
Ġstat ement
ĠBro wn
ĠéĹ ¹
o ch
t op
çļĦ åŃ¦çĶŁ
à ¸
èº« ä¸º
èĻ Ĳ
å° ī
un ction
Ġstruct ure
ĠChic ago
Ġhel ps
ĠM ass
Ġon es
it ude
Ġæĭį çħ§
æĸ½ å±ķ
Ġç¬¬ ä¹Ŀ
Ġassoci ated
äºĨ åı£æ°Ķ
åħ¬ æĸ¤
ç»ĵ è®º
åħ³ èĬĤ
w ide
æĸ¯ çļĦ
Ġis n
Ġbl ue
ı è§Ī
Ġan alysis
m ond
ult ure
ĠæĿ Ģ
96 8
b ox
æ¯« ä¸į
é»Ħ èī²
åĪĿ æľŁ
Ġcol lect
æ¬£ èµı
6 8
ä½Ľ æķĻ
äºĨ å¾Īå¤ļ
Ħ åĤ²
ĠçĪ ¶
ĠB ig
Ġçº ¯
Ġele ments
çļĦ ä¸ĸçķĮ
ĠæĦŁ åıĹ
æĽ´ å¥½çļĦ
èª ĵ
re me
im al
Ġ %
åĸ ī
hen s
çŁ³ å¤´
ĠH el
éĤ£ä¹Ī å¤ļ
å°± æĬĬ
Ġreg ister
åĪĨ è¾¨
Ġal one
åı¸ é©¬
éĶ »çĤ¼
è£ Ķ
ä¸Ģ ä»£
èĲ½ åľ¨
ä½ł æĢİä¹Ī
Ġann ual
ĠåŃ ¤
augh t
é¡¾ å®¢
ĠèĬĤ çĽ®
} .
å´ Ķ
ĠCh ild
erv ation
çļĦ ç²¾
Ġä¸Ģ åıª
Ġèĭ ¦
æį® è¯´
ron ic
ĠçĶŁ å¹³
pl ace
e ch
ri a
l ist
åĸľæ¬¢ çļĦ
Ġdri ve
Ġst ring
Ġepis ode
Ġim ages
äºº ä¸º
Ġ ult
Ġread y
ä¹Ł éĥ½
Ġæķ´ ä¸ª
w rit
Ġåı¯ æĢķ
èĨ ı
ä¸į ç®Ĺ
5 1
ç¬¬äºĮ æ¬¡
it able
å¸ĥ å±Ģ
Ġappro x
Ġgr and
æ±Ł åįĹ
åīį è¾Ī
ĠçĹ Ľ
è® ¼
åĲĪ æĪĲ
Ġop in
Ġh usband
æ¤ İ
æķħ éļľ
æĢ» ä½ĵ
çŁ³ æ²¹
å¤§åŃ¦ çĶŁ
ol a
çļĦ æĬĢæľ¯
åĮ ª
æ·± åº¦
å®ī éĿĻ
Ġstart ing
ĠäºĨ åĵĪåĵĪ
å¸® å¿Ļ
Ġcount y
å®ī å¾½
åľ¨ çº¿
b a
ĠéĢ ł
Ġsy n
Ġwe ight
ç®Ĺ æ³ķ
ä¸Ģ çķª
ä¸Ĭ æľī
Ġequ ipment
æĿĢ äºº
Ġwrit er
ĠçĪ ¬
an ced
åŀĭ åı·
ash ion
èµļ éĴ±
åİ» å¹´
åĲ µ
Ġtr ade
Ġw est
Ġæ® µ
ĠIt s
Ġd ram
ĠFlor ida
è¾ĥ ä¸º
ç¦»å¼Ģ äºĨ
ĠSp an
æ¡Ĩ æŀ¶
èĮ ħ
ĠåĲ ´
æĿĢ æŃ»
éĢı è¿ĩ
ä¸įå¥½ æĦıæĢĿ
Ġd ie
èĤ Ĩ
Ġse ek
æĪĳ çŁ¥éģĵ
åĲĦ é¡¹
Ġtool s
æĴ ¼
åİŁ æĸĻ
Ġcoup le
Ġéħ ¸
æľĢåĲİ ä¸Ģ
Ġè¯´ æĺİ
çĥŃ æĥħ
èµĽ äºĭ
éĺ² å®Ī
ri ate
ĠéĤ£ æł·
k m
é¦ Ī
Ġent er
ust r
Ġsl ow
Ġå¾ ·
Ġsu st
Ġæľī æĹ¶åĢĻ
Ġp en
ä¼ĺ çĤ¹
Ġbenef its
Ġæģ Ń
Ġyour self
Ñ Ĩ
Ġç½ĳ ç»ľ
åĴĮ åħ¶ä»ĸ
Ġä»¥ ä¸Ĭ
Ġpre d
ĠIs rael
ĠS u
çĿ ¿
å¥ ¸
ä¸įéĶĻ çļĦ
ĠA tt
Ġl ack
Ġacc om
Ġc ateg
Ġallow ed
åĽĽ å¤§
id ge
æıĲ ç¤º
åįģä¸Ģ ç«ł
Ġinterest ed
Ġå¤´ åĥı
ĠæıĲ åīį
so ft
ĠN ov
ä¸Ģ åįĬ
æĶ¶ èİ·
çļĦ åħī
ä¾ £
åĩł åįģ
æĳĩ äºĨ
Ġå¯ Į
Ġexper iences
ä¿Ŀ åģ¥
åįķ çº¯
ä»Ĭ æĻļ
è´µ æĹı
èľ Ģ
å¤ı å¤©
Ġ ä¹ĸ
è¿Ļ çĤ¹
ĠæĲ ¬
èį Ĩ
è ¥
Ġåħ į
äººæ°ĳ å¸ģ
åĩº äºĨä¸Ģ
è£ħ ä¿®
Ġing redients
çľ ¯
ĠSoc ial
èķ ¾
Į åŃĲ
Ġst ra
å¾® ç¬ĳ
åĸ ĺ
ĠçĶŁæĹ¥ å¿«ä¹Ĳ
æģŃ åĸľ
çļĦ å¤ļ
97 1
Ġbeh av
Ġçī ĩ
æ² «
ä»İ å°ı
ĠDirect or
Ġe ast
å¾Ĺ å¾Ī
çĪ· çĪ·
lic k
ound s
è¿Ļ ä»¶
ĠçĽ´ æĴŃ
Ġèµ ļ
Ġcar ry
é²ľ è¡Ģ
ä¼ł å¥ĩ
Ġdesc ript
Ġany one
Ġ5 00
éĺ¿ æĭī
çĭ Ń
ĠéĤ£ å¤©
æıĲ åĪ°
â Ķ
è¿Ľ åı£
è¿ĲåĬ¨ åĳĺ
èĦļ æŃ¥
Ġç ĳ
Ġhig hest
é¢ĳ éģĵ
ask et
èĪ ±
å¯¹ æĪĳ
95 8
Ġm orning
ĠæĶ¾ å¼ĥ
çļĦ èº«ä½ĵ
çŃī äºİ
96 9
Ġbegin ning
Ġc opy
ĺ ħ
ç¼ĸ çłģ
å° ´å°¬
Ġw a
çĶ± æŃ¤
Ġåıĺ æĪĲ
åĬŀ äºĭ
Ġlead er
ĠT rump
ç¬ĳäºĨ ç¬ĳ
Ġä¸įå¥½ æĦıæĢĿ
9 20
v ant
ĠComm it
az z
ä¸» æķĻ
èĢĥ æł¸
çļĦ è¿ĩç¨ĭ
5 2
ĠåĿ ĳ
åıĳ è¾¾
è¿Ļ æĿ¡
çĸ¼ çĹĽ
Ġç¬¬äºĮ ç«ł
çļĩ å®¶
ä¼¦ æķ¦
éī´ å®ļ
Ġf irm
äºĶ åįģ
ĠåŃ¦ ä¹ł
åĬ Ī
iver se
Ġmove ment
ic ian
åįķ çĭ¬
æĲ ı
åĬł åĿ¡
Ġcent ral
Ġcomp l
åľ° çĤ¹
æİĪ äºĪ
ä¸¤ä¸ª äºº
æī© å±ķ
Ġeffect s
cl ass
èĶ ¬èıľ
Ġå±ı å¹ķ
æĺ¯ ä½ł
Ġsur face
åľ¨ éĤ£
åľ¨ ç¾İåĽ½
r d
st ate
ĠO ld
å°Ĩ æĿ¥
ĠB ank
ä¸Ģ çº§
åħ¥ åı£
äº¤ ç»Ļ
ĠÂ £
éĩĮ éĿ¢çļĦ
åĻ Ĺ
Ġè¿Ļ ä¸Ģ
Ġob tain
ä¸į æĢķ
æº ¢
å¹² ä»Ģä¹Ī
éĢĤ å½ĵ
çģ ¿
ä½ľ çī©
Ġæ¬ º
i ant
è¯´ è¿ĩ
Ġoffer ed
é¢ ł
ĠåĹ ¨
éĢ Ľ
ä¸Ĭ çıŃ
ig an
º åŃĲ
éĻ· åħ¥
é¢Ĩ åħĪ
Ġeff ic
Ġlook s
Ġsp ent
åĲİ èĢħ
ä¹¦ ç±į
P R
ĠèĦ ±
ĠéŁ³ ä¹Ĳ
Ġéŀ ĭ
L e
å®¢ è§Ĥ
åĻ ª
ĠSun day
åį« æĺŁ
çļĦäºº çī©
Ġ7 0
å¤§å®¶ éĥ½
O C
ä¸Ģä¸ª å°ı
ĠMark et
Ġç»ĵ æĿŁ
å½ĵæĹ¶ çļĦ
Ġexp and
D A
çļĦ è¯´éģĵ
æį ŀ
ĠP op
Ġser ious
Ġæĭħ å¿ĥ
åŁİ éķĩ
çĲ ª
æĦŁ åħ´è¶£
Ġ äºİæĺ¯
èī¯ å¥½
Ġform ed
å¯¹ è¯Ŀ
Ġdeath s
çĶ ©
Ġcl ick
it iz
èĢĥ å¯Ł
éĨ ĭ
ä¸Ģ æĸ¹éĿ¢
è¯· æ±Ĥ
çļĦ åĪĨ
94 0
al se
ä¹¡ æĿĳ
g u
åĢ ¡
ĠS atur
æĿ¥æºĲ äºİ
ç¦ģ æŃ¢
re f
å§ ļ
åĬł å¿«
Ġse lect
éĺ² æ²»
åľ¨ å®¶
å´ ĸ
æ¶ ©
ac he
å¾Ī å¥½çļĦ
æ¨ ±
Ġin form
å¾Ĺ çŁ¥
Ġth reat
Ġæķ ¬
ä¸Ģ åĬ¨
è¯´ æ³ķ
åĬłæĭ¿ å¤§
æ±Ł æ¹ĸ
ick en
Ġapp l
éĿ¢ èī²
Ġfound ed
Ġnot e
Ġgo es
ç»ĵ å±Ģ
æŀ ¢
Ġhe ar
Ġtr ust
Ġgener ally
Ġsh ip
ç¿ ģ
å¤§ å£°
éĻ¤ éĿŀ
ĠH istor
mit ted
ĠV er
è¡Į æĺŁ
ĠItal ian
åīį åĲİ
åĩĿ èģļ
Ġæ¯Ķ èµĽ
ĠåĨ Ľ
æ²» çĲĨ
ĠVict or
Ġf ans
Ġbusiness es
Ġä¸į å¾Ĺ
æ ¿
æĪĲåĬŁ çļĦ
Ġå®ī æħ°
æĢ» éĥ¨
ĠChrist mas
åĿ ł
Ġr ank
Ġä¹Ł å¥½
å¤ĸ äº¤
åĳ ĥ
Ġincre ased
ĠVal ley
åįł æį®
im b
Ġcont ains
iqu es
éħ ¿
åĻ ¢
Ġhelp ed
Ġçħ§ é¡¾
ã Ħ
ä¸Ģ ä½ĵ
Ġan c
ĠåĬ Ľ
åı¯ éĿł
è¯Ń æ°Ķ
Ġregard ing
ç¾İ å¥³
åĺ Ł
Ġg ives
Ġev idence
arg in
i i
Ġg iving
Ġæ²¡ è§ģ
äºĭå®ŀ ä¸Ĭ
Ġéĺ ´
al ed
è§Ħ æł¼
Ġd ry
Ġinn ov
åįĬ ä¸ª
Ġval ues
å®ŀ çļĦ
Ġå¥ Ĺ
ç»´ çĶŁç´ł
Ġæ¥ ļ
æ¼ Ĥ
Ġæ² ³
å¹² åĺĽ
ãĥ ¼
ĠAr ts
åģ¶ å°Ķ
ä¸Ĭ åįĪ
Ġé ¹
Y ou
çĶ «
è¾Ĳ å°Ħ
è¿ĩ äºİ
Ġçºł ç»ĵ
Ġs ources
ç¥ŀ èī²
è ¤Ĳ
ĠèģĬ å¤©
å§Ķ æīĺ
ĠI ll
Ġèº º
Ġ ä½ľåĵģ
Ġcons ult
ĠÐ ¸
Ġprim ary
T A
ä¸Ģ éĥ¨åĪĨ
éģŃ åĪ°
9 30
ĠW indows
Ġimp ress
ĠProf ess
Ġè§ Ħ
ä¸Ģ çĶŁ
Ġf air
c ape
æľī éĴ±
ĠJ ournal
Ġstat us
ä¸į å·²
è®² è¿°
ä»ĸ äºº
èĢģ å¤´
A nd
å© ·
å¤© æīį
Ġhe ard
æķ° åįģ
Ġcond ition
ĠTH E
è¯´ ä¸įå®ļ
Ġpur pose
å¼Ł å¼Ł
åıĳ çĶµ
æĪĳ çľĭ
Ġçħ ®
å¾Ĺ ä»¥
Ġk m
ä¹Ł å¥½
Ġspe ed
Ġcre am
Ġla un
æĪĺ å½¹
ĠB et
æĹ¥ çļĦ
Ġå¾Ī å¿«
ĠåĶ ¯
æľ¬ åľ°
æĪĺ æľ¯
åı· çº¿
æĮĩ åįĹ
Ġfeature d
ä¹Łå°±æĺ¯ è¯´
å½± è§Ĩ
ig r
© ¹
çİ º
åıĳ æĺİ
ĠWe b
åįģäºĮ ç«ł
å·¥ äºº
Ġéª ĳ
ĠWh y
Ġsol ution
èĮĥåĽ´ åĨħ
Ġç² Ĺ
ĠAt l
Ġè® º
åľ° è¯´
l is
ing er
Ġrem ain
åħĭ åħ°
èł ¢
¤ éħĴ
æŃ¥ éª¤
èĥĸ åŃĲ
å®¡ æŁ¥
çİĭ åĽ½
åŁİ åĮº
åĽ½åĨħ å¤ĸ
ç§į ç±»
è§Ĩ ä¸º
Ġreport s
Ġperform ed
æĻ¯ è§Ĥ
å¼ķ æĵİ
Ġèį ¯
åŃĲ ä¸Ĭ
æĬĳ åĪ¶
Ġæŀ ģ
ĠæĬ ĺ
åı° åĮĹ
æĭĽ åĳ¼
ĠçĿ¡ çĿĢ
Ġh op
Ġäºĭ å®ŀ
åı¯ ä¸įæĺ¯
ĠEn ter
è·Ł æĪĳ
ĠF ree
d a
Ġ ä»£è¡¨
äºº å¿ĥ
Ġtra in
èį£ èİ·
ĠO l
åı¬ å¼Ģ
ĠRuss ian
oc ks
d o
ç¡ «
ĠD own
Ġbl ood
ĠåĲ µ
ĠL and
çĽĳ æİ§
Ġå· ¨
ĠåıĤ èĢĥ
ç¢ ±
96 5
åįĹ åĮĹ
è° £
ä¸į èī¯
ä¿¡ ä»°
an cy
º çī²
Ġn ation
å® Ľ
æŀĦ å»º
Ġd ro
ĠM ond
ä»ĸ è¯´
ĠæĦŁ è°¢
S C
Ġd ouble
Ġv oice
h aps
Ġæĸĩ åĮĸ
Ġsit uation
ä½ł è¿Ļ
Ġéļı çĿĢ
Ġmeas ure
çļĦ åĲį
è½¬ åıĺ
ç¦» åŃĲ
çĥŃ å¸¦
ä½ł æĥ³
èĽ Ľ
ĠA wards
ĠåĿ Ĺ
or al
ĠM ain
æĲ ħ
ä¹ĭ è·¯
åīį æĿ¥
å¿ħé¡» è¦ģ
Ġè¦ģ æ±Ĥ
ĠB o
Ġéģĵ çĲĨ
å¤į ä¹ł
ĠH y
fortun ately
çĶµ åĬ¨
å½¢ å®¹
åĵª æľī
96 4
Ġcomplet ely
ä½ł ä¸į
èģļ éĽĨ
ä¹Ĳ éĺŁ
ç©¿ çĿĢ
åį´ æ²¡æľī
Ġd aily
æĺİçĻ½ äºĨ
èģ Ĥ
çĶŁ æŃ»
åıĳåĬ¨ æľº
Ġful ly
Ġk ids
p o
Ġam azing
ĠW omen
èº« å½±
æĹ¥ åĨĽ
äºº å¤§
ä¸Ģ æµģ
form ula
ĠèģĮ ä¸ļ
Ġpat tern
Ġdem on
è± ¹
Ġå¹³ æĹ¶
I G
è¿Ļ ç±»
æ¯ķä¸ļ äºİ
å¸¸ åĬ¡
Ġåģ¥ åº·
æ½ Ń
åĺ´ è§Ĵ
ĠB oy
åıĸ æ¶Ī
å±± çļĦ
ĠåĴ± ä»¬
s k
opp ing
ĠOn ce
åĺ ²
Ġåı ¸
å¹¶ äºİ
Ġswe et
Ġocc as
æķ°æį® åºĵ
ĠAdd itionally
Ġac adem
Ġç¬¬ä¸ī ç«ł
åĽ½åĬ¡ éĻ¢
éļı æĦı
æīĭ ä¸ĭ
Ġexc ell
ĠL ong
é¤Ĳ åİħ
å¾® åįļ
èį· åħ°
ĠæģŃ åĸľ
Ñģ Ðº
ĠÐ ¾
èĢĥ çĶŁ
åŃ¦ åĳĺ
äºĨä¸Ģ åı¥
é£Ł çĶ¨
èĮ Ħ
ĠW ater
ĠèĲ ½
ĠB ack
ĠæĹģ è¾¹
çļĦ ç®¡çĲĨ
Ġin put
ĠSt r
Ġlarg er
ĠSer ies
Ġim ag
Ġèĭ ¥
å·´ é»İ
ĠSpan ish
ĠæĻ® éĢļ
åĩºçİ° çļĦ
æīĭ çļĦ
Ġ ä¼ģä¸ļ
Ġçº ¸
ic ks
Ġcon vers
å¸¦ æľī
å¸Ī åħĦ
ç² ¥
Ġè¿Ļ åı¥
ç¬¬ ä¸ĥ
ç©º è°ĥ
çĽ¸ åıį
Ġè§£ éĩĬ
ĠD u
å¸¸ å¸¸
Ġç¦» å¼Ģ
ä¼ļ ä¸įä¼ļ
for ce
ĠAngel es
Ġä¸į è®©
Ġorganiz ations
ĠåĮ» çĶŁ
æĬĬ ä»ĸ
Ġæľ¬ ä¹¦
Ġex cept
é¥ ²
Ġsh ot
å¾Ī ä¹ħ
ä½ ĳ
ĠHen ry
æĺ¯ å¤§
ri ve
åįĥ å¹´
ĠDes ign
ĠèĢģ åħ¬
Ð¾ ÑĢ
Ġéĵ ģ
rup t
èı Ĭ
ĠK ore
ĠåĲİ æĤĶ
éĴ Ļ
æĢª çī©
æļ ®
å¼Ĥ çļĦ
Ġç©º è°ĥ
ĠæŃ£ åľ¨
Ġoper ations
Ġé«ĺ åħ´
Ġæŀľ çĦ¶
æŃ¤ äºĭ
å¸ĥ ç½®
å¯¹ äºĨ
å±Ĥ çļĦ
Ġçıį æĥľ
Ġch ance
çļĩ åĲİ
Ġf elt
Ġg as
è¿Ĳ ä½ľ
---------------- ----------------
Ġæ¿Ģ åĬ¨
Ġcommun ities
mb ol
å¸ ĸ
Ġe gg
ĠThe ir
ä¸į æ»¡
V ID
èµ· çłģ
åıª ä¼ļ
æ·· ä¹±
ä»ĸ è¿ĺ
al ign
è´µ çļĦ
ĠéĻ Ĩ
Ġéĥ ¨
re land
Ġt ried
Ġredu ce
ĠW ed
Ġad vert
Ġçī Ļ
Ġstud ies
Ġturn ed
åįİ å¤ı
éĥ Ĭ
æĿĥ å¨ģ
Ġst ock
æĦŁ åıĹåĪ°
ä¸ī åĪĨ
Ġw el
i h
Ġl ands
æµ ıè§Ī
è¯ī è®¼
Ġæ¬¢ è¿İ
Ġä¸ĭ éĿ¢
å¤± åİ»äºĨ
ĠæĦŁ åĬ¨
op t
e ed
ä¸Ģ ç¾¤
ĠE ven
å®Į æĪĲäºĨ
Ġ ä»»ä½ķ
Ġincre asing
ĠåĲĮ æĹ¶
Ġèµ· åºĬ
Ġgrow ing
çİĭ çļĦ
æĹ ¬
Ġçģ µ
or age
ĠCong ress
ĠD en
ĠRe v
èĵĿ èī²
L A
å¾® ä¿¡
Ġpre tty
Ġå¹¿ å·ŀ
am m
ĠE lect
ä»¥ å¤ĸ
Ġan g
Ġè§£ åĨ³
9 1
ĠP enn
96 7
å¹´ è¢«
ĠSec ond
96 6
Ġç»ı åİĨ
æīĵ çł´
Ġactiv ity
E M
ĠP ac
é³ ŀ
çļĦä¸Ģ éĥ¨åĪĨ
ä½© æľį
g est
ag n
äºĨ æĪĳ
çı Ĭ
åīį æĸ¹
Ġæĸ ¤
åĽ´ ç»ķ
Ġsa uce
ä¸Ģ åı£
çĶ· å¥³
Ġ ice
åħļ å§Ķ
Ġrem ains
ä¸Ģ æĿ¥
æ¶Ī åĮĸ
Ġä¸Ģ æĿ¡
ĠBl ue
Ġan aly
Ġg raph
æĹĭ è½¬
ĠL u
ĠC at
éĽĨ æĪĲ
å¸Ĥåľº çļĦ
Ġw all
Ġd ream
th is
ĠåĪ ł
è®® ä¼ļ
Ġatt end
ĠWh o
ä½ £
è½´ æī¿
åıĸ ä»£
Ġcor rect
Ð° Ð½
Ġis land
åĪĨ ç¦»
Ġun it
å¢ ħ
ĠæĿ¥ è¯´
æģ© æģ©
ĠSatur day
le ft
å¤ª å¤§
Ġt im
è´Ń çī©
Ġinst rum
æĲŃ éħį
éħ ¬
Ġå°ı è¯´
Ġæĭ ĸ
ä½İ äºİ
Ġlist ed
ä¸įä»ħ ä»ħ
Ġb ra
ĠæĹ© å°±
ĠV is
å®¿ èĪį
Ġåľ £
åĪ° çİ°åľ¨
Ġintrodu ced
al og
çľĭ çļĦ
è±¡ å¾ģ
95 6
æĦŁ åºĶ
éĢĶ å¾Ħ
ĠS upp
ĠåĲ§ æĪĳ
èŀį èµĦ
L C
æ° ¢
Ġsoc iety
æĬ¬ å¤´
åĪ« è¯´
O K
Ġsur pr
Ŀ å®¤
Ġcost s
é«ĺ äºİ
éĶĻ äºĨ
çĥ ģ
Ġopen ing
ĠPl an
Ġè¯ į
ä¾Ŀ èµĸ
æ² ¸
Ġm ission
å½ĵ åīį
Ġç³» ç»Ł
äºĨ ä¸įå°ĳ
èĢĮ åĲİ
Ġopportun ities
æ¢ ¨
çĥŃ éĹ¹
ç¯® çĲĥ
ä¸Ģ å¸¦
æį §
ä¸Ģ ä»½
Ġsh oot
ä½ł èĥ½
Ġp ages
åĪ° å¤Ħ
æ°Ķ åĬ¿
ĠèĤ ļåŃĲ
èĵ ī
Ġéĥ ĳ
å¸ ½
Ġche m
å¦ Ħ
I R
ĠåĲ ī
çĶŁ æ°Ķ
åİ ¢
Ġp et
åĴĮ æĪĳ
é£İ æļ´
Ã³ n
ä¸Ģ éģį
åĨĴ éĻ©
Ġè¿Ľ åİ»
ĠFace book
ut y
è®¨ åİĮ
æĳĩäºĨ æĳĩå¤´
åľ¨ ä¸Ģä¸ª
ac ity
ĠåĪ ĩ
Ġsp ot
ĠM a
e v
Ġå° Ŀ
å»ºç«ĭ äºĨ
Ġstru gg
ä¼ł éĢĴ
é« ĵ
Ġé» ĺ
åŃĺåľ¨ çļĦ
åıª å¥½
ib ly
ĠæĶ¾ å¿ĥ
æĥħ å½¢
Ġèĭ± è¯Ń
ä¸į æŃ¢
Ġfl oor
Ġcl osed
è¯´ å¾Ĺ
Ġrun s
c her
Ġserv ing
äº§ æĿĥ
Ġ( "
ĠSh ow
as y
Ð¾Ð ´
Ġse a
ĠèĢ ¶
åĭ Ł
ĠG all
äºº åĬĽ
Ġnear ly
Ġdise ase
äºĮ å¹´
ä¸Ń å°ı
und red
ff ee
an i
Ġ3 6
ipp ing
ç£ Ĭ
ac ing
Ġsign ed
æ± °
ä»ª å¼ı
çļĦ è¡Įä¸º
åĿ Ŀ
Ġsa ve
ĠS om
èĲ½ å®ŀ
åķĬåķĬ åķĬ
ĠçĶŁ æ°Ķ
Ġæķ £
Ġå®³ æĢķ
Ġåĩ ī
Ġç§ ģ
ĠéĢļ è¿ĩ
ĠP ub
Ġåľ Ĩ
ä» Ĩ
åĮ ł
æľī è¶£
Ġtemper ature
Ġevent ually
åī¯ ä¸»ä»»
èħ ķ
çĽ´ æĴŃ
æįŁ ä¼¤
Ġaud ience
Ġåĳ ľ
Ġç¬ Ķ
ĠEar th
Ġacc ur
éļ Ļ
Ġstr ateg
ĠCommit tee
ĠM icro
åĬŀ åŃ¦
å¸Ī çĪ¶
åĩł æ¬¡
E n
Ġpe ace
ĠæĮ Ĥ
éĩįè¦ģ çļĦæĺ¯
éĿ¢ åĲĳ
Ġb rief
ä¼ĺ åħĪ
ä¼łç»Ł çļĦ
ĠP ower
Â· Â·
ĠåıĤ åĬł
Ġå¨ ĥ
Ġfe et
Ġinc orpor
èĤ© èĨĢ
ĠP erson
ul ate
èĪĴ éĢĤ
ĠVirgin ia
Ġbe y
Ġåħ ±
P P
Ġorigin ally
Ð¾Ð ¼
æĶ¹ è¿Ľ
Ġåĭ ĩ
r im
% )
5 3
f it
ĠW in
m et
ĠéĹ ²
ann ed
èļ ģ
ä½ł çľĭ
ic ine
5 4
æĢ»æĶ¶åħ¥ çļĦ
è®¤ å®ļ
çĲĨ å·¥
æ°ĳ ä¼Ĺ
éĥ¨ ä½į
æ°´ æŀľ
æł ĸ
åĿ İ
åĲĪ æł¼
ĠJ im
Ġtyp ically
åĨĽ åĽ¢
d ate
cript ion
Ġb illion
ous ly
ä»£ ä»·
Ġst ream
å°Ķ çļĦ
ĠæĹł æ³ķ
Ġf ix
Ġèĭ± æĸĩ
p re
Ġf a
Ġ.... .
è®¸ åı¯
åħħæ»¡ äºĨ
th let
ight ly
in y
ä½ĵ ä¼ļ
åĲĮ äºĭ
Ġcal c
Ġmus ical
æķı æĦŁ
ars h
Ġs ort
Ġsh own
å¦Ĥæŀľ æĺ¯
Ġä¸į çŁ¥
Ġé Ĩ
èĭ± æł¼åħ°
éĺ´ éĺ³
åī ¥
Ġçº ¿
ĠåŃĺ åľ¨
ĠäºĨ åĵĪåĵĪåĵĪ
Ġè ļ
å¤© ä½¿
æ¯ģ çģŃ
å½ °
ĠI reland
æĪĳ è¿ĺ
å¹³ éĿ¢
åĲĪ æ³ķ
ud d
ĠGe org
« çĳ°
es ter
ĠÐ º
Ġgl ass
ĠJ ul
Ġs alt
96 2
Ġs end
res p
Ġmil es
æĬµ æĬĹ
ĠT our
ä¸» ä½ĵ
çĽ¸ åºĶçļĦ
èİ ¹
ä½ł ä¹Ł
ĠEng ine
æ¯Ķ äºļ
ä»Ģä¹Ī çļĦ
l im
Ġå¥ Ķ
çĶŁæ´» çļĦ
çĽĳ æµĭ
ĠL iving
Ġbey ond
æĿ ī
æĺİæĺ¾ çļĦ
ĠFound ation
Ġf ederal
Ġcult ural
ĠåŃ Ļ
at ab
Ġä¹Ł è®¸
åħī æĺİ
æŃ¦ è£ħ
Ġéķ¿ å¾Ĺ
èĦ ĸåŃĲ
opp ed
ra c
Ġ6 4
Ġha ir
è®¾è®¡ çļĦ
ĠåĸĿ éħĴ
ä»İ æľª
Ġc ert
C om
æĽ´ é«ĺ
Ġm iddle
åįģä¸ī ç«ł
Ġè´Ł è´£
åĿ¦ åħĭ
Ġd ensity
Ġåģ ı
Ġå¾ Ĳ
Ġcred it
åĮ Ī
Ġche ese
åħ¶ ä¸ŃçļĦ
Ġreview s
u ing
åĲĦ å¤§
f riend
çļĦ ä¸¤
ĠH ave
æ³ķ å¸Ī
ĠE ach
ĠMart in
ä¸Ń å±±
Ġæĳ ¸
B l
æľª å¿ħ
Ġæľ ±
Ġrequire ments
Ġèī º
ãĢ ī
Ġad ult
Ġor d
éĵ¾ æİ¥
æĶ¶ è´Ń
çĳ ľ
Ġlet ter
è° Ń
çĲ ¼
ĠF estival
æī¿ è¯º
our ney
çļĦ æľĭåıĭ
åĽłä¸º ä»ĸ
Ġdefin itely
Ġsit es
Ġexper ien
Ġå¥¹ ä»¬
è¿Ļ ä¹Ł
çĶŁ æĪĲ
Ġ è¿Ł
ĠT imes
åħ¶ åĲİ
Ġå¤Ħ çĲĨ
éĢĤ çĶ¨
å¿« çļĦ
ĠF oot
Ġæķ° æį®
Ġè¶ ³
å®ļ æľŁ
ç¥ŀ çļĦ
O W
ĠAn other
çİī ç±³
] .
Ġç³ ĸ
Ġres idents
è¯¢ éĹ®
æĢ ¡
Ġéķ¿ å¤§
è¢Ń åĩ»
Ġdem and
Ġå»º è®®
æĪĳ èĥ½
ĠE conom
Ġå¦Ī å¦Ī
ĠSc ot
å¤© èµĭ
ä¼ĺç§Ģ çļĦ
æŁ¥ è¯¢
+ +
Ġm unicip
Ġcomm and
N ame
96 3
Ġt aste
æĿ¥ åĪ°äºĨ
ç« Ń
è¯´ åĪ°
Ġey es
Å Ĥ
æľīæķĪ çļĦ
Ġelect ric
è¯¸ å¤ļ
ãĢ İ
ä¹ĭåīį çļĦ
Ġmov ing
w ith
ä½ľ åĩº
è¯Ŀ é¢ĺ
ĠJ es
ĠT im
èĢĮ æĪĲ
åģ¥ èº«
ĠM ur
Ġdev ice
èĭ ĳ
ä½Ĩ åį´
Ġhous ing
çľĭ ä¸Ĭåİ»
Ġal umni
è¯Ĺ äºº
ĠTh anks
å¯¹ éĿ¢
Ġsound s
åľ¨ ä»ĸçļĦ
å¤§åĪ© äºļ
èĤ¡ ä¸ľ
å®¢ æ°Ķ
Ġæĺİ æĺ¾
æĥ³ äºĨ
Ġindepend ent
Ġfin ally
O D
ĠF ollow
çĸ« æĥħ
Ġc ru
çĥ «
åľ° éľĩ
Ġåİ» å¹´
åįł é¢Ĩ
éĽ ĩ
ce an
Ġè§ Ĩ
æĬ± çĿĢ
Ġsay ing
ĠC ook
æ·± å¤Ħ
ä» ĳ
è¿ĻéĩĮ çļĦ
å©ļ å§»
åĽŀ å¤į
çľ¼ éķľ
Ġelect ed
æŃ §
åĩł åĪĨ
in ct
Ġè½¯ ä»¶
ç¨İ æĶ¶
çľ ¨
ĠL ab
åħ¬ äº¤
éŀ Ń
åĲ¬ äºĨ
ipp ed
å°Ĩ ä»ĸ
åŀ Ĵ
ĠDevelop ment
ä¸Ģ æ®µ
å¯¹ ä¸įèµ·
Ġk illed
ĠCath olic
åīį è¿Ľ
èĵ ¬
as tern
Ġç¬¬åĽĽ ç«ł
it er
ç»Ļ èĩªå·±
ĠPro ject
åľŁ å£¤
çº º
Ġæľª æĿ¥
Ġéĩį åºĨ
ĠèĮ ¶
æľĪ çļĦ
è£ Ļ
åĪĽ æĦı
ç®Ĺ äºĨ
Ġåıĳ å±ķ
ĠçĶ ļ
Ġeffort s
Ġæĭ ¥
ä¸Ģ æ®µæĹ¶éĹ´
è¾ĥ å¤§
ç«ĭ æ³ķ
Ġåħ³ å¿ĥ
æ¶ ħ
åĩº ä¸Ģä¸ª
ell ig
åĽŀ åºĶ
Ġdef e
èµ° åİ»
ĠV e
Ġmanufact ur
or ation
è¿Ļ åı¥è¯Ŀ
æĭĽ èģĺ
ĠP ass
Ġå®¢ æ°Ķ
å¾· éĩĮ
æ³ ¼
ĠæĿ ĳ
å½¢ çĬ¶
åĴĮ ç¤¾ä¼ļ
Ġä»Ļ å¥³
Ġå¤± çľł
åı¯èĥ½ æĢ§
Ġg un
çİ° çĬ¶
Ġemploy ees
Ġunderstand ing
" :
Ġcl ients
Ġç§ Ģ
åį± å®³
Ġdo or
Ġæ² Ī
Ġpass ed
Ġh ar
åĿĩ åĮĢ
ä»ª åĻ¨
Ġt ips
S D
çĶŁ çĲĨ
Ġæ° ĳ
vent ion
Ġâ ĸ
ä¸¥ èĤĥ
Ġh ospital
ĠS qu
Ġfem ales
Ġæģ ¨
Ġrepl ace
ç§ ©
ru ctions
çŃī åľ°
æī¾ åĪ°äºĨ
Ġè®¾ è®¡
Ġr ules
Ġt ick
Ġcol ors
b an
å¦ ¨
éĿ¢ç§¯ ä¸º
çļĦ çĽ®åħī
ĠC y
Ġrespons ible
æĿĲ è´¨
Ġret ail
ĠåĲ¬ è¯´
è´Łè´£ äºº
R A
ç« ĸ
çļĦ åĨħ
ric s
Ġè£ ¤
ä¸Ī å¤«
on ent
èģĮ åĬ¡
ĠUS A
çļĦ ä¸Ĭ
Ġh our
åĳ Ĳ
ĠPro v
and a
å°± è¯»
Ġprodu ce
Ġsc ene
Ġåħ ĭ
çļĦåŁºç¡Ģ ä¸Ĭ
Ġa ware
èµ· çļĦ
çĹ ĺ
èĥ½ åľ¨
å»¶ ä¼¸
Ġm ent
æľįåĬ¡ åĻ¨
åħ¬ æ°ĳ
å®ĥ æĺ¯
éª ļ
Ġfor ms
Ġa w
ç´§ ç´§
æĹ¥ åľ¨
ĠP C
æķĪ çĽĬ
Ġå® ģ
å®Ĺ æĹ¨
Ġme chan
ä¸Ģ éĥ¨
åĲĮ æŃ¥
or a
ĠS T
ĠèĢģ æĿ¿
ak s
Ġmach ine
w ord
oun g
Ġm is
åħ¬ å¹³
ĠæŃ¤ æĹ¶
Ġfl avor
Ġprevious ly
ĠéĢ Ĺ
ä¸ĥ åħ«
b ody
èĪŀ è¹Ī
ĠPol it
ĠServ ices
åĿĹ éĴ±
ic ious
Ġç½ĳ ä¸Ĭ
ĠåĽŀ çŃĶ
çİĭ åŃĲ
Ġç¾ ¤
Ġcaus ed
è®¾è®¡ å¸Ī
è®® åĳĺ
æī ģ
å¸¸ çĶ¨
Ġå¾Ĺ åĪ°
Ġt rib
å¤ļ ä¹Ī
åħĪ å¤©
çĶµ åİĭ
èį¯ åĵģ
ä¸ī å¤©
å°ļ æľª
96 1
Ġmanag er
Ġcl imate
ixt ure
Ġå§ ĳ
ĠL ibrary
å¼ķ è¿Ľ
ĠL ord
è¿Ļä¸ª äºº
æīĢ å¾Ĺ
ĠO per
Ġco ast
³ å¦ĩ
æ²¡ äºĨ
ä¸» æµģ
å®¡ æł¸
åħ¸ åŀĭ
Ð¾Ð »
Ġå¥ ¥
æ¨¡ åĿĹ
åı³ æīĭ
ĠåŃ Ĳ
åİĤ åķĨ
ĠB as
ĠçĬ¶ æĢģ
æĶ¶ å½ķ
Ġåĺ ŀ
æ¦Ĥ åĨµ
Ġèĭ ¹æŀľ
Ġcompet ition
åī§ æľ¬
ab it
å¹´ å¿«ä¹Ĳ
æĺ¯ è¢«
Ġadj ust
Ġåį «
æıĲ åĩºäºĨ
Ġè®¤ ä¸º
æĳ §
Ġplan ning
ç§ĳåŃ¦ å®¶
Ġéĺ Ł
åį ¸
ate gy
Ġsp irit
as p
å®¶ åħ·
æĪı åī§
Ġform at
Ġappro p
Ġalbum s
é«ĺ è¾¾
Ġæ²¡ çĶ¨
Ġm ur
c a
åĮĹ éĥ¨
Ġæ ¾
Ġæ ¦Ĥ
è½¦ çļĦ
çĬ¹ å¦Ĥ
å¹³ å®ī
æĬķèµĦ èĢħ
åĲĳ äºĨ
å¸Ĥ éķ¿
å½¢ åĬ¿
é¢ĺ ä¸»
Ġhe avy
Ġresp ond
ĠP an
95 9
enc ies
çĶ¨ éĢĶ
è¯Ń æĸĩ
åĳĬè¯ī ä½ł
Ġjo in
Ġlaw s
ä¸ Ļ
Ġph il
Ġåİ ļ
Ġsh all
Ġwe ather
éĴ ī
ĠL iber
çª Ħ
æĤ¨ çļĦ
ĠS ports
ap ers
å°± å¼Ģå§ĭ
b ur
æĥ ©
Ġsu gar
Ġå¸ ĥ
æĶ¶ è´¹
ĠMed ia
ĠéĽ ·
Ġèī ¾
ä¸Ń åįĪ
åĶ± çīĩ
Ġexper t
åĪĽ åĬŀ
èĩª ä»İ
æĺ¯ éĿŀå¸¸
ä¹ĭ ç±»çļĦ
ä¸ĭæĿ¥ çļĦ
Ġw ild
Ġf ine
Ġåĩ Į
Ġpre fer
Ġro w
çŀ Ĵ
åľ° éģĵ
ĠL ast
éļ¾ å¾Ĺ
Ġri ver
ĠEar ly
ä¸» å¼ł
Ġm aster
å± ¯
Ġbuild ings
ri age
èĢģ å©Ĩ
ĠéĹ® éĹ®
åįģåĽĽ ç«ł
Ġwr ong
çļĦ æµ·
ĠD et
çľŁ äºº
r ad
ä¸İ åħ¶
ä¸ĩ ä¸Ģ
A pp
Ġadd ing
ic ed
re ci
ĠæĶ ¿
æľª æĿ¥çļĦ
æĹ¥ è¯Ń
éĹ» è¨Ģ
å¤§ èĩ£
è¯ŀ çĶŁ
Ġc op
è¯į æ±ĩ
æŃ£ éĿ¢
åįĹ éĥ¨
éĢ Ĺ
7 2
åįł æĢ»æĶ¶åħ¥çļĦ
Ġè¯· éĹ®
å¸¸è§ģ çļĦ
æĶ¶ æĭ¾
Ġc ities
Ġpie ces
ĠS aint
om s
å¥½ åĲĥ
å°ı åĮº
ĠG ame
éĢĤ çĶ¨äºİ
v a
æĸ° åĬłåĿ¡
å¤± æľĽ
ĠHe ad
95 5
ip l
èĲ¥ ä¸ļ
éĩĩ è´Ń
ä¼ł éĢģ
Ġapplic ations
Ġm ap
ä¿® è¡Į
Ġfin ished
æ² §
Ġæ² ī
æĹ¶ä»£ çļĦ
ä¸į å¿ħ
Ġåħ³ éĶ®
Ġæģ ©
Ġex erc
Ġcomp ared
ul ed
å¥¥ æĸ¯
Ġpart ies
ĠSec ret
ä¸Ģ åĲĮ
6 2
åĬ¡ åĳĺ
Ġä½ĵ éĩį
å¯¹ èĩªå·±
Ġbe g
Ġch art
æİ ı
èĻļ æĭŁ
is ation
åİ» çļĦ
èĤ ļ
Ġå° ´å°¬
æĺİ æľĿ
av en
æŀģ éĻĲ
å¹´ åĲİ
å¤į åĲĪ
ç¬ ¨
in der
çħ İ
ç»ĺ çĶ»
Ġatt ract
c are
åı¤ åħ¸
Ġpl aced
Ġrecomm ended
æĺ¯ å¾Ī
Ġc ry
ĠR o
Ġ id
ĠAn t
Ĭ åŃĲ
æĸ¯ ç§ĳ
ç£ ·
è ©¹
it t
Ġåİĭ åĬĽ
åĮĹäº¬ å¸Ĥ
Ġey e
Ġqu arter
Ġpress ure
éĤ£ ä½į
Ġpart ner
æ£ ļ
åĩ¤ åĩ°
ä¼ł è¾ĵ
oura ge
ĠåĪ¶ ä½ľ
5 9
Ġl oad
Ġåī§ æĥħ
Ġown ers
ĠZ eal
Ġsh ared
Ġele ment
Ġto m
Ġcover ed
N ew
ç¦ Ħ
æĳĦ åĥı
c an
94 8
é©± åĬ¨
åıĺ çļĦ
Ġco ach
C A
ä¸į è®º
Ġåį Ī
çī ºçī²
Ġmod els
c ause
çŃ Ľ
èĮ İ
Ġé¡ µ
æĮ ª
P l
éĴ¢ çĲ´
çŃī çļĦ
Ġä¼¤ å¿ĥ
å¾Ĺ å¤ļ
æ¢ Ĺ
Ġth ous
Ġæī¾ ä¸ª
ĠäºĨ åĹ¯
is f
çĶµ åĻ¨
åĳ½ çļĦ
ĠéĢ Ł
ä¸Ģ ä¼ļ
am ing
ult ural
æĶ¾ ä¸ĭ
Ġc ra
ç²¾ å½©
ĠH on
U N
ĠTod ay
re ate
Ġle aves
è¡Ģ åİĭ
Ġ eth
éĩĩ è®¿
m od
Ġæ· ¡
Ġdep artment
Ġé¡¹ çĽ®
Ġp ull
çļĦ åıĺåĮĸ
Ġè ²Į
åĮ» å¸Ī
ä¸« å¤´
å¹¿ è¥¿
ĠéĿĴ æĺ¥
èĩ´ åĬĽäºİ
éĥ½ å¸Ĥ
ĠSw ed
Ġrecord s
éģŃ éģĩ
Ġs pl
Ġdeter min
åĽ½ æľī
Ġget s
Ġæ¹ ĸ
æķ´ ä¸ªäºº
ĠD i
åħ¨ åİ¿
äº§ éĩı
ĠçĪ ¸
Ġapprox imately
éĺ Ĳ
Ġappear s
Ġc amer
çĶŁæĹ¥ å¿«ä¹Ĳ
Ġéķ ľ
en ced
æ¯ı æĹ¥
çº¿ ä¸Ĭ
Ġå ª
Ġf ish
å¯¹ å¾ħ
éľ Ħ
Ġre ached
æŃ¤ æ¬¡
Ġç¤¼ çī©
åįĬ å¤ľ
èĽĭçĻ½ è´¨
Ġs and
çļĦ ä¿¡æģ¯
åħ³ éĹŃ
åĨħ åŃĺ
Ġåıĳ çĶŁ
é¢ĺ çĽ®
ç¡¬ ä»¶
ĠMond ay
Ġæ² »
éĿŀ æ´²
å¹¼åĦ¿ åĽŃ
ä½ľ æĸĩ
ĠF ort
e qu
Ġm obile
èĩªçĦ¶ æĺ¯
95 7
èĭ± å¯¸
Ġé¢ ĺ
Ġpresent ed
éĥ½ å·²ç»ı
æĢİä¹Ī åı¯èĥ½
ut ch
Ġdet erm
Ġå« īå¦Ĵ
Ġbut ter
å¯¹æĸ¹ çļĦ
Ġset ting
or ough
æŃ ª
ĠF urther
Ð° Ð»
Ġèº« é«ĺ
ĠS ong
ç¼ĸ åĨĻ
Ġdam age
çĹħ çļĦ
Ġåį ·
éľ Ĩ
Ġåİ» è¿ĩ
å±ķ è§Ī
å¤§ å¹ħ
éķ¿ å®ī
è¿Ļ åº§
ĠT re
ĠE p
Ġinit i
å¡ĳ æĸĻ
çļĦ éĩĳ
åħ± äº«
ä¸Ģ ä¼ļåĦ¿
æīĭ ä¸Ĭ
Ġv oc
Ġåŀ ĥåľ¾
ä¸Ģ èº«
Ġtri p
Ġå¼ ķ
æİĪ æĿĥ
Ġbud get
Ġè¡ Ĺ
ãĢĭ :âĢľ
ĠS pecial
ä¸ŃåĽ½ äºº
ed ia
ä¸ľ éĥ¨
ä¼ĺ æĥł
åħ¥ ä¾µ
Ġs ale
ãĢį (
am in
ĠLe e
æĬĢæľ¯ çļĦ
ĠZeal and
Ġinvest ment
Ġsec ret
è¿Ĳ è½¬
-- -
åĲĳ ä¸Ĭ
qu est
æ´» çĿĢ
Ġéģ Ĺ
F A
Ġ3 3
å¿ĥ çģµ
Ġå« ģ
at ers
C S
å¤§ èĩ´
Ġfor ces
Ġæĥ³ æ³ķ
è¿Ļ ä¸įæĺ¯
az on
èĪª å¤©
å®ŀ ä½ĵ
è¾¾ æĪĲ
ç±» åĪ«
ht ml
Ġref lect
ç¼ĸ åı·
åĬĽ åĴĮ
æĿ¡ ä¾ĭ
Ġf ab
ä¸į åĥı
Ġv irt
éĹª çĥģ
ĠFam ily
ian a
å±Ģ éĿ¢
itc hen
çĮĽ çĦ¶
Ġå°ı æĹ¶åĢĻ
ĠL ike
ĠæĬ ¤
è¾ħ å¯¼
Ġå·¦ åı³
éĵ Ŀ
æ¶ ¡
èģĬ å¤©
ä¹¦ çĶ»
éĻĨ åĨĽ
èĦĳ åŃĲ
ĠåĬł çıŃ
Ġc as
ä¸ª ä½ĵ
ĠH aw
ãĢ Ī
Ġdiffer ence
ur ation
åįģäºĶ ç«ł
a o
uc le
ĠCol umb
Ġconst it
Ġhistor ical
Ġ ä¸¥éĩį
æĪĳä»¬ åı¯ä»¥
å¯¹ åºĶ
ä¹Į åħĭåħ°
çĹ Ĵ
ĠG ar
Ġæİ§ åĪ¶
Ġstep s
æĪĳ çİ°åľ¨
Ġèĩª çĶ±
æĦıè¯Ĩ åĪ°
ä¼ļ ä¸Ĭ
èµ¢ å¾Ĺ
Ġgr ant
ĠC ross
åĴĮ å°ļ
Ġsch ol
äºĨ å¤§
X X
ur ies
åĪ¶ åĵģ
Ġpr incip
ĠåĪĨ éĴŁ
c ell
æĺ ¨æĻļ
éĩį å»º
åħ ®
Ġå¥½ åĲ¬
w ise
ĠS and
çĶ ¸
Ġst ations
Ġç» ´
Ġåľ° çĲĨ
94 6
èĸ ¯
ĠéħĴ åºĹ
åĿ ª
Ġcrit ical
Ġant i
ç¾İ å®¹
å·² æľī
ç§ĳåŃ¦ éĻ¢
æ¾ ľ
Ġveh icle
ĠM ot
æī® æ¼Ķ
åĳ¨ æľ«
de f
g ers
æĿ ł
ĠæľĢ å¤§
ä¸ĵ çĶ¨
Ġl ov
Ġå· §
Ġç¨ ĭ
pt ion
ç¨İ åĬ¡
ĠJ ud
ĠéĻ į
ä»¥ æŃ¤
y ing
Ġèĩ³ å°ĳ
wor ks
æºĲ äºİ
Ġleg isl
em porary
åĺ İ
äºĨ åĩºåİ»
ĠçľŁ æŃ£
Ġç¾İ åĽ½
ç¤¼ çī©
æ¨¡ ç³Ĭ
åľ¨ éĤ£éĩĮ
å¼ Ĭ
ĠCent re
ĠåĽ ´
æ±ī è¯Ń
è¿Ļä¸Ģ åĪĩ
Ġä½ľèĢħ ç®Ģä»ĭ
é»ĺ é»ĺ
Ġh uge
Ġocc up
çĶ· åŃ©
ĠB ob
åĲ ı
æļ´ éľ²
Ġè· Ŀ
i able
Ġse qu
æĢİä¹Ī ä¼ļ
å¿Ĺ æĦ¿
è¿Ŀ åıį
Ġv oid
å°ı çĻ½
ĠR os
ĠæĹ¢ çĦ¶
çľĭ è¿ĩ
æŃ¤ åĲĮæĹ¶
ĠåĨ »
é¸ ¦
Ġmet al
Ph one
Ġsepar ate
éĥ½ çŁ¥éģĵ
l ife
è¡ ·
åĦ¿ çļĦ
è¶Ĭ åįĹ
Ġ ur
ä¸Ģ æĶ¯
ä»ĸ å¯¹
ãĢĳ :
åĪĨ çļĦ
èĹ ©
T C
ĠDe c
Ġdirect ed
Ġin ternet
t own
å¿ĥ æĢĿ
çĦ Ĭ
Ġimmedi ately
Ġå° ¤
ĠW rit
Ġæĵ į
æĹ¥ åĲİ
ĠDiv ision
åİ» æī¾
ç¬¦ åı·
ä¸Ģ æĺ¯
Ġpower ful
å¦ ŀ
ĠAn y
æ¯Ķ èµ·
ĠF ire
Ã §
åĴ Ĳ
æ³ µ
Ġsust ain
Ġse at
åįķ æĽ²
Ġå¿« çĤ¹
çī© ç§į
ĠCommun ity
æľ¬ äºĭ
ĠUn fortunately
äº¿ ç¾İåħĥ
å¸¸ è§Ħ
å½¢ çļĦ
æĬĬ èĩªå·±
æĢ¥ å¿Ļ
1 10
å±± åĮº
Ġwas n
f ig
å°± è¿Ļä¹Ī
Ġb ound
Ġcan cer
çľĭ æ³ķ
Ġfact ors
é©¬ æĿ¥
ĠèĲ Į
Ġé¡ ¶
çĲĥ åľº
Ġb order
åķ ª
çļĦ çĽ®çļĦ
o es
Ġç» ¼
æĹ¶ ç©º
è¿Ľ ç¨ĭ
Ġer ror
å¹´ å¼Ģå§ĭ
çĭ¬çī¹ çļĦ
åŁº çĿ£
Ġpre c
Ġapp ly
å¸ĪèĮĥ å¤§åŃ¦
çļĦ ä½¿çĶ¨
åħ ĳ
éĢĢ ä¼ĳ
Ġæ± ¤
95 2
Ġå¹³ è£ħ
åŃĲ å¼¹
å¤§ èĦĳ
å¤§ æ¥¼
Ġk ing
è®© èĩªå·±
Ġed ition
ĠMan agement
Ġp aid
ĠM en
æ² ¾
æľĢåĲİ çļĦ
é¥° æ¼Ķ
ĠG en
ar ian
åħļ çļĦ
åĪ« äººçļĦ
æĴŃ åĩº
ify ing
Ġmin or
æľª èĥ½
it an
äºº éĹ´
ĠâĹ ı
y p
Ġç¬¬äºĶ ç«ł
ç§» æ°ĳ
Ġåĳ ¼
å¥¶ å¥¶
éĶ Ī
è®° ä½ı
94 4
éĥ½ ä¸įä¼ļ
ç¥ŀ å¥ĩ
ĠOr gan
Ġæĥ³ èµ·
èĢ³ æľµ
Ġchar ge
èĦ± ç¦»
ĠMex ico
ä»£ è°¢
Ġc ris
Ġr at
Ġh arm
å¯¿ åĳ½
çľŁ å¿ĥ
èĤ¯å®ļ æĺ¯
åı£ ä¸Ń
â Ĺ
Ġèį £
Ġ3 00
I d
in et
Ġnum erous
ĠÐ ´
å¾Ĺ ä¸Ĭ
æľ ķ
è° ľ
åĵĪ å°Ķ
è¯ µ
ä¸Ģ åī¯
çļĦ çī¹çĤ¹
è®¤ä¸º æĺ¯
F C
H e
æĽ¾ åľ¨
ĠA M
ä¹ĭ ä¸º
Ġcor por
Ġè Ń¦
Ġra ces
çļĦ æĸ¹åĲĳ
d es
Ġas pect
èĴ ľ
ĠC ertain
äºĨ è®¸å¤ļ
çģ« ç®Ń
è¶ħ å¸Ĥ
èµĶ åģ¿
ig ation
Ġview s
ä¹ĭ äºĭ
å§ĵ åĲį
Ġbas is
Ġæ¼Ķ åĶ±
ç§© åºı
Ġthe ory
Ġä¸Ĭ åİ»
åĳ½ åĲį
Ġåħ¶ å®ĥ
æĥ Ł
å± ¿
ĠM P
èĩªæ²» åĮº
æŀ £
å¸Ĥ å§Ķ
ĠW ay
æľŁ åĪĬ
ris on
g n
Ġt ree
ĠO k
ĠPac ific
å¹´ èµ·
Ġé£ŀ æľº
oth ing
è¿Ļ èĪ¬
ĠåĲĪ éĢĤ
Ġd im
us ion
Ġåį ĩ
ä¸Ģ æĸ¹
Ġb attle
éĻ ¨
å¼Ģ æĿ¥
ĠçĹ Ľèĭ¦
ĠåĩºçīĪ ç¤¾
asket ball
Ġ äºĽ
éķ¿ æ±Ł
Ġåĳ ½
Ġst reet
çĽ´ å¾Ħ
ä½ł æľī
æ°Ľ åĽ´
Ġwork ers
å¤§ ç¬ĳ
Ġm useum
Ġl ived
A meric
åĬ¡ å·¥
Ġèī ²
ĠU N
æķ£ åıĳ
åĬ ª
Ġ ä½¿
Ġest im
C ont
Ġ3 8
ç» £
ian o
åİĭ ç¼©
ä»ĸä»¬ åľ¨
æĶ¾ æĿ¾
ist an
Ġfore ign
Ġent ertain
éŃħ åĬĽ
Ġä¸į æĿ¥
ĠèĲ ¥
âĢ ²
æİ¥ æĶ¶
ĠW al
çļĦ æķĪæŀľ
ä¸ī ç§į
åĪĽ ç«ĭ
Ġbecom ing
åī ĸ
çī© ä¸ļ
Ġ4 4
èĦĳ æµ·
åıĪ ç§°
åĲĮ æł·çļĦ
å¦Ĥä½ķ è¯Ħä»·
Ġcrit ic
å±ŀ çļĦ
ĠBu ild
å½ĵ éĢī
æ°Ķ è±¡
95 4
åľ° è´¨
Ġè´ ¹
ĠT est
å¸Ĥ æĶ¿åºľ
é¼ł æłĩ
Ġç´ «
ĠApp le
D F
æĵħ éķ¿
æĸĩåĮĸ çļĦ
ç»Ħ å»º
el ine
éĿĴ å²Ľ
ä¸Ńåįİ æ°ĳåĽ½
åķĨ æłĩ
Ġthem e
Ġpict ure
Ġæ¬º è´Ł
åıĳ èµ·
è§ģ éĿ¢
ä¸» ç¼ĸ
ĠT ri
æ¾³ å¤§åĪ©äºļ
æľī ä¸ĢäºĽ
åĢ¾ åĲĳ
æľĢ éĩįè¦ģçļĦ
æ³ķ åŃ¦
çĺ ¾
Ġéļ Ķ
çĸĳ éĹ®
olog ies
Ġstreng th
ç¼ĸ ç¨ĭ
æĭ¿ åĩº
çļĦ å¥³
æĥ³ ä¸įåĪ°
åı¤ èĢģ
è¯ķ è¯ķ
æ¾³ éĹ¨
Ġæ² Ļ
Ġla unch
St ring
S A
ĠG ames
Ġèģ ªæĺİ
ĠL im
åı· çłģ
Ġclass ic
ä¸º æŃ¤
ç¼º çĤ¹
semb ly
k ins
stand ing
åĪ ®
Ġopp os
s es
åį³ ä¾¿æĺ¯
Ġ ir
ĠéĹ ª
Ġsol utions
ĠSt and
ä¹¦ ä¸Ń
ĠçĨ¬ å¤ľ
éĴ ¦
é¦ĸ éĥ½
åĪĿ ä¸Ń
çļĦ ä½ľåĵģ
åĴĮ å°ı
ost on
åįģåħŃ ç«ł
ear s
C O
ç®¡çĲĨ çļĦ
ä¾¿ åĪ©
Ġdr ink
em ents
Ġçİ° å®ŀ
ãĢĤ )
ä¸įè¿ĩ æĺ¯
æĬ¬ èµ·
ĠM ax
æĹł å°½
çģ« éĶħ
å¹¿ä¸ľ çľģ
Ġwrit ers
æľī ä¸Ģç§į
å¤ª ç©º
Ġå½ ©
å°±æĺ¯ ä¸Ģä¸ª
æŃ¦ èĢħ
i as
Ġd yn
èº« æĿĲ
Ġh undred
è¡ ¬
Ġlab el
åĢŁ åĬ©
è¯ Ī
çĮľ æµĭ
m iss
çĶŁæ´» ä¸Ń
ĠG reek
åį° åĪ·
Ġbas ic
Ġsol id
å· ·
Ġappoint ed
åĥı ç´ł
Ġdep ending
éģĹ åĿĢ
å°± è¿Ļæł·
Ġair craft
ĠLit tle
ĠIn s
94 7
' .
ç¤¾ äº¤
Ġrec ip
Ġgu id
æĮĩ å®ļ
èĢ ¸
Ġhealth y
le te
ä¿ ĺ
Ġj u
å·¥ä½ľ äººåĳĺ
åĨĽ å®ĺ
Ġent ry
ĠBe ach
ĠGo vern
çļĦ éĢīæĭ©
åĲŀ åĻ¬
æĶ¯ æı´
Ġsc en
G o
åĲĦ åĽ½
Ġpric es
æ°´ ä¸Ń
æīĢ éľĢ
Ġæ ¦
åĪ° æĿ¥
åĺ´ éĩĮ
ä½ł è¿ĺ
èĨ ¨
Ġt ren
å¿ĥçĲĨ åŃ¦
â Ī
åİ» åģļ
æĸ° çĸĨ
é¸¡ èĽĭ
93 9
Ġd ish
åħ¥ éĹ¨
æĸĹ äºī
Ġè²Į ä¼¼
ĠN avy
Ġ( )
èµ° åĩº
Ġp air
äºº æĸĩ
æĪĸèĢħ æĺ¯
Ġfeel ing
ĠèĻ ļ
çķĮ éĿ¢
çĶŁ èĤ²
ant ly
Ġä¸Ĭ éĿ¢
èįī åİŁ
ĠB oth
çŀ ³
Ġé¼ ĵ
è½¬ åĲĳ
ä¼Ł å¤§
Ġb owl
94 1
ä»¥ å¾Ģ
Ġå® ĭ
èĶ ĵ
ĠTechn ology
Ġpo or
ĠJose ph
Ġlaun ched
æ¯ķä¸ļ çĶŁ
è¿Ļ å®¶ä¼Ļ
åĨ³ å¿ĥ
94 2
oun der
pr int
æŃ¤ åĲİ
åħ¨ ä¸ĸçķĮ
ic ians
å®Ī æĬ¤
æĶ¹ ç¼ĸ
Ġçİ¯ å¢ĥ
Ġäºº åı£
é¡º åºı
Ġmed ium
çĪ± ä½ł
18 0
æ¸ħ æ´ģ
h i
è¿Ľ åĮĸ
éħ µ
ag ram
Ġä¸ĭ çıŃ
åĨħ å¤ĸ
Ġmem ory
Ġå®Į ç¾İ
ä½ĵ éĩį
Ġwebs ites
Ġæĺİ å¹´
S p
ĠS a
Ġgre ater
Ġle aving
95 3
ç»Ħç»ĩ çļĦ
Ġå®¶ åºŃ
z en
è¦ģ ç´ł
Ġp sych
il ing
Ġr an
èµĦ è®¯
æĽ¹ æĵį
æŁ¥ çľĭ
ä¸į æĦ¿æĦı
Ġçľĭ èµ·æĿ¥
åİĭ åĪ¶
Ġsy mbol
ĠRad io
åĽ½ éĺ²
Ġapp reci
Ġneigh bor
C T
Ġæĭ ľ
Ġmethod s
çļĩ ä¸Ĭ
ç¼ ¸
Ġth us
ĠM iddle
æĭī åħĭ
on ents
å¯ ¡
ĠD ie
Ġgu ide
Ġèº« ä¸Ĭ
ĠI II
ä¸º åĩĨ
ĠE mp
ed om
n s
Ġchalleng es
P I
æĽ¿ ä»£
åĬł çĥŃ
åĨ· ç¬ĳ
å¤ļ å¹´çļĦ
Ġç¾İ ä¸½
Ġæ·± åľ³
çİ° ä»»
Ġn av
Ġç© ·
ĠU l
æĻ®éĢļ çļĦ
Ġexist ing
Ġform ula
æĢ Ķ
åĭī å¼º
Ġun s
du le
å¹² æī°
Ġst y
p oint
Ġconst ruct
Ġra ised
ç±³ çļĦ
in em
ĠCor por
Ġåĳ¢ æĪĳ
ĠSt at
ç©¿ è¶Ĭ
Ġdest roy
Ġæĳ Ĩ
ç¥ŀ éĢļ
, âĢĿ
æĬ¤ çĲĨ
ç§į æĹı
ä¸» çļĦ
æ¦Ĥ çİĩ
æ¬§ éĺ³
S c
Ġæĺ¾ ç¤º
â Ĩ
æĹ¥ æĬ¥
ĠK ar
Ġæł ¼
Ġle ague
Ġconne ction
it ors
act ive
æįŁ å®³
éĹª è¿ĩ
ĠèĮ ĥ
Ġeconom y
æĬµ è¾¾
åī© ä¸ĭçļĦ
ĠG al
èĢģ ç¥ĸ
åľ° çĭ±
ä¸ĵ æ³¨
Ġ çļ®èĤ¤
éĽ Į
ä¸Ģ é¢Ĺ
Ġstud io
æĹ ±
ä¿Ŀ ä¿®
åı¦ä¸Ģ æĸ¹éĿ¢
å¾Ī é«ĺ
èĨ Ĭ
éĽ ģ
Ġsit u
ĠF er
ĠQue en
Ġmajor ity
æĸ ĭ
Ġä¸Ģ ä¼ļ
æİĮ æİ§
éĢı æĺİ
Ġwin ning
æİ¢ è®¨
ion e
ĠC PU
d ro
èĬ Ļ
ur a
è°Ī åĪ¤
éª ĩ
æ¶Ī éĻ¤
å¯Ĩ åĪĩ
uck y
è¿ľ çļĦ
çľĭ äºĨä¸Ģçľ¼
å½ķ éŁ³
Ġæ ¤
åĨ· åĨ·
æ´» è·ĥ
ĠåĪ ©
ç² ¤
ĠRuss ia
Ġed itor
è£ ¸
è§ģ äºĨ
å»º äºİ
äºĨä¸Ģ åı£æ°Ķ
äº§çĶŁ äºĨ
al ing
Ġ ä»·æł¼
çļĦ æľĢ
Ġaltern ative
éĵ ®
åıª éľĢè¦ģ
Ġra p
å¿ĥ æĢģ
com p
ĠCarol ina
Ġr ich
6 3
çĻ½ çļĦ
Ġsmall er
å¤§ éĹ¨
ĠèĢģ å©Ĩ
Ġdev ices
Ġèĥ ¸
ĠCol or
è° İ
ĠTe am
Ġun iversity
ĠTh urs
Ġå½ ķ
è´¯ å½»
Ġc old
çĽ¸ æľº
æ»¡ äºĨ
æĹł åı¯
èħ ¥
ĠOr der
è¿Ļ å¼ł
id th
çĿ¡ çľł
Ġsle ep
å¼Ģ è®¾
Ġéħ ±
Ġè¯» ä¹¦
r as
Ġkn ew
Ġprote ction
ĠW all
åĿĩ ä¸º
ĠIr ish
y e
Ġv ote
ç²¾ åĬĽ
å°Ķ å¾·
Ġç²¾ ç¥ŀ
åĳ¨ å¹´
ĠåĽł æŃ¤
93 7
ä¸ī çĻ¾
Ð¾Ð ³
Ġm icro
ĠæĻº åķĨ
è¿ĩ æĿ¥çļĦ
ĠV ill
é¡¶ çº§
F or
åħ¥ éĢī
ĠæĪ ı
V al
Ġå°± è¡ĮäºĨ
åįģä¸ĥ ç«ł
r ite
åĶ¯ä¸Ģ çļĦ
Ã© s
Ġcent re
Ġcreat ive
ç¦ı åĪ©
å¦Ĥä½ķ çľĭå¾ħ
Ġæĵį ä½ľ
åħĭ åĬĽ
Ġb ottom
Ġst ated
åĽ¢ ç»ĵ
å¤§ åİ¦
Ġå¾Ī å¤§
éĿ¢ åŃĲ
Ġè Ĩ
è½¬ åĮĸ
Ġto w
il ed
æīĵ çĶµè¯Ŀ
äºĮ çº§
ent ed
åĲİ æĤĶ
Ġæĭ Ĵ
Ġsp ring
å¤§ æ°Ķ
Ġded icated
Ġd ance
å¸Ĥ åĮº
åĪ« å¢ħ
åĲĥ äºĨ
æģ¶ éŃĶ
åĪĨ æķ°
Ġass ess
Ġs av
ä¹ĭ å¿ĥ
åħ¬ çĽĬ
ĠN orthern
ic an
Ġsc ore
Ġear th
æ»¡ èĦ¸
Ġmag azine
ĠW he
Ġdeb ut
un te
åĪĨ æ³Į
ç½ĳ åıĭ
i very
Ġm ixture
ä¹ĭ æĪĺ
çİ°ä»£ åĮĸ
ä¸¤ ä¾§
u i
é«ĺ å±Ĥ
åĩ ¸
æŀ¶ æŀĦ
Ġæļ Ĺ
Ġå¼Ģ è½¦
H ow
Ġåħ¶ ä¸Ń
s m
èĪ ħ
çĶµ æ°Ķ
æķĻèĤ² éĥ¨
ç®¡ è¾ĸ
ir us
ä¹ĥ èĩ³
hol der
åı¸ æľº
æķ° çĻ¾
ĠèĬĤ å¥ı
Ġå° º
Ġc atch
çŁ £
ä¹¡ éķĩ
Ġp al
in er
Ġåº ķ
âĢĿ âĢľ
Ġfl ow
è¿Ľåħ¥ äºĨ
ĠåĽŀ åĪ°
Ġèµ Ľ
Ġc itiz
ĠæĶ¶ åĪ°
Ġon to
æĦŁ åĬ¨
åŃ¦æł¡ çļĦ
ĠIn ternet
èı ©
Ġæ³ °
ç§ģ äºº
Ġèĥ ĥ
æı ī
çļĦ ä¼ģä¸ļ
Ġch air
çľŁ çĽ¸
Ġçİ° åľº
å¤§ è§Ħæ¨¡
åĩº éĹ¨
Ġfour th
ĠT ues
Ġa im
A V
ĠH or
ä¸Ģ å¤´
' )
a is
çĭ Ħ
å¤ª å¤ª
å¾ħ éģĩ
ä¸ī åĽ½
æĸŃ äºĨ
å°± æ²¡
ĠE ll
çĶµ æµģ
Ġfig ure
Ġm ill
çļĦ æľįåĬ¡
Ġæķ¬ ä¸ļ
Ġw ait
ĠS ir
å ¬
æ¸ħ åįİ
âĶ Ģ
Ġcap acity
è¯¸ èĳĽ
åĮĸ å·¥
çĲĥ è¿·
èĲĿ åįľ
ran ce
ruct ure
æľĢè¿ĳ çļĦ
Ġrepl aced
æĿĥ çĽĬ
Ġf at
ç¾İ æ´²
çĦ ļ
å¤ĸ åĩº
å½¢ çłģ
çģ« è½¦
çļĦ è¡Ģ
Ġbecom es
ä¸ºä»Ģä¹Ī è¦ģ
å¸ ĺ
åıĸå¾Ĺ äºĨ
ä»» åĳ½
ĠCh ief
è§Ĥ çľĭ
or ter
Ġch icken
Ġé«ĺ ä¸Ń
Ġpol ic
Ġstra ight
Ġåīį éĿ¢
Ġf ashion
Ġexcell ent
Ġn ut
Ñ Ī
äºº æĺ¯
å¼Ģå§ĭ äºĨ
B e
Ġdes pite
Ġ= >
Ġdeterm ine
æ½ ĩ
éĢĢ åĩº
Ġsum mar
ĠIt aly
Ġæµª è´¹
ĠS et
Ġb urn
æī¾ ä¸įåĪ°
æĺ Ķ
å¼º è¡Į
Ġåħ· ä½ĵ
ĠæĻ ķ
çĲĨ è´¢
D P
In t
Ġbeaut y
Ġrout e
å¡ŀ å°Ķ
re p
çļĦ è¡¨æĥħ
j a
æĭį åįĸ
Ġnorm al
R es
aw a
ĠN ight
ing u
ĠFor m
æī© å¼ł
ĠL ear
å¤§ äºİ
è¿Ļä¹Ī è¯´
éģĹ æĨ¾
é¡¹çĽ® çļĦ
çľĭ ä¼¼
un der
ĠG re
ĠL ive
åįĬ å¤©
éĴ ©
è§ģ çļĦ
åĪ© çİĩ
Ġæ ©
Ġbro wn
åģľ è½¦
å¤§ äºĭ
Ġä¸į è§ģ
åĲĪ çī©
å¹² èĦĨ
åľ° çľĭçĿĢ
èº« å½¢
åİ Ħ
un ning
ĠéĿ Ļ
çĽ´ èĩ³
Ġ* /
åĢº åĬ¡
éŃ ģ
æł Ĺ
if ically
Ġins urance
ä¹ĭ æĦı
at i
ç§į ç§į
Ä ģ
Ġanim als
ç¬¬ åħ«
è±Ĩ èħĲ
ĠåĶ± æŃĮ
ä¸į å®ī
æĹł ç©·
Ġæ¸ £
å·´ å£«
in ner
æ° ¯
b ed
ç»Ļ äºº
Ġre pe
åħĥ å¹´
çŃ¾ è®¢
ä¿ ¯
çļĦ é£İ
rap y
å·® åĪ«
Ġlim it
Ġwh om
ä¸į æŃ»
çķĻ åŃ¦
ĠPar liament
æľī ä¸¤
Ġadv ant
ç§ ī
Ġpl ants
å¥ ¢
Ġtra ffic
Ġend ed
Ġhapp en
ĠHum an
Ġr ule
å´ İ
è´¨ çĸĳ
Ġèħ °
ĠéĤ ®
ä¸Ģ å¥Ĺ
æŃ£ç¡® çļĦ
Ġç¨ ³
æĪĲ äºº
S E
è´ ©
åı¯ ä¸į
ä½ĵ ä¸Ńæĸĩ
Ġse lected
ç®Ģ åİĨ
Ġmy self
st ra
å¥½ åıĭ
ä¹ĭ éĻħ
ĠT em
Ġdire ction
Ġä¸į ç®Ĺ
Ġå¯ Ĵ
Ġåģ¥ èº«
æ¢ Ń
Ġé¢ Ŀ
ĠChar l
å·´ è¥¿
Ġter min
Ġro b
åŁº å±Ĥ
ĠJohn son
d oor
çī¹ å®ļ
et ers
Ġar rest
ĠèĪ ŀ
ä»ĸ åĴĮ
è§īå¾Ĺ èĩªå·±
åı¯ è°ĵ
Ġoffer ing
åįģ åŃĹ
çļĦ çĬ¶æĢģ
éĺµ æ³ķ
é¢Ħ è®¡
pect ive
åħ» èĢģ
Ġnew sp
ĠçĨ Ĭ
éģĹ äº§
ä¸Ģ éĹª
å¥³ ç¥ŀ
æīĵ åį°
è¿Ľ å±ķ
) ãĢĭ
Ġc ou
Ġå¢ ŀ
Ġ3 7
ĠAs ian
ĠM ake
yl van
93 8
Ġrem ove
è¾ĥ é«ĺ
æĸ¯ åŁº
C ol
Ġpr ison
Ġå¥ĩ æĢª
éĶĢ éĩı
æ¼Ķ å¥ı
çĲ Ĳ
çļĦ å½¢å¼ı
ĠJe ff
atab ase
åıĳ çĹħ
æ¡ Ĳ
Ġaward ed
è¿Ļ æĺ¯ä¸Ģ
Ġd oll
åħ¶ æ¬¡
Ġsupp ly
Ġr ates
ĠæķĻ èĤ²
éĶ® çĽĺ
rom e
T ype
åĴ ķ
Ġth r
b ar
åĩºçĶŁ äºİ
èĢģ å®ŀ
åįģåħ« ç«ł
ä»£è¡¨ å¤§ä¼ļ
å½ķ åıĸ
Ðµ Ð»
Ġm el
Ġinflu ence
Ġdemon str
_ {
C E
Ġéĩį çĤ¹
Ġb atter
è¿Ļ äºĭ
å¥ ł
os oph
å¿ĥ çĸ¼
çļĦ é¦ĸ
Ġrem ained
ĠLe ad
ord in
ĠB oston
i ar
è¯´ åĩº
åľ¨ å¤ĸ
æ¸© æļĸ
åĮħ åĽ´
Ġcontin ues
ĠPol ice
Ġd rum
è§ģ è¯Ĩ
yth on
éĺ² æĬ¤
ç¤¾ä¼ļ çļĦ
å¯¼ å¼¹
Ġadv ice
é»ĳ é¾Ļ
ult y
Ġp urs
ä¸¤ èĢħ
ag on
h ost
y an
æĽ´ æį¢
ĠéĿ¢ å¯¹
ĠV an
Ġåĩł æ¬¡
ĠâĢ ĭ
éľĢè¦ģ çļĦ
Ġprofess ion
ĠçĪ¶ æ¯į
åĩł ä½į
ri er
ail s
æĪĳ å·²ç»ı
Ġéĩ ĩ
ç²¾ èĭ±
ä¸» åĬĽ
ĠèĤ ¿
Ġd oub
ans as
Ġsh ape
é¢ĨåŁŁ çļĦ
ĠY oung
Ġèĥ½ åĬĽ
Ġv ary
ç¨ĭåº¦ ä¸Ĭ
} -
æŃ ¹
ĠBe cause
åĬŁ æķĪ
Ġst ress
æµģ ä¼ł
åĬ© çĲĨ
Ġå«Į å¼ĥ
³ èĨĬ
åĴĮ ä½ł
ĠI mp
ĠAs ia
Ġæī İ
ĠC ard
çļĦ æĪĺ
Ġç®Ĺ äºĨ
Ġsm ooth
Ġvis ual
Ġf if
Ġd ang
ä¸Ģ æľ¬
ĠEn d
S M
Ġæĺ ĵ
ĠÐ½ Ð°
ĠCertain ly
å½ĵ ä¸ĭ
çĽ¸ åºĶ
æ¶Ī çģŃ
åĽ½æ°ĳ åħļ
Ġj ourney
ĠS outhern
Ġfore st
ä¸į æ¸ħæ¥ļ
Ġè¯ ¦
Ġrestaur ant
è¿ĺæĺ¯ è¦ģ
éĦ Ļ
åıª æĢķ
f ree
å¯ ĩ
Ġrele vant
åĺ´ å·´
ĠçĶµè§Ĩ åī§
â ĸ
æģ į
ĠL ight
å¸Ĥ æ°ĳ
Ġchall enge
è¯Ń ç§į
Ġç§ ¯
" ;
æĥħ èĬĤ
ĠWilliam s
çļĦ çĽ®æłĩ
æĮ ½
ç¡ ħ
åįģ å¤§
Ġä¸Ģ ä»¶
Ġcommun ic
åĲĪ éĩĳ
æĭī ä¸ģ
è§Ħå®ļ çļĦ
åĩł ä¸ªäºº
Ġar ray
ĠéĻĦ å½ķ
Ġsub sequ
Ġext rem
è¿ ¦
è®¤ åĲĮ
åħī çļĦ
ä¸Ģ åº¦
Ġåı ³
ĠæĬ± æĬ±
Ġä¸į å°ĳ
Ġa head
Ġc ars
z il
Ġbenef it
ĠL ine
é¢¤ æĬĸ
äºº äºĨ
æ²³ æµģ
åįĥ éĩĮ
Ġé¥ ®
åĮĸ ä½ľ
éļĲ éļĲ
æĥĬ åĸľ
Ġ Î
ãĥ ³
ar ant
ä½łä»¬ çļĦ
çº¯ ç²¹
é£İ çļĦ
Ġc ab
æĺ¯ æ²¡æľī
ocol ate
ĠFor ce
ĠThurs day
å¨ ¶
sp an
è§£ æŀĲ
åĲĮæĹ¶ ä¹Ł
æĦ ļ
é» Ľ
é¼» åŃĲ
æīĵ äºĨ
Ġphot os
Ġra re
Ġ3 4
Ġrem ind
¯ æķĳ
èĬĤ èĥ½
çİĩ é¢Ĩ
è¯Ĺ æŃĮ
ĠçŃī åĪ°
ä½Ĩ æĪĳ
èĦ¾ æ°Ķ
Ġdescript ion
åĪĿ æŃ¥
æľºåĻ¨ äºº
æ¿Ģ ç´ł
åĮĸ å¦Ĩ
åį´ åıĪ
Ġ ä¿ĿæĬ¤
Ġthink ing
ĠæĹł è®º
å´© æºĥ
å¤§åŃ¦ çļĦ
æīĭ èĩĤ
Ġoper ation
åŁĥ åıĬ
å¥½ åĲ§
åĽŀ äºĨ
çĶ· çĶŁ
Ġçģ °
éĢĤ éĩı
ĠTues day
å±± èĦī
éĢīæĭ© äºĨ
ĠJ ones
è¿Ŀ æ³ķ
ĠæĽ¾ ç»ı
ĠM id
éħį å¤ĩ
æī§ æ³ķ
ĠS ar
er a
åĴĮ å¤§
éľĩ æĴ¼
x x
æĹł æīĢ
Ġä¸Ģ å¤§
ä»Ģä¹Ī æĺ¯
éĢłæĪĲ çļĦ
Ġpl ays
Ġç¬¬åħŃ ç«ł
he ast
ç®¡çĲĨ å·¥ä½ľ
L ist
ç´§ æĢ¥
Ġest ate
ĠJ oe
ä¼Ĭ æĸ¯
åľ¨ æĦı
ä¸ĸ çļĦ
æľ¬ åľŁ
ä¸ļ æĶ¶åħ¥
åĽŀ æĿ¥äºĨ
æĸ¹ ç¨ĭ
è·Ł éļı
åĬĽ åŃ¦
æĸ° é²ľ
éĻ ¡
Ġfac ilities
æķĻ åłĤ
æĴ ĩ
æĸ° æĬĢæľ¯
éĿĴ å°ĳå¹´
å§Ĳ å¦¹
Ġupd ates
åĩı èĤ¥
Ġb ill
M an
ĠO x
Ġb ul
ä¸ŃåĽ½ äººæ°ĳ
ĠG irl
éĺŁ åĳĺ
åµ Į
æĭ³ å¤´
b ury
çļĦ ç©ºéĹ´
95 1
Ġsen ior
å·ŀ çļĦ
æĹ¶æľŁ çļĦ
Ġoper ating
ĠåĲ§ ä½ł
è®² è§£
Ġrelig ious
ä»ĸ åıĪ
æŃĮ è¯į
è¹ Ħ
Ġæ²¡ éĶĻ
æ£ µ
è¡Įä¸ļ çļĦ
å§Ĩ æĸ¯
æĻ®éĢļ äºº
åįģä¹Ŀ ç«ł
W indows
æĮ ¨
? !
çº³ ç¨İ
Ġown er
ĠMich igan
Ġä¸Ģ è¾¹
V iew
é¡ ·
ak ed
æĪĳ éĥ½
U L
Ġt ro
Ġproper ties
ĠAnd rew
ĠæģĲ æĢĸ
ç¦ ½
éĤ£ å¤©
id ay
Ġå¾Ī å°ĳ
Ġé¸ Ł
çĻ½ å¤©
åĬł ä»¥
äºº äºĭ
ä¸Ĭ è¯¾
æĮ£ æīİ
æ´¾ çļĦ
è¿Ļ ä»½
å¼ §
åĴ ª
t w
ĠWed nes
urb an
éĤ® ä»¶
çĿĢ æĢ¥
6 1
å½ ¤
è¯ļ ä¿¡
Ġwin ter
Ġb an
w an
Ġra in
r ich
ç¤¾ åĽ¢
ç¬¼ ç½©
ens ions
éĺ¶ çº§
Ġfil es
ĠæĽ ¿
æ© ¡
ç»ĵæŀĦ ä½ıæĪ¿
Ġch ief
çĽĳ å¯Ł
ç«ŀ èµĽ
æ¹ Ľ
å®Įæķ´ çļĦ
ĠNe xt
å¥ İ
ç»ı è´¹
é¾Ļ çļĦ
est ic
çļĦäºº çĶŁ
Ġéľ ²
ä¸Ń åİŁ
åıį æĬĹ
Ġapprop riate
æĭ ¢
ĠæĿ¡ å½¢çłģ
Ġw ine
æķĻ ä¼ļ
å»º æľī
Ġar m
Ġå¼Ģ åŃ¦
åģĩ è®¾
~~ ~~
å½¢æĪĲ çļĦ
éªĮ è¯ģ
ç¼ ķ
ob e
ç»Ĩ èıĮ
Ġç´ł è´¨
Ġw ed
åĪĨè¾¨ çİĩ
æ¸© æŁĶ
éĿŀå¸¸ çļĦ
åħ¨ ä½ĵ
Ġleaders hip
r ical
èĢĮ èµ·
å¤´ é¡¶
b o
ylvan ia
Ġcont roll
ĠDe v
Ġappear ance
åįģ å¤ļ
çİ° éĩĳ
åıĤ èµĽ
ab eth
ĠåŁ ¹
htt ps
æľīä¸Ģ å¤©
æīĢ è¯´çļĦ
Ġf le
os is
æĮĸ æİĺ
Ġmost ly
éģĹ ä¼ł
Ġp oll
åĢ ©
g al
ĠæĶ¹ åıĺ
çļĦ ç²¾ç¥ŀ
ä¹ł é¢ĺ
æĮĩ ç¤º
å¯¹ åħ¶
Ġclass es
ä¹ĭ éģĵ
ĠL ook
Ġco ffee
Ġsupport ed
og rap
æĭĽ çĶŁ
èĥ º
Ġå¼ Ĥ
æĻ® åıĬ
åºĬ ä¸Ĭ
æŃ£ ä¹ī
æĬķ éĻį
ĠWe ek
Ġd a
Ġå¯ Ŀå®¤
éķ¿ åº¦
Ġst ars
åİŁ åĪĽ
è¿ĩ åº¦
çĨ Ķ
è§Ĩ éĩİ
è´§ çī©
Ġå± ģ
Ġb reat
ä¼ł åªĴ
S e
Ġ ä½įç½®
Ġre asons
å±Ģ éĥ¨
s er
åĨ ¤
èĲ½ ä¸ĭ
Ġn ice
Ġset tle
Ġpre ferences
ĠIn f
å°Ħ åĩ»
è¿ĩåİ» äºĨ
Ġmil k
çļĦ è¡¨çİ°
åĳĬè¯ī æĪĳ
a ctions
çĶ¨ åĵģ
ress ion
éĢģ åĪ°
ĠOh io
åŃĲ å¥³
Ġcol umn
æĭ ĺ
94 3
æĺ¯ åı¯ä»¥
éĢļ çĶ¨
ç»ĦæĪĲ çļĦ
ä¸Ģ ç³»åĪĹ
Ġdist ance
æĢ» çĲĨ
åĵ ®
çļĦ çİ¯å¢ĥ
ĠéĶ ħ
ÑĢ Ðµ
èĥ½ åĲ¦
ĠC oll
åħ¨ æĺ¯
åĬł çĽŁ
æŀĦ éĢł
Ġå»º çŃĳ
Ġc er
Ġä¸ĭ éĽª
æĿ ı
éĤ ±
ä¸į åĸľæ¬¢
Ġphot o
Ġ| -
æĹł æķĮ
Ġtechn iques
çĭ ¸
æĮĩ çĿĢ
Ġdis app
Ġs port
ç©º åĨĽ
æĭĵ å±ķ
ĠIn formation
èģ ª
Ġact or
ç³ĸ å°¿
Ġpres ence
Ġæļ ĳåģĩ
Ġrem aining
Ġç² ®
æĸ° åŀĭ
å¤ª åĲİ
å¥¹ åľ¨
ĠPro du
Ġå§ĳ å¨ĺ
O n
Ġpro pos
ow der
Ġv on
å°ĳ çĪ·
Ġæĸ Ń
ĠInd ust
Ġtre es
Ġæĥ ¨
æ® ·
ÑĢ Ð¸
ç¨ ļ
Ġart icles
å¼º çĥĪçļĦ
Ġpro ced
ĠR h
Ġ äº«åıĹ
æ³ķ è¯Ń
ang ing
Ġæľį åĬ¡
ĠD ata
åĽ¾ æ¡Ī
æĥħ çļĦ
Ġdis p
Ġsl ightly
å¤Ħ ç½ļ
ä»Ģä¹Ī æł·çļĦ
ä½ľä¸º ä¸Ģä¸ª
åĴ ¦
èĢģ èĢħ
Ġcon ference
æļ ĳ
éĥ½ ä¸įæĺ¯
ĠChampions hip
ĠP R
æīį æľī
ĠMc C
Ġl oved
å¹² çĩ¥
å¸® ä½ł
Ġc ounter
åĮ» èį¯
ĠåĨħ å¿ĥ
æŃ¤ äºº
¥ åĮĻ
Ġw ww
éĺ¿ éĩĮ
åĵª åĦ¿
Ġsing er
äºĨä¸Ģ ç§į
el ess
çļĦ è¿ĩç¨ĭä¸Ń
Ġæł ¸
ç§¯ åĪĨ
Ġoffic er
å¹´ åĪĿ
æĸ §
ĠSp ring
åĭĩ æ°Ķ
æĹł åĬĽ
çļ ĵ
ä¸į è§ī
çŃī æĸ¹éĿ¢
è¿ĳ å¹´æĿ¥
Ġsc hed
ter m
è¹ ²
æķ Ľ
i ro
æĻ® æŁ¥
çķ Ķ
ock ey
ish op
æ®¿ ä¸ĭ
in clud
éĤ£ æĹ¶
ĠJ un
å®Į æ¯ķ
ĠDe ath
å¤ļ æł·
Ġæ£ Ģ
çļĦ æ¦Ĥå¿µ
ç¥ Ģ
æĹł åħ³
S O
ä¸į ä¿¡
Ġä½ł æĪĳ
äºĭ äºº
çľģ ä»½
Ġå¿« éĢĴ
å¨ģ å»ī
Ð½ Ð°
Ġåľ° åĿĢ
è¶³å¤Ł çļĦ
æ³ķ å®Ŀ
ĠA p
it age
ä»ĸ å·²ç»ı
å² ļ
ĠTown ship
ä»· æ¯Ķ
Ġcl in
æĲº å¸¦
è§Ĩ è§Ĵ
ä¸ĭ æĸ¹
Ġç»Ħ ç»ĩ
è¾ī çħĮ
ĠC ivil
æĪĳä»¬ è¦ģ
Ġf an
ĠçļĦ éĤ£
Ġthere fore
æ±ī æĹı
Ġå®ŀ éªĮ
ĠæĢĿ èĢĥ
Ġbroad cast
âĢĿ ;
Ġå¯¹ æĸ¹
Ġres ist
ä¼¤ åı£
Ġçİ ī
æ¸¸ æ³³
ĠJ on
Ġke pt
Ġhot el
al le
Ġå± ĭ
Ġ4 8
åĬ³åĬ¨ åĬĽ
çļ± çľī
æīĢæľī äººéĥ½
ver se
Ġæĥ³ çĿĢ
æ» ¥
çª Ł
åĽ½å®¶ çº§
æĿ¥ å¾Ĺ
is ters
æ· ĳ
å½± åĥı
Ġå®ļ ä»·
ĠA rab
ide os
åİ¿ åŁİ
ä¸Ģ éĿ¢
Ġcl ient
Ġäºĭ åĦ¿
I s
æĿĢ æīĭ
ä¾ ¨
éĴ¢ éĵģ
ĠNet work
ĠC all
çİ© æĦı
ç» Ĵ
Ġm ile
Ġm o
Ġå° Ĭ
T o
Ġv en
Ġpost ed
æĸ¹ éĴĪ
å± ¡
Ġout put
Ġown ed
Ġcook ing
çĶ¨ åĬĽ
or row
åŃ¦ æĬ¥
ĠåĴ ĸåķ¡
ãĢģ "
ĠWednes day
å°½ å¿«
è§Ĥ çļĦ
æİ Ģ
çĶµ åı°
ä¸Ĭ å¸Ŀ
æ¿Ģ åıĳ
Ñ İ
ĠChe ck
an cing
ä¸Ģ æĹ¥
åŁİ å¢Ļ
åĽ¾ å½¢
Ġåħ¨ éĥ¨
åıª æĺ¯ä¸Ģ
éĶ¦ æłĩ
èī° éļ¾
è£ ´
çª ĥ
âĢĻ ,
ä¸į åłª
out e
ĠSum mer
èİ ½
æĸ Į
Ġpl us
åıĤ è°ĭ
Ġsc ript
b ut
å°ı æĹ¶åĢĻ
Ġch ampions
ãģ Ħ
èµ· åĪ°
ĠæĦ īå¿«
Ġprop osed
éº¦ åħĭ
Ġæĸ¹ æ³ķ
çļĦ æľī
æ²¡ åĬŀæ³ķ
æĿ ĸ
Ġb aby
Ġcom ments
ĠV iew
åĭ ĺ
ä¸Ń æľĢ
åķ ¤éħĴ
ä¸Ĭæµ· å¸Ĥ
Ġw ish
Ġå¹¿ åĳĬ
äº¬ åŁİ
çīĻ é½¿
æľĪ èĩ³
çļĦ é»ĳ
Ġf av
æ®ĸ æ°ĳ
Å į
ç»ıæµİ åıĳå±ķ
èĩ³ å°Ĭ
çłĶç©¶ éĻ¢
ä½ł èĩªå·±
ĠåĨħ åŃĺ
ç¥ Ī
åĨ ¶
ĠPl ace
ä¸į åıĹ
é«ĺ ç«¯
Ġpe pper
èģĮ èĥ½
åĪĳ äºĭ
ĠæĪĲ ä¸º
ĠL o
ĠCo ast
ç§ĳåŃ¦ æĬĢæľ¯
åĲĥ çļĦ
Ġnot es
ä¿® å»º
Ġpain t
éĻĨ ç»Ń
è¯ ı
ç¼ ħ
å°±æĺ¯ åľ¨
åı¯ä»¥ è¯´æĺ¯
Ġim pl
åĽŀ æĬ¥
æ°Ķ ä½ĵ
æĪĳä»¬ åľ¨
çļĦ åĲįåŃĹ
§ éģĵ
ĠCh ris
ç§ĺä¹¦ éķ¿
ĠJew ish
åľº éĿ¢
ä»£ æĽ¿
ad ium
å½ ¬
Ġä¸Ģ åĿĹ
æ£ º
Ġcomm ission
ĠAut hor
em ic
Ġstore s
Ġexact ly
åºŀ å¤§çļĦ
ĠåįĬ ä¸ª
s pe
Ġpo ems
åĩº äºİ
Ġè¯ Ĺ
Ġå¥³ åŃ©
è¿Ļ æ¬¾
Ġå¥³ ç¥ŀ
æµģ éĢļ
ste in
d y
èīºæľ¯ å®¶
Ġä¸Ģ é¡¿
ty pe
at ures
Ġè§ģ éĿ¢
Ġwind ow
ĠM os
æŀģ å¤§çļĦ
ĠæŃ£ æĸĩ
ĠåĽ½ åĨħ
çļĦ ä¸ĵä¸ļ
éĴ ĵ
è¿Ľ çĲĥ
è§£åĨ³ æĸ¹æ¡Ī
ay lor
Ġst orage
åİ¨ æĪ¿
ä» ķ
æį ¡
åİ» çľĭ
Ġrefer ence
ä¸Ģ åı¥è¯Ŀ
ĠäºĨ ä¸į
çª ĳ
ĠåºĬ ä¸Ĭ
çļĦ åĬŁèĥ½
å®ª æ³ķ
ĠæŃ¦ æ±ī
ä¸Ģ æĦ£
Ġæĥ ¹
æī¾ ä¸ª
ä¸Ģ çº¿
ä¸ĭ åĪĹ
ç»Ļ å¤§å®¶
ä¸¥éĩį çļĦ
m argin
çĤ «
ab el
å¿µ å¤´
çĶµåŃĲ åķĨåĬ¡
åĩº è¡Ģ
ĠåĨį è§ģ
èŀį åħ¥
um in
æ´¾ åĩº
ĠæĿ ľ
å¾Īå¿« å°±
g ent
Ġdep end
å®ī æħ°
ĠæĿ¥ çľĭ
çļĦ èĦ¸
ç¬ Ľ
ĠæĭĴ ç»Ŀ
çļĦä¸Ģ å£°
æ¸¸ å®¢
ĠTw itter
çļĦ éĿ¢
åı¯ä»¥ éĢļè¿ĩ
éķĩ åİĭ
çļĦ ä»·æł¼
Ġe at
m g
ä¸»ç®¡ éĥ¨éĹ¨
çļĦ æĢģåº¦
ĠM ike
ph as
Ġstr ategy
è§Ħ çŁ©
ĠF our
è¿Ļæĺ¯ ä¸Ģä¸ª
ĠæĪ ª
è¿ĺæľī ä¸Ģä¸ª
c ap
Ġm ental
Ġæłĩ åĩĨ
å¼º åĪ¶
h and
ä¸ī åįĥ
ä½Ļ äºº
Ġé£ ĺ
Ġfeat uring
r ig
è¿Ľ å£«
ĠOr ig
è¯´ è¯´
and om
æĸ° çĶŁ
ĠçĶ ³
Ġé¼ »
ĠåĽ½ éĻħ
ph one
Ġnot ed
Ġsh op
æľī å¤ļå°ĳ
é¢Ĩ è¢ĸ
Ġfin ish
Ġimport ance
ä¸¤ åĲį
ĠæĶ »
ĠèĦĳ åŃĲ
ĠFoot ball
Ġs outhern
Ġacadem ic
æĢİ æł·çļĦ
ĠBrit ain
l ook
ĠC amb
Ġbe at
èµ·æĿ¥ çļĦ
æħ¢ æĢ§
ĠåĪļ æīį
k in
M I
æĪĳ èĩªå·±
è¤Ĳ èī²
Ġå¤ª å¤ļ
**** ****
æĸĩ æľ¬
angu ages
æľī è¿ĩ
ĠV ideo
ĠI D
ĠF ood
Ġcall s
Ġå°¤ åħ¶
å±±ä¸ľ çľģ
éĩĳ åĪļ
åĬ© äºİ
æŃ¥ åħµ
Ġå¿ĥ çĲĨ
Ġä¸Ģ å£°
93 6
åıĤåĬł äºĨ
Ġconf lic
Ġæ¢¦ æĥ³
Ġam b
Ġgr ad
è´¦ æĪ·
å»¶ éķ¿
ä¸Ģ åįĥ
Ġrequ ires
Ġa ctions
Ġt ables
it ness
ĠPr ince
è¾½ å®ģ
åīį æľŁ
s en
ĠæĲŀ ç¬ĳ
Ġæģĭ çĪ±
er ia
çī© èµĦ
E P
åı¯ä»¥ çĶ¨
ç¬¬äºĮ ä¸ª
Ġlook ed
Ġsat isf
Ġå¤ ĩ
Ġå¹ ¼
Ġåıĳ åŀĭ
ç¢ Ł
ĠA ud
ĠM aster
Ġapp eal
ĠåĲĮ äºĭ
ĠTh ree
æĢ§ åĳ½
åĨ· éĿĻ
Ġexpl ore
å®¢ äºº
èĥ½åĬĽ çļĦ
åº· å¤į
æ¯ĶèµĽ ä¸Ń
Ġweek end
Ġéĩį éĩı
Ġexperien ced
Ġset s
ĠPre m
ĠBro ad
ĠæĻ ¯
Ġstand ards
ç¢İ çīĩ
çŁ ¢
å¿ĥ ä¸ŃçļĦ
ĠSp ace
ĠåĮĸ å¦Ĩ
åĴ §
f oot
ĠRe al
ĠçĤ ¸
Ġpo etry
M y
è¯ ¶
Ġf ant
å· ©
åŁ Ķ
æ°´ åĪ©
æĿĳ å§Ķä¼ļ
T R
æķĻ å®¤
æĽ² çº¿
Ġme ant
ä¸Ń æľŁ
æ´»åĬ¨ çļĦ
çĻ» éĻĨ
ĠçĻ½ å¤©
æĦŁ åĨĴ
ç½ĳ é¡µ
ĠF air
å¢ŀåĬł äºĨ
è¾ ķ
ĠW ild
Americ an
å¤į åĪ¶
Ġsm art
g ency
ĠPenn s
7 4
Ġå° ģ
Ġact ress
Ġwant s
å¿½ çķ¥
it le
ä½ł å®¶
ure au
è¿ĩ å¤´
éŁ §
èµ° çļĦ
ä¸Ń éĥ¨
pp ing
ĠRe port
n am
æ·ĺ å®Ŀ
Ġä¸Ģ è¾ĪåŃĲ
å¤ļ åħĥ
å°ı åŃ©
çĲĨäºĭ ä¼ļ
Ġanc ient
Ġè·Ŀ ç¦»
ä½ł çŁ¥éģĵ
ar p
ĠåĨį ä¹Ł
ä¸Ģ åĪ»
Ġåģĩ æľŁ
åĲİ æŀľ
Ġhom es
ĠSe a
Ġç»ı æµİ
ĠI ran
ĠåĽŀ å¿Ĩ
Ġter rit
Ġmanag ed
ä¹ĭåĲİ çļĦ
æī¿ åĮħ
Ġenvironment al
Ð ¶
Ġåľ Ī
ä»ĭç»į äºĨ
Ġåķ¥ åŃĲ
Ġå® £
Ġv s
ĠÐ ³
Ġåħ Ķ
ç¼ĵ è§£
åĨ¬ å¤©
å¹¶ å°Ĩ
åľ¨ åħ¶
åİŁ åŃĲ
ĠéĨ ī
æĬķ ç¥¨
Ġè¯Ń è¨Ģ
çīĽ å¥¶
Ġ ä¿¡æģ¯
ĠåĲĹ ä½ł
c rib
u an
ĠGl obal
Ġn orthern
å¤ĸ ç§ĳ
- {
Ġmot or
çİ «çĳ°
å¾Ī ç®Ģåįķ
Ġdevelop ing
åıĺ å½¢
Ġupd ate
Ġev al
æ°Ķ æ¸©
b ell
èĽ Ļ
Ġæ¶Ī æģ¯
å®Ŀ çī©
Ġéļ Ĳ
èĭı å·ŀ
åŃ£ èĬĤ
Ġçģ« éĶħ
å®¡ æī¹
f s
ç¼ĵ æħ¢
ÑĤ Ð°
äºĮ æĺ¯
Ġåĩ ĳ
æĭ¿ ä¸ĭ
èĭ¥ å¹²
Ġfind ing
ĠJack son
ç²¾ åĵģ
ç¾¤ å²Ľ
ç»Ŀ æľĽ
è¡¥ åģ¿
go ing
Ġæ²¡ æĥ³åĪ°
Ġcon v
Ġè¹ Ń
ä¹Ĳ åĽ¢
E G
ä½Ĩ ä¹Ł
åŃ¦ å£«
Ġæī Ķ
åħ· ä½ĵçļĦ
Ġd ig
æĽ´ å¤§
åı² ä¸Ĭ
Ġf oll
ä½ł äºĨ
å°± çŁ¥éģĵ
ont o
Ġd ivid
å°½ åı¯èĥ½
æĻĭ åįĩ
èĩª æĿĢ
ç¼º éĻ·
ä¸į æĹ¶
æĦŁ åĻ¨
Ġèĩª åĬ¨
ç§° åĳ¼
çĦ¶ çļĦ
åĵ ĳ
éĺŁ åıĭ
7 3
Ġclaim s
on ic
ut ing
ĠW alk
il ly
æĤĦ æĤĦ
ä¹¦ åĲį
éĤ£ æĹ¶åĢĻ
Ġs now
æ³¢ åħ°
Ġç§ Ĵ
åĩº ä»»
æ¾ Ħ
å¤« å¦»
re es
æĹ¶ æľº
çł´ ç¢İ
1 30
åģ· åģ·
Ġäºº çī©
éĥ¨ ä»¶
Ġé¡º ä¾¿
æĥ³ çļĦ
16 0
èĭ ¯
éĺ¿æĭī ä¼¯
Q L
Ġbig gest
Ġ ä¼ĺç§Ģ
åĲİ ç»Ń
éĩĳ èī²
æ·ĺ æ±°
åľ¨ æł¡
Ġl ibrary
ĠJer sey
æ³ £
Ġåī ¯
æµĵ åº¦
è¢« ä»ĸ
Ġadv ance
åıį é¦Ī
çĮ ¿
ĠNot es
Ġ ä¹łæĥ¯
A s
Ġcamp us
Ġse ctor
Ġ ä¸ľåĮĹ
ĠBe fore
Ġtechn ical
ĠÂ ©
éķ¿ æ²Ļ
åĵ Ĺ
éķ¿ å¾Ĺ
éļı æľº
Ġcomb ined
æĪĲç«ĭ äºİ
ĠMem bers
æİĴ éĻ¤
å¨ ħ
Ġå°º å¯¸
m ail
è¿ĩ åĲİ
æĺ¯ çľŁçļĦ
Ġcomb ination
èĬ± è´¹
çł °
ograph ic
Ġadminist ration
ĠH ospital
æ¿Ģ åĬ±
å®ŀ ä¾ĭ
ä½¿ åħ¶
Ġpract ices
è°¨ æħİ
ä»İ ä¸ļ
d ata
Ġdri ver
gy pt
ä¸Ģ é¡¿
j i
ç¬¬ ä¹Ŀ
ĠJ ac
çĮĽ åľ°
åĩº ç§Ł
éķ¿ å¤§
æŃ¦ åĬŁ
æĹł èģĬ
è£ħ çĶ²
çľĭ ä¸įåĪ°
Ġèĥ½ éĩı
resp ond
ä¹Ķ æ²»
åľ¨ åĵªéĩĮ
çĪ± åĽ½
ç¾İ äºº
å¼ķ åħ¥
Ġéĩį æĸ°
clus ive
æĺ¯ä¸Ģ ä½į
ç¥ŀ è¯Ŀ
å½ ª
Ġæ¼ «
ĠçĽ¸ åħ³
Ġf alse
ĠL in
Ġè¥¿ å®ī
Ġm m
Ġnear by
ĠæĪ¿ åŃĲ
åľ¨ å¤©
çĽ ¼
åĪĨ è§£
ĠO F
Ġç¬¬ ä¸Ģä¸ª
åŃ©åŃĲ ä»¬
ĠèĽĭ ç³ķ
ä¸ļ ç»©
Ġm ist
ĠSt an
Ġinst ruction
Ġå¿ħ è¦ģ
æĮ¥ æīĭ
éĹª çĶµ
æĪ ®
Ġä¸Ģ è·¯
æ²¡ åħ³ç³»
æıĲ äº¤
Ġæĥ³ è±¡
E X
çļĦ æ¶Īæģ¯
Ġå¹´ é¾Ħ
ino is
æµ ĩ
æ£ ķ
ä¹° åįĸ
è¦ģ æĥ³
åĪĽ å§ĭ
Ġmur der
çĲ ī
Ġinsp ired
å¯Ł è§ī
åĴ¬ çīĻ
åĩł çĻ¾
ĠPenns ylvania
Ġd ra
çľŁ é¢ĺ
Ġèĥĸ åŃĲ
ç¾İåĽ½ çļĦ
æĬĹ æĹ¥
ä¸ĵ ç§ĳ
8 3
t est
çĽ® çļĦæĺ¯
Ġd riving
Ġofficial s
æ´Ľ éĺ³
Ġåģļ å¥½
éĢĤ å®ľ
ä¸Ģ ä¸Ģ
çĥŃ çĪ±
ĠF ar
Ġä¸¤ å¹´
ä¸į æĺİ
ĠFrancis co
oc ation
Ġuse ful
ock et
Ġèī ¯
d d
w ater
ĠEl iz
ĠB al
ä¸ī ä½į
8 2
Ġ äº®
äºĨ ä»ĸçļĦ
ä¸Ĭ æĺł
ä»£ çļĦ
å»ºçŃĳ éĿ¢ç§¯
. '
Ġè¾ ¾
å¿ħ å®ļ
Ġagre ement
æ°´ éĩı
æľ ĭ
ato es
Ġcell s
æĹ¶ åħī
ç«ĭ ä½ĵ
k er
å°ĳ çļĦ
Ġs ister
å¤§ å¸Ŀ
Ġä¸Ģ åįĬ
ä¼¯ çī¹
å¤įæĿĤ çļĦ
ĠåĤ ¬
Ġb ath
æ² ª
Ġè®¡ åĪĴ
Ġc row
ĠDes pite
æĳ© æīĺ
èµ° è¿Ľ
æĹ¶éĹ´ çļĦ
Ġ rom
Ġdec or
èµ·æĿ¥ äºĨ
Ġpolic ies
æĶ¾ è¿ĩ
Ġ5 5
åĿ ŀ
ĠÐ ¼
o ir
Ġæģ ¶
èµ· ä¹ī
Ġact ual
å¼Ģ æĭĵ
Ġè¯´ å¥½
Ġfail ed
è¦ģ çŁ¥éģĵ
æĪĳ æľī
è¥ Ħ
ä¸Ģ æīĭ
Ġn ine
ĠMed ical
åĵ ¨
è´µ å·ŀ
åĲ« ä¹ī
åĽŃ åĮº
Ġåĩł å¹´
ĠéĢ ĥ
Ġéľ ¸
Ġåħį è´¹
Ġå¥ ĸ
æľĪ åĪĿ
ĠF ederal
h ors
é² į
ĠTh ank
Ġassist ance
T H
çļĦ æł¸å¿ĥ
ç¯ĩ æĸĩç«ł
é¢ Ĥ
æľ ½
ä¹Łä¸į æķ¢
ä¹ĭ æ°Ķ
çļĦäºº åı£
äººç±» çļĦ
Ġæ¼ĶåĶ± ä¼ļ
ĠK h
åıį åĩ»
å°Ĩ é¢Ĩ
w idth
om y
åħ¬ å¼ı
æĬĬ æĪĳ
Ġdep art
åĵİ åĵŁ
Ġçľĭ ä¸įåĪ°
f e
Ġun ivers
åħĪè¿Ľ çļĦ
in st
è¥¿ èĹı
åıĹ åĪ°äºĨ
Ġhapp ened
cl es
åı° ä¸Ĭ
che ster
å¹´ ç¬¬
Ġtri al
æ´» æĢ§
Ġ= =
äºĨ å¥½
é¢ ħ
åĲĥ è¿ĩ
ç¥¨ æĪ¿
æĭ Ĳ
æĶ¾ å¤§
Ġupd ated
Ġè¿ĺ ä¼ļ
èĢĥ åı¤
Ġspe ct
U SB
æ¸ħ æ´Ĺ
Ġpict ures
Ġf ell
ä»ĸ èĩªå·±
æĪĳä»¬ å°±
æĺ¯ ä½įäºİ
åı¬ åĶ¤
è·¯ éĿ¢
Ġhelp ing
æ³ »
Ġç ĩ
ul f
D S
m es
Ġ u
åľŁ æľ¨
åŃ ½
ĠB attle
Ġéĺ³ åħī
M V
ç»Ī ç©¶
çŁ¥ çļĦ
Ġæĭ Ķ
ä¸Ģ ä¸ĩ
et ic
Ġc raft
çĶ º
ĠK ent
åľ¨ ä¸ĭ
é«ĺ æ¸©
Ġæ Ĩ
lish ing
Ġ äº¤éĢļ
æīĭ æ³ķ
æĪĺ èĥľ
å« £
çļĦ å±±
Ġinst ructions
åĸĿ éħĴ
åĪĨ è£Ĥ
Ġte aching
åĪ¹ éĤ£
ä»İ ä¸Ń
Ġgener ate
åĲİ éĢĢ
ĠM ov
å¯Ĩ çłģ
çĲĨ æĢ§
od ies
Ġ ä¿ĿæĮģ
å¦ į
è´Ł æĭħ
åħ¶ä¸Ń æľī
Ġeas ier
çĹķ è¿¹
ĠR ay
è·Ł ä½ł
å¤ªå¹³ æ´ĭ
çľģ å§Ķ
Ġhe ight
D ata
åĩł äºº
ĠçļĦ å¥½
Ġfor t
ĠM ajor
Ġch annel
Ġre ality
Ġdiscover ed
åľº åľ°
èģĮ ä½į
Ġå® ½
ĠTh rough
Ġcommun ication
M C
ä»¥ ä¾¿
D C
Ġjob s
å©´ åĦ¿
Ġse lection
© åĴĲ
æ°Ķ æ°Ľ
å¤ª æŀģ
ĠD isc
æĪĺ çļĦ
ĠåĨ Ĵ
7 1
æıĲ åĲį
ok en
åļ £
Ġmiss ing
èİ« åĲį
ĠCar l
èĮ¶ åı¶
çļĦ åŃ¦ä¹ł
åħ¬ åĬ¡åĳĺ
02 5
Ġä¼ļ åĳĺ
Ġcertain ly
èĪ Ĩ
Ġst uff
è¿ŀ è¿ŀ
Ġrefer red
ä¸Ģ åĲ¬
åħ¶ å¦Ļ
Ġp ush
ĠD un
Ġfun ding
ä¸Ń å¹´
æľī åĪ©äºİ
Ġå¥½ä¹ħ æ²¡
æĺ¯ ä¸º
æł¹æľ¬ å°±
åįķ ä¸Ģ
Ġad vent
æĿ¥èĩª äºİ
h op
ç¥ ł
ä¹Ł æĹłæ³ķ
ĠæĮ £
çļĦ å¯¹
åħ ľ
ä¸į æĺĵ
ut en
ç»ĵæĿŁ åĲİ
å®¡ åĪ¤
or ney
åľº ä¸Ĭ
Ġg ift
Ġsus p
æĺŁ è¾°
åĽŀ åĪ°äºĨ
ĠBra zil
è¯Ń éŁ³
93 5
Ġdistrib ution
å¨ģ å°Ķ
Ġä½ľ ä¸ļ
ĠCon ference
çļĦ èº«ä»½
æ² ¼
éļı ä¹ĭ
Ġprodu cer
ç» ½
Ġl y
ä½Ĩæĺ¯ åľ¨
n ic
ĠThe atre
è¯Ŀ è¯´
å£° æĺİ
è´¢ ç»ı
çļĦ æ¸¸æĪı
åĮº ä¸º
Ġtru ly
çļĦ äºĨ
æĪĺ èĪ°
æŀģ ç«¯
Ġatt ended
Ġtrans form
è¡Į äºº
Ġm ales
çļĦåľ° ä½į
è¿ĺ å¾Ĺ
èĦļ ä¸ĭ
Ġæķ ĳ
Ġval id
Ġconnect ed
çĶµ ç£ģ
å®ŀçİ° äºĨ
Ġéĥ Ń
è¿ĺ éľĢè¦ģ
ĠI d
éĿĻ éĿĻ
åħĪ åīį
çļĦ ä¸ĭ
æĸ¹ ä½į
Ġtra cks
å¦¹ åŃĲ
Ġ ä¿º
ä¸į éĢļ
Ġconcern s
å¿ĥ å¤´
ĠAir port
Ġåģ¶ å°Ķ
å¾Ī ä¸į
at ically
Ġex ecutive
Ġå¿ĥ æĢģ
åĲĦ çº§
Ġit em
æıĲä¾Ľ çļĦ
ä¸Ĭ éĿ¢çļĦ
ĠåįĹ æĸ¹
ĠTrans port
è²Į ä¼¼
ĠJes us
ç¦ ¹
è¿ľ ç¨ĭ
ens es
åħŃ å¹´
æĿ¥ è®²
åĲ¬ å¾Ĺ
I m
ĠL og
å°¼ æĸ¯
ew ork
éĤ µ
å¤ı åŃ£
æĹģ çļĦ
æ£ ł
éĩį éĩį
Ġé ½
ĠéĢ ı
ä¹ĭ ä¸ŃçļĦ
Ġsec ure
åŃĹ æ¯į
Ġmov ies
Ġd rop
Ġ4 00
èīº äºº
æĺ¯ çļĦ
ĠW ales
æ· ³
åħµ åĬĽ
éĴ ®
çĶ» å®¶
ĠSec urity
ĠScot land
ĠA ri
ab ilities
æ°´ æ³¥
Ġvoc als
ä¸¤ å¤§
äº² çĪ±
Ġt end
Ġallow ing
æµª æ¼«
y er
Ġ ä¼Ĺäºº
ä¸Ģ å±Ĥ
r m
äºĶ çĻ¾
ĠçĶŁ åĳ½
Ġåıį åºĶ
Ġg all
æĽ´ å¤§çļĦ
èĤī èº«
Ġæ¯Ľ çĹħ
ä¸» æ¼Ķ
åĹ ½
D on
p ower
æ°´ æĻ¶
Ġj oint
åĽ½ åľŁ
B I
ir a
åĸľ çĪ±
Ġè¡Į æĶ¿
Ġc art
åĨį æĿ¥
f am
ĠE xt
Ġloc ations
Ġbehav ior
ac hel
Ġè¡¨ çĻ½
Ġrec ording
æĢ» ä¹ĭ
å¤© éģĵ
æ³½ ä¸ľ
ĠB ridge
ĠçĲĨ çĶ±
åĮħ è£¹
ĠåĪĺ æµ·
ç»Ħç»ĩ å®ŀæĸ½
ä¹¾ éļĨ
é¢ĺ æĿĲ
Ġç¢ İ
æĮĳ éĢī
æĬ¥ çº¸
æĬĬ å®ĥ
Ġsc ored
åĬ¨ éĿĻ
èĩªèº« çļĦ
åħħ è¶³
Ġè Ĺ
ä¸Ģ è¯´
ä¸ĸ éĹ´
ç¦» åİ»
åĺ ±
èĥ¸ åı£
Ġup coming
èĨ¨ èĥĢ
æŃ£å¸¸ çļĦ
æĩĤ å¾Ĺ
è´ ¬
Ġsche dule
idd en
åĮº åĪĨ
åĭ ¿
Ġp il
å¾Ĺ æĦı
ĠB BC
6 9
å¼Ģ çļĦ
å¦Ĥæŀľ ä¸įæĺ¯
Ġç¬¬ä¸ĥ ç«ł
ĠK ong
åķĨ å®¶
åĪ° è¿ĻéĩĮ
Ġåį ł
ov iet
h y
ä¸įæĸŃ åľ°
çľĭåĪ° çļĦ
Ġåİ ķæīĢ
Ġfl u
ĠRail way
èĲ į
å¹³ åİŁ
Ġè·ĳ æŃ¥
Ġb ag
N o
å° ¹
Ġäº² çĪ±
Ġç¨ į
ľ åŃĲ
Ġç£ ¨
Ġæ´Ĺ æ¾¡
Ġfocus ed
åĨħ ç½®
å£° è¯´éģĵ
ĠåŁº ç¡Ģ
æĬµ æĮ¡
æıĲ åıĸ
ĠSt ation
Ġt ask
Ġserv es
Ã ±
æĹł éľĢ
Ġrecommend ations
Ġè¯ ¯
Ġsp end
Ġres ident
f ile
im in
Ġbut ton
ĠéĹ Ń
ç§° ä¹ĭä¸º
å±¥ è¡Į
çĥ ¯
ĠæĹħ è¡Į
Ġåįĥ çİº
å·² æĺ¯
out s
å·¥ä½ľ èĢħ
Ġåħ Ħ
B M
äºĪ ä»¥
æ¸¸æĪı çļĦ
å°ļ ä¹¦
èģĶåĲĪ åĽ½
æĪĳ åı¯ä»¥
æīĭ ç»Ń
æĺ¥ ç§ĭ
éļ¶ å±ŀäºİ
C R
èİ· å¥ĸ
Ġé© ¾
çľ¼ çļĦ
æħķ å®¹
æĽ¾ ä»»
åħ¶å®ŀ æĺ¯
è¢« æīĵ
, ãĢĮ
ĠåĲ ¦
ĠæıĲ éĨĴ
g ment
æľīåħ³ éĥ¨éĹ¨
åĲ ©åĴĲ
ä¸İ åħ¶ä»ĸ
Ġaf ford
Ġ1 50
ĠåŃ £
æĬ¥ åĲį
ol es
ä½Ĩ è¿Ļ
Ġhon or
8 1
im inal
ĠSt ring
å¿« çĤ¹
åĹ ·
Ġsummar ize
æĢ» æķ°çļĦ
ä½İ å¤´
ell o
åħ» çĶŁ
æº¶ æ¶²
i at
Ġr ise
Ġpre par
æļ´ åĬĽ
Ġpat ient
çºł çº·
ad or
Ġvisit ors
Ġå¹´ çºª
Ġabs ol
Ġper haps
åĲ¬ çĿĢ
æ²¡ æ³ķ
Ġb rain
æĪĳ è®¤ä¸º
Ġg one
D e
é£İ äºĳ
äºĮ æ¬¡
ä»ĭ æĦı
æĻ Ĺ
im g
ĠC EO
Ġä¸Ģ åľº
æİĴ åĪĹ
ĠæĴ ĳ
æľį çĶ¨
æ¼Ķ è®²
Ġqu ant
éĥ¨ ç½²
å®ī å¾·
z er
======== ========
Ġd ial
Ġæ¼Ķ åĳĺ
Ġwe ap
æ¿Ģ åħī
Ġdel ivery
Ġè ¨Ģ
tar io
Ġä¸¤ äºº
çĥ Ľ
ç¬¬äºĮ å¤©
æĮ «
æ¯ķä¸ļ åĲİ
ri ved
Ġfor ced
Ġéº ¦
Ġç¬¬ä¸Ģ ç«ł
ç¡¬ çĽĺ
ç½ ¡
æĹ¶éĹ´ åĨħ
å·² çĦ¶
ĠåĬ¨ çī©
Ġbr ight
ĠBro ok
Ġs ession
ĠæŃ£ å¥½
çļĦ éľĢæ±Ĥ
Ġçľĭ ä¹¦
åıĳçĶŁ çļĦ
æĺŁ çĲĥ
Ġprom ote
Ġmeas ures
ĠæŃ£æĸĩ è¯Ńç§į
å¤ĸ è§Ĥ
Ġåħ¬ äº¤
Ġbal ance
Ġteac her
p ath
æ¢ ³
æĺ¯ æĪĳä»¬
Ġfa ith
æķĻ è®Ń
ä¸ĵ é¡¹
èĲ½ åľ°
è¦ģ æľī
Ġå¨ ģ
ĠIn vest
ĠI T
å¥½ äºĭ
ĠéĶ ®
Ġå®ŀ éĻħ
co very
Ġbelie ved
æĺ §
Ġb ass
Ġc ouncil
is hes
ä¸» æĦı
ç¼ĸ åī§
Ġconf ig
å¸Ĥ çļĦ
æ´Ĺ åĩĢ
Ġèĳ Ĺ
93 3
Ġhand le
Ġg arden
æµ· ä¸Ĭ
è¾ ľ
æĶ¾ åĪ°
Ġint ended
Ġtra il
Ġè Ķ
æīĵ éĩı
ĠGeorg ia
Ġç§ ĺ
è¿ĩ å¹´
å½ĵ åį³
åĸ Ģ
åºŁ è¯Ŀ
çĥ ¹
re al
ct ors
ĠL i
Ġéĩ İ
ĠW here
ä»ĸ ä¸į
Ġoffic ers
å½ĵ å¤©
A G
å¯¹ ä½ł
è¦ģ çĤ¹
è§Ĩ çº¿
Ġæ¬§ æ´²
åħĭ çļĦ
æ³° åĽ½
æĹł å£°
éĿĴ å±±
åĪĨ æķ£
æµ· å²¸
åħ´ å»º
Ġact ors
Ġ 01
èĤ¡ æĿĥ
ad s
åĽĽ åįģ
ç¢ Į
im a
ir ation
æĸ° äºº
ĠIll inois
Ġfoll ows
è¥¿ æ´ĭ
ä¸ĸçķĮ æĿ¯
ä¸Ń èį¯
ä¸ĢçĤ¹ çĤ¹
Ġut il
Ġsurround ing
Ġyou th
ç»Ļ ä»ĸä»¬
çİĩ ä¸º
å°ģ åį°
ĠP riv
åįİ äºº
éļ ĭ
ĠChild ren
Ġdiv ision
ĠåįĹ äº¬
re hens
â ī
çļĦ æĶ»åĩ»
éª ı
èĤ¯å®ļ ä¼ļ
æ¬¡ æķ°
Ġhous es
Ġident ify
Ġfun ds
Ġå·® çĤ¹
Ġrem oved
è¯ Ľ
Ġæ²¡ æ³ķ
Ġdetail ed
åĽ ļ
Ġill ustr
ĠDan iel
9 18
åīį æıĲ
Ġiss ued
ä¼Ł å¤§çļĦ
com m
ĠH a
ucle ar
æ¼ĶåĶ± ä¼ļ
Ġs ides
æ© Ļ
ĠçĶļ èĩ³
çª ľ
åīį æĻ¯
æ± Ŀ
ĠJ r
æĢĿ è®®
ĠåĪ° å¤Ħ
Â ®
èĩªåĬ¨ åĮĸ
çĶ Ħ
Ġcommon ly
ĠB ir
Ġåĵģ çīĮ
æĹ© çĤ¹
Ġem phas
ķ å¤´
ä¸Ģ æī¹
Ġl abor
b i
« èĬ¦
æķĻèĤ² çļĦ
çķľ çī§
Ġpass eng
è½¬ å¤´
çĬ¹ å¤ª
ä¸Ģ çŃīå¥ĸ
æĢ» çĿ£
Ġag ree
Ġçģ ¯
æľįåĬ¡ çļĦ
Ġal le
Ġåį ±
u ous
ĠCO VID
ä¸º ä¸Ńå¿ĥ
æł¹æľ¬ æ²¡æľī
åİ ¥
ç¯ ·
Ġf ruit
æĪĸèĢħ è¯´
ĠE gypt
Ã¡ n
er al
Ġfl ight
Ġfield s
åĩ ¹
Ġå¡ ŀ
æİ¢ æµĭ
ellig ence
ĠEd ward
çļĦ éĥ¨åĪĨ
äºĭ çī©
çŁŃ æľŁ
ä½ľ æĽ²
æ¡ ©
åºĹ éĵº
ĠSp ain
Ġmount ain
ourn ament
çļĦ å¤´
ä¸ŃåĽ½ å¤§éĻĨ
åĪĴ åĪĨ
å¤§åŃ¦ åĩºçīĪç¤¾
ç¾İ é£Ł
åĽĽ äºº
Ġspec ifically
ä¼ĺ éĽħ
Ġåįķ ä½į
Ġå°± åľ¨
Ġé»ĺ é»ĺ
ĠB ase
Ġfl at
Ġç§ °
åĩ Ħ
Ġæł ĳ
ç¾½ æ¯Ľ
ĠB on
ç³ĸå°¿ çĹħ
ä¸º ä¹ĭ
èĻ ı
ç¢° åĪ°
å¤§ å¤«
çº§ åĪ«çļĦ
Ġæĸ° éĹ»
Ġpro s
ad ing
ĠH un
Ġå½ Ĵ
ĠP oint
åķĨ åľº
ist a
ĠC orn
Ŀ åħī
ĠDemocr atic
ĠP S
ial ly
çľ¼ æ³ª
ä¸ŃåĽ½ åħ±äº§åħļ
èĢģ å¤«
ä¸Ģå®ļ æĺ¯
ĠéĢŁ åº¦
è§Ĥ æµĭ
ĠK en
æ±Łèĭı çľģ
ĺ èĽĽ
Ġadminist r
j e
st ring
Ġlearn ed
ĠAm azon
Ġneg ative
Ġtest ing
as ure
åĩı è½»
ĠåĮĹ æĸ¹
éģ ģ
åı¯ çĶ¨
æ³¨ å°Ħ
æĳĩ æ»ļ
æĭī çĿĢ
èµĦ è´¨
ĠSt ory
åİŁ åľ°
æ¶Ī éĺ²
Ġt un
çº ¬
å°Ĩ åľ¨
Ġæ¬ £
A ll
äºº ä¸İ
éĹ ¸
åħ¨ ä¹¦
æĮĩ ä»¤
enn is
os en
ĠåĽŀ å¤´
Ġå¾Ī æ£Ĵ
Ġed ge
Ġshow ed
å¸Ī çļĦ
Q u
c ar
Ġveh icles
æĶ¿ æĿĥ
åĬŀ çļĦ
ĠC H
æ¶² ä½ĵ
Ġmult i
å¤§ åİħ
åĽŃ æŀĹ
é¢Ħ æľŁ
æīĭ ä¸Ģ
åħ¬ä¼Ĺ åı·
èĮ µ
Ġcar ried
ĠB ern
93 4
è¿Ļ æ®µ
æĺ¯ çĶ¨
Ġn ative
Ġåİ ¦
æ¸ħ æ°´
2 20
ä¸ ŀ
Ġä¼¤ å®³
å¤© åŃĲ
ol ved
Ġ4 2
çº¦ å®ļ
å²ģ æľĪ
ĠAd minist
æ³¨æĦı åĬĽ
æ¨¡ ä»¿
Ġcre w
Ġè¡¨ è¾¾
ĠSen ate
æ¸ħ çĲĨ
Ġbel ong
ĠScott ish
å±Ĥ éĿ¢
æµ® çİ°
åĲī æŀĹ
igh ter
ell er
Ã º
å»¶ ç»Ń
æ²Ī éĺ³
ä¸Ģ é¡¹
åĩº å¸Ń
åıªæĺ¯ ä¸Ģä¸ª
d ed
ä½ĵ åĨħçļĦ
Ġcon cent
æĬ¤ åį«
ĠèĢ Ĳ
Ġc ore
å¾Ĺ èµ·
Ġph r
éĻĮ çĶŁ
æĮ ł
æ½ľ åĬĽ
çī¹æ®Ĭ çļĦ
Ġrestaur ants
ĠY e
èĿ ł
Ġfac ility
èº«è¾¹ çļĦ
ĠéĶĻ è¿ĩ
çľ¼ åīįçļĦ
Ġç»ı è¿ĩ
ç«ĭ é©¬
äºĭä¸ļ åįķä½į
æ¥ ł
Ġspe ak
Ġadv anced
Ġè½ °
` `
åĹ ĵ
åħ¬ å¯ĵ
Ġsearch ing
éģµ å®Ī
Ġå® ĺ
ĠCon f
ĠåıĹ ä¸įäºĨ
åĬł å¤§
ĠJust ice
çļĦ ä¹¦
æ§ Ľ
" ),
Ġhelp ful
Ġ ä¼ĳ
åī¯ ä¹¦è®°
éĤ® æĶ¿
èĢĮ éĿŀ
Ġpass ion
åľ° å¸¦
7 9
Ġèĩ Ń
Ġser ver
åı ®
æŀģ å¤§
ä¹° äºĨ
åľ¨ è¿Ļç§į
åĬĽ åº¦
el ly
æľº åĬ¨
ĠSte ve
è·Ł è¸ª
åħ¸ åŀĭçļĦ
Ġto ward
T P
Ġéĺ¿ å§¨
äºĨ ä¸ĭåİ»
åį¡ å°Ķ
Ġåı Ĭ
æĶ¿åºľ çļĦ
2 40
èľ ¡
é¤Ĳ é¥®
Ġp ool
äº¤ åıī
f o
ä¸ª äººçļĦ
ç«ŀ æĬĢ
Ġste el
Ġå±ŀ äºİ
åĬ¨ èĦī
å¤ĸ éĥ¨
N S
Ġä¸į ä¿¡
Ġacc ident
è¿Ļ äºº
åĲį è¯į
åģ¶ åĥı
il a
å®ŀ è´¨
st one
è§£ è¯»
å°ı åŀĭ
è¯ģ å®ŀ
Ġä¸Ģ å®¶
ä¸ĭ ä»¤
é¡ ½
Ġå® ł
æĢ» è£ģ
æ¸ħ æľĿ
ĠÐ ·
ĠOn tario
çģµ æ°Ķ
åĩł ç§į
and on
ĠU r
æĹĹ ä¸ĭ
Ġth ick
å¤© åłĤ
å®ŀ æĪĺ
Ġexpl ain
Ġinst ance
ĠBook s
ĠEliz abeth
äºĨ ä¸ĭ
çłĶ åĪ¶
éľ² åĩºäºĨ
Ġæĺİ æĺŁ
Ġb read
t rans
å°ģ éĹŃ
çīĪ æĿĥ
åŁ¹ èĤ²
ä¸Ģ åħ±
Ġap art
å±ģ èĤ¡
he t
å¦Ĥæŀľ æ²¡æľī
ĠE st
å¤ĦçĲĨ åĻ¨
Ġæī¿ è®¤
åĲİ éĿ¢çļĦ
Ġsuggest s
Ġä½İ è°ĥ
Ġå¹² åĩĢ
Ġèİ ·
é©¬åħĭ æĢĿ
ĠN ote
ç»¿ åĮĸ
Ġf uel
çľ¼ åħī
Ġcon ver
ĠEmp ire
æľĢ æľī
Ġè£¤ åŃĲ
Ġpred ict
åĽĽ å¤Ħ
Ġsur vey
Ġåľ° éĵģ
Ġer a
Ġç´§ å¼ł
ĠåĸĦ èī¯
æľŁ è´§
ãĢį ãĢģ
Ġdesign s
Ġc ards
çīĩ çļĦ
ä¸º ä¾ĭ
ä¸į åıĺ
ĠåĴ± ä¿©
ĠP M
ä¸ī æ¬¡
ç¼ Ĩ
ar row
ĠH ong
æľīäºĽ ä¸į
åĲ ģ
â ĺħ
Ġé¦ Ģ
è¯´ å®ŀè¯Ŀ
ch o
å½± åŃĲ
ĠæĦı ä¹ī
é¢ĩ ä¸º
ad el
æķĻ ç¨ĭ
Ġæľº åĻ¨
èĳ ©
åľ¨ åĨħ
ig en
æĺ¯ä¸Ģ åĲį
ä¸¹ èį¯
ä¸Ń äºĨ
le ts
ĠH and
æķ° çłģ
æ¿Ģ çĥĪ
ig ration
æłĩ çŃ¾
èĩª è§ī
ä¸Ľ ä¹¦
å¤§ å¥ĸ
ä½ĵ ç§¯
ific ations
ç¢° æĴŀ
Ġag ency
Ġcamer a
Ġf estival
éĹ¨ å¤ĸ
Ġv ision
ä¸įä¼ļ æľī
riv al
ĠT ake
Ġgener ation
Â ¥
ĠN av
Ġå§ ľ
çªĹ åı£
ĠC ensus
è¿İ æİ¥
ri x
éĻĲ äºİ
ĠColumb ia
æ´¾ äºº
çĶ³ æĬ¥
Ġextrem ely
åĨ° åĨ·
Ġg ain
ĠD ub
Ġdis s
Ġæī «
åĨ¬ åŃ£
Ġmax imum
ĠM u
çĶŁ çĶŁ
æł¼ å±Ģ
Ġsu c
æĮģ æľī
Ġcomp ar
ä»İæĿ¥ æ²¡æľī
è¿Ļä»¶ äºĭæĥħ
æµ· åįĹ
å¯» å¸¸
æĸ¹ æīį
åĿ Ł
é»Ħ æ²³
ĠæīĢ è°ĵ
çłĶç©¶ çļĦ
Ġfl o
ĠL y
èŃ¦ åĳĬ
ĠA venue
éĥ Ŀ
9 29
äºĨ èĩªå·±çļĦ
ĠåŃ¦ ä¼ļ
Ġindust rial
æ»¡ çļĦ
ph a
åĩº åĶ®
æ°Ķ è´¨
Ġnot ice
æĢ» éĿ¢ç§¯
Ġæīĵ å¼Ģ
Ġcould n
è§£æĶ¾ åĨĽ
å¤ļ è°¢
ĠB ul
è½¬ åŀĭ
æĳĩ æĳĩå¤´
ä¸Ģä¸ª æĺ¯
ä¸ĵ é¢ĺ
åı¤ æĢª
ĠH ard
em y
æ² ¦
åıĳ è¨Ģ
Ġ3 9
ell ed
ĠPr ime
Ġåģļ é¥Ń
èŃ¦ æĸ¹
å¤§ ä½¿
Ġl ock
åģļ äºĭ
æ£Ģ å¯Ł
Ġéļı æĹ¶
æĨ ĭ
çļĦ åĽ½å®¶
åİ ®
Ġåĩł çĤ¹
Ġç² ī
å¼Ģ è½¦
Ġä¸ī å¤©
åĪĨ åī²
å°ĳ äºĨ
ãĢĭ ãĢģ
çļĦ æ°Ķæģ¯
ĠS us
æł½ åŁ¹
å¼Ģ åħ³
Ġk itchen
å®Ŀ çŁ³
Ġcorn er
Ġå®ī æİĴ
ĠåĴ §
è½® åĽŀ
Ġcomfort able
éķ ĸ
ç¹ģ æ®ĸ
Ġåĸ ½
ran e
å·¥ä½ľ å®¤
åľ¨ ä¸Ĭ
åĪļ å¥½
Ġinterest s
å¥ĭ æĸĹ
rel ated
Ġç¬¬äºĶ èĬĤ
æľī ç§į
c ode
åľ¨ åĽ½åĨħ
é¡¶ å°ĸ
æĬ± æĬ±
ĠæĪĳ æĿ¥
ĠIs l
åºķ ä¸ĭ
ĠæĪĸ è®¸
åį´ ä¸į
å¯» æ±Ĥ
ç¾İ å¥½
Ġmar riage
m osp
æĹł è¯Ń
s ize
ĠLat in
Ġinc red
åĲī ä»ĸ
ĠR og
åķĨ äºº
ĠÃ ł
ĠC ro
ĠæĴ ©
Ġæĸĩ èīº
Ġvol ume
åİĨ ç¨ĭ
ly wood
el a
ĠæĳĦ å½±
æ°¸ æģĴ
ĠM ic
å¸ĥ é²ģ
çļĦ åŃ©åŃĲ
Ġbr ands
æĪĺæĸĹ åĬĽ
çļĦ ç¤¾ä¼ļ
å¯¹ çħ§
room s
in ent
Ġestablish ments
Ġä¸Ģ éģį
æ¬º è´Ł
æķ ·
è¢« è¿«
Ġreg ional
Ġç®Ģ ä½ĵä¸Ńæĸĩ
bur gh
Ġè¯¦ ç»Ĩ
çĳŀ å£«
c os
çļĦ çģ«
çĶļèĩ³ æĺ¯
ĠF ind
çļĦèº« å½±
æ¬² æľĽ
æıĲ åĩºçļĦ
ĠS af
Ġappl ied
ĠæĿ Ńå·ŀ
wh ich
åĮº åĨħ
èĻ ŀ
èĬ± éĴ±
Ġinj ury
Ġæº ľ
å¼Ģ çİ©ç¬ĳ
éļ¾ æĢª
Ġte le
æĢİä¹Ī è¯´
éĤ ĳ
Ġsy m
it ure
EN T
ä¸įç®¡ æĺ¯
Ġp m
rop ol
åħŃ ä¸ª
äºī å¤º
åĪĨ æĺİ
ĠæĬ Ħ
ĠOn line
93 2
ä¸¥ è°¨
Ġçĥ Ł
åı¯ åľ¨
å¡ĳ éĢł
çĻĮ çĹĩ
æĥħ æĻ¯
å¯Į æľī
çĶµ æ¢¯
os ure
Ġconf irm
æĢ» ä¼ļ
èĲ½ åĲİ
Ġé£İ æł¼
é¢Ĩ æĤŁ
åĪĿ çº§
æ²¡æľī äºĨ
pl ate
Ġfun ctions
ĠAl bert
ä¸Ģ æł¹
å¸¦ æĿ¥äºĨ
, ),
çļĦ çĻ½
ĠTor onto
ç¼ ļ
ĠçĽ ĸ
Ġide al
åŃ¤ çĭ¬
Ġanim al
æ¸Ĺ éĢı
u is
Ð¾ Ð½
Ġç¾ Ĭ
åľº åĲĪ
ĠS oviet
å¤ļ é¡¹
Ðµ ÑĤ
Ã© e
9 27
9 28
çļĦ æ³ķ
Ġf ra
çŁŃ æļĤ
å´ Ľ
Ġå°½ ç®¡
è¿Ľ èĢĮ
Ġå¦ ĸ
åķĨ éĩı
ren ce
å§¿ åĬ¿
ĠåĶ¯ ä¸Ģ
ĠMicro soft
å¢ Ł
ĠD ar
Ġsc ale
è¢« è¯Ħä¸º
åģļ è¿ĩ
å¿ħè¦ģ çļĦ
p a
çª ¦
ä¸į ä¸ĭåİ»
k o
éļ §éģĵ
ĠåĬŁ èĥ½
et ts
æł Ī
ren e
Ġdel icious
åıĶ åıĶ
éģĵ äºº
Ġg rew
r ant
çļĦ æĥ³æ³ķ
ç»Ļ æĪĳä»¬
Ġæļ Ĥ
H D
93 1
åºĶ æĢ¥
Ġp owder
å¤§ è¡Ĺ
çļĦæīĭ æ®µ
Ġåħ´ è¶£
åįĬ å²Ľ
c ious
Ġçģ« è½¦
è¿Ļä¸ª ä¸ĸçķĮ
Ġç¾İ çļĦ
è§£åĨ³ äºĨ
1 01
g or
ess ions
æİ¥ å£¤
ä»» èģĮ
Ġthan ks
çī© ä½ĵ
Ã ł
æľī æľºä¼ļ
ä¾ Ħ
ot ic
åħ¨ çľģ
ĠFollow ing
Ġ ä»»åĬ¡
æŃ» åĲİ
åŃ¦ æľŁ
Ġa wards
è½° çĤ¸
çŀ Ħ
æĥ³äºĨ æĥ³
å½ĵ æĪĲ
Ġind ex
Ġæ¸© æŁĶ
æĢ§ åĪ«
æľŁ æľĽ
çĤ¼ åĪ¶
å¹³ å¸¸
he ight
Ġå¯ Ĥ
ĠPh ot
rast ructure
Ġwid ely
Ġv ideos
åľ¨ è¿Ļä¸Ģ
ĠéĶ »çĤ¼
è·¯ å¾Ħ
åĺ ¶
çļĦ æīĢæľī
æµģ æ°´
omm od
çļĦ éŁ³ä¹Ĳ
ĠB ell
æĭħ å¿§
Ġrem ov
ä¸Ģ å¯¹
çŁŃ çŁŃ
ç»´ å°Ķ
Ġèº« æĿĲ
çª į
çĥŃ æ°´
Ġåı£ åĳ³
äººæ°ĳ æ³ķéĻ¢
åĲ¬ è§ģ
ĠB C
åĽ½å®¶ éĺŁ
åĻ¨ å®ĺ
èĢĮ è¿ĩ
ä»Ģä¹Ī äºĭ
éķ¿ è¾¾
Ġæį ı
Ġä¸ĢçĤ¹ çĤ¹
Ġme at
Ġcitiz ens
G iven
çĸĹ æ³ķ
å« Ĥ
ä¸¤ æĿ¡
ä¸»è¦ģ çļĦ
Ġå± ķ
Ġvol unte
Ġa st
åı¹ æģ¯
è¾£ æ¤Ĵ
ĠH u
et ime
ann a
ä¹Ł çŁ¥éģĵ
c oh
æ£ ĺ
Ġ upp
Ġc ash
æ¯Ľ æ³½ä¸ľ
çĦ¦ èĻĳ
clus ion
ĠEx per
èĤĮ èĤ¤
Ġåĩł ä¹İ
å³ »
è±ª åįİ
é¾Ļ å¤´
ĠéĻĦ è¿ĳ
ä¸Ģ æĹ¶éĹ´
ĠçĶµ åŃĲ
éĢı éľ²
äºº ä¹ĭ
ĠF und
èİ ŀ
è¿ľ ç¦»
è¯Ń æ³ķ
Ġ ä¹Į
Ġl anguages
ç²¾ å¿ĥ
åľ¨ èĩªå·±
åĵģ çļĦ
æ³¨æĦı åĪ°
Ġen h
Ġä¸¤ æ¬¡
ĠOffic ial
åĵ Ħ
é¥ ¥
èħ¾ è®¯
æīĭ æİĮ
Ġcr ime
ĠR am
j o
æİ¥ åĪ°
ĠD ou
åĢº åĪ¸
ĠåķĬ éĤ£
è¿ĩ æ»¤
æľº è½¦
èĢĥ éªĮ
èĲ¥ éĢł
ĠF ield
ä¿¡æģ¯ åĮĸ
k ing
in ity
éĢ į
Ġæĭ Ĩ
èĭ¦ ç¬ĳ
Ġä¸Ń æĸĩ
ĠL td
çĥ ĺ
ro vers
Ġ1 20
å¾Ĺ ç½ª
Ġd omin
ol i
æĦŁ çŁ¥
å®¡ ç¾İ
é» ı
Ġé«ĺ èĢĥ
æľĢé«ĺ çļĦ
æīĵ è´¥
Ġdef ined
æº ī
ĠP en
ç»Ŀ å¤§å¤ļæķ°
ç» İ
" );
ç´§ å¯Ĩ
Ġad apt
ak a
è¥¿ åĵ¥
Ġbr idge
b ro
éĤ£ äºº
èº« çļĦ
Ġmark ets
åĩĿ åľŁ
ĠR ose
Ġå°± è¡Į
æº ¯
æķĪ åĬĽ
é¬¼ åŃĲ
ĠåĦ¿ åŃĲ
ĠA ff
Ġåĩºåİ» çİ©
æĪĳ è¿ĺæĺ¯
Ġå®Ŀ è´Ŀ
er ies
ä¸Ń çŃī
ç¨ ½
Ġä¸Ģ åĳ¨
ĠAn sw
æĥ³ è¿ĩ
Ġå¤ļ å¹´
ç© Ĺ
åŀĤ çĽ´
èķ ī
çĽ¸ ç»ĵåĲĪ
åĽ½ äº§
Ġext ended
å°Ķ çī¹
Ġç« ¥
Ġb es
å¢ĥ çļĦ
ç»´ äºļ
ĠM as
äºº äºº
Ġsum mary
ä½ł åı¯
ä¼ĺ è¶Ĭ
æĥ ķ
äºĮ çŃīå¥ĸ
å¤ªå¤ļ äºĨ
" ãĢģ"
Ġcre ation
ĠæĹ© é¤Ĳ
Ġpack age
çĿ ¹
Ġç¬¬äºĮ å¤©
Ġdet ect
æľĢç»Ī ç»ĵæŀľ
å§¿ æĢģ
æĿ¡ çº¦
Ġé¥ ¼
ĠS anta
Ġprep ared
Ġé¹ ¿
ä¸¤ åıª
æ±ĩ æĬ¥
èı ±
Ġè ŀ
è¦ģ åİ»
Ġmix ed
Ġè£ ĻåŃĲ
A B
ç§ĳ çĽ®
Ġoccas ion
Ġdo ctor
Ġå¯¹ ä¸įèµ·
äº¤ å¾Ģ
ĠProfess or
Ġman age
Ġst ick
çº¯ æĶ¶åħ¥
Ġè¸ ¢
åıªæľī ä¸Ģä¸ª
all ed
Ġæİ¥ çĿĢ
ffic ient
ĠæĴ Ń
ĠUn it
ä¹ĺ å®¢
Ġä»¥ ä¸ĭ
i ency
èº« èº¯
å¥ĩ è¿¹
Ġåı¸ æľº
Ġf ear
èĳ£äºĭ éķ¿
Ġeven ing
ĠK enn
Ġvisit ing
ĠOn ly
é©¬æĿ¥ è¥¿äºļ
å·¦ æīĭ
ç¥ŀ æĥħ
çłģ å¤´
æłĩåĩĨ çļĦ
è¿Ļç§į æĥħåĨµ
åĸĬ éģĵ
ĠæĪĳ èĥ½
Ġçĥ Ĭ
Ġä¸ Ľ
Ġident ity
A F
ot ed
ĠD igital
ç¤º æĦı
çļ Ĥ
å¼± çļĦ
æĳ§ æ¯ģ
ĠN Y
9 19
ent h
ä¸Ģ æĥĬ
ç®¡ éģĵ
Ġcor respond
ul pt
, (
Ġrelations hips
ach us
Ġgirl s
åįĬ çĤ¹
Ġtalk ing
f ast
Ã £
åĩ Ľ
æĢ» ç»ıçĲĨ
Ġsp ons
Ġåĺ ¤
ä¿Ŀ å®Ī
éĶ ¥
Ġadvant age
Ġpolit ics
Ġæ® ĭ
éĺ İ
Ġç»ı éªĮ
ut ation
æ¬§ åħĥ
ĠçĻ¾ åº¦
Ġn ull
Ġent ered
3 60
Ġ7 5
çĲ ¢
Ġcandid ate
Ñ Ħ
Ġmay be
åģĩ å¦Ĥ
ä¸Ĭ éĹ¨
Ġw estern
æĺŁ çļĦ
Ġhold s
ate ver
è´« åĽ°
è¿Ļ çīĩ
è¡Į èµ°
åŁºç¡Ģ è®¾æĸ½
Ġchang ing
Ġt ag
Ġåĸ µ
å¸® æĪĳ
æł¡ åĮº
H S
ĠSt art
Ġèīº æľ¯
Ġass um
Ðº Ð°
man n
äºĽ ä»Ģä¹Ī
11 1
ĠJe an
Ġæİ¥ ä¸ĭæĿ¥
ĠH D
ĠT urn
ĠT aylor
Ġf lex
çļĦ è§Ĵåº¦
éĿ¢ åĮħ
Ġc e
Ġfl ag
Ġsee ing
æĦ ķ
ĠAmeric ans
Ġå¦¹ å¦¹
è¾¹ çķĮ
é¢Ĺ ç²Ĵ
çĿĢ å¤´
w ar
Ġtr uth
èī² åĪĹ
åĨ² çĿĢ
ĠVictor ia
Ġ 02
å¥ĸ é¡¹
çĽĪ åĪ©
æīĢ è¯´
ĠComm on
è¶ ´
Ġar range
ĠHe art
åħ³ èģĶ
ä¹ħ çļĦ
è£ģ åĪ¤
ä¸įçĶ± å¾Ĺ
æĪĳ æ²¡æľī
æĹ¶ è¾°
ĠWor ks
åĬĽ æ°Ķ
Ġperform ances
å®Ĺ çļĦ
å¹¸ è¿Ĳ
Ġdoc uments
Ġcour ses
åı¹ äºĨåı£æ°Ķ
Ġthous ands
æĳĨ èĦ±
I f
çİĩ åħĪ
Ġå·¥ èµĦ
Ġéģĩ è§ģ
éģĵ åıĭ
éĽĨ åĲĪ
ĠåĽĽ ä¸ª
ä¸» æľº
we ight
ĠPh ys
å¥¹ æĺ¯
M Hz
è¿Ļ æľ¬ä¹¦
Ġengine ering
Ġsex ual
Ġbe ach
Ġf urn
Ġprogram ming
Ġsom ew
éĩį ä¼¤
ĠR od
ä¸į é¡¾
ĠéĢļ çŁ¥
Ġf illed
ç»ı çºª
æĦŁ æħ¨
ç¥ ¯
ä¹ĺ åĿĲ
ain e
èĩ´ çļĦ
Ġåİ¦ éĹ¨
Ġcont emporary
è¿ĺ çľŁæĺ¯
Ġæ»¡ è¶³
ost er
ä¸ĩ ç¾İåħĥ
èµ· çĤ¹
éĩĩ éĽĨ
åĪĨåĪ« æĺ¯
Ġèĩª ä¿¡
éĴ ł
åĽ½ ç«ĭ
é¡º ä¾¿
ĠGovern or
åĪĨ å¼Ģ
ä¸Ģ å¤Ħ
Ġd iet
ot es
Ġschol ars
Ġé ¤Ĳ
Ġçľ¼ ç¥ŀ
å¥´ éļ¶
ĠM ill
çĬ Ģ
çļĦ å¾Ī
åĹ £
æ· ¹
d on
Ġå¯ Ĩ
Ġmon itor
Ġf ill
Ġå§ Ķ
Ġä¸Ģ æĬĬ
ĠW ind
è¿ĳ ä»£
ath an
b b
ĠH om
ĠCorpor ation
ĠC lick
Ġin ternal
Ġé½ Ĳ
ä¹Ĳ åĻ¨
å¼ķèµ· çļĦ
ĠK ey
çĭ¬ èĩª
è¡Ģ èĦī
äºĶ è¡Į
amp ion
el er
ĠE astern
Ġun c
è¦ģ æ¯Ķ
ĠL ew
ç»Ļ å¥¹
çİ© åħ·
ĠçĶµ æºĲ
èļ ķ
æļĹ æļĹ
Ġç¼ ĺ
çļĦ çľ¼ç¥ŀ
æľī ä¸¤ä¸ª
å°±åĥı æĺ¯
ĠK im
ä¸º é¦ĸ
åŃ¦ä¹ł çļĦ
å°± è¡ĮäºĨ
åĨĻ äºĨ
çļĦ è½¦
Ġæ²¡ å¾Ĺ
è¿Ļæł· ä¸Ģä¸ª
æī« æıı
å¹³ çŃī
æĪª æŃ¢
å®¢ è¿Ĳ
ĠæŃ¤ å¤ĸ
ĠS her
Ġl i
çĶµ æľº
ä¿ ı
y r
ä»ħä»ħ æĺ¯
ĠE s
Ġdist inct
æĹ¥ èĩ³
å·²ç»ı åľ¨
Ġn or
ĠB and
Ġshow ing
Ġä¸Ģ çĻ¾
å¢ŀ åĢ¼
Ġp od
Ġwonder ful
åıĳçĶŁ åľ¨
Ġlist en
Ġo l
äº« æľī
ans ion
Ġp un
ĠPhil ipp
i y
Ġrese arc
´ èĿ¶
ä½¿ åĳ½
Ġsh aring
ĠR oute
Ġå¾Ī ä¹ħ
è¿ŀ éĶģ
æłĩ é¢ĺ
è®² ç©¶
åħ¬ åĳĬ
ä¸Ĭ ç½ĳ
Ġè¿Ļ æĹ¶
çģ ¶
æŃ£ è§Ħ
ĠS ign
Ġtop ics
Ġè¯´ å®Į
ãĥ »
é«ĺéĢŁ åħ¬è·¯
Ġæĭ¥ æľī
æīĢ å±ŀ
å¹» æĥ³
p at
å½±åĵį åĬĽ
æĬĬ ä½ł
çļĦè¯´ æ³ķ
å°± è¡Į
åİ¦ éĹ¨
æĦ īå¿«
Ġçĭ Ĥ
as ks
æĭħ ä¿Ŀ
l ines
Ġpurch ased
éħ ¯
ut ely
Ġco vers
å¼º æĤį
ç»ıæµİ æĢ»æĶ¶åħ¥
æĹł å¿Į
Ġé»ĳ èī²
çŁ¥è¯Ĩ çĤ¹
çģĮ æºī
ä¹ĭ åŃĲ
Ġä¸Ĭ åŃ¦
çŃ¾ çº¦
ç®¡çĲĨ å±Ģ
çĲĨ ä¼ļ
Ġsp r
æŃ¦ å£«
æĳĨ æīĭ
èĢĥèĻĳ åĪ°
è§£ éĻ¤
ĠåĬŀ åħ¬
äºº æĢ§
ä¸į é«ĺ
è¾ĥ ä½İ
ins on
Ġfab ric
åĿļ å®ļ
æ·± çļĦ
ç¥ ·
Ġå¯ »
Ġåº Ł
ĠSecret ary
Ġå¦Ĥ ä»Ĭ
Ġé¸ Ń
æµĻæ±Ł çľģ
Ġmanufactur er
å®Į ç¾İçļĦ
çĻ¾ ç§ĳ
Ġcol on
ä¸į è®©
ĠR est
pect ed
Ġ ign
â ģ
æĺ¯ åķĬ
Ġb asketball
Ġex change
åľ° åĪ©
14 0
åĽ½ äºº
ç¿ ĺ
ĠA R
g s
p ack
æĪĳ æ²¡
å¼Ģ éĢļ
ĠM ah
åľ¨ ä¹İ
M L
å°± å¥½åĥı
Ġth row
ĠæĽ ²
ç¬¬ä¸Ģ æĹ¶éĹ´
æ¦ ´
Ġinstit utions
å¤¸ å¼ł
çļĦ åºĶçĶ¨
å¤§ æ±ī
åĶ® åĲİ
èĢģå¸Ī çļĦ
éĶ¦æłĩ èµĽ
å½ĵ ä½ľ
Ġåĩº çĶŁ
ĠçĽ® æłĩ
æ¶µ çĽĸ
èĢ ½
æŃ¤ ä¹ĭå¤ĸ
ĠAre a
èĢ ¿
åľº æ¯ĶèµĽ
Ġæ²¡ åħ³ç³»
åİŁ æĿ¥çļĦ
O G
çŁŃ ä¿¡
éģŃ åıĹ
çĪ±å¥½ èĢħ
åıĪ èĥ½
ä¸º åħ¶
ĠD utch
çī¹ çļĦ
Ġcateg ory
Ġå½ĵ å¹´
åī© ä½Ļ
ĠR ights
å¥¥è¿Ĳ ä¼ļ
Ġæį ¡
n ight
Ġæĸ¹ å¼ı
åĪĨ æĶ¯
ĠN ative
æķ´ å¤©
ph y
åĮ¹ éħį
æ¢ µ
p ass
ten ance
in ch
æĸ¯ æĭī
éº Ĵ
In d
åįģ ä¸ª
Ġstart s
ĳ «
Ġr ing
ĠCount ry
å®¶ ä¸Ń
æĥ³ æĿ¥
hem at
ou red
è¦ģ åľ¨
æīĵ çļĦ
ĠåĨľ æĿĳ
) ãĢģãĢĬ
ä¸Ģ åĳ¨
ir cle
åĳľ åĳľ
f il
Ġç¾İ é£Ł
Ġrel ax
nes ota
9 10
3 50
åĪĹ ä¸º
çīĽ èĤī
æĢ§ ä»·æ¯Ķ
å®ı è§Ĥ
Ġeffic ient
å¤§ æī¹
Ġconduct ed
ĠAs h
ĠåĪļ å¥½
Ġ icon
Ġè¿Ļ è¯Ŀ
ä¸į å®ľ
çĶ¨ æ°´
ĠOlymp ic
ä¾ ĥ
33 3
æĪĳ å¾Ī
ç±³ å°Ķ
åİ¿ å§Ķ
Ġplatform s
Ġ Å
åİŁ æĸĩ
é¡º çĿĢ
Ġhistor ic
éĩĳ é¢Ŀ
ç¬ĳ è¯Ŀ
Ġv ent
Ġmusic ians
ä»ĸ ä¼ļ
Ġl iber
æĪ· å±ħä½ı
ok es
èĴ ²
ä¸Ģ ä¸ĸ
Ġl es
Ġåģļ åĪ°
Ġer r
ĠF ox
æĪĳ è¿Ļ
æĪĲç«ĭ äºĨ
åĳ¨åĽ´ çļĦ
æ¯ı åĳ¨
é¢ĳ ç¹ģ
å°±æĺ¯ è¯´
å°ı æ¸¸æĪı
åĢĻ éĢī
å²© çŁ³
çĸ« èĭĹ
Ġad op
ä¹ ŀ
E W
ä¸» å¯¼
çĦ ī
Ġhe ro
å¥³ çİĭ
Ġread ers
æĶ¿ åįı
ĠL ater
Ġp ra
ĠFore st
ĠStud ies
Ġè¯ģ æĺİ
ĠB all
ĠP ak
éĥ¨ ä»½
æĢİä¹Ī åĽŀäºĭ
Ġbeg ins
B O
âĢĶâĢĶ âĢĿ
Ġcom edy
ast y
ĠæŃ ¥
é½Ĳ åħ¨
h o
åĲį äºº
Ġä¸» åĬ¨
w a
æĬĳ éĥģ
èµĦ åĬ©
c ur
åŃĲ å®«
Ġä¸į åİ»
åĮĸ åĲĪçī©
æ²³åįĹ çľģ
s l
ĠO tt
åıį å°Ħ
åı« éģĵ
achus etts
äººåĿĩ çº¯æĶ¶åħ¥
åħ¨ ç¨ĭ
çļĦ éĤ£ä¸ª
Ġåį³ ä½¿
çļĦ åıĮ
Ġch ain
Ġchem ical
ä¼ĺ èī¯
åħµ åĻ¨
åŃĲ å¼Ł
Ġvict ory
w orth
èº ¬
ist ration
Ġro les
Ġident ified
å¸Ŀ åĽ½çļĦ
ĠS on
ĠL es
éĽ į
ĠP ot
Ġch ocolate
Ġå°ı åŃ©
Ġscient ific
ç©¿ è¿ĩ
çº¦ æĿŁ
Ġveget ables
ĠR om
ĠæĪĳ æĪĳ
Ġåŀ ĭ
çºº ç»ĩ
æĸ¹ è¨Ģ
æİ¥ å¾ħ
ç¤¾ä¼ļ ç§ĳåŃ¦
ĠL ocal
åĽŀ æĶ¶
ĠC reek
æĸ° å¢ŀ
æ²Ļ æ¼ł
æĸ° å»º
äºĨä¸Ģ çĤ¹
Ġa thlet
Ġåħ ļ
å¤ļ å®¶
å¤ĸ çķĮ
åı£ æ°´
Ġç¬¬åħ« ç«ł
å²ģ æĹ¶
èģĶ æīĭ
å¸ ½åŃĲ
åĩº èĩª
ä¸įåı¯ æĢĿè®®
åı¯ è¾¾
å·¥ ä¼ļ
ĠTr ust
Ġæ¡ ĥ
å°Ķ å¤«
å·¨ äºº
åĤ¨ å¤ĩ
Ġst re
il ton
æ±ī åŃĹ
è¯¡ å¼Ĥ
Ġrap id
Ġæ¬ ł
Ġb aking
çļĦ åīĳ
id ers
Ġar ts
ĠçŃĶ æ¡Ī
ä¿ ŀ
é£İ éĽ¨
Ġvers ions
ĠOver all
æī© æķ£
å½ĵ åľº
Ġadv oc
åĨĽ åĮº
é¡µ éĿ¢
çľĭ åİ»
Ġadvert ising
æĪĲ å¹´
çº¦ ä¸º
Ġè¡¨ çİ°
æł ĵ
çĽ Ķ
åĮĹ ç¾İ
Ġæµ ĭ
å·² è¢«
Ġh un
çļĦ åħ³éĶ®
åĴĮ ç®¡çĲĨ
Ġå¥½ å¥ĩ
å·²ç»ı æľī
è½ ¿
ad ed
ab led
9 25
å¦ĸ åħ½
åıĳ äºĨ
éĹ® æĪĳ
Ġåıª ä¼ļ
æĭ¿ èµ·
å¹¶ æĹł
} {
çļĦ å®īåħ¨
èĢ³ åħ¶
Ġtit les
âĢ ķ
ä¼ º
ĠT O
è·Ł ä»ĸ
èĽ Ł
Ġneighbor hood
åĲĮ ä¸Ģä¸ª
æ¸ħ éĨĴ
ä¸º åŁºç¡Ģ
åįĵ è¶Ĭ
ĠéĴ Ī
ĠL ady
9 11
å±± æ°´
Ġacc ommod
Ġå¯¼ æ¼Ķ
Ġag ric
èĤ¡ä»½ æľīéĻĲåħ¬åı¸
å¾Ī éĩįè¦ģ
æ¸¯ åı£
ç«ŀäºī åĬĽ
é¦ĸ å¸Ń
åĿı äºĨ
Ġsupport ing
çĶĺ èĤĥ
Ġ ä¸ĵè¾ĳ
ä»» æĦı
se ction
åĲĥ çĤ¹
åĮ ¿
app y
Ġre form
ĠI P
ĠåİŁ è°ħ
è·¯ çļĦ
am ber
æµĭ å®ļ
åŁİ åł¡
çļĦéĤ£ ç§į
å¹³ è£ħ
æıĲ èµ·
Ġå½ĵ åĪĿ
Ġst one
Ġdec ades
Ġn omin
Ġsh ut
Ġçī ĮåŃĲ
ä¾ĭ å¤ĸ
ĠEn ergy
çĸ ®
çĿĢ ä¸Ģä¸ª
Ġreve aled
éª¨ å¤´
å¤§ èĥĨ
] ãĢĤ
çļĦ æĹł
ir med
Ġliter ature
åľ¨ åīį
Ġæ´» çĿĢ
ra ce
èĢģ å¹´
] ;
Ġhigh light
s ub
Ġst ir
èº« é«ĺ
åıª åī©ä¸ĭ
æł· æľ¬
Ġæ¼Ķ æĬĢ
Ġå¢ ¨
æ³ķ åħ°
ĠR en
æĽ´ ä½ķåĨµ
ĠCh air
åģļ å¾Ĺ
ĠGold en
é¥Ń åºĹ
åķ§ åķ§
ĠR on
ĠRepublic an
Ġoper ated
Ġequ al
æĺ¯ å¦Ĥä½ķ
Ġdescrib e
å¿« æį·
èĿ ī
èĥ ³èĨĬ
éĹ ½
Ġçľ ī
ä»·åĢ¼ è§Ĥ
un a
æĭ¼ åĳ½
ä¹ĭ ç±»
ar ks
åľ¨ åĮĹäº¬
åĨį ä¸Ģæ¬¡
å¾Ģ åīį
ç»Ŀå¯¹ æĺ¯
âĢĶâĢĶâĢĶâĢĶâĢĶâĢĶâĢĶâĢĶ âĢĶâĢĶâĢĶâĢĶâĢĶâĢĶâĢĶâĢĶ
ĠèĢĮ æĺ¯
å¤ļå¹´ æĿ¥
Ġac id
ä¹Ł å¾Ĺ
ä¹Ł åıªèĥ½
æĹ¥ åĨħ
Ġåıª ä¸įè¿ĩ
Ġä¸į åı¯
ç´« èī²
ĠD VD
ç© ¹
è ĺ
Ġannoun ce
k es
å¤© æĸĩ
Ġgu arant
ä¼ļ åĩºçİ°
Ġç¾ ½
Ġs am
æīĢ èĥ½
ä¸Ģ äºĭ
çº¢ çļĦ
è·ĳ åĪ°
åį´ è¢«
ä¸į æĺİçĻ½
åĴĮ åıĳå±ķ
Ġæ°´ å¹³
ĺ åŃĲ
ĠçĻ »
å¦ ¾
ĠA L
èĲ½ çļĦ
Ġco verage
æ¯Ķå¦Ĥ è¯´
ĠåķĬ æĺ¯
Ġor g
æĹ¥ çĽĬ
èĩªå·± åľ¨
12 8
Ġf iction
æĺŁ ç©º
ä¹Ł ç®Ĺæĺ¯
Ġpain ting
ĠæĶ¶ æĭ¾
åľ° åŁŁ
èĥ¡ åŃĲ
ĠAn ton
Ġè·Ł çĿĢ
Ġgar lic
ĠGall ery
Ġ äºļ
å¦Ĥæŀľ æľī
åĲĪéĢĤ çļĦ
éĢī çĶ¨
åĬŁ æ³ķ
æĴŀ åĩ»
åĴ ı
ç²¾ ç¡®
åŁºç¡Ģ ä¸Ĭ
Ġå¼ ±
é©¬ è½¦
9 14
çĩĥ æĸĻ
åĨ· åį´
ä¸ĭ æīĭ
erv ice
Ġro t
èĢĮ åıĪ
åĸĦ äºİ
çĳŀ åħ¸
æĪĺ éĺŁ
è§Ĩ çĿĢ
ik i
Ġar rived
éĵ ħ
åĨľ çĶ°
éĻĦè¿ĳ çļĦ
åĸĦ èī¯
9 17
ĠåĲ ¼
us hed
Ġæ³ ¢
æļĹ ä¸Ń
L ED
å¾Ī åı¯èĥ½
wh ile
H P
Ġb ot
Ġtop ic
çĻ¾åĪĨ ä¹ĭ
al i
æĥ³ åĪ°äºĨ
ĠMin nesota
y o
ĠæĿ ¯
ff ect
Ġå®¤ åıĭ
æĹĭ å¾ĭ
Ġopin ion
ç¬¬ä¸Ģ ç«ł
Ġra ise
ĠG er
ĠéĴ ¢
F l
å°± å°Ĩ
Ġpl anned
ĠCon nect
âĢĭ âĢĭ
d ney
Ġ Â°
ãĢĭ, ãĢĬ
Ġeduc ational
æĿ° åħĭ
Ġ 00
æĪĳ å¯¹
ä¹ĭ å£°
éĻ ĭ
æ²¡æľī æĥ³åĪ°
è¿Ļ åĿĹ
åĲİ å¤©
erv ative
Ġæ» ĳ
Ġsw im
Ġsu itable
çĦ ķ
äººåĬĽ èµĦæºĲ
ad ow
Ġæ¯ «
æ·· åĩĿåľŁ
Ġsuc ceed
ang es
åİ¿ çļĦ
åĸĿ éģĵ
ĠäºĨ å¯¹
Ġå°ĳ å¥³
Ġsw itch
ä¸ĸ å®¶
Ġat mosp
è°ĥ çłĶ
è¿Ļ é¡¹
Ġrepresent ed
æ¾³ æ´²
Ġprof ile
æ¯Ķ åĪ©
ä¸Ĭ æ¶¨
ĠA S
Ġcall ing
Ġearn ed
ĠW atch
è¶Ĭ å¤ļ
Ġdis hes
Ġdec isions
R ead
Ġst ret
Ġé¡ ¿
9 26
ĠMount ain
ĠO s
ĠçĭĹ çĭĹ
h at
è¯ §
v i
ä¸Ģ åĩ»
re te
æĿ¥ ä¸įåıĬ
ä¸ĩ å¹´
éĿł è°±
çļĦ åĲĮåŃ¦
éĴ §
pr ise
èķ´ åĲ«
ä¸Ģ åı£æ°Ķ
åı£ åĳ³
Ġsil ver
éĢĶ ä¸Ń
æľĢ åħ·
ĠUn ivers
è¶ĬæĿ¥è¶Ĭ å¤ļ
ĠMass achusetts
x y
è¦ģ è¯´
çģ ¼
éĽ· éľĨ
çļĦ çĶµå½±
æĥĬ äºº
Ġcon ven
çłĶç©¶ ä¸Ńå¿ĥ
æĿ¡ä»¶ ä¸ĭ
å¥½ è¯Ħ
ä¾Ŀ çħ§
é³ į
Ġèĸ Ľ
è¿ĩ æķı
Ġag ent
ĠB ureau
éĿŀ æ³ķ
çģ« æĺŁ
æį Ĥ
å¯Ĩ éĽĨ
Ġshe l
æĿ° ä¼¦
Ġobject s
ĠEx pl
çķ ´
éĢ ®
ä¸º ä»ĸ
åıĳ ä½ľ
çĽ¸åĲĮ çļĦ
Ġstruct ures
å®ŀ æĹ¶
E V
Ä į
Ġçª Ĺ
è¿ĩ å¤ļ
é¥® æĸĻ
æĻ¯ çĤ¹
éģĩ åĪ°äºĨ
çº¿ ç´¢
C L
? !âĢĿ
ĠæĶ¾ åľ¨
Ġdi agn
ĠIn n
ĠæĴ ŀ
çĶŁäº§ çļĦ
ĠStep hen
F F
ĠåĲİ å¤©
ç¤¼ ä»ª
âģ Ħ
è¿Ļ å°ıåŃĲ
å¼ ©
ĠM ir
Ġthan k
Ġæ¢ ħ
ĠçĬ ¯
çŁ «
ĠåħĦ å¼Ł
ar ters
åĨ Ģ
C M
C P
æŃ¦ å¸Ŀ
ä¸į å°ıå¿ĥ
èĿ İ
åģļ åĩºäºĨ
æŃ¤ å¤Ħ
æĤŁ ç©º
éĻĦ å±ŀ
åĬ¨ æ¼«
éģµ å¾ª
p y
Ġother wise
ĠSc iences
Ġsh ap
è´ ±
åĵį åºĶ
åģı åģı
æĻ¯ åĮº
ĠG i
Ġåģļ æ¢¦
Ġcommit ted
Ġar my
O U
ĠèĻ Ĳ
çŁ ¶
ĠD er
Ġcont est
Ġmake up
Ġo ven
çĶŁ åĬ¨
å°Ķ åħ°
æľī çĶ¨
æµĵ éĥģ
p rodu
åĽŀ åĽ½
éĤ£ ä½ł
Ġåįģ äºĮ
Ġ4 1
ç³ Ļ
æ° ®
çļĦ æĶ¯æĮģ
å¤Ħ å¤Ħ
p ret
Ġs oul
Ġkeep ing
Ġprotect ed
é© ´
ä¸ĸçķĮ å¤§æĪĺ
é«ĺ åİĭ
åĪĨ æĪĲ
çīĪ çļĦ
Ġper man
ĠPerson al
å±± å¤§
æĶ¶ ç¼©
Ġsupp l
Ġclaim ed
åĨ³ äºİ
é»ĳ è¡£
åĪĹ åħ¥
Ġæ¸© æļĸ
ĠæĿ ¾
æ»¡ æĺ¯
ä½ĵ è´¨
ä¿Ŀ å®ī
çĦ¶åĲİ åĨį
äººåı£ å¯Ĩåº¦
æ²Ļ åıĳ
c ase
èĩª æĿ¥
åĲĪ çº¦
ĠB a
Ġåİ ¨
éª ĦåĤ²
æķ°æį® æĿ¥æºĲäºİ
èµ· æºĲ
ĠÐ ¡
éľĩ åĬ¨
Ġwin ner
è¿ĺ ä¸įæĺ¯
Ġout door
åĪĹ è¡¨
è¯¸ ä½į
äº® çļĦ
å¤§ è¿ŀ
II I
ç®¡çĲĨ åĴĮ
st ream
ĠåĪ Ģ
è¿ Ń
æĪĳ äºĨ
Ġfl av
æľ¬ æºĲ
9 12
et a
åĳĬ çŁ¥
ĠW ow
åįģ è¶³
ä¸º ä½ł
æĹ© åľ¨
Ġredu ced
èĢĮ æĿ¥çļĦ
æ¥ļ å¤©
Ġd raft
Ġprim arily
åŀ Ħ
Ġå¤± æľĽ
Ġå¯Ĥ å¯ŀ
Ã£ o
å¤§ éĺŁ
Ġexerc ise
ä¹¦ éĻ¢
pos es
æľĪ åı°
åĨĽ äºº
ĠAr m
èĳ «èĬ¦
èĹ »
Ġsecond s
éĩĳ éĴ±
æłĳ ç«ĭ
Ġaffect ed
ĠP ay
Ġåħ¨ æĺ¯
çļĦ è§Ħå®ļ
åĿĲ ä¸ĭ
æĬ¥ èŃ¦
èĩª åŃ¦
el ines
Ġrail way
Ġspl it
åĪĨ ä¹ĭä¸Ģ
ĠU k
ä¿® æŃ£
9 22
ĠL uc
Ġg od
çŃ¾ ç½²
åıĭ å¥½
ĠColor ado
Ġreg ions
å½ĵ äºĭäºº
Ġinvestig ation
ĠFil ms
è¶Ĭ æĺ¯
è¶Ĭ å¤§
Ġgu est
Ġult imately
Ġç ¯
ĠC as
Ġå¥½ åĸĿ
æķ°æį® ä¸ºåĩĨ
Ġele ctions
è¿ĺ åİŁ
åıĪ åľ¨
ç¥ĸ çĪ¶
ÑĤ Ð¸
åĤ Ģ
ĠåįĬ å¤ľ
çĮ´ åŃĲ
r c
ĠS n
Ġåħ« åį¦
ç¬ĳçĿĢ è¯´éģĵ
Ġcirc um
ç£ ħ
ç´¯ è®¡
ĠOx ford
äº¤ ä»£
st yle
èģĶ ç»ľ
Ġhold ing
çļĦ åħ¨
ony m
Ĩ åĵ®
éĢī é¡¹
åł ¤
ĠR un
l ock
Ġè¯ ļ
Ġestim ated
et her
è¨Ģ è¯Ń
Ġpar am
åĽ½ ä¼ļ
åħ³ç³» çļĦ
Ġdram a
éĥ½ ä¸įçŁ¥éģĵ
Ġstat ic
Ġsh opping
E A
Ġçº ª
Ġ ãģ
æĲ ģ
Ġwatch ing
it ution
åĲ¦ è®¤
éļ¾ åıĹ
èĻ½ è¯´
ĠA ND
Ġç¬¬äºĮ çĻ¾
Ġb ought
ä¸į è¯¥
ber ry
å¤§ æµ·
Ġspe ech
Ġlead s
åĨį è§ģ
æł¹ å»·
ä»¥ çĻ¾åº¦åľ°åĽ¾
çº¢ èī²çļĦ
ä»ĸ çİ°åľ¨
ä¹Ł åıªæľī
å¯Ĩ å°ģ
Ġnewsp aper
æľĢç»Īç»ĵæŀľ ä»¥çĻ¾åº¦åľ°åĽ¾
æķ°æį®æĿ¥æºĲäºİ çĻ¾åº¦åľ°åĽ¾
æľĢç»Īç»ĵæŀľä»¥çĻ¾åº¦åľ°åĽ¾ æķ°æį®ä¸ºåĩĨ
å¤į æ´»
åŁºéĩĳ ä¼ļ
ä½ĵ åĬĽ
ä¸Ģ æĪĺ
Ġalong side
åĩł ä½ķ
çłĶç©¶ åĳĺ
ä¸İ ä»ĸ
åĪł éĻ¤
æ²¿ æµ·
åľ° å¤Ħ
Ġ ä¾¿
ĠAlex ander
é©¬ æĭī
æļ ĳåģĩ
il der
çº¿ æĢ§
Ġè´¨ éĩı
ä½ł åĪ«
åĲİ æĸ¹
éĩı åŃĲ
Ġj ump
ä»ĵ åºĵ
å¸¸ å§Ķ
Ġthem es
olog ist
Ġäºº ç±»
ĠåĴ ¸
åįł åľ°
Ġk id
éĽ¶ åĶ®
å¤į åħ´
ç±»åŀĭ çļĦ
ä½ı åľ¨
æ²¿ çĿĢ
ĠHigh way
os a
ç«ĭ åľº
Ġenc ourage
ĠAnsw er
éĻ¶ çĵ·
äºº æĹı
ç»ĵæĿŁ äºĨ
æĵ Ĵ
åĲĵ å¾Ĺ
9 24
Ġcont rast
2 11
å¿½ è§Ĩ
ä¼ł æĦŁåĻ¨
ç» ŀ
Ġä¸Ģ åłĨ
é ĳ«
ä¸»ä¹ī çļĦ
æ¸´ æľĽ
Ġw ire
äººåĳĺ çļĦ
ç¹ģ èį£
Ġaud io
çĿĢ èĦ¸
ĠTe levision
Ġfrequ ently
åĽ½å®¶ åĴĮ
éļĶ ç¦»
( $
åıĺ æĽ´
å¥Ī ä½ķ
æµİ åįĹ
ĠÂ »
Ġä¸į ä½ı
Ġreturn s
ĠCh apter
Ġn arr
Ġcer em
Ġwas te
åĹ ¦
ä¸Ģ åĽ¢
ä¸»è¦ģ æľī
ĠOlymp ics
é»ĳ èī²çļĦ
Ġsol o
Ġåĳľ åĳľ
çļĦ çĥŃ
Ġinc ident
ç§ĳ æĻ®
æĭį äºĨ
Ġpl astic
çļĦ éĴ±
ĠO p
ĠæĮī çħ§
Ġfig ures
ĠB ad
ä¿Ŀ ç½Ĺ
j s
å¸ĥ æĭī
ord ers
å¸Ī çĶŁ
è¡ Ļ
æĽ´ åĲįä¸º
Ġexper ts
äºİ æŃ¤
Ġè¿Ļ åĦ¿
Ġbr ings
ĠD C
Ġè® ¢
Ġopt im
ç¬Ķè®° æľ¬
rehens ive
f rom
åįļå£« åŃ¦ä½į
åĲĽ åŃĲ
T ube
Ġl iqu
ES T
è¿ĺæĺ¯ æľī
at us
Ġåģ· åģ·
è§Ĵ èĲ½
Ġfl our
ĠC ost
ĠÐ ±
ä¸Ĭ çº§
åħħ çĶµ
9 21
æĹı äºº
åı· çļĦ
o z
c al
çģ« å±±
Ġè¦ģ ä¹Ī
Ġb ond
ĠAn th
ä¸Ń æ¯Ĵ
è¦ģ ä¸į
ä¸»æĮģ äºº
Ġy ellow
ol y
osoph y
ħ åĴĴ
äºĨ è¿Ļä¸ª
èı© èĲ¨
ç«ĭ æĸ¹
åī§ éĻ¢
Ġatt rib
d f
æ» Ķ
Ġlet ters
t hen
äºĶ å¤§
çļĦä¸Ģ çĤ¹
ä¹Ŀ é¾Ļ
Ġçİ© åĦ¿
ram ework
ä¸İ ä¹ĭ
Ġé² ľ
ĠæĹ §
å®ĥä»¬ çļĦ
æĭ ¯æķĳ
èĢĮ è¢«
ay a
éļ¾ é¢ĺ
çĤ¸ å¼¹
Ġare n
åĽ¢ éķ¿
äº¦ æĺ¯
ĠåįĬ å¤©
ä»ĸ çŁ¥éģĵ
æľŁ éĻĲ
Ġtw ice
Ġpolit ician
ĠPol icy
æīį çŁ¥éģĵ
ĠçľŁ å®ŀ
ç¦ Ģ
Ġmain ly
å¹´ èİ·
æķĳ æı´
ä»·åĢ¼ çļĦ
åĹ ¡
ä¹Ł åıªæĺ¯
èĲ İ
å·² æĪĲä¸º
ä½ł çİ°åľ¨
ot i
äºº æł¼
am i
è½¬ è®©
th ur
te en
ĠèĪį ä¸įå¾Ĺ
Ġs elling
Ġè¯Ŀ é¢ĺ
ĠæĢĢ çĸĳ
Ġagre ed
Ġrecogn ized
åĢ ¦
Ġrel atively
Ġpay ment
çħ§ æĺİ
æľª çŁ¥
éĢ ¾
éħ ®
ä¸ĩ éĩĮ
äºĨ çļĦ
åĨħ æ¶µ
ĠP u
æ² Ľ
Ġéª ĦåĤ²
Ġsuggest ed
h ab
Ġ4 9
æİĴ è¡Į
æıı åĨĻ
Ġex ecut
Ġsur g
Ġhor se
Ġä½ł ä½ł
F T
ĠN on
åĲĪçĲĨ çļĦ
ä»Ĭå¤© çļĦ
åı¯ æĮģç»Ń
æ± ¹
æ½ľ åľ¨
åĩº éģĵ
æ¸© æ³ī
æ¸ħ åįķ
ut ional
åıĳ ç¥¨
ĠHot el
Ġ urban
ä¼ł æŁĵ
æ¬§ ç¾İ
åĮĨ åĮĨ
Ġ Ã©
æ·± åıĹ
Ġmin imum
è½¬ ä¼ļ
è¿ĺæĺ¯ å¾Ī
Ġdef ense
å¾ĹåĪ° çļĦ
Ġepis odes
å¤© çĶŁ
çľŁçļĦ å¾Ī
ĠçĹ ĺ
éĿĻ èĦī
Ġdeg rees
ĠåŃ¤ çĭ¬
Ġä½ĵ éªĮ
ç¼º å°ĳ
æ¡Į åŃĲ
Ġwed ding
.. /
èĬ ¸
æĢİä¹Ī äºĨ
Ġsk y
Ġæ¸¸ æ³³
æĸ¯ å¡Ķ
ĠMod ern
åĲİ åį«
å±± ä¸Ĭ
å¾Ĺ åĩº
éŁ³ é¢ĳ
Ġå¼Ģ çİ©ç¬ĳ
åĪĨ æīĭ
çļĦ åĬ¨ä½ľ
Ġf ro
ĠKore a
å°± ä¸įä¼ļ
ĠL ind
Ġr is
Ġå¿ ½
èĥ½ è®©
åī¯ ä¸»å¸Ń
å» ĸ
äººåı£ æĻ®æŁ¥
ä»Ĭ åĲİ
ant e
ic it
ĠSupp ort
æŀĹ åľ°
å½ĵ ä»Ĭ
çļĦ åİŁåĪĻ
l ong
Ġå®¶ äºº
ĠæĪĲ çĨŁ
ĠéŁ© åĽ½
M od
ç¬ ĭ
æ± Ģ
Ġæ¡ Ī
ĠåĲĮ æł·
Ġåĩ Ń
Ġè°Ī æģĭçĪ±
Ġd atabase
å¤© çİĭ
Ġcon sequ
ä¸ĩ åĲ¨
ç²¾ åĩĨ
åı ¨
ĠåĲ Ľ
Ġexc iting
Ġaccom pl
Ġä¸Ģ çĶŁ
ĠP age
åĪĩ æį¢
Ġpos itions
ä¾¿ äºİ
Ġcons ists
æĭĽ åķĨ
Ġfr ame
äºº ä¸į
éĵģ éģĵ
Ġå°ı åŃ¦
åª ³å¦ĩ
åĸ ĩ
Î ±
å¥½ ä¼¼
å°±æĺ¯ è¦ģ
Ġsh ips
Ġb ranch
è¡¨çİ° åĩº
åľ¨ ä½ł
è¿ĺ æľª
ĠG ro
çļĦ ä¸įåĲĮ
ĠB ol
A I
ĠE qu
ĠæĿ Ĥ
åıĸ åĩº
æĩ Ī
çļĦ æłĩåĩĨ
ä¸Ģ æĹı
Ġæ³ ª
Ġprocess es
æīŃ æĽ²
col or
> <
æĺ¯ä¸į åı¯èĥ½
t es
éĻį ä¸´
æľī åĬ©äºİ
Ġå¿ §
Ġexc ited
ä»ĺ æ¬¾
ask a
ä¸»è¦ģ ä»¥
ĠQu est
ĠÂ «
çİĽ ä¸½
æ· «
æİĴ æĶ¾
op her
Ġse asons
èĦ¸ ä¸ĬçļĦ
Ġç« ¯
it led
èĬĤ çľģ
çĭ® åŃĲ
ĠO K
Ġä»Ģä¹Ī æł·
Ġpar ap
Ġéħ ·
çº³ åħ¥
y stem
ä¹¦ çļĦ
P G
ä»¥ èī²åĪĹ
è·ĳ æŃ¥
çĨŁ ç»ĥ
ĠæŃĮ è¯į
Ġupp er
æĸĩ çļĦ
è·¯ æĺĵ
ĠEngine ering
Ġå® Ī
æ¨¡ æĿ¿
èĩªçĦ¶ ç§ĳåŃ¦
è¿Ļ ä¸ľè¥¿
è¦ģ ä¸įæĺ¯
æĹħ å®¢
Ġinitial ly
èĬ± äºĨ
ĠC ra
Ġend s
enn es
æľ Ķ
åĪĨåĪ« ä¸º
åľ¨è¿Ļ æĹ¶
ç³Ĭ æ¶Ĥ
éĹ¨ æ§Ľ
Ġappro ved
åºŀ å¤§
ä¾Ŀ æīĺ
Ġl as
Ġåł µ
um a
Ġaccept ed
Ġre b
Ġé¡ ¾
ä½ł è§īå¾Ĺ
3 20
Ġçĭ ł
ĠM ach
ĠR oll
çĶ¨ æīĭ
Ġra cial
åĬ¨ æľº
èŃ¦ æĥķ
O V
Ġmen u
Ġæ£ ī
Ġenh ance
u able
ĠæľĢ ç¾İ
åº· çĨĻ
ãĢįãĢģ ãĢĮ
åı£ èħĶ
Ġob vious
åħĭ æĭī
Ġä¸į æĢİä¹Ī
ĠçŃī çŃī
æľĪ åºķ
Ġåıĺ å¾Ĺ
ĠA D
æ³ķ å®ĺ
Ġèĥ½ å¤Ł
æ¦ Ħ
Ġinvol ve
Ġç±» åŀĭ
å±Ģ åĬ¿
ĠDav is
ä¸ľ æµ·
å¤Ħ ç½®
ĠçŁ¥ è¯Ĩ
Ġg ather
Ġar ms
æĺ¯ æĥ³
ĠçļĦ ç¡®
iam ond
Ġprov ince
ot hes
è¿Ľè¡Į çļĦ
æĶ¯ åĩº
ä¸ĥ å¹´
âĢĿ ,âĢľ
l aw
éĢģ ç»Ļ
ä»ĸ è¦ģ
ä¸į åı¯ä»¥
ic ip
æ» ķ
æĺ¯ä¸Ģ å®¶
m ir
é ¬
Ð» Ð°
ç§»åĬ¨ çĶµè¯Ŀ
å®¶ åºĦ
Ġnot able
åįģ ä½Ļ
äºĮ ä¸ĸ
Ġcont rovers
9 23
ĠPort ug
Ġå¥½ çĤ¹
åįİ ä¸º
Ġworld wide
el le
ly n
ĠComm unic
os it
å¸¸ å¹´
è¶³ è¶³
ç«Ł æĺ¯
Ġviol ence
å¤ļ åªĴä½ĵ
ĠSe ason
Ġext ensive
èĳ¡èĲĦ éħĴ
æĥ³ å¿ħ
å±Ģ çļĦ
æŀĹ ä¸ļ
ĠéĶ® çĽĺ
Ġæ°´ æŀľ
å¾· çļĦ
åĨ² åĬ¨
ĠCl ark
åį« è§Ĩ
ĠEn vironment
ĠB ru
åĸľ åī§
Ġauthor ities
éĺĲ è¿°
Ġpl ot
éĤ£ æĪĳ
Ġarchitect ure
æĸĩ æ¡£
åīį èĢħ
æħ¢æħ¢ çļĦ
Ġt ail
è¿Ļ å¯¹
åĥµ å°¸
adel ph
çļĦ ä¸ŃåĽ½
Ġdec re
ĠSh ort
ĠéĻ Ĳ
ä¸į æľį
Ġçŀ ¬
ĠIsland s
ä»Ļ äºº
æĻº åķĨ
çĶµ åķĨ
ow a
ĠEx press
ç«ł ç¨ĭ
å®Įåħ¨ åı¯ä»¥
ĠæĹ¥ æľ¬
Ġhol iday
æĿ¥æĿ¥ æĿ¥
æ£ ±
Ġp or
Ġch osen
Ġthough ts
æ·¡æ·¡ çļĦ
Ġå¥½ äºº
Ġd iverse
ĠN ick
åĲ¬ åĬĽ
ĠSy dney
èªī ä¸º
Ġwa iting
åĳ½ åĲįä¸º
Ġc ro
ĠL ow
éŃĶ åħ½
ĠP ict
ĠæĢ» ä¹ĭ
Ġgreat est
ä¸ī æĺŁ
å¤§ æ¡¥
Ġr ice
val ue
Ġn a
åħ« å¹´
åıįåºĶ è¿ĩæĿ¥
ast s
æ¯ ¯
Ġ/ **
æıĲé«ĺ äºĨ
ĠSup reme
åħĥ ç¥ŀ
ç»Ī èº«
Ã ¥
æķ ŀ
Ġha ven
å¾ģ æľį
å¼¥ æ¼«
åĿļ åĨ³
ĠCur rent
ĠéŃ ħ
ĠM ult
back ground
Ġf ellow
Ġä¸ĭ åĳ¨
Ġresult ing
Ġregister ed
ä¸İ æŃ¤åĲĮæĹ¶
éª¨ éª
Ġé¸¡ èĽĭ
æ¨¡ çī¹
Ġä¸Ģ æ®µ
ĠåĬ ³
ç»Ī ç«¯
Ġdep th
bu ild
Ġå¿ µ
ä¼´ éļıçĿĢ
Ġair port
ust er
Ġteac hers
p age
ĠEnter tain
æıĲ è®®
ĠGu ard
7 50
é¦ĸ é¢Ĩ
çģ¯ åħī
ĠéĿ¢ è¯ķ
Ġlot s
Ġåģ¶ åĥı
Ġacqu ired
æĵįä½ľ ç³»ç»Ł
å°ı ç±³
Ġaccount s
ĠKe ep
Ġt on
is er
æĺİ å¹´
Ġp and
è¿Ļ è®©
Ġtell s
Ġåįĥ ä¸ĩ
g as
ä¸Ģ èĦļ
g i
äº§ çī©
èĩªå·± æĺ¯
åĭ º
in ations
Ġin qu
æīĢä»¥ æĪĳ
ĠåıĤèĢĥ æĸĩçĮ®
æī Ľ
Ġal ign
mer ce
Ġm ort
ä¸Ĭ æĸ¹
éĥ½æĺ¯ åľ¨
æıı ç»ĺ
Ġhe av
æĪ¿ äº§
éĽ· è¾¾
Ġè®º æĸĩ
. ãĢĬ
ĠF un
çı ĳ
Ġcar bon
Ġè´ Ń
Ã¼ r
æĢ» çĽĳ
Ġaccur ate
åĲį ä¹ī
åĿĩ è¡¡
Ġmot iv
Ġpur poses
Ġess ay
åıĹ æ¬¢è¿İ
å¤ļ å¤§
èĤ ĭ
æĢ¥ æĢ§
R S
ore n
Ġç¼ĸ è¾ĳ
çļĦ åİŁ
å¥½ çİ©
Ġenjoy ed
ä»¥ åħį
å´ĩ æĭľ
AP P
ĠæĩĴ å¾Ĺ
ĠE U
lic ation
um es
åĦ ¡
æĦŁ åı¹
å¾®å¾® ä¸Ģç¬ĳ
Ġçĸ¯ çĭĤ
å°ı åŃ¦çĶŁ
åŃĺ æ¬¾
åĺ ĺ
ĠWil son
å¢¨ è¥¿åĵ¥
ç¾İä¸½ çļĦ
ç¦» å©ļ
Ġæł ·
E d
äºĭ çļĦ
çĶ¨ èį¯
çĿĢ ä»ĸ
ĠE le
çĭ ŀ
so le
Ġ4 3
Ļ èĿł
åķ¥ æĹ¶åĢĻ
Ġè·¯ è¿ĩ
æĳĦåĥı å¤´
åŃĲ åĴĮ
æĪĳ åĪļ
ç»ıåİĨ äºĨ
Ġconc ert
æŃ£ ç»ı
we et
n ger
è½© è¾ķ
Ġ è¿Ľåħ¥
æ´» åĬĽ
ons in
ĠæīĢ å±ŀ
éĻĦ åĬł
æĥħ äºº
åĲĥ æĥĬ
Ġå°ĳ å¹´
Ġport ion
åħĥ æ°Ķ
ĠS at
ĠN ic
ĠæĪ¿ éĹ´
is a
ĠF ull
Ġ9 5
æŁı æŀĹ
èµĭ äºĪ
çĮ ©
éĤ£ æł·çļĦ
ĠæĮ ¤
èľ ĺèĽĽ
ĠèĥĮ æĻ¯
Ġfail ure
l s
st ar
ver ty
æŃ£ å¦Ĥ
Ġæ£Ĵ æ£Ĵ
Ġpublic ation
åĩĮ æĻ¨
Ġç ¨Ģ
isc onsin
å¹´ ç¾İåĽ½
èĤ¡ ä»·
ä¸Ģ è¾ĪåŃĲ
Ġè´ §
Ġemot ions
çİĭ çĪ·
pt y
ĠD a
ĠM arg
åºĶ ä»ĺ
ä¸į åĩĨ
æĦŁ æ¿Ģ
çª ¥
ä¸Ģ ä¸¾
ä¸Ģ åĪĨ
ç»© æķĪ
Ġstud ied
ĠEx ecutive
Ġ ä»·
ap ore
åŃĹ ä½ĵ
be c
å·© åĽº
å¸Ĥåľº ä¸Ĭ
Ġfac ulty
ä¸ĸ ä¸Ĭ
æĪ· éĢļ
çī¹ æĦı
åİĭ è¿«
G r
çĨ ı
Ġä¸ī å¹´
Ġauthor ity
D VD
ä¸Ģ åĲĳ
Ġç©º éĹ´
é©± éĢĲ
Ġr ough
ĠæĮ ĸ
ç¥Ŀ ç¦ı
çļĦ å°±
Ġgu ests
è¹ ¦
og ue
è¿Ļ ä¸ī
åıĤ è§Ĥ
ä¸ĭ éĽ¨
Ġåĩ ¤
åįł æľī
æĢĢ åŃķ
æª ¬
ĠéģĹ æĨ¾
ä¾ Ī
åĽ¢ çļĦ
ĠçļĦ åĹ¯
éĺ³ å¸Ĥ
çºł ç»ĵ
Ġ Ñĥ
åľ¨ å¥¹
Ġwel come
ar ry
è¿Ļ åĩł
ĠæĪĲ ç»©
åħ¨ æĸ°çļĦ
éª Ħ
åľ¨ åħ¨åĽ½
Ġclear ly
adelph ia
Ġç§ĳ åŃ¦
ĠC am
ä½Ĩ çĶ±äºİ
æľĢ å¤ļçļĦ
ĠæĢ§ æł¼
Ġ iron
æľį é¥°
è¡¥ è´´
å°Ĩ èĩªå·±
ä¸½ çļĦ
Ġcharg es
Ġéķľ å¤´
æĹłæ¯Ķ çļĦ
Ġè®° ä½ı
åħ¼ ä»»
ä¸Ģä¸ª å¤§
ãĢĭ )
ç»Ŀå¯¹ ä¸įä¼ļ
Ġf ol
åķĨ åºĹ
æģĲæĢĸ çļĦ
ä¸§ å¤±
Ð½ Ñĭ
åĪĺ å¤ĩ
Ġmin ute
ĠGe ography
Ġpo verty
Ġc oun
ĠÐ Ł
Ġaff ili
åĩ» æĿĢ
æ°´ éĿ¢
ĠEn joy
Ġopin ions
æı ½
Ġgu ess
ä¸į æĦ¿
ç¥ŀ æ®¿
åĶ¯ æľī
Ġtown s
åĩº å£°
ç´ł æĿĲ
ĠAs sembly
èĩª å®¶
çİĭ èĢħ
èº« åĲİçļĦ
bour ne
Ġele v
Ġçł ¸
Ġè¿Ļ ä»¶
iz er
ç¾İ åĨĽ
çķĻ ä¸ĭçļĦ
Ġçħ İ
Ġä¸ĭ è½½
çĽĳ çĭ±
Ġ äºĴçĽ¸
ĠS ky
åĲ¬ åĪ°äºĨ
Ġup gr
Ġèµļ éĴ±
çĲ ħ
å¼¹ æĢ§
ĠåĲĮ æĦı
Ġä¸Ģ åı£
èĥĮ åĲİçļĦ
Ġelect ronic
p i
äºĨ èĩªå·±
Ġåĳ¢ ä½ł
æľīäºĽ äºº
çºµ æ¨ª
Ġpol y
åĩłä¹İ æĺ¯
æ¸¸æĪı ä¸Ń
æīĭ åĨĮ
g ian
ĠRep resent
G et
ä¸į è¿ľ
å¹´ åĨħ
æĶ¯ éĥ¨
åıĪ è¦ģ
åĴ Ĩåĵ®
In st
Ġhum ans
Ġprote in
A K
åħī çº¿
åĪĽå§ĭ äºº
Ġæľī æĦıæĢĿ
Ġwe alth
l ig
å¸¸ çĶ¨çļĦ
å¼º åĬ¿
æĿĳ åºĦ
ä¸¾ åĬ¨
éĺ´ è°ĭ
å¾Ī æ¸ħæ¥ļ
Ġpr oud
itz er
éħį ä»¶
èµ¶ åĪ°
éľ² åĩºä¸Ģ
Ġbase ball
ä¼Ĭæĸ¯ åħ°
æ± Ĳ
ĠD ream
ĠæĬ ¬
åĤ¨ åŃĺ
ĠSo ft
æ³ķ æľ¯
éħį éŁ³
Ġc oc
åľ¨ ä¸Ń
è¯Ħ å®¡
åħ¬åħĥ åīį
ä¸º èĩªå·±
åĲĦ æľī
Ġæµģ éĩı
Ġ 99
ä¼¤ äº¡
ul s
èĢĲ å¿ĥ
0 80
Ġact ing
æĺ¥ å¤©
Ġrest rict
åĲį åı«
å©ļ ç¤¼
è¡Į é©¶
Ġspe aker
H L
çĻ» ä¸Ĭ
Ġs an
Ġret ire
Ġfor get
S L
åı« å£°
æĴ¤ éĶĢ
b ra
éĺ ±
Ġ0 3
ĠçĮ ´
å§ ¥
Ġentertain ment
Ġæĺ¯ åĲ¦
çļĦ ä»ĸ
> </
Ġæľ¬ äºº
å®¶ ä¹¡
æ¸© åĴĮ
Å ¡
æĺ¯ è¿Ļæł·
ĠGu ide
è¾ŀ èģĮ
çļĦ åĲĦç§į
å½¼ å¾Ĺ
S U
p arent
an th
æį £
ĠPer form
å¢Ļ å£ģ
Ġparen t
Ġkn ows
å¯¼ èĪª
å¸¦ åĬ¨
Ġrespons ibility
Ġfl owers
éĦ Ĥ
å¤´ éĥ¨
[ '
v y
Ġs ac
æī¹ åĪ¤
app ing
Ġsim pl
æı´ åĬ©
ole c
ä»ĩ æģ¨
å¹³ æ°ĳ
ä¹Łä¸į åı¯èĥ½
Ġlat ter
èĳ¡èĲĦ çīĻ
Ġb rows
çĲ ¦
æĹ¥æľ¬ äºº
ä¸Ĭ åı¤
æĿ¡ æ¬¾
æ·± æ¸Ĭ
Ġd ates
ä»ĺ è´¹
res ents
P ad
Ġte a
Ġæĳ ©
ä¸Ģ æĿ¯
éĺµ å®¹
çļĦ å¼Ģ
Ġpo et
çļĦ åıĳ
ar on
æľ¬ æķ°æį®æĿ¥æºĲäºİçĻ¾åº¦åľ°åĽ¾
é©¬ å°Ķ
èĬĤ æĹ¥
Ð½ Ð¾
æĸ© æĿĢ
çĽ¸ è¿ŀ
èĳ µ
Ġn om
åĲ¬è¯´ è¿ĩ
Ġä¹° ä¸ª
Ġexper iment
Ġs izes
ĠèĻ ¾
çģ¾ éļ¾
ĠL as
l an
ä»ĸä»¬ æĺ¯
Ġr ide
ä½İ å£°
èİ± åĿŀ
Ġç¢ Ĺ
and o
ĠåĴĮ è°Ĳ
å·´ å·´
Ġç®Ĺ æĺ¯
Ġroom s
Ġcaus es
æĶ¶ åĽŀ
æŀĹ æŀľ
çĽ¸ å¤Ħ
Ġprofess or
ç į
æĪĳ å¦Ī
åĪ¶ çīĩ
Ġapp arent
æŃ¦ æľ¯
Ġå®ŀ çİ°
ĠF ord
Ġegg s
i Ã³n
9 15
Ġè¿ĩ å¾Ĺ
Ġk ick
ç²¾ åº¦
å¤ªéĺ³ èĥ½
äº ¥
äº¤ äºĴ
Ġcris is
ĠE ric
çļĦé«ĺ åº¦
Ġwalk ing
æĽ ¦
Ġè¯´ ä¸įå®ļ
ä¸į å±ĳ
ä¸ĭ éĿ¢çļĦ
åº¦ åģĩ
ou ri
ind ing
åĲĲ æ§½
åĲĮ è¡Į
ivers ary
ĠD am
coh ol
Ġun able
æłĳ æŀĹ
Ð¾Ð ¹
ä¸ļ çļĦ
æŀģ èĩ´
Ġinf rastructure
ç±»ä¼¼ äºİ
v o
end ar
Ġsp ending
å»ºçŃĳ çī©
çĿĢ æīĭ
æĺ¾ åį¡
ain ts
å¥¥ æŀĹ
Ġaspect s
ĠV en
çĶµ ä¿¡
ä»į æĹ§
ĠC ab
å¤© å°Ĭ
æĳ¸ æĳ¸
ç»Ī æŃ¢
åĳ³ çļĦ
Ġ` ``
åĨľæ°ĳ äººåĿĩçº¯æĶ¶åħ¥
åħ¬ çĪµ
å½ĵ ä½ł
Ġvirt ual
ä¸Ĭ çº¿
ĠB ang
Ġæĺ¾ åį¡
èħĲ èļĢ
å®« æ®¿
ĠUs ing
ĠR ome
ĠInd epend
ç» ¸
le vel
og a
Ġå¤ļ äºº
ĠæľĢ é«ĺ
ĠK now
éĽ ¯
ç´« çĥŁ
èµ ģ
æ¡¥ æ¢ģ
ĠF riend
æĦı æĸĻ
ĠA st
Ġtransport ation
Ġä¸Ģ ä»½
æĹł æĦı
Ġjud ge
ç²¾ åįİ
æĦ¿ æľĽ
Ġpub lis
Ġproper ly
ç¼ Ģ
Ġ âĢĺ
éķ¿ çº¦
ä¾Ľ ç»Ļ
ç¥ŀ åĻ¨
ĠéĹ »
çļĦ æ¨¡æł·
ç½ĳ åį¡
åħĪ æĺ¯
è¦ģ æ³¨æĦı
Ġemer gency
Ġdetermin ed
Ġæİ ¢
åºĨ ç¥Ŀ
å®ł çī©
ä»¥ åħ¶
Ġstand ing
çļĦç¥ŀ èī²
åĬł çıŃ
ä¾ĽåºĶ åķĨ
ä¸į è¶ħè¿ĩ
å¤Ł äºĨ
Ġren ew
Ġvac c
Ġbring ing
éģĵ æŃī
ĠMem orial
å¾ĭ å®¾
Ġdef ault
ĠåĽ¾ä¹¦ çĽ®å½ķ
Ġè¯Ħ ä»·
Ġæī £
å¼º è¿«
æ¸ħ éĻ¤
rag on
Ġ ä¼Ĭ
æīĵ å¾Ĺ
Ġæĸ° å¹´å¿«ä¹Ĳ
Ġæľ Ľ
Ġdiscuss ion
è¨Ģ è®º
èĢģçĪ· åŃĲ
å¤´ èĦĳ
å¿« è¦ģ
iven ess
çĭ¬ç«ĭ çļĦ
Ġl ies
é¦ĸ åıĳ
Ġç³» åĪĹ
åĶ± æŃĮ
Ġå® ¡
Ġf ly
Ġsc ulpt
Ġphot ograph
ĠAg ain
åĨħ åľ°
çī¹ ç§į
ç§Ĵ éĴŁ
æ´¾ éģ£
æĹł æŀģ
åıĸ åĨ³äºİ
Ġmat ches
å´Ľ èµ·
æĹł å½¢
ä¸ľåįĹ äºļ
ĠC opy
ĠAss oci
he im
, )
Ġm ir
çĵ¦ å°Ķ
åĴ³ åĹ½
ä¸Ģ åıĮ
ĠWh ich
ĠCon c
æĤ£ èĢħçļĦ
æģ¶ å¿ĥ
ä¸¤ äººçļĦ
Ġcorpor ate
Ġregular ly
ĠæĪĳ ä½ł
è¿ĩ åĪĨ
éĺ ®
Ġåĳ¨ åĽ´
ĠM ix
Ġprom pt
: [
å°± å¥½äºĨ
åĨ² éĶĭ
Ġåħ¶ æ¬¡
Ġä¿Ŀ ä¿®
åľ¨ æĹ¥æľ¬
çģ° èī²
çļĦ ä»»åĬ¡
å¼Ģ éĹ¨
æīĢ åľ¨åľ°
ĠE th
ĠK ir
Ġeffect ively
å°±åı¯ä»¥ äºĨ
æľī ä½Ļ
åĤĢ åĦ¡
en z
Ġæĸ ¯
Ġm ut
Ġä¸Ń éĹ´
sh ire
Ġemot ional
pt on
åĲĽ ä¸»
æĶ¾ å°Ħ
Ġæĥħ ç»ª
èº« åīį
éĥģ éĹ·
å®Ĺ éĹ¨
l ink
Ġse ats
ç¼ĸçłģ ä¸º
Ġèĩª æĪĳ
éĩĩçĶ¨ äºĨ
ĠAl bum
ĠçĽ¸ æľº
P M
Ġä¸į çĲĨ
l ers
èİ² èĬ±
Ġç¢° åĪ°
éĺ´ å½±
Ġsp in
n i
al o
Ġatt ra
åĩłä¸ª æľĪ
ĠMil itary
æŃ ¼
åıĺ ä¸º
åĪ° å¤§
ç³» çļĦ
å¤© ä¸»æķĻ
ä¸į åĲĥ
Ġp p
................ ................
è¿Ļ å®¶
ĠC ustom
åįĹ æµ·
çī ¡
æ° Ł
ĠçĿĢ æĢ¥
Ġmin ister
åģļ ä¸Ģä¸ª
Ġé¥ °
å®¶ å±ħ
å¥³ åŃ©åŃĲ
è¾ĥ å¤ļ
åĿĲ æłĩ
è¹ Ń
ing ham
Ġju ice
æµ Ĭ
ł æª¬
éĥ½ æĹłæ³ķ
ä¸ī åĮħ
ä¸į çŃī
å¤ļ å¤ļ
up s
ĠåĮº åĪ«
åĩº æ¼Ķ
æĤ² åī§
æ·Ģ ç²ī
i ot
æļ ¨
f all
ç¥ŀ åľ£
ĠDis ney
åħĭ éĩĮæĸ¯
Ġcandid ates
åĲĮ çĽŁ
and y
å¤ª å¤ļçļĦ
çľ¼ çļ®
éĢĥ è·ĳ
åĵ ī
ä¸ĩ çī©
Ġsh ares
ĠåĪ« è¯´
æĸ Ĳ
é©¬ æĸ¯
é² ¸
æŃ¥ è¡Į
ĠDu ke
çĶ¨ å¿ĥ
è¯´ æľį
Ġè½» æĿ¾
éĩİ çĶŁ
åıĬ åħ¶ä»ĸ
ĠéĴ »
e en
T ER
Ġåįķ çº¯
J ohn
çĽ¸ ç»§
Ġéļ¾ å¾Ĺ
è¿ĺ ç®Ĺ
ä¸ļ ä½Ļ
tra ck
; (
12 5
æĹ¶ ä»»
æĭį çħ§
çĲĨ åŃ¦
ric ts
ä½ķ æĹ¶
å¤ļ åĲį
äºļ åİĨ
éħĴ åĲ§
åľ¨ ä»ĸä»¬
Ġa id
æŀ ī
% .
E r
çĹħ æĥħ
æİ¨ çĲĨ
èĢģ èĻİ
åĽĽ åŃ£
åĨį çĶŁ
ĠEntertain ment
Ġç§ »
Ġå°Ŀ è¯ķ
é© ¼
æľ¬ èĥ½
ĠW isconsin
or i
ĠæĪĳ æĢķ
è§£ çŃĶ
Ġb on
å®ļ åĪ¶
ä¿¡ æīĺ
Ġçĥ «
é»ĳé¾Ļ æ±Ł
Ġparap hr
" "
Ġin tern
ĠT ok
Ġcomp onents
Ġç©º æ°Ķ
Ġr h
ĠåķĬ å¥½
æľĢ å¼º
æłĩ è®°
AT A
æĥ© ç½ļ
ir ty
ĠS ound
IS O
ĠBer lin
åĵĪå°Ķ æ»¨
ä»»ä½ķ äºº
p erson
Ġ Ì
äº² çİĭ
Ġp ure
Ġå¼ ¹
^ {
ĠåĲĥ èį¯
çļĦäºº éĥ½
Ġsym pt
å° §
Ġ4 6
åĢŁ éī´
ĠPri ze
ov a
Ġst ands
Ġpl enty
çĶŁåĳ½ çļĦ
Ġfav our
æħĪ åĸĦ
åľ¨ ç©ºä¸Ń
åĪĨ èº«
å°¾ å·´
éª¨ å¹²
æĩĴ å¾Ĺ
æľī ä¸ī
ä¹Ł å°Ĩ
ĠåĲĥ è´§
Ġæ´ ĭ
æĪĳ åıĪ
ĠA k
çļĦåīį æıĲ
ç«Ļ èµ·æĿ¥
Ġprocess ing
åħ¼ èģĮ
Ġseek ing
ç´§ æİ¥çĿĢ
Ġå¹¸ è¿Ĳ
Ġprogram me
çľŁå®ŀ çļĦ
åľ£ äºº
us er
ĠH ope
og en
2 80
éĤª æģ¶
åĲĮ ä¼´
Ġå¼ Ł
è¾ĥ å¤§çļĦ
åŁİå¸Ĥ çļĦ
ĠPhil adelphia
åıĺ äºĨ
å¤© ç¥ŀ
åıĺ æį¢
éĽķ åĪ»
Ġæ´ Ľ
Ġå¹¶ ä¸Ķ
Ġè®¡ ç®Ĺ
Ġprofession als
éģĵè·¯ ä¸º
p et
Ġ ä¾ĿçĦ¶
åĳ ķ
åħ¸ ç¤¼
Ġè® Ń
O b
è¦ģ æĬĬ
Ġå°ı ä¼Ļä¼´
ä¾Ľ çĶµ
ĠB rian
æ°´ åºĵ
å±Ĭ åħ¨åĽ½
çĢ ĳ
Ġstrateg ies
åŁİ ä¹¡
å§Ķ å±Ī
æĴ¤ éĢĢ
ĠA ccess
åĢŁ åı£
ĠPh oto
Ġinstall ed
ç¡®å®ŀ æĺ¯
m ath
ĠèĢĥ çłĶ
Ġw itness
ĠLit er
æ² ¥
æķĻ çłĶ
Ġassist ant
ĠæĪĳ å¦Ī
èµ° åĲ§
åºı åĪĹ
åĭĩ æķ¢
ĠD ark
r un
Ġre venue
Ġhe aring
Ġsent ence
Ġcou ples
ĠI ra
åıª éľĢ
Ġjust ice
Ġè®¾ ç½®
Ġmain tenance
åħĪ éĶĭ
åįł åľ°éĿ¢ç§¯
çĸ ¹
å¤§ ç¥ŀ
è¯Ń çļĦ
è¯¯ ä¼ļ
éĥ½ éľĢè¦ģ
å»º åĽ½
ĠåĴ Ķ
å¤§ ä½¬
Ġl os
åľŁ èĢ³åħ¶
å°± æŃ¤
æĹł åıĮ
ĠT al
å¯Ĩ çļĦ
b al
f ol
æłĳ æľ¨
ĠåĲ ķ
åŃĶ åŃĲ
åĨį ä¹Ł
Ġk ill
äºĨä¸Ģ åı£
M ar
çĪ± å°Ķåħ°
ç¥ĸ åĽ½
int on
ĠHar ry
ĠC ode
æĹģ è¾¹çļĦ
éĽķ å¡ĳ
åĪ¶ æĪĲ
Ġrep resents
ac on
ĠCamb ridge
Ġæľ Ŀ
æĮī æĳ©
å½© èī²
æģ¢å¤į äºĨ
é£ŀ èĪ¹
ĠBuild ing
å°Ĩ è¿Ļ
åĪĨå¸ĥ äºİ
h igh
æĪª èĩ³
åĨ³ è®®
h ow
ot al
æģŃ æķ¬
ĠS ant
Ġå¤ ¹
åĵ ©
åº Ĳ
èµŀ åĲĮ
Ġæ°Ķ è´¨
Ġfeed back
Ġun known
Ġt all
Ġèº ²
Ġå°½ éĩı
q l
ĠçĶµ æ±ł
Ġyou nger
Ġentire ly
æķĻ çļĦ
çī¹ èī²çļĦ
ĠäºĮ åįģ
æĶ¿æ²» äººçī©
åĬŀäºĭ å¤Ħ
Ġr ub
ĠçĽ ĳ
ĠInst ead
äºĶ åįĥ
è¿ĩåİ» çļĦ
æĽ´ å®¹æĺĵ
æĶ¿ åĬ¡
Ġdisc ount
Ġå´ ©
çĻ «
oc ated
çŁ¥éģĵ çļĦ
ä½¿ èĢħ
Ġpan el
ä¹Ł ç®Ĺ
è¿ĩ æ¸¡
çŁ¥è¯Ĩ äº§æĿĥ
Ġperform ing
Ġcr iminal
8 50
ãĢĭ :
åĪ°åºķ æĺ¯
Ġfre edom
çĥŃ çļĦ
åľĨ æ»¡
å¹³ ç±³
ä»ĭ è´¨
ĠæīĢ æľīäºº
Ġåħ¨ åĽ½
éĴ ¥åĮĻ
æĦŁ çļĦ
è¾ĥ é«ĺçļĦ
èĢ³ æľº
âĢĿ ãĢģ
Ġæľī äºĭ
æıĴ æ§½
æ¶Īå¤± äºĨ
m at
Ġåı Ķ
æķ° åĢ¼
Ġorgan ized
ĠRe f
å¤§ åĮº
ĠC ru
çļĦé«ĺ æīĭ
Ġm it
ĠF le
H R
èĢģ é¼ł
ä»¥ èĩ³äºİ
ç»´ å¥ĩ
Ġéª ¨
å½ĵ ä»ĸ
å¾ģ æĶ¶
åıĳ éħµ
æŀľ å®ŀ
ps on
å²Ľ å±¿
il it
æĹ© å®ī
Ġfe els
Ġr ul
ĠæĬ Ĺ
åĭĩ å£«
èİ ĵ
Ġplan et
per ty
Ġret ired
Ġh all
Ġm outh
çģ« è½¦ç«Ļ
Ġmod e
æ®ĭ éħ·
Ġl ux
æµģ æµª
Ġgood s
æ¡ ĵ
ĠçĪ± åĽ½
Ġposs ibly
æĳ© æĵ¦
æ¯ Ļ
æ¤ Ń
Ġt ournament
ä¸º æ°ĳ
ĠT ro
Ġfl ood
ä¸Ń æīĢ
æ³ķ å®ļ
Ġåį° è±¡
Ġsty les
ä¸Ĭ åŃ¦
ä¸ĭ ä¸Ģä¸ª
ch a
Ġ5 2
Ġè· ª
Ġèİ« åĲį
ĠCast le
åŁº éĥ¨
Ġwill ing
Ġè½¦ ç«Ļ
P ar
¾ æ°Ķ
Ġå¤ļ ä¹Ī
ard ens
Ġå¹¿ ä¸ľ
å¼¥ è¡¥
ĠS pr
å¼Ģ åĪĽ
éĹ¨ æĪ·
ol n
å¥³ å£«
æĿ¥ æī¾
åĩº æĪĺ
4 50
ä¾ ®
å¥ī çĮ®
ri p
åŃĻ åŃĲ
Ġperson nel
çĺ «
d r
å°ĳ è®¸
Ġres ource
äº¨ åĪ©
åħ¬ æŃ£
æ¶Ī æ¯Ĵ
ç»ĵæŀĦ çļĦ
Ġtrad ition
æīį è¡Į
åĵªæĢķ æĺ¯
ast ed
æĿ¿ åĿĹ
èĤ¡ å¸Ĥ
B y
æº ħ
åĨľæ°ĳ æĶ¶åħ¥
ĠC reat
æ°´ åŁŁ
èĢģ çĻ¾å§ĵ
ĠH ay
per or
å¹¿ éĺĶ
å¼Ģåıĳ åĮº
Ġeas tern
17 0
Ġsp aces
å¤´ çĹĽ
å¸Ī å¼Ł
ç§Ł èµģ
è¯± æĥĳ
è¦ģ ä¸įçĦ¶
ä¸į åĪ©
åıĳ éĢģ
g reg
æ°´ ç¨»
Ġçº¢ èī²
ä»ĸ ä¸İ
Ġn one
ov en
l ights
Ġl ose
æĿ¿ ä¸Ĭ
çĭ Ļ
ĠH ou
è· ĭ
ä½İ è°ĥ
ç¨³å®ļ æĢ§
ç«ĭ è¶³
åĨ· åĵ¼
om et
åĨį åİ»
" ).
ä¸º ä¸ŃåĽ½
Ġâ ĨĴ
åľ¨ åĨħçļĦ
ĠçĶ °
çĻ½ äºĨ
Ġhapp ens
ĠçĽ´ åĪ°
éļ¾ åħį
çĶŁçī© åŃ¦
èħ¹ éĥ¨
10 5
è®¢ åįķ
ĠB ib
åĽĽ éĿ¢
it o
ĠW at
Ġcap able
Ġord ers
Ġex ec
å°± è¯´
ä¸Ĭ å®ĺ
æĹł æķĪ
éĹ®é¢ĺ æĺ¯
Ġçİ° ä»£
å°ģ éĿ¢
Ġæ± ½
w ich
» ¿
ï »¿
Ġlarg ely
Ġform al
el d
se x
åĸ Ķ
æ³¨ åħ¥
çļĦä¸Ģ æ¬¡
æ±ĩ èģļ
Ġj oy
åĬłåħ¥ äºĨ
ĠC ub
é£İ åħī
ä½Ĩæĺ¯ ä»ĸ
æķ´ æķ´
Ġèº« ä»½
Ġsur f
ä¸Ģ åıĺ
ä¹Ŀ å¹´
èĬĤ çº¦
Ġ4 7
åī ¿
Ġä¸Ģ ä¼ļåĦ¿
p ool
åī Ķ
friend ly
Ġhost ed
a ud
äºĨä¸Ģ éģį
éĻ¡ çĦ¶
åİĨåı² çļĦ
Ġsustain able
Ġro se
Ð» Ð¸
Ġattack s
è¡Į è½¦
Ġdef end
ĠæĩĤ å¾Ĺ
çģ¾ å®³
r at
ĠV iet
æľºæŀĦ çļĦ
å·´ æİĮ
n ie
åıª æĥ³
Ġfe e
éĨĴ æĿ¥
ä¸Ń çº§
Ġoccur red
Ġæľº åľº
il ies
æľĪ çĲĥ
åĽł åŃĲ
æŃ¥ æŀª
Ġbro ken
ç¨³å®ļ çļĦ
ĠF ac
åŁºæľ¬ çļĦ
åĵĩ å¡ŀ
ĠTh ough
Ġne ck
Ġparticip ate
èĥ °
ĠçĦ ¦
å°± å¾Ĺ
ĠSt ock
ack s
å½ĵ åľ°çļĦ
å¾® è½¯
æĿĢ æĪ®
Ġman ner
Ġçŀ¬ éĹ´
åĩł åı¥
G ener
ãĢĤãĢĤ ãĢĤãĢĤ
par am
åīį åĪĹ
èŀº æĹĭ
ä¸Ģ æıĲ
Ġç» Ł
æĢķ æĺ¯
Ġc aught
è½¦ ä¸Ĭ
Ġa u
Ġsched uled
æĪĳ ä¸įæĺ¯
z ona
å¤§ éĺµ
ĠA ge
Ġun ion
O r
ä¼ĺ ç¾İ
Ġt aught
æł¼ å°Ķ
æĺ¯ ç¾İåĽ½
Ġro of
ä¸īä¸ª æľĪ
å°ı äºİ
çĻ½ äºĳ
åĮĹ å¤§
af e
æ°´ åĪĨ
90 9
Ġdec ide
ä¸Ģ æ¬¾
Ġdes ired
çľŁ æ°Ķ
Ġåģļ æ³ķ
ĠU t
Ġfact or
Ġç¬¬ä¹Ŀ ç«ł
er g
ç»Ħ çļĦ
Ġæī ¯
æĵį æİ§
åı¦å¤ĸ ä¸Ģä¸ª
Ġg ro
Ġto t
Ġé¥ ±
Ġprep are
å®ī ç½®
åıĭ è°Ĭ
çļĦ è§Ĵèī²
Ġ ä»Ķç»Ĩ
åľ¨ æĸ°
æĦŁ æĤŁ
ĠL yn
Ġimpro ved
ĠE ss
éģĵ åħ·
çıį è´µ
èĪ ¶
ĠÐ Ĵ
Ġè¯¥ æĿĳ
è¿Ļ çŃī
Ġg ender
Ġsign s
ç¼ Ķ
ĠæĿ ¿
æ°ĳ äºĭ
adu ate
ĠM att
å¤« å¦ĩ
ict ed
æĪĳ çĽ¸ä¿¡
Ġä¸į çĪ±
æ¹ĸåįĹ çľģ
å®ŀåľ¨æĺ¯ å¤ª
åıĹ å®³
ĠåĲ «
å¦Ĥæŀľ ä¸į
it i
um er
æĢ» äººåı£
Ġj e
ä½¿çĶ¨ äºĨ
The re
èĽĭ ç³ķ
ĠèĦ¸ ä¸Ĭ
ä»ĸ è¢«
Ġcollabor ation
ä¸į è§£
ĠB udd
Ġcook ies
åľ£ è¯ŀ
N BA
é«ĺ åİŁ
ĠéªĤ äºº
c ers
çļĦ çĲĨè®º
ĠB ox
èĢĮä¸Ķ è¿ĺ
Ġbo at
P D
Ġwould n
è°ĥ åĬ¨
Ġå¸ħ åĵ¥
ropol itan
ĠæĢ ģ
Ġ0 4
çļĦ æŃĮ
çļĦ çľ¼çĿĽ
ĠW ord
Ġè¸ ©
çĽ´ åįĩ
ail ed
ç¡ Ŀ
Ġè Ł
Ġè´ ¼
we b
ä¸Ģ åı·
ĠB at
éĢį éģ¥
ä¸ī çº§
ak i
æīĵ æī®
ĠéĿ¢ åĮħ
Ġdom estic
çļĦ èº«ä¸Ĭ
ut ers
Ġcommit tee
è¿Ļ åıª
ĠæĪ Ĵ
ä¹¦ åĨĻ
ç¬ĳ æĦı
Ġcl ar
Ġco al
èĮ ľ
ĠMe an
èĬĤ çĤ¹
æĬķ å½±
Ġpers pective
ĠæĶ¿ æ²»
Ġbir ds
Ġl ake
Ġè¿ĩ ç¨ĭ
åľ¨ å±±
Ġimpress ive
äºº å¯¹
å¾Ĺ åĪĨ
çľ¼ ä¸ĭ
Ġ5 1
c ies
Ġask ing
éĩĳ çīĮ
æµıè§Ī åĻ¨
ä¿Ŀ åį«
æĬ¥ ä»ĩ
ä¸¹ éº¦
ä½Ĩ ä¸į
èį£ èĢĢ
çļĦ åĩºçİ°
ĠæĹ¶ ä»£
æĻº åĬĽ
C PU
c ore
Ġå¤§ åĵ¥
Ġå¥½ åıĭ
å¸Ĥ çº§
ĠçĪ¸ å¦Ī
å°ı å°ıçļĦ
æľī æĦı
Ġv eter
åıĻ è¿°
ĠSing apore
Ġå¥½ æĦıæĢĿ
æŀ ķ
B ut
è·¨ è¶Ĭ
çļĦ éĩį
ĠP ers
Ġl ayer
ĠLew is
ä½ł ä¸įæĺ¯
è·¯ åı£
al ities
æ¯ı æľĪ
æĬ¥ å¤į
æĭ¥æľī ç§»åĬ¨çĶµè¯Ŀ
è®º è¿°
Ġconf irmed
Ġmanufact uring
9 16
éĺµ åľ°
æĹ ·
æ²¡ èĥ½
Ġsu it
ĠæĥĬ åĸľ
Ġh abit
å¤§ æ®¿
ĠPol ish
Q Q
Ġå®ĥ ä»¬
æłı çĽ®
ĠMed icine
åłª ç§°
are t
Ġä¸Ģ é¢Ĺ
ĠW ars
éª¨éª ¼
èĥ½å¤Ł åľ¨
Ġmed al
if er
re ll
Ġæ¶ Ĥ
åĨľæĪ· æķ°
åıĪ è¢«
çļĦ ä»·åĢ¼
Ġ ä¼¼çļĦ
çļĦ æķĻåŃ¦
Ġåº Ĩ
Ġçº §
Ġcol our
Ġpost s
åĪ» æĦı
Ġrec on
ĠM arsh
Ġåĩ ¶
ag a
Ġdeliver ed
åĩº åĽ½
è¯¥ å¦Ĥä½ķ
ä¸į åŃĺåľ¨
å¹¶ ä»¥
ä¸į èĤ¯
et ing
Ġé¢ľ åĢ¼
Ġcon cer
ĠBr ad
èĢģ åħ¬
ä¸ĭ æĦıè¯Ĩ
æĮī éĴ®
æĪĺ åĽ½
å¸ §
æľī çº¿
ĠK at
ç³Ł ç³ķ
ĠåºĶ çĶ¨
Ġs lic
éĶĪ éĴ¢
y ard
æĬ± æĢ¨
Ġpass ing
ĠThere fore
11 5
Ġä¸Ń åįİ
c s
ĠK ansas
çļĦ èĬ±
Ġè§Ĩ é¢ĳ
Ġcommit ment
ĠæĹ¶ åħī
çİ¯å¢ĥ ä¿ĿæĬ¤
éĩĮ æľī
Ġsuccessful ly
Ġå°Ĭ éĩį
ä¸» åľº
å®¹ åĻ¨
Ġç§ Ł
åħ¥ åŃ¦
åı¦ æľī
Ġsuggest ions
æĪĴ æĮĩ
f rac
æĥ ¶
Ġf ounder
ĠO N
å°Ĩ éĤ£
Ġå¨ ±ä¹Ĳ
Ġcharg ed
ĠH o
æĽ Ŀåħī
æĶ¾ ç½®
æĴ° åĨĻ
æ´Ľ åħĭ
Ġrece iving
ĠéĹ¨ åı£
è¡į çĶŁ
æĬ¥ èĢĥ
è¡ĮæĶ¿ åĮº
p ir
çĸ² åĬ³
is her
ĠçīĽ èĤī
Ð¾Ð³ Ð¾
åĴĮ æĿİ
ĠG arden
åĹ ¨
ĠæĿ ĥ
çļĦäºº æīį
ĠçĶŁ çĹħ
ĠæĹ© èµ·
Ġè¶ħ å¸Ĥ
Ġtown ship
ç µ
æ°´ åĩĨ
! )
cent er
çĽĳçĿ£ ç®¡çĲĨ
èĩª åľ¨
æļĹ ç¤º
ĠO cean
Ġé£Ł åłĤ
ĠL abor
Ġæµ ®
åĺ´ åĶĩ
ĠçļĦ æĺ¯
AR T
e per
æĥ ®
æĪĲ äº¤
çīĽ éĢ¼
ĠæŃĮ æīĭ
åıª å¾Ĺ
è¿Ĳ ç®Ĺ
rep rene
Ġtechn ologies
Ġhy p
Ġaut hors
æİ¥ è¿ĩ
Ġè¦ģ è¯´
è¿ĺæľī ä»Ģä¹Ī
Ġsub mit
çĸ¯çĭĤ çļĦ
ç»Ĩ èħ»
ĠçŃī å¾ħ
Ġä¸Ģ çľĭ
oc ument
æĹ¨ åľ¨
èĨ Ľ
ĠHol lywood
èĶĵ å»¶
ä¸Ń åŃ¦çĶŁ
éĢļ ä¿Ĺ
æ¼ ĵ
ĠèĴ Ļ
ĠCare er
æ¹¿ åº¦
9 13
éª¤ çĦ¶
ot ton
ra cy
ess age
æĪª åĽ¾
Ġturn s
Ġtest s
ä»ħ æľī
ĠçĻ½ èī²
å®¾ é¦Ĩ
çĶ¨ äºº
åĮĪ å¥´
Int el
? :
Ġå¤± åİ»
ĠéĹ º
å¾· è¯Ń
ĠPro duct
Ġå¤§ éĥ¨åĪĨ
å®Įåħ¨ æ²¡æľī
T ime
on der
è¿ĺ æĥ³
è¿ĺ ä¸įå¦Ĥ
ĠSt one
åĨħ éĺģ
oss ible
Ġt ur
åİ ķæīĢ
ĠS av
æİĴ æ°´
åĴĮ é«ĺ
ect ed
éĵ¶ åŃĲ
Ġé¡º åĪ©
åĽĽå·Ŀ çľģ
æĳ©æīĺ è½¦
è§Ĥ éŁ³
ĠSil ver
Ġfix ed
ĠäºĨ è¿Ļ
r ame
éķ¿ æŀª
ç¡¬ åĮĸ
å¯Ĥ å¯ŀ
Ġv o
åĮ» åŃ¦éĻ¢
æĥ «
åıį æĢĿ
å¿ĥ åºķ
éĵ¶ æ²³
ç²ī ç¢İ
ä¸Ģ æ³¢
Ġachie ved
Ġè¿Ļ æĹ¶åĢĻ
éĴ± çļĦ
è¿Ļä¸Ģ å¹ķ
Ġæĺ¥ å¤©
æıĲ åıĬ
æī§ æĶ¿
ĠPr im
äº¬ ä¸ľ
å¤§ æĺİ
Ġæĥ³ å¿µ
ĠçĪ ·
å¹½ é»ĺ
ĠD id
Ġco ordin
Ġpartners hip
em et
Ġcon clud
Ġconflic t
P T
äºĨ ä½ł
ä¸į å®¹
Ġä¸Ģ æŃ¥
ç² ª
å¹² çļĦ
Ġexpress ion
Ġå¤© æ´¥
ç´¢ å°¼
ç¿¼ ç¿¼
Ġfight ing
æķ ĸ
åŀĦ æĸŃ
æľº éģĩ
çĶļèĩ³ è¿ŀ
Ġinv ent
own ed
Ġåķ §
çĸ¾çĹħ çļĦ
è¢« åĬ¨
éķ¿ åīĳ
c n
b oy
Ġå®ŀ åĬĽ
ç«¯ çļĦ
ç«Ļ äºĨèµ·æĿ¥
çļĦå¤§ åŀĭ
Ġåħ °
å½ĵ å¹´çļĦ
æı į
ik ing
éķ¿ åŁİ
c ount
Ġlo an
if ts
ä¸ĩ å¹³æĸ¹ç±³
: Â¥
Ġadult s
Ġ ä½©æľį
ĠBar b
çĶŁ æ®ĸ
å½ĵ åģļ
éĩĳ åħī
æµ· åŁŁ
gor ith
åĲĪ ä¸Ģ
åį´ åľ¨
ä¹¾ åĿ¤
è¿Ļ å¥Ĺ
å½ĵçĦ¶ æĺ¯
y al
Ġexp ansion
çłĶ è®¨
ĠæĽ ¼
ä¹Ĳ è¶£
åģľ çķĻ
Ġmot ion
Ġass ociation
ck now
éĢĿ ä¸ĸ
ĠF act
U I
åĲĦ æł·çļĦ
äº¦ æľī
Ġåĭ Ĵ
Ð° ÑĢ
æ°´å¹³ çļĦ
Cl ass
ĠO ak
ãģ ª
è¶Ĭ å¥½
åıĳçİ° èĩªå·±
å®Ŀ çİī
Ġpand emic
, ,
Ġcomp rehensive
å°¼ å°Ķ
Ġçī¹ èī²
Ġclub s
Ġç¬ ¦
æĢĴ åĲ¼
ä¼ļ å¯¹
Ġé£İ æĻ¯
ĠæĢģ åº¦
h us
çł´ äº§
ç¡ķå£« åŃ¦ä½į
æĪĳ åıªæĺ¯
ĠS em
Ġhealth care
è¿Ļ é¦ĸæŃĮ
Ġæī §
ç³» æķ°
æ³¨ å®ļ
äºº é©¬
çľĭ å®Į
çĪµ å£«
åħī åŃ¦
ç²Ĵ åŃĲ
Ġéĩ ı
çĽĽ é¡¿
æĻļ é¥Ń
Ġå¥³ åŃ©åŃĲ
çļĦ å¥³äºº
è¿Ľ åº¦
Ġso le
Ġresearc hers
ĠDon ald
Ġatmosp here
åĸĿ æ°´
æĲħ æĭĮ
åĮĸ çŁ³
æĪĺ åĲİ
åģļ ä¸ª
Ġlands cape
Ĵ å¤´
çľŁ è¯ļ
æĿĥ éĻĲ
ĠTh ose
é»ĳ æ´ŀ
Ġofficial ly
ä¸»ä¹ī èĢħ
ĠMan chester
ĠUS B
ĠS yn
éĥ½ ä¸įèĥ½
aw ay
sec ut
å¤º å¾Ĺ
æĭ Ĥ
Ġag encies
æĭ¿ åĩºæĿ¥
Ġp ed
Ġfamil iar
Ġment ions
æľĪ äº®
åľŁ è±Ĩ
Ġn uclear
æĸ¯ é¡¿
å¸¦ ä¸Ĭ
æĢĿ ç´¢
èĮ ¹
å¥³ æľĭåıĭ
Ġå¥³ åĦ¿
EC T
æĹ¥ è®°
Ġro ot
è®® éĻ¢
éĻ· éĺ±
åĥ ļ
Ġr andom
éĴ ¾
éª Ĩ
ĠåĬŀåħ¬ å®¤
90 5
Ġè¯´ å®ŀè¯Ŀ
Ġg ained
éĴ Ŀ
Ġèĥ ľ
Ġdec ade
Ġdivid ed
i ary
å¾Ĺ ä½ı
åįĩ é«ĺ
æĽ´ é«ĺçļĦ
çļĦäºº åĳĺ
Ġfil ter
ann els
æĲŃ å»º
åıĹ äºĨ
éĹ® éĹ®
Ġorder ed
Ġsh ipping
ĠAnd roid
Ġå¹³ å®ī
Ġpract ical
èģĮ ç§°
Ġå¸¦ ä¸Ĭ
the w
æĽ´ å¿«
åĹ ¤
æīĭ åĬ¨
Ġvis ited
Ġç®¡ çĲĨ
çļĦ èĥ½éĩı
âĢ »
ä»ĸ æ²¡æľī
éĹ º
Ġl ie
ä¿¡ å¿µ
æĻ¯ è±¡
ĠéĿ¢ åīį
æľī ä¸Ģå®ļ
é¥² æĸĻ
ĠæŁ ³
åħŃ åįģ
ĠDe ad
Ġter ror
l ay
åľ¨ æľ¬
Go ogle
p ie
æĮĩ çļĦæĺ¯
å»ºè®¾ çļĦ
äº¤æĺĵ æīĢ
ĠK er
æĬ½ è±¡
ä¸įä»ħä»ħ æĺ¯
ĠJ enn
é¢Ĩ åľŁ
å¯¼ åĲĳ
ĠHistor ic
åĨ ī
ç§» æ¤į
å¹´è½» çļĦ
åĢ ļ
æĦı åĽ¾
å¹¶ ä¸įèĥ½
Ġexp ensive
ç¼ĺ æķħ
èĢĮ ä¸ĭ
å¹¶ åıĳ
æŃ¤ åīį
Ġparaphr ase
Ġb ands
åĩº åľŁ
ä¸Ģ è¾Ĩ
æµ· åħ³
ĠéŁ³ é¢ĳ
æİ Ĳ
ĠBro ther
åı¯ ä¾Ľ
ĠåľŁ è±ª
Ġå®Į æĪĲ
ä¸Ģ æĥ³
æıĲ éĹ®
åı¦ ä¸Ģç§į
æķ° åįĥ
Ġsupp osed
ĠçĤ¹ åĦ¿
Ġc rick
Ġè¾ĵ åħ¥
æ³ķ åĪ¶
éĴ» çŁ³
ĠèµĦ æºĲ
ĠD aily
çĶµ ç«Ļ
ĠèŃ¦ å¯Ł
ĠæĪ ·
æĬ± æŃī
çļĦ æķĻèĤ²
åİļ åº¦
æīĭ æĮģ
åħĭ éĩĮ
ĠN AS
æ¿Ģ æĥħ
Ġseem ed
æĪ· å¤ĸ
çļĩ åŃĲ
Ġç®Ģ ä»ĭ
Ø §
Ġè¶ ģ
Ġpl ate
åı¯ å°±
ĠN iger
é»ĳ çĻ½
åĪĬ çī©
åĩº èī²
Ġå¾Ī éļ¾
åºķ å±Ĥ
Ġmunicip ality
ig e
çĢ ļ
us es
æĬ¬èµ· å¤´
ĠAd am
Ġclos ely
at he
åĩł çĤ¹
æĪĳ ä¸įçŁ¥éģĵ
Ġç¨į å¾®
åĨħ èĴĻåı¤
æ· ĩ
ä¼¤ åĬ¿
çķĻ ä¸ĭäºĨ
ograph ics
å°±æĺ¯ ä¸ºäºĨ
ä¿Ŀ åħ»
Ġly rics
ord an
Ġ q
éĿĴ éĵľ
Ġç¥ŀ é©¬
ĠT reat
åıĺ æĢģ
Ġé¥ ºåŃĲ
ĠG reg
ä¸ĵ èĳĹ
æĹł ä¸Ģ
æķ´ å½¢
ä¸į å®Į
äº§ åľ°
Ġæī ¹
ä¸Ńåħ± ä¸Ńå¤®
åħ¶ä¸Ń ä¸Ģä¸ª
is ms
çľŁ çĲĨ
ç§ĳ å¹»
ç»ıæµİ æŀĹæŀľ
Ġcircum st
ĠM oon
éĥ½ è¯´
åĽŀ åĲĪ
è®¡ éĩı
æŃ» åİ»
Ġher self
èĿ ĻèĿł
ĠD om
ãĤ ¹
ĠèĪ ª
ĠCont rol
Ġph ase
ç±»ä¼¼ çļĦ
å¤© éŃĶ
åı¯ä»¥ çľĭåĪ°
åĳ½ ä¸Ń
è·ĳ äºĨ
å°Ĩ è¿ĳ
ä¸» è§Ĥ
ĠN ame
å¼ķ é¢Ĩ
æīĢåľ¨ çļĦ
é¢ Ĭ
ä¹ĭä¸Ģ çļĦ
åģ· è¢Ń
æģ ³
Ġ8 00
Ġqu iet
éĺ¿ æł¹å»·
ĠæĽ ¹
æŀľ æĸŃ
Ġnew ly
Ġçĥ§ çĥ¤
å¤ĩ èĢĥ
çŁ¥ æĻĵ
è´Ł éĿ¢
å§Ķåĳĺä¼ļ å§Ķåĳĺ
ç¿ ¡
åıĳçİ° çļĦ
Ġorgan ic
Ġsign al
ĠåĲĹ æĺ¯
Ġf est
å¸¸ è¯Ĩ
è± ģ
ĠC op
åħ» æĪĲ
ĠT ai
ĠC rit
Ð¸ ÑĤ
ä¸į çĽ¸
ĠèĹ ı
Ġadop ted
çļĦ æĪĺæĸĹ
Ġconvers ation
æľī è®¸å¤ļ
è½¬ åĬ¨
Ġsol ar
Ġå ļ
å¼ķ çĶ¨
ĠAtl antic
ä¼ļ è®©
Ġç´ ¢
per ial
ç¾İåĽ½ äºº
ä¾§ éĿ¢
éĥĳ å·ŀ
ĠFin ally
çļĦ åı£
Ġçľĭ å¥½
äºĨä¸Ģ ä¸Ŀ
Ġeval u
å°ģ å»º
å¥¥æŀĹ åĮ¹
ç§° ä½ľ
ç»ıæµİ çļĦ
riv es
æ¸¸ åĩ»
æķ£ æĸĩ
or ters
æŃ¤ åľ°
ä¿® ç½Ĺ
Ġprov ider
Ġex ternal
Ġæķ° åŃ¦
æĶ¾å¼ĥ äºĨ
ä¸ĭ è½¦
çĤ ĸ
Ġåĵª å¤©
Ġpar ish
åİŁ åħĪ
Ġinter pret
éĽ¶ ä»¶
éĺ» æĮ¡
Ġalle ged
å¤Ħ åľ¨
ç¿ħ èĨĢ
es h
éĢĢ å½¹
ä¸Ģ è¶Ł
è¿Ļ ä¸į
è¿Ļä¹Ī åģļ
Ġadd s
é«ĺ å³°
æī¿ åĬŀ
åĶĲ æĺĬ
ä¿® è®¢
åºĶçĶ¨ äºİ
Ġhy dro
åŁİ éĹ¨
æľī ç©º
è¿Ļ ç¾¤
äºĶ æľĪ
ploy ment
åĪĩ æĪĲ
ĠMag azine
ĠI l
èļ Ĭ
èı² å¾ĭå®¾
m o
æ¸ º
å®ī å¨ľ
w ing
å¤§ åıĶ
ĠB an
æīĢä»¥ åľ¨
ĠRev olution
å°± å¾Ī
å¤§ å°ĨåĨĽ
ik a
å¼Ģåıĳ çļĦ
å¹´ çº§
iam i
å·¥ä½ľ ä¸Ń
Ġfor g
Ġæ¢ ģ
åı¶ çīĩ
Ġå¸® å¿Ļ
ol ve
åĹ ľ
Ħ æ¦Ħ
ĠVill age
æľī ä½ķ
å°ı äºº
ä¸¤ åĽ½
çļĦäºº ä»¬
ĠP a
åı¯ è¡Į
éĢļ é£İ
Ġå®ŀ ä¹ł
ĠMay be
M e
ĠæĨ ĭ
Ġfif th
Ġsche me
Ġä¸Ģ éĥ¨
è¥¿ éĹ¨
ä¼Ļ åŃĲ
çļĦ å®¶ä¼Ļ
Ġè®° å¿Ĩ
çļĦ ç»ıæµİ
ä¸Ĭ çĻ¾
Ġfe es
ä¼ļ æĺ¯
Ġon going
èĴ¸ æ±½
èĭ Ł
çĴ ĭ
ĠMed al
ĠH ung
Ġç¥ŀ å¥ĩ
Ġtrans ition
i est
çļĩ å®«
Ġw alls
æŁ ¿
ç¢ ¾
ĠT ony
Ġå¤ĸ åįĸ
å¾Ĺ å¥½
æĬĹ è®®
Ġç« ł
ĠA h
ç»¼åĲĪ æĢ§
åħĭ èİ±
Ġs ample
åĨ³å®ļ äºĨ
çıį çıł
æĢĢ éĩĮ
Ġun less
å¥Ĺ è·¯
ĠMiss ouri
æĹł æīĢè°ĵ
çļĦå¿ĥ æĥħ
åħ¥ æīĭ
ç§ĳæĬĢ è¿ĽæŃ¥
Ġä¸ «
Ġä½ĵ èĤ²
ĠF arm
Ġgu ard
çļĦ æĦıä¹ī
èĩª ç§°
çĻ½ èī²çļĦ
Val ue
ĠM iller
Ġrec over
og ether
Ġlic ense
ĠSqu are
æĭ ½
ĠåĲ§ å¥½
äºĨä¸Ģ æĿ¡
Ġf ishing
åł ķ
æĬ Ĵ
Ġvers us
ĠTra il
Ġcy cle
Ġt one
ĠåĪĿ ä¸Ń
æµ· å¤©
åĽĽ æĸ¹
è§Ħ ç«ł
G E
å®Ĺ ä¸»
ĠæĢ» ç»ĵ
Ġrespect ively
ç¥ŀ ä»Ļ
æĶ¶ åıĸ
Ġå°ı ç±³
çļĦ ç¬ĳå®¹
åŁİ ä¸Ń
éĩįè¦ģ åıĤæķ°
èĨ ³
çĿģ å¼Ģ
åīį éĿ¢çļĦ
reg on
Â »
æ°ĳ èĲ¥
èĥ½åĬĽ åĴĮ
Ġsignificant ly
ĠF all
ĠN FL
åıĪ åĲį
ä¹° çļĦ
ĠLe on
ĠåĽ º
éķľ åŃĲ
åŃ ¢
åľ° å½¢
çģ« çļĦ
åİĨ ä»£
åĵ¦ åĵ¦
ĠAri zona
Ġè§Ĵ åº¦
Ġw at
et ch
tern oon
æĢİä¹Ī åģļ
æĪĳ ä¸ªäºº
åĪ© æģ¯
çĭłçĭł çļĦ
å®¹ çº³
ä¼Ĭ æľĹ
çĭĲ çĭ¸
Ġobtain ed
è® ·
S te
åĴ ļ
åıĪ æĺ¯ä¸Ģ
ist ant
10 2
ĠæĹł å¥Ī
å®īåħ¨ çļĦ
Ġæ¬ ¾
T ext
Ġi Phone
èº² éģ¿
æľº æŀª
æ¬¡ çļĦ
ĠåįĬ å¹´
ç¥Ń ç¥Ģ
ĠI V
è¿Ļæł· åģļ
è¿ĻäºĽ ä¸ľè¥¿
èĲ½ åĪ°
å¼Ģ è¾Ł
ç¥ ģ
o is
åĴĮ ä»ĸçļĦ
ä¸ĭ å±ŀ
st ract
æĬĺ èħ¾
Ġsu d
A Y
ä¸» åĬŀ
Ġå¤± è´¥
ĠåŃĺ åĤ¨
æĪĳ ä¹Łä¸į
ä¹Ł å¼Ģå§ĭ
é»ĳ çļĦ
Ġç²¾ å½©
Ġmass ive
æĿī çŁ¶
æŀĹ æŀ«
å¤± è¯¯
ĠT ax
æĭ Ļ
éĻ¢ å£«
ç§ ĥ
Ġåī© ä¸ĭ
ãĥ «
çķı æĥ§
Ġinnov ative
è¡¨ æł¼
å£° ç§°
ç¬ĳ äºĨèµ·æĿ¥
Ġinc hes
æ°¨ åŁº
h ar
ers ion
erv es
Ġæķħ æĦı
ĠIra q
Ġçľĭ ä¸įæĩĤ
å½ķ åĪ¶
æĥ³ åĬŀæ³ķ
çģ« åĬĽ
ä¼¤ å¿ĥ
éĿł çĿĢ
æĻ¶ ä½ĵ
ĠæĿ Ĳ
å¸ ľ
Ġte ach
Ġel imin
æİ¨ è¡Į
å¨ĺ å¨ĺ
Ġä¸» æĮģ
emet ery
Ġg rown
åİŁ è°ħ
æ½® æµģ
S R
æĶ Ĵ
ĠDo ctor
inc oln
U C
ĠCh ap
å¤± è¸ª
èĻ½çĦ¶ æĺ¯
æģĴ æĺŁ
æĦı ä¸º
çĶµè§Ĩ æľº
æĹłè®º å¦Ĥä½ķ
æµģ çķħ
å¤ĸ è¯Ń
åľ¨è¿Ļä¸ª æĹ¶åĢĻ
å¸Ĥ æĶ¿
æīĵ çĿĢ
v ar
ĠSe ver
äººä»¬ çļĦ
Ġfac ing
åı£ çļĦ
çĸ ¤
éģĹ è¿¹
est yle
Ġdes ire
ĠæĪĳ çļĦ
èĩªè¡Į è½¦
ĠMan ager
ĠçŁ ®
ĠèĦ ı
èµ¢ å¾ĹäºĨ
ĠæİĴ éĺŁ
Ġtal ent
å¯¹ åºĶçļĦ
Ġwh atever
å¸ĥ èİ±
å« īå¦Ĵ
è·Ŀç¦» æľĢè¿ĳçļĦ
è¿Ļ æ®µæĹ¶éĹ´
ĠHol y
æľī å¤§
åħĭ æľį
ç¡® ç«ĭ
!! !!
ĠéĢĽ è¡Ĺ
è¿½ æĿĢ
ä¸į ç»Ŀ
ä»Ģä¹Ī äºĭæĥħ
åĻ ľ
ä»»ä½ķ ä¸Ģä¸ª
Ġstat istics
9 01
Ġsupport s
Ġ è¿Ĳæ°Ķ
ä½ķ å¿ħ
è¯ķ é¢ĺ
æ¬§ çĽŁ
Ġr ural
Ġç»ı åħ¸
or ph
ĠæĪĲ éķ¿
éĺ¿ å§¨
åĩ¡ çļĦ
ĠMarket ing
é£İ åĲ¹
èºº åľ¨
ĠL ie
Ġcomp osed
Ġrel iable
ä¸Ĭ ä¼ł
Ġneg oti
Ġrep air
æĬ¤ å£«
èī¯ å¿ĥ
Ġfriend ly
Ġcapt ure
2 10
ag ues
è¯į è¯Ń
æľī ä¸įå°ĳ
äºĨ ä¸Ĭåİ»
çĹħ åıĺ
Ġè§Ĵ èī²
åĶĲ æľĿ
ĭ ¯
æ²» å®ī
writ er
' ]
Ġå¸Ĥ åľº
çļĦ ç»ĵæŀĦ
ĠAm ong
ĠCont in
çĽ ı
åīĳ æ°Ķ
åĩĢ åĮĸ
ĠB urn
äºĨä¸Ģ æ¬¡
çļĦ å¸Ĥåľº
ĠæĮ ¨
ä»¥ ä¸ĭçļĦ
éĻĦ ä»¶
çŃĽ éĢī
æºĲ èĩª
ĠZ h
Ġçī© ä¸ļ
Ġsett ings
æ¸ħ ä»£
æįķ æįī
Ġä¸Ģ ç¾¤
Ġæĸ Ĺ
on ia
åģĩ çļĦ
ĠåĴĭ æł·
ä¸Ģ å¿ĥ
å¥½ äºº
Ġpro ceed
Ġinter ior
å¼ Ī
åĵ º
ä¿Ŀ å¯Ĩ
å¥¥ åľ°åĪ©
Ġcl imb
ä¸¾ è¡ĮçļĦ
Ġm ac
æĺ¯ä¸Ģ ä»¶
Ġhundred s
éĶ Į
åħĭ å°Ķ
å®īåħ¨ çĶŁäº§
èģĶåĲĪ ä¼ļ
se ct
Ġéĺ ħ
æĬĺ ç£¨
éķ ¶
com es
Ġdeb t
Ġåĭĩ æ°Ķ
åħĥ çļĦ
èģĮ åľº
ä¿Ħ åĽ½
è¶Ĭ é«ĺ
è´¯ ç©¿
åŃ¦ éĩĳ
ĠOb ama
å°¼ å¥¥
çĶ¨ æ³ķ
Ġçº ¹
az e
æĹ¥æľ¬ çļĦ
æĩ µ
ä¸Ģ åīĳ
ä½ł è¿Ļä¸ª
ä»ĭ åħ¥
Ġåī ĳ
ĠåĮħ è£ħ
____ ____
8 80
è¥¿ åħ°
çº¿ æĿ¡
ual ity
Ġä¹ĭ ç±»
Ġv ast
ç«Ļ èµ·èº«
å¼ķèµ· äºĨ
Ġåį± éĻ©
Ġexper im
é© Ń
å²Ľ ä¸Ĭ
Ġequ ival
æ©¡ èĥ¶
è¯Ħ éĢī
Ġshoot ing
O ne
pro fit
æĽ´å¥½ åľ°
Ġsympt oms
åľ¨ åľº
åħ¬ å°º
çĦ¶ å¤§
ç» °
å°ı å°ı
Ġres olution
æĬĽ å¼ĥ
Ġæ¯ ģ
Ġdri vers
Ġæį® è¯´
Ġf old
ĠMar ia
re c
éķ¿ å®ĺ
Ġtyp ical
æ²³åĮĹ çľģ
ÃŃ a
å²Ĥ ä¸įæĺ¯
æĪĳ å°±æĺ¯
åŃ¦ åĲį
äº§ åĢ¼
Ġæ¬£ èµı
M M
å¥ ķ
çł´ äºĨ
p ed
ĠP rom
ä»Ļ åŃĲ
Ġte en
Ġdiffer ences
N G
Ġn ob
che stra
Ġè¥¿ çĵľ
æĮĩ çĤ¹
æĽ¼ èģĶ
ĠP ier
å¹² é¢Ħ
ĠT am
Ġåº §
Ġshe et
Ġwe ak
Ġsettle ment
è¿Ł çĸĳ
Ġput ting
ä½£ åħµ
ib ilities
å¯¹ èĩªå·±çļĦ
æ°¸ ä¹ħ
èĪĨ è®º
Ġpattern s
è¥¿ æĸ¯
Ġspe aking
Ġè´ ¢
Ġtext ure
å°± æĽ´
å°ģ éĶģ
èĥ½ ä¸º
ä»Ģä¹Ī ä¸ľè¥¿
æĪĳ çŃī
çī¹ æķĪ
åľ¨ æĪĳä»¬
åħ¨ æĸ°
æīĢ æľª
åľ£ åľ°
Ġwin ners
Ġarrest ed
ĠAr gent
æĵį çºµ
Ġparticip ants
st ery
ç»ĵ ç®Ĺ
åİŁ åĲį
Ġprom inent
çļĦ çģµ
os ition
Ġåĭ ¾
çĹħ ä¾ĭ
ä¸Ģ åı°
Ġsold iers
ĠçĨŁ æĤī
ä»ĸ æīį
ä¸¤ çĻ¾
ç¬¬ä¸ī æĸ¹
Ġlog o
ä¸Ģ å¤ľ
å¿ĥ ç¥ŀ
éħ ¥
ĠD og
æķĻ å¯¼
Ġl osing
å®Įåħ¨ æĺ¯
Ġl in
Ġm ail
éĢļ å¾Ģ
çī¹ åĭĴ
Ġæģ© çĪ±
ing ly
éĢī æĭĶ
åīĤ éĩı
ä¸Ģ åĩº
Ġm ine
åħī æĺ¯
åĢĴ åħ¥
çĴ ĩ
Ġ ä»½
Ġè¯ ±
Ġæ¯ Ĵ
Ġå½ ¼
ä¾µ çĬ¯
Ġäºº åĵģ
ç¾İ å¥½çļĦ
èĩªçĦ¶ çļĦ
å¾¡ åı²
åħ« åįģ
ĠR yan
éº» å°Ĩ
Ġadv is
é¦Ļ åĳ³
ãģ Ĺ
åª Ľ
çĹ °
ĠW inter
çļĦ çĶŁäº§
ens ed
ĠéĴ Ł
ĠéĢĤ åºĶ
Ġn arrow
Ġå°ı åĮº
Ġå®³ ç¾ŀ
' '
Ġf aster
åıĤ çħ§
ĠM it
ĠEn t
å¤ı ä»¤
ĠHis pan
åħ« åį¦
Ġre ar
ĠH art
é£Ł åłĤ
Ð° ÑĤ
è¯¸ ä¾¯
ä¸Ģ åĪĢ
Ġd ur
åįİ çĽĽé¡¿
Ġrec o
Ġf rag
Ġåĩº å·®
çĶŁæ´» åľ¨
æ¥¼ æ¢¯
é« ħ
ab s
ĠReg ister
åıĳ æİĺ
åıĺ åĬ¨
éªĮ æĶ¶
s um
è®© åŃ©åŃĲ
æ²¡ éĹ®é¢ĺ
æŃ§ è§Ĩ
å¤ļ åįĬ
u z
å¤ĸåĩº åĬ¡å·¥
ä¸Ģ è¨Ģ
ĠJ ava
æľĢ å°ı
Ġso il
ç¼´ çº³
A t
ĠP ur
çĥŃ éĩı
Ġåº ·
çµ ®
åįı åķĨ
è¯´ æĪĳ
ĠW H
æĪĲä¸º ä¸Ģä¸ª
å¤ĩ çĶ¨
cy cl
Ġleg end
æĥ³ åİ»
Ġtechn ique
Ġ ä¹ĭéĹ´
æ² ģ
æ³ķ åºŃ
ph p
Ġçī µ
æĺŁ çº§
Ðº Ð¸
ĠO S
éĹ´ æİ¥
å¾Ī å¼º
é² ¨
ä¾® è¾±
æĢ» å±Ģ
åİ¿ çº§
ĠSt ore
è¿Ļ é¦ĸ
æŃ£ å½ĵ
ç¤¾ éķ¿
é£ŀ çļĦ
å¾Ģ ä¸ĭ
12 1
ĠPat rick
æĿ¥ åĽŀ
ĠM ember
æĬĢæľ¯ äººåĳĺ
Ġå¨ ¶
åİĭ æĬĳ
ĠTra ck
Ġå±± ä¸ľ
è½¦ åŃĲ
ä¾¿ æį·
æłĩåĩĨ åĮĸ
ĠåĽĽ å·Ŀ
amb ig
Ġconstruct ed
æľĢ å¿«
åį´ ä¹Ł
æĺŁ æĺŁ
ĠNet her
Ġdom ain
æ¡ĥ èĬ±
å¯¹ å¥¹
å¹´çļĦ æĹ¶éĹ´
p ace
ä¸ļ ä¸»
æ¼Ķ ç»İ
å¾· åįİ
åı¶ éĿĴ
Ð¾ Ñģ
çļĦ äº²
Ġçł ģ
çĽĳ è§Ĩ
è¾ĵ éĢģ
ä»Ļ çķĮ
Ġgr ade
ĠN ations
ãģ Ł
au x
Ġfind s
Ġæ¸© åº¦
u zz
è¿Ļ æĶ¯
äºº æ°Ķ
Ġmed icine
Ġd inner
åĲİ ä¸ĸ
å°ĳ éĩı
éĹ» åĲį
Ġoper ate
( ).
ĠæľĢ ç»Ī
åĺī å®¾
Ġb ird
è¯´ ä»ĸ
è¿ĳ ä¹İ
ograp her
åħ¬ ä¼ļ
Ġand roid
å¹´ æ¯ķä¸ļäºİ
çĽ¸ å¯¹äºİ
çªĹ æĪ·
Ġæľī æĹ¶
éĴ ŀ
ĠæĬ Ľ
çº³ ç±³
ĠæŁ ĵ
æĬĬ æīĭ
Ġcl oud
èĲ¥ è¿Ĳ
äºĮ çĻ¾
æħ ĳ
é¥® æ°´
ç¼ħ çĶ¸
çļĦ åĳ³éģĵ
åıĺ éĩı
çķ ¸
st al
åī§ çĥĪ
åħĪè¿Ľ åįķä½į
åľ¨ è¯¥
ä¹ĸ ä¹ĸ
Ġdro pped
æľ¬ ä½ĵ
Ġ ä¸ģ
åľ Ń
ä¸º éļ¾
ä¸¤ åįĥ
çº¢ åĨĽ
Ġ/ //
Ġinj uries
ac her
ran k
ç¼© å°ı
force ment
t able
ç²¾ èĩ´
é¦ ħ
90 6
Ġrecogn ition
åļ ·
Ġéģ ¿
åº ĩ
ĠMr s
ĠåĪ Ĵ
çĥ¦ æģ¼
f in
åľ° éĹ®éģĵ
åĲĮ æĥħ
Ġcont aining
ç¬¬ åįģ
èİ« æĸ¯ç§ĳ
å¥½ åĩł
åŀ ®
åĳ½ é¢ĺ
æĺ¯åĲ¦ æľī
ĠçĶ³ è¯·
çİ¯ ç»ķ
ç¯ Ĩ
å®¢ æľį
çļĦä¸» é¢ĺ
Ġåª Ĵ
âĶĢ âĶĢ
æ¡Į ä¸Ĭ
ç»ĺ åĪ¶
ĠFin ancial
ĠR oss
èĬ ĭ
æĿ° åĩº
! !âĢĿ
åº§ ä½į
ĠL ink
åŁİ ä¸»
å¸Ī å§Ĳ
æ¹ĸåĮĹ çľģ
æĪ Ł
ok er
Ġcele b
Ġgradu ate
ä¸Ģ äº®
éľ ĸ
Ġconsum er
Ġthe rapy
å¯¹ ç§°
èĢģ å®¶
ä»ĸä»¬ éĥ½
åıĺ éĿ©
éĨ Ľ
åį¡ æĭī
ĠCont act
ĠN atural
åĲĳ ä¸ĭ
ĠéĢ »è¾ĳ
ä½İ çļĦ
é¢Ĩå¯¼ äºº
ĠæĹ© çĿ¡
en ch
èĮĥ çķ´
æ»¡ æĦıçļĦ
Ġç¡¬ çĽĺ
Ġm and
éŃĶ çİĭ
8 02
åıĪ ä¸įæĺ¯
åī¯ æķĻæİĪ
Ġgrant ed
N e
åıĳ æĶ¾
éĺ» ç¢į
ĠâĹ Ĩ
Ġbatter y
Ġass ert
Ġå¦Ĥæŀľ ä½ł
åħ Ģ
Ġ ÑĤ
æĪĳ çĶ¨
ä»ĸ è¿ĺæĺ¯
ĠE ver
Ġc ake
æĸ° åĮº
æĥĬ åĳ¼
ĠSwed ish
æ²» æĦĪ
å·® çļĦ
ĠæĹ© å®ī
éĤ£ä¸ª æĹ¶åĢĻ
Ġè¿Ļ éĥ¨
Ġinsp iration
Ġ0 9
ĠColle ction
Ġboy s
ä¸Ģ æĭ³
Ġäºº æīį
d ale
åĩ ³
èµ İ
å¹² æİī
ĠChe m
ä¸ī çŃīå¥ĸ
Ġcl othing
çļĦ èīºæľ¯
T O
èĢĮ çŁ¥
åģ¥ åħ¨
å¹¶ ä¸İ
åī§ åľº
ãĤ ĭ
ĠRem ember
æīĵ å·¥
ä¼¸ åĩº
éĩĳ å±±
ĠåİŁ æľ¬
N C
å¤§ åĶĲ
å¼ķ åĬĽ
ä¿ĥ ä½¿
ä»ĸ èĥ½
ile y
èĢ³ è¾¹
Ġval uable
åħ³éĶ® è¯į
ĠSystem s
ren cy
åĿĩ æľī
Ġæį¢ ä¸ª
ĠJan e
Ġcaus ing
ä¼ģ åĽ¾
æĥĬ äººçļĦ
ä¾µ æĿĥ
ä¸į çĶĺ
åį«çĶŁ éĻ¢
ĠAr thur
ç» Ĵæľį
ĠA ction
ç»Ħ éķ¿
è¡¨çİ° ä¸º
æ¿Ģ æ´»
ç»Ł é¢Ĩ
åħ¶ä¸Ń åĮħæĭ¬
èİ« éĿŀ
· é«ħ
åĪ°åºķ æĺ¯ä»Ģä¹Ī
Ġä¸ĩ ä¸Ģ
ind ex
.... .
ennes see
act er
1 12
éĢ »
åĩĨ åĪĻ
Ġw indows
æķ´ é½Ĳ
ä¸» å¹²
ound ed
æĹ© é¤Ĳ
ç½® ä¿¡
ug by
å½ĵ å±Ģ
Ġæ¨ ª
é¾Ļ è¾°
éĤ£äºĽ äºº
ä¿Ĺ ç§°
ic ate
ĠèĢ³ æľº
é«ĺ è¡Ģåİĭ
çļĨ æĺ¯
æĪĳ æĢķ
ĠN ever
ä¸ĥ æľĪ
Ġå·§ åħĭåĬĽ
ĠBe at
å°Ĩ å£«
è§Ĥ èµı
åįķ èº«
å®ģ æ³¢
Ġb odies
ä¸¤ å²¸
ç»Ļ åĩº
Ġå¹² ä»Ģä¹Ī
ĠMin istry
ä¸Ń äºº
Ġh am
æľĽ åİ»
Ġwhe el
Ġfound ation
ĠStud ents
Ġt ough
å°± ä¸įæĺ¯
ĠHou ston
OS S
Ġå¿į ä¸įä½ı
Ġgr ass
Ġext ension
æ¯ Ĺ
Ġme al
å°± åİ»
Ġå¤į æĿĤ
ĠG il
Ġoff ices
ĠåĻ ¶
ĠO pt
P L
j ava
æĶ» æīĵ
ĠS port
å½ĵ æĹ¥
å¥³ äººçļĦ
Ġmin i
æįŁ åĿı
8 90
çļĦå¤§ å°ı
Ġa cknow
éĵ ł
Ġä¸Ģ æ®µæĹ¶éĹ´
è¦ģ ä¸įè¦ģ
è¶ħè¿ĩ äºĨ
ĠKe vin
æĿ Ń
å¥³ çļĦ
Ġåĳ¨ è¾¹
Ġtrad ing
çļĦ åħ¬åı¸
éĶ Ĥ
åıĳ æĢ§
F ile
ar ia
åķĨ ä¼ļ
åħ¼ å®¹
åıĹ çĽĬ
Ġé¢ ĳ
æŃ¥ ä¼Ĳ
éĿĴ é¾Ļ
ĠFor mer
æŀģ åº¦
ĠæĪĳ åĪļ
èĩ Ģ
æĹ¢ æľī
f a
Ġæ¤ į
èĬ Ń
å¿ł è¯ļ
æĶ¹åıĺ äºĨ
ä¸į ä¸Ģå®ļ
èį «
Ġh at
åİ¿ éķ¿
ĠçĶ· ç¥ŀ
å¥³ åıĭ
æľīåħ³ çļĦ
ic ing
åĴ Ļ
ä¸į çĪ±
ra ine
æķĻ ç§ĳ
ĠèĬ± éĴ±
ĠO regon
åıį é©³
åļ İ
Ã ¢
ĠÐ ļ
Ġal t
ĠP it
i Ä
åº ļ
Ġå¹ ½
ä¸Ģ æĹł
èµ· ä¼ı
åĿ Ĥ
æĬĬ èĩªå·±çļĦ
æĸ° æīĭ
éĺµ èĲ¥
ä»» æķĻ
æ¼Ķ åĮĸ
Ġä¸ ²
Ġ ä½Ľ
ent le
ag en
Ġç ¦ģ
90 8
éĿŀ è¦ģ
Ġ ille
Ġwid th
Ġä¸º ä½ķ
" (
Ġass ign
pos ition
ĠP ack
Ġfil ed
ãĤ ¤
è¯´ çļĦæĺ¯
åĲ¯ çĶ¨
ĠÐ °
æĬĢæľ¯ åĴĮ
Ġext ract
Ġæ½ ĩ
ĠRet urn
à ¥
Ġçİ© çİ©
Ġ1 80
æĸ° åħ´
æĸĩ ä¸ľ
ĠæĴ ķ
é«ĺçŃī æķĻèĤ²
Ġä¸Ģ éĺµ
å¸¦ å¤´
ĠC a
èĩ³ æŃ¤
Ġ0 5
Ġè´ Ŀ
çĲ¢ ç£¨
è¾¹ ä¸Ĭ
Ġå¥½ åĩł
æĹł éĿŀ
æ¥ ·
æľ¯ è¯Ń
è°ĥ æİ§
éºĴ éºŁ
ä¸º æ¯ı
Ġ 98
æ¯ķç«Ł æĺ¯
l ow
åı£ è¯Ń
éĩį ç»Ħ
åĶ §
åĨľä¸ļ äººåı£
" ?
èıľ åįķ
æİ§åĪ¶ çļĦ
in cess
Ġè¢« åŃĲ
ĠSm all
æľī æĦıæĢĿ
åĪ¤ åĨ³
Ġconst ant
Ġap olog
ĠæĢĢ å¿µ
Ġæĸ ½
èĿ ´èĿ¶
ä¼ł åĩº
Ġth read
æĦıæĢĿ æĺ¯
çĽ¸ å·®
Ġbo ost
åı¯æĢķ çļĦ
Ġ ä¸ĵéĹ¨
åŃ¦ å§Ĳ
Ġå¤ļ æ¬¡
ä¸ĭ çıŃ
us ing
ĠAn ne
æ³ī æ°´
éħ± æ²¹
çļĦ è·¯
æ¢ §
æ¦Ĥ æĭ¬
Ġè Ŀ
åº ¶
ĠAdminist ration
Ġv ocal
ĠSwed en
çļĦ åĽŀçŃĶ
çļĦ è´¨éĩı
çŃī å·¥ä½ľ
ç¨į ç¨į
Ex ception
æ¨ Ĭ
è¿ľ æĸ¹
å¤ľ æĻļ
éĶĻ è¿ĩ
åĲİ æĿ¥çļĦ
ä¸ī æľĪ
Ġè· ¨
èº« æĹģ
å¤± çľł
æĬķ è¯ī
ç´¯ ç§¯
ĠH al
ĠPl us
æİ ·
Ġst opped
Ġsuff ered
L S
å¨ Ł
ĠCap ital
Ġéŀĭ åŃĲ
Ġact s
çļĦ æĢ»
ĠL ess
G e
åİĤ å®¶
ĠæĢ» ä¼ļ
çĽ´ å±ŀ
iz z
ä¹Łæĺ¯ ä¸Ģä¸ª
åįı ä½ľ
Ġtra v
UT C
æģ ¤
å¤ĸ äºº
Ġåĺ İ
äºī è®º
Ġéĥ ģ
äºĨ åķĬ
Ġv ess
Ġvot es
æ´ ½
é¦ĸ å±Ĭ
åĬł éĩį
æ¼Ķ åıĺ
ord on
é£ Ļ
Ġreg istration
éŀ ĺ
ĠMar c
åģ¶ çĦ¶
ä¹ĭ çī©
å¾® çĶŁçī©
p ost
ä¹ Ĵ
å°ĳæķ° æ°ĳæĹı
ĠH an
æİ¨ æµĭ
æİ§ èĤ¡
è®² å¸Ī
å¦Ī çļĦ
åĩĿ éĩį
Ġæĸ¹ åĲĳ
Ġdrug s
Ġçĭ ¼
å°± æĥ³
ĠB ry
Ġé¼ĵ åĬ±
ä¹ į
ĠF inal
ĠCh annel
åı¯ä»¥ è®©
ç®Ģ æ´ģ
ĠS U
Ġex cess
åħī çģ¯
ĠåĲĥ çģ«éĶħ
10 8
es ome
æĺİ ä»£
Ġ0 6
Ġå®ŀ è¯Ŀ
ä¸¤ è¾¹
Ġab andon
éļı æīĭ
ob s
Ġv ul
æĬĬ è¿Ļ
éĢł æĪĲäºĨ
Ġunder st
è¯´ èµ·
od a
èĬ± çļĦ
ç»ĦæĪĲ åĳĺ
å¼¯ æĽ²
Ġexpand ed
Ġ ä¿Ŀè¯ģ
Ġå¥¶ èĮ¶
èĩªçĦ¶ æĿĳ
ä¸Ń å¤ĸ
çĿĢ èĩªå·±çļĦ
Ġmy th
Ġaccess ible
or gan
ĠStud io
Ĥ èļģ
ĠC ulture
æµ· å³¡
Ġåĺ ī
åıĳ éŁ³
ä¾¿ ä¼ļ
è®® è®º
Ðµ Ð½Ð¸
Ġreg ul
å°Ĭ æķ¬
å¾®å¾® ä¸Ģ
Ġh oney
åİĨ ä»»
çĶ· æľĭåıĭ
çĳľ ä¼½
ĠS ab
Ġclass ical
Ġchalleng ing
od ing
é«ĺ å¤§
è¡Ģ ç³ĸ
Ġref ers
åģļ äºº
è¿Ļä¸Ģ åĪ»
Ġsing les
è®¸åı¯ è¯ģ
Ġ6 00
åĮĹäº¬ å¤§åŃ¦
c ons
ç¬ĳ å£°
ĠA T
åİ¿ äºº
æĺĨ æĺİ
Ġ äº¤æµģ
åħ¬ é¡·
æĸ° åįİ
èµĦ æ·±
åħ¨æĿĳ æľī
è§¦ æĳ¸
ç®ĢçĽ´ å°±æĺ¯
ĠSim on
ĠMod el
åŁºçĿ£ æķĻ
Ġf o
Ġ0 8
ä¸Ģ å°ı
äºĭ åħĪ
çļĦ çĽ¸åħ³
ĠFore ign
Ġliqu id
Ġs ight
Ġreg ulations
Ġåıĺ åĮĸ
g ener
æĢİä¹Ī èĥ½
ä¸ºä»Ģä¹Ī ä¼ļ
ĠPre vious
Ġrefer ring
Ġå§Ķ å±Ī
ä¸į èĥľ
çļĦäºº ç¾¤
Ġ ä¸¥
Ġdep ends
Ġmat ters
ĠL incoln
å» ĵ
qu arters
å¤© ä¸Ĭ
Ġcy cl
ĠH ur
Ġeng ines
èĥ ļ
Ġexpl ained
Ġlink ed
Ġhon est
ä¸į å¹¸
ĠR a
ç¯ĩ å°ıè¯´
åıĪ ä¸Ģæ¬¡
ian g
å¯ ¥
ĠR ub
ĠF ront
TM L
éķ Ģ
ĠåĿļ å¼º
R I
Ġp our
åĲ¬ è¿ĩ
çļĦ æĸĩåĮĸ
åĽłä¸º ä»ĸä»¬
Ġå¿ĥ ä¸Ń
Ġmom ents
è¿Ļ åı¯æĺ¯
ä¸ª å°ıæĹ¶
éĶ ¯
Ġco oper
èŁ Ĵ
) -
èĲ ĥ
Ġç»¼ åĲĪ
ĠG ree
éĤ ¹
å¥ĸ éĩĳ
Ġass ets
å¾Ī å°ı
ĠçĶ ©
Ġinstall ation
æĪĺ åĬĽ
åĮĸ èº«
90 7
å¨ĥ å¨ĥ
Ġå® ĩ
ell s
çĤİ çĹĩ
æļĤ åģľ
å®Ľ å¦Ĥ
å±± è°·
ĠAl tern
W eb
è¿Ļ æīįæĺ¯
åı¤ åŁİ
Ġèļ ĬåŃĲ
Ġb anks
åĬł å·ŀ
äº ¢
Ġéľ ĩ
åĲİ åĭ¤
èģĶ åĨĽ
Ġdel ay
Ġf asc
å°± èĥ½å¤Ł
åįķä½į çļĦ
Ġsud den
ĠR oom
åŁĥ å°Ķ
Ġtick ets
ç±³ åħ°
éĺ´ æ²ī
çĻ» åľº
Ġæļĸ æ°Ķ
ĠæļĤ æĹ¶
Ġ ä¼Ĺ
Ġavail ability
ä»ĸ å°Ĩ
çļĦäºº ç±»
ä½ł æĿ¥
éĢļ å¤©
åĮĹ æµ·
ç²¾ ç»Ĩ
Ġcomp onent
ç§įæ¤į ä¸ļ
çļĦ çŁ¥è¯Ĩ
az a
ĠS ix
è§£ æķ£
Ġéģ Ń
ä¹Ł éĥ½æĺ¯
Ġè®Ń ç»ĥ
ĠM iami
ä¸» å®°
Ġclin ical
v as
Ġpr ime
90 3
m ers
Ġå¼Ģ åıĳ
æĵ Ĥ
Ġeng age
ĠM ap
bs ite
sc ript
ĠåĪ ®
å®ĺ ç½ĳ
çī¡ ä¸¹
ĠR ight
è¾¹ å¢ĥ
ĠH ills
å®ļ å±ħ
Ġsubsequ ently
çļĦ åħ¶ä»ĸ
åı° é£İ
Ġcomp lic
èİ«åĲį åħ¶å¦Ļ
ĠCopy right
é¢ģ å¥ĸ
Ġpark ing
ĠI ss
åı¥ åŃĲ
åĢ¡ å¯¼
åĴĮ æĬĢæľ¯
ĠT ennessee
: ãĢĲ
å¤ĸ åĽ´
è®² è¯Ŀ
ä¸įä»ħ æĺ¯
Ġwith d
Ġè´ £
æĺĨ ä»ĳ
Ġwear ing
a ug
åįļ å®¢
ĠD ave
éħĴ ç²¾
ä¼¯ çĪµ
il ation
æī¾ åĩº
Ġéļı åĲİ
Ġdescrib es
ĠC ase
ĠN ob
Ġç¬¬ åįģç«ł
Ġaut hen
ĺ Ĩ
æľī éĹ®é¢ĺ
å®ī ä¸ľ
äºĭåĬ¡ æīĢ
å¤ļ ä¸º
Ġbuy ing
Ġexpress ed
è¯¸èĳĽ äº®
ĠJ oh
çŀ ¥
èĿ ĩ
Ġvari able
å®¢ åİħ
Ġåķ¦ æĪĳ
Ġåįģ ä¸Ģ
äººåĿĩ èĢķåľ°
igr ants
ch ild
æīĵ ä¸ª
å¨ ¥
é¢Ŀ å¤ĸ
ĠPak istan
çĲĥ çļĦ
Ġ0 7
end o
Ġå¤ª å¥½äºĨ
åĲĳ ä»ĸ
ĳ èıĩ
æīĵ æī°
ĠæĿ °
è©¹ å§Ĩæĸ¯
ambig uation
ä¼ļ å¯¼èĩ´
ro it
Ġæ¯ į
eder ation
H ome
èĬ ·
ĠV ice
ç²¾ éĢī
è¿Ļæł· çļĦè¯Ŀ
gr oup
ä¸Ń è¢«
å¹´ ä»¥æĿ¥
out heast
Ġra cing
ĠçīĪ æľ¬
} \
åĪ° ä½į
åĳ Ĺ
Ġtit led
Ġterrit ory
åī¯ ä¼ļéķ¿
ĠD or
çĤ ½
ĠPro t
ĠSen ior
æ³¡ æ²«
ĠB ab
æĪĺæĸĹ æľº
m ont
ĠA C
ac le
åı° éĺ¶
Ġ8 5
æ·¡ å®ļ
å®ŀåľ¨ å¤ª
i ac
ä¿ Ń
åĵ¥ ä¼¦
ĠInst agram
em an
or able
id en
ir ms
å¥ĳ çº¦
Ġal cohol
Ġf ranch
çĶ¨ ä½ľ
çĲĨè®º ä¸İ
ä¹ĭ ä¸»
ĠAd vent
è´ ®
è¿Ļä¸ª å°ı
ĠçŁŃ åıĳ
ĠF a
è§ģ è¯ģ
éĿ ¡
å¤ª åİŁ
ĠåĲĹ ä¸į
Ġ5 6
ĠAll en
ĠIndian a
Ġçĵ ¶
ol o
çĶŁ æľº
ĠN C
çĽ´ çº¿
é¥ ª
Ġb at
å·²ç»ı å¼Ģå§ĭ
4 80
ĠP ract
ĠJ am
æĭ¼ éŁ³
Ġcontrib ute
ĠåĬ ©
å¥½ èİ±åĿŀ
Ġag es
ä½Ĩæĺ¯ åį´
åĪļ å¼Ģå§ĭ
W ith
Ġ è¿½æ±Ĥ
Ġæ¥¼ ä¸ĭ
ĠåĬł åħ¥
Ġéĥ¨ åĪĨ
Ġexhib ition
åħī ç»ª
åŁİ åĨħ
Ġgu y
ed u
èĭ Ķ
ä¸Ģæ¬¡ æĢ§
è¿ĲåĬ¨ ä¼ļ
ĠP sych
è° į
çļĦ é£İéĻ©
r ide
çı Ģ
ĠT rib
åıĳ åĶ®
è¿ĺæľī ä¸ĢäºĽ
elt a
å±ł æĿĢ
Ġinf o
Ġsubst ant
ĠReg ional
ä¸Ģ æĬ¹
æ¯ı ä¸Ģæ¬¡
Ġtre ated
ĠMary land
ç¦ıå»º çľģ
åĽŀ æĿ¥çļĦ
Ġdang erous
Ġcompet itive
or ks
é¢Ħ æĸĻ
Ġprodu cing
Ġl uck
æµ· æ°´
éŃĶ é¬¼
ä¸Ģ ç¯ĩ
v ard
åĪ¶ä½ľ çļĦ
åĽłä¸º æĪĳ
åĨľ ä½ľçī©
åĪĩ åī²
å¹³ è¡Į
éĥ½ä¸į æķ¢
Ġæĺ¾ åŃĺ
ĠEar l
çļĦ å®¶
Ġfeel ings
éĤ£å°± å¥½
çĤ¼ åĮĸ
Ġåĵª æľī
åĲĮåŃ¦ ä»¬
H T
æĿĳ åĨħ
Ġcol lected
Ġexpert ise
çļĦ æ´»åĬ¨
ä¸Ģ è§ģ
æĪ ³
å¤§ çº²
èĪ¹ èĪ¶
Ġåĭ ¤
æĸĩ ä¹¦
çŀ »
Ġphr ase
èĦ ĸ
ĠçĤ «
æ½ľ èīĩ
æĤ² ä¼¤
Ġsecond ary
Im age
ĠPol and
Ġt asks
ĠP ut
Ġè¿ĩ æķı
Ġéĵ¶ è¡Į
un ct
ĠD ur
Ġemploy ment
Ġconsum ers
Ġpresent ation
Ġè½¬ åıĳ
Ġclos er
è®º è¯ģ
é¢ĩ æľī
éĹ¨ æ´¾
Ġliter ary
f ront
å°± èµ°
æĪĳ æīĢ
å¸ĥ å°Ķ
éĶģ å®ļ
% ãĢģ
å¹´ å¹³åĿĩ
Ġch opped
ĠåķĬ åĹ¯
at in
l ah
Ġ} );
åºŁ çī©
ĠæŃ¤ åĪ»
ĠS in
åŃ¦ éķ¿
Ġse eds
ĠNether lands
ĠI S
çİĭ åºľ
æ´Ľ æĿīçŁ¶
Ġdoll ars
æĢ» æķ°
æ© Ħæ¦Ħ
ĠG un
Ðµ Ð¼
// //
ab et
Ġcreat es
] [
Ġæİ Į
Ġcontrib utions
ĠPolit ical
Ġæ·¡ å®ļ
ç» ħ
è¦ģ åģļ
çĶŁ çģµ
äºº ä¹Ł
çĭ °
é¢Ĩ åľ°
åľ¨ å°ı
è¿½ è¸ª
ĠR E
Ġcr ash
ĠçĶ ĺ
Ġdoub t
o a
Ġre action
å¾· å°Ķ
å¤ĸ å½¢
ĠåĲĥ é¥±
ĠM unicip
çļĦ çº¢
åīį éĶĭ
èĩªæĿ¥ æ°´
ä¸ĭ å·´
Ġconf idence
Ġå¼º å¤§
Ġresist ance
çĶ» çļĦ
ĠæĢĿ æĥ³
i ors
æį¢ æĪĲ
Ġaf ternoon
Ġåı ¥
Ġrem ote
é¢Ŀ å¤´
æīĢ éķ¿
ag an
ĠèĢĥ å®Į
ĠS P
Ġnov els
åĲĮæĹ¶ ä¹Łæĺ¯
åį³ä½¿ æĺ¯
æĥ ļ
ĠWh it
æ¯Ķè¾ĥ å¥½
Ġautom atically
åĸĥ åĸĥ
ç¿¡ ç¿ł
æ¾ Ī
æģ¶ åĬ£
Ġrep utation
Ġstre ets
çļĦ ä¼ĺåĬ¿
ĠT en
åĪĨ åĮº
Ġä¸Ģ çīĩ
åıĹ æįŁ
åĨľ åľº
ä¸¾ æĬ¥
Ġemploy ee
d i
åı¬ éĽĨ
æĺ ¨
12 3
Ġtra ined
æĢª ä¸įå¾Ĺ
Ġmark ed
ä¹Łä¸į çĶ¨
å¹¸ å¥½
ĠKore an
if orm
æĳĦ åħ¥
çļĦéĩįè¦ģ æĢ§
Ġåıĭ åĸĦ
å· į
åĽł æŀľ
ä¼ł è¾¾
åĨħ åľ¨
å¸Ĥ ä¸Ńå¿ĥ
Ġpric ing
æĺ¥ èĬĤ
D es
ä¹Ĳ è§Ĥ
ĠéĶ ģ
Ġh ref
æ³ķ äºº
åı¯ä»¥ çĽ´æİ¥
çıŃ çº§
Ġem pty
Ġæģ ¢å¤į
çļĦ èĦ¸ä¸Ĭ
ra it
Ġreturn ing
Ġå» ¶
1 90
ic ide
ä»¥åīį çļĦ
Ġp hen
N N
å®Ī åį«
Ġconf ident
åħ¨ éĿ¢çļĦ
æŃ¤ ç±»
è½¬ çľ¼
ang er
çĶ· åıĭ
æĬĬ è¿Ļä¸ª
ĠèµĦ æł¼
Ġintrodu ction
éģĵ å£«
çıį æĥľ
Ġæµ Ļ
äººå·¥ æĻºèĥ½
Ġimplement ation
èµ· æŃ¥
Ġint elligence
ä¿¡æģ¯ çļĦ
çĸĹ æķĪ
æĢ» åħ±
ĠLim ited
Ġguid ance
M T
è¯Ŀ è¯Ń
åĩº èī²çļĦ
åĥ »
ä¸Ģ éĹ¨
æ¨¡ åħ·
å¤º åıĸ
ĠåĲĵ äºº
r ate
åĨĻ åŃĹ
æŁĵ èī²
Ġperman ent
Ġåĩ ¡
ĠçĿ¡ éĨĴ
ĠæĳĦ åĥı
åĲİ åĨį
é¡¶ ç«¯
ç¨ĭåº¦ çļĦ
è½¨ è¿¹
Ġmag n
Ġdefe ated
èĢĮ ä¸Ĭ
å¤ĸ çº¿
è¯ķ æİ¢
Ġcircumst ances
åľŁ è±ª
Ġsal ad
Ġä¸Ģ å¥Ĺ
ol is
å¯Į è´µ
å®ļ ä»·
Ġch annels
åĲī å°Ķ
ĠéĶ Ģ
ĠStand ard
ä¸Ĭ çľĭ
å®¶ åįıä¼ļ
è¶ģ çĿĢ
ĠæľĢ ä½³
ç¼© çŁŃ
åĮ ķ
ast ing
æ¬¢ åĸľ
ä¸ºä¸» çļĦ
Ġa x
é«ĺ é«ĺ
Ã© n
çħ¤ çĤŃ
á ĥ
oc racy
æ¯Ľ çĹħ
ĠW olf
å¤ĸ éĿ¢çļĦ
Ġdiscuss ed
Ġgradu ated
Ä ĥ
èķ Ĭ
ç»´ æĸ¯
è¿ģ ç§»
Ġth in
åħĶ åŃĲ
Ġæ¡Ī ä¾ĭ
ut ies
ĠB ed
å¸Ŀ çİĭ
Ġåľ° çĲĥ
N et
ou rag
Ġg olf
æµ· åºķ
Ġk il
Ġå®£ ä¼ł
Ã ¸
Ġin h
åĿĲ çĿĢ
Ġdesign er
é¥® çĶ¨
ä¹³ èħº
ĠåĨ ł
Ġres c
æ®ĭ çĸ¾
Ġé¦Ļ æ¸¯
ĠæĬĢ èĥ½
èĢħ åĴĮ
éŃĶ æĹı
çľĭ å¥½
qu ality
æīį èĥ½å¤Ł
äºĨä¸Ģ ä¼ļ
æ±Ĥ èģĮ
èģĮä¸ļ çĶŁæ¶¯
ä¹¦ åºĹ
æ¸ħ æĸ°
æĿ¨ å¸Ĩ
å®ļ å¾ĭ
90 4
Ġend ing
Ġreport ing
Ġdog s
o en
Ġä¸Ģ åľĪ
ä½¿ äºº
Ġè¿Ļä¹Ī ä¹ħ
Ġindust ries
è´¦ åı·
m i
å°± è®©
æ²ī åĲŁ
AT E
ĠH as
Ġ5 4
å°ıå¿ĥ ç¿¼ç¿¼
æ¶Ī æķ£
ä¸ª åĪ«
Ġ2 50
ä¸į åºĶè¯¥
ang le
ĠåĬł ä¸Ĭ
Ġinvol ves
Ġrecip es
èĩª è¯Ń
ä¸Ģ æŀļ
ĠE mm
ĠPro te
çłĶç©¶ ä¼ļ
ĠAb b
æİĮ éĹ¨
ĠDo es
æľĪ åľ¨
ç«ŁçĦ¶ æĺ¯
¥ çĲĲ
æ¦ ¨
åĤ¬ åĮĸ
ĠMat thew
Ġå¯Į å¼º
çŁ¥éģĵ èĩªå·±
å¾Ģ æĿ¥
æ²ī éĩį
çļĦ æĢĿæĥ³
ä¹Ł éľĢè¦ģ
ĠåŃ Ł
ert o
è°Ī è¯Ŀ
ãĢĤ âĢĶâĢĶ
æĭ¿ æĿ¥
Ġclean ing
æĸ° å¹´å¿«ä¹Ĳ
çĴ Ĳ
Ġb oot
Ġå¸ Ŀ
ĠæĹł æīĢè°ĵ
è¿Ļ ä¸ĭ
éª ¸
ĠåĽ¾ä¹¦ é¦Ĩ
Ġre aching
æĢĢ å¿µ
ç° §
Ġèĭ± åĽ½
åģļ ä¸įåĪ°
ĠæĪĳ æĥ³
ä¹Ĳ åĽŃ
æĥĬ æģĲ
ĠæĽ´ åĬł
åĻª éŁ³
çļĦåľ° æŃ¥
ĠDie go
æŁĶ è½¯
åı· ç§°
ĠçĽ¸ å½ĵ
ig ger
æıĴ åħ¥
Ġæ¸¸æĪı ç±»åŀĭ
u v
Ġnet works
ĠSar ah
ĠPrem ier
Ġç»ĵ å±Ģ
æĿŁ ç¼ļ
çľ ·
æ¸¸æĪı åĲįç§°
æ£Ģ ç´¢
åĬ¨ çĿĢ
åīį éĢĶ
è¯¥ åľ°
as hed
çĥ ·
Ġå¯¹ éĿ¢
Ġä¸įè¦ģ èĦ¸
ç¹ģ åįİ
Ġmess ages
çĤ ³
ä¸Ģ é¦ĸ
è® ³
åĴ Ķ
åĩº åħ¥
ĠH ind
çł Į
çļĦ çĪ±
æľī å®³
é» ¯
æĺŁ äºº
è¯´ åĩºæĿ¥
ĠB ow
è¶ ¾
ĠCh o
å¾® æ³¢
Ġæ½ ľ
Ġ il
å¤§ çİĭ
l ength
Ġä¸Ģ çľ¼
Ġåħ¬ éĩĮ
Ġaware ness
Ġh its
Ġst unning
è®© åŃ¦çĶŁ
èĬ± çĶŁ
Ġçľ¼ åħī
ä½ł ä»¥ä¸º
ĠS earch
å¿ĥ åĬ¨
åĶĲ ä»£
Ġéģ ®
åĢĻéĢī äºº
Ġo cean
ä¸¤ä¸ª æľĪ
Ġinter face
c d
Ġcook ed
åİĨ ç»ı
åı¯ä»¥ éĢīæĭ©
æĿĢ å®³
Ġå¢ Ļ
èĲ ±
Ġæ¨ ±
éĢĥ ç¦»
ĠYe ah
ä¸į å½ĵ
Ġé Ħ
Ġä¸¾ æĬ¥
ĠSchool s
ĠHaw ai
å¯¹ ä»ĸä»¬
åĲį å£°
Ġs ad
Ġfurn iture
Ġä¸Ģ éģĵ
Ġlo op
è¿ĳ æľŁ
èµ° å»Ĭ
ck er
åıĮ çĽ®
ä¸į æİī
åĪ° æľĢåĲİ
åĴĮ èĩªå·±
æł¸ æ¡ĥ
Ġç¾İ ç¾İ
Ġscient ists
åĨħ å¿ĥçļĦ
æĸĩçī© ä¿ĿæĬ¤
Ġâ ĺħ
åļ ¼
Ġcop ies
å¤§å®¶ çļĦ
çĤ® å¼¹
ĠåĪ Ĺ
æļ ĩ
Ġé«ĺ éĵģ
Ġçľ¼ éķľ
ĠåĿĲ åľ¨
åıĪ ä¸į
ç»Ī ç»ĵ
ER S
ĠåĬ¨ åĬĽ
Ġinvest ors
ĠAg ency
S QL
å®ī å¿ĥ
ĠTe xt
Ġdestroy ed
ä»ĸ æīĢ
åĪ° äºĨä¸Ģ
å°¼ åħĭ
éľ¸ éģĵ
Ġcut ting
éķĩ åĮº
ä¸į èµ·æĿ¥
æ¢ ĵ
Ġrelig ion
ç« £
ĠTra vel
Ġdocument ary
Ġåıĳ è¡Į
Ġle ct
æµ© çĦ¶
' );
ä¸ĢçĽ´ æĺ¯
Ġæį ŀ
ä¹Łæ²¡ ä»Ģä¹Ī
çļĦ åĦ¿åŃĲ
ĠéĻ Į
èŀ Ĥ
D I
ĠC ry
èĢĮ è¿Ļ
æĢĴ çģ«
ĠåĬ¨ ä½ľ
Ġturn ing
T e
rop ical
åľĪ åŃĲ
ĠCap tain
Ġæ²³ åįĹ
éĩĮ äºļ
æĦıä¹ī çļĦ
ĠçŃ¾ åĲį
ĠI mm
Ġfac ed
Ġsurg ery
ä¸ĭ è¾ĸ
Ġin ner
è¿ĻäºĽ éĥ½æĺ¯
èĥĮ ä¸Ĭ
æĭįäºĨ æĭį
åĲĪ èĤ¥
art s
H A
ä¸į åģļ
ĠæĪĳ æĺ¯
ĠOffic er
V I
äºĨä¸Ģ çķª
ĠåĳĢ æĪĳ
Ġappreci ate
ä»ĸ åį´
æģ ķ
ä¹ĭ çİĭ
å¿ħ å¤ĩ
Ġport ray
ĠçļĦ åĵĪåĵĪ
éĤ£ åıª
çĭ ©
éĿ¢ åħ·
éģĩ è§ģ
© æ¢¦
ĠSe ction
Ġpolit icians
Ġdes k
el lect
éĻ¢ çļĦ
Ġè£ħ ä¿®
0 30
; "
åĲĮ ç±»
åºķ éĥ¨
Ġag ed
åĩ ¿
éĺ ª
Ġèĥ Ĩ
æĹł è§Ĩ
Ġl ights
Ġle mon
çľĭ ä¸įè§ģ
äºĭ åĲİ
Ġæ³¨æĦı å®īåħ¨
æĮĩ è´£
Ġè¢ ģ
è®² åº§
Ġæ´ ¾
åĩł åįĥ
éĻ¤ æŃ¤ä¹ĭå¤ĸ
ç»Ħ ä»¶
fl ow
Ġåı ²
Ġbus y
c at
äºĮ æĪĺ
æ±ī åŃĲ
ĠéĽ¶ é£Ł
ä»ĸ è®¤ä¸º
ĠF red
Ġreco very
Ġp ump
è¿ľ éķľ
è¯Ĺ è¯į
å¾Ĵ å¼Ł
ed ing
è½¬ è¿ĩ
èĭı æł¼åħ°
æĪĳä»¬ æĺ¯
åıĹ ä¸įäºĨ
ä¹Ł éĿŀå¸¸
æĶ¾ åģĩ
Ġsit ting
æ²ĥ å°Ķ
åĢĴ éľī
Ġj azz
red it
ĠéĢģ ç»Ļ
æª Ĳ
B L
Ġåĩº åıĳ
AT ION
åĨ ķ
è¿ĺæĺ¯ åľ¨
Ġgu ys
Ð² Ð°
å¥¥æĸ¯ åį¡
Ġä¸į åĨį
Ġp apers
åľ° æĿ¿
Ġèĭ± éĽĦ
| |
Ġhouse holder
æĶ» çķ¥
Ġè¿Ł åĪ°
æĺ¯ä¸Ģ éĥ¨
å½±åĵį åĪ°
çĦ¦ çĤ¹
Ġcontrib uted
è¶Ĭ åıĳ
Ġw al
Ġ ä¸´
ĠN a
äº² æĪļ
ä¸ĭæĿ¥ äºĨ
æĺ¯ æ³ķåĽ½
ar io
åŃ¦éĻ¢ çļĦ
M icro
Ġ1 10
ĠR oy
çĭĻ åĩ»
ä¸º æľ¬
ĠHar ris
amp s
Ġd ies
å¸¦ èµ°
Ġtransl ation
y ers
è¡Į äºĭ
Ġç´¯ æŃ»
åĩł çİĩ
Ġé«ĺ çº§
éĹ¨ åīį
çķ¥ å¾®
ãĢģ ãĢģ
æīį åıĳçİ°
æ²¸ èħ¾
Ġt or
æľĿ éĺ³
ä¸Ģä¸ª äººçļĦ
n ed
Ġdes cent
c ul
çŃī å¤ļç§į
ap h
èĢĥ è¯ģ
çģŃ äº¡
Ġconcern ed
çģ¿ çĥĤ
äº§åĵģ è´¨éĩı
ĠèĤ Į
Ġéķ¿ åıĳ
Ġå®¢ æĪ·
ĠM un
åľ¨ èĩªå·±çļĦ
æĹłæķ° çļĦ
ä¾į åį«
çĭ° çĭŀ
è§ ħ
ol ly
ç½ĳ çĲĥ
Ġbl end
ä¸Ģ è¡Į
é«ĺ æ¸ħ
å¯¹ è¿Ļä¸ª
Ġèĩª ä»İ
çľŁ ç©º
ĠBe aut
æĿ ŀ
Ġch apter
Ġoppos ite
F i
çľĭ ä¹¦
Ġde als
åĤ į
è¿Ļ åĩłä¸ª
éĢļ è½¦
ĠM ethod
ict ional
çĶµå½± çļĦ
é¥² åħ»
ter ed
åĪĽéĢł äºĨ
åĩŃ è¯ģ
ç©º çĻ½
èĥĮ åıĽ
Ġ$ \
ĠTh us
ĠåĪ° äºĨ
å¤© çļĩ
ç²¾ éĶĲ
Â ±
Ġå° ¼
Ġpl ug
äºĮ æīĭ
ult s
çİ¯å¢ĥ çļĦ
çĽ®åīį çļĦ
ĠEd ition
ov es
åĲĮæł· æĺ¯
ä¿ĿéĻ© åħ¬åı¸
ĠI owa
åĵ¼ åĵ¼
ä¸į è¢«
èķ ĥ
è¿Ļ åı¥
Ġb omb
ä¸įåĲĮ äºİ
Ġè¿Ļ å°±æĺ¯
ĠJ ordan
8 60
çļĦ åıĳçĶŁ
å¥½ åľ¨
ĠB uff
åģľ ä¸ĭ
Ġscen es
ä»İ åīį
çĿĢ èĩªå·±
ç½ĳ æĺĵ
éĺ² çº¿
Ġe ating
å¾Ĺ åĲį
æ³¢ æĸ¯
è¿½ åĩ»
Ġpercent age
çªģ åĩ»
æľ¨ æĿĲ
Ġz one
C o
æķĮ äººçļĦ
ĠC amer
ĠA z
å¯¹ çŃĸ
åĺ Ģ
Ġ5 3
Ġen able
Ġw ave
å¥½ æŃ¹
Ġtw enty
Ġä»İ å°ı
ut her
b rid
Ġal gorith
åĲ¯ åıĳ
éģ¿ å¼Ģ
å®ŀ åľ°
Ġatt ached
Ob ject
Ġåį ı
gh an
åħµ é©¬
Ġå¤ «
ĠE vent
Ġst orm
Ġæĥħ äºº
dis ambiguation
éĽ· çĶµ
Ġsever e
ä¸įåģľ çļĦ
ĠåĲĪ ä½ľ
) );
æĻĭ çº§
Ġ ä¸ĸ
é¢ Į
ĠQue ens
æľīæķĪ åľ°
Ġèĸ Ħ
äºĨ å¥¹
Ġm al
åĽł åħ¶
å¸Ī èµĦ
ç«Ļ çĿĢ
æį¢ ä¸ª
å¦Ļ çļĦ
çľ¨ çľ¼
äºĨ ä¸ī
ĠE lement
10 3
ĠNot able
ä¸Ĭ æĺ¯
è½¬ åĮĸä¸º
Ġ5 8
Ġread er
Ġçķ ª
éĻ· åħ¥äºĨ
æį Ĩ
äºĳåįĹ çľģ
å§ĭ å»ºäºİ
Ġweap ons
Ġro yal
Ġis ol
æµ· çĽĹ
å± İ
æŃ» äºİ
åľ¨ é«ĺ
app ed
ĠRec ord
åį ī
ä¸į éĶĪéĴ¢
ĠB arn
æĹł æĥħ
åĪº åı²
ze ch
ãģ «
åĻ¨ æĿĲ
ä¹ĭ æĹħ
ĠMex ican
çļĦ éĹ®éģĵ
æĪ İ
Ġresult ed
ä¸Ģ è¯į
å¤§ çģ«
æĿĢ æ°Ķ
Ġä¸į åĥı
ĠSt ill
é¢Ħ å¤ĩ
Ġf olk
Ġbe ar
ä¸ªäºº ç®Ģä»ĭ
C ar
åįı åĲĮ
åĽ¾ çļĦ
çŁŃ æĹ¶éĹ´åĨħ
ok ing
çİ°åľ¨ å·²ç»ı
on na
èģļ ä¼ļ
ĠäºĨ åĵĪåĵĪåĵĪåĵĪ
Ġçİ »çĴĥ
Ġåįģ å¹´
ĠéĿĴ å¹´
å®ļ ä¸º
âĨ ĵ
ãģ ¨
Ġåģ¶ éģĩ
ĠHam ilton
Ġlegisl ation
% ),
åģļ æ¢¦
åħī æ»ĳ
Ġoppos ition
Ġb att
ĠçĶ» éĿ¢
C I
èĶ ļ
opt ion
æ°´ è´¨
Ġexist ence
æĺİ æ²»
æīĢä»¥ ä»ĸ
88 8
çī¹ å°Ķ
st ic
çľĭ ä½ł
ĠèĦ ¾æ°Ķ
å®¢æĪ· çļĦ
è¿ĩæĿ¥ äºĨ
å°±æĺ¯ åĽłä¸º
Ġj ack
ĠGener ate
ç¦ ¾
å°±æĺ¯ ä¸ª
S et
éĹ µ
çĭ Ī
Ġæīĵ çĲĥ
iet ies
ä½ĵ åŀĭ
Ġris ks
å¹´ åĪ°
æ°ĳ çļĦ
L a
w ick
Ġs essions
ĠF ame
éļ¾ è¿ĩ
çİ© æ³ķ
Ġå± Ģ
æĬ¥ å¯¼
Ġgold en
Ñ ī
ł éĩĬ
è¢« åĳĬ
çĽ¸ ä¼ł
Ġè¡¨ æ¼Ķ
Ġcho ices
um s
åĮº éĹ´
å¸¦ çļĦ
å¿« éĢĴ
) /
æ³ķ åĬĽ
an es
é² ¤
Ġgovern or
èį¯ æĿĲ
åİ» åĲ§
Ġcerem ony
çĽ´åįĩ æľº
éĤ£ å¼ł
èĢģ å¹´äºº
Ġlist ing
çĲĨå·¥ å¤§åŃ¦
åĪĿ å§ĭ
ĠHispan ic
ç¨ ł
å£° åĵį
çªģ åİ¥
åĲ ±
ä½İ ä¸ĭ
çĨĬ çĮ«
Ġarg ument
éĿ¢åīį çļĦ
å¿«éĢŁ çļĦ
åĨ ¢
ä¹Ł å·²ç»ı
Ġé¦ĸ æŃĮ
Ġåĳ¨ åħŃ
èĭį çĻ½
Ġh ur
Ġex ception
ä¸ĩ çļĦ
åħ« ä¸ª
ĠæĮ ģ
r s
æģ º
å¾Ģ åĲİ
ĠçĽ¸ äº²
cl aim
con st
Ġcelebr ate
æľī åĪ©
as ters
ĠS ite
A m
Ġprint ed
W hen
åĲİ äºº
ĠN BA
ĠE P
Ġh ockey
çĥŃ éĹ¨
æĻļ ä¼ļ
éº ¾
ro g
Ġres ort
ç®ĢçĽ´ æĺ¯
Î ¼
Ġä¸į æŃ¢
ä¹ĭ æĹ¥èµ·
ĠD rive
Ġè¾£ æ¤Ĵ
æł¸ ç®Ĺ
æĺ¯ éĢļè¿ĩ
æ¼ ©
Ġes cape
ĠAff airs
å¤© åĲİ
Ġä»¥ åıĬ
ad er
è·Ł åľ¨
Ġå¤ĸ è§Ĥ
åļ£ å¼ł
å°ı éº¦
Ġ ä»ĺåĩº
Ġp iano
å°Ĩ èĩªå·±çļĦ
åĴĮ ä¸Ģä¸ª
ĠK l
Ġèĩ ´
èµĦæºĲ çļĦ
å®īå¾½ çľģ
Ġreplace ment
a ver
Ġdeb ate
Ġenc ounter
æľī åĬĽ
ç²¾ éĢļ
Ġdefin ition
é© ¹
äºĨä¸Ģ ä¼ļåĦ¿
é£ŀè¡Į åĳĺ
Ġç¬ ¨
ure n
åĽŀ é¡¾
Ġtru ck
Ġol ive
ĠçĥŃ æ°´
Ġel ig
çŀĦ åĩĨ
or b
ç§ĳæĬĢ å¤§åŃ¦
Ġè®¨ è®º
ç»Ļ ä½łä»¬
é£İ æ°´
åĽ° å¢ĥ
éķ¿ æĺ¥
ĠAnd erson
A ut
èĥĮ å½±
ĠWhe ther
Ġæł¸ å¿ĥ
B N
ĠåĲ§ åĹ¯
æī¬ å·ŀ
Ġè¿ŀ ç»Ń
å¤± ä¸ļ
ĠåĵĪåĵĪ æĪĳ
ĠAr k
Ġçª Ŀ
çļĦ çĲĨè§£
æī§ å¯¼
éģį å¸ĥ
å¥½ ä¸įå®¹æĺĵ
åĲĳ å¤ĸ
å¥¥æŀĹåĮ¹ åħĭ
ĠT ype
Ġåľ£ è¯ŀ
å¢ŀ å¤ļ
çºª å¾ĭ
ä¾µ çķ¥
Ġtro ops
Ġæľī çĶ¨
è¿ľ åı¤
è¯´ æĿ¥
Ġå¤ļ å¥½
åĻ¨ æ¢°
æ¨¡ ä¸Ģæł·
è°ģ èĥ½
ä¸į å°ı
ĠC ut
çļĦ éĥ½æĺ¯
è¡ ħ
å¼ł å®¶
Ġä¸Ĭ åįĪ
æģ° æģ°
ot he
æ¶īåıĬ åĪ°
ĠBi ography
Ġd ating
Ġsh ock
Ġä¹Ī æĪĳ
B D
ç»Ī çĤ¹
ä¸Ń è¥¿
ä½į éĿ¢
è¿ĺæľī å¾Īå¤ļ
çķħ éĶĢ
Ġå¤§ åıĶ
Ġafford able
æĺı è¿·
æĭ± æīĭ
ä¸Ĭ åįĥ
ä½ľ äºĨ
Ġcom ic
ĠæĮ ¡
æĢ¥ éĢŁ
Ġç¥ ĸ
ĠæĬ ¹
åĲ¸ è¡Ģ
æĪĲ å¹´äºº
åĴĮ æľįåĬ¡
ial s
æ¬¢ ä¹Ĳ
Ġprincip al
F M
Ġåľ¨ æĦı
Ġv irus
ĠæĿ¡ ä»¶
Ġsem i
Ġinnov ation
ä¸į å¥½çļĦ
st ers
çł´ è§£
çļĦ æİ§åĪ¶
Ġc uis
ĠçīĽ å¥¶
æĿ¥å¾Ĺ åıĬ
æĹ¶ å¸¸
æĸ¹ åľĨ
åĨħ æľī
äº¤ æ±ĩ
t i
ĠC A
æĺİ äºĨ
åı£ æĦŁ
å¦Ĥ æĦı
çľ¼ çľ¸
è¿ĻéĩĮ æĺ¯
å«Į çĸĳ
æ»ļ æ»ļ
ipl om
Ġçİ© æĦı
éĺģ ä¸ĭ
æ°Ķ ç®¡
Ġæĺ Ĩ
åŃĺ çļĦ
æľī å¿ĥ
è®½ åĪº
éħį æĸ¹
Ġæ· ĺ
ĠèĲ¥ åħ»
ä¸į ä¸º
Ġbe er
ess ed
éĵ ²
ific ate
Ġjo ining
è¡Į ç¨ĭ
Ġcon vey
10 4
se a
ï ¿
un es
Ġcapt ured
Ġre ject
å°±æĺ¯ è¿Ļæł·
. _
Ġåį ¸
è¾¾ å°Ķ
% (
Ġ äºĴ
å¾Ī æĺİæĺ¾
åį¡ æĸ¯
éŀ į
Ġeng aged
åĲį æł¡
ä»ĸ ä¸º
åįģ æĿ¡
ĠåķĬ åĵĪåĵĪ
çĻ» å½ķ
æĻ Į
od ge
æĬķ æĶ¾
éĢļè¿ĩ äºĨ
ĠæĹ¥ å¸¸
åįĥä¸ĩ ä¸įè¦ģ
Ġent hus
Ġdist ricts
çļĦ æŃ»
ĠBase ball
æī ³
åįļ è§Ī
ĠèĢ³ æľµ
éķ¿ çĶŁ
éĺ² æ°´
IN S
Ġæ½ĩ æ´Ĵ
ĠC re
ä»Ģä¹Ī éĥ½
ĠT a
ĠC R
åĲĮ æĦŁ
ĠAl f
Ġass igned
Ġdest ination
éª ·é«ħ
Ġèµ° è·¯
Ġstret ch
æ»ĭ åĳ³
ĠèĴ ¸
ĠH old
9 02
åĩł åįģå¹´
ãĥ ©
çļĦ åĪĨæŀĲ
çľĭ ä»ĸ
å¤ª çĽĳ
æ¯Ĵ æĢ§
ĠMel bourne
Ġcrow d
it als
äº¬ éĥ½
ä¸Ĭ ç©º
èĢĮ æĺĵ
ç¡® è¯Ĭ
Ġä»İæĿ¥ ä¸į
æĸĩ ä¸Ń
æĶ¿ åħļ
çĮĽ çļĦ
æľĪ åħī
äºĨä¸Ģ éĺµ
ĠåĴĭ åĬŀ
Ġtal ks
äºĮ æ°§åĮĸ
çĪ¶ åŃĲ
åıªè¦ģ ä½ł
åħ´ èµ·
ĠçĶŁ çī©
ĠæĹ© æĹ¥
Ġå¥½å¥½ çľĭ
Ġrev olution
P r
åľ° åľ¨
Ġchampions hip
om ot
Ġent itled
Ġmeet ings
Ġæľ¬ äºĭ
b ps
éĿ ¶
å¢ ©
Ġj ew
ĠæĬĺ èħ¾
ä¸İ åıĳå±ķ
æľĪ çĶŁ
Ġæ½ ®
Ġform ation
Ġå¤ĸ å¥Ĺ
æĬĬ å¥¹
åįĩ èµ·
çºł ç¼ł
Ġb ow
ĠT s
å¼Ģ æ°´
Ġç¼ ĵ
Ġabsol utely
å§ Ĭ
Ġä¸į ä»ħ
ĠT ry
Ġæ¹ ¿
Ġdecl ared
æŃ¦ æŀĹ
èĲ¨ æĸ¯
å¾Ī éķ¿
å¦Ĥæŀľ è¯´
ä¸¾åĬŀ çļĦ
ĠRes p
Ġçĳ Ł
Ġdraw ing
çĤ¹ èµŀ
Ġä¸į å¸¦
ĠF R
Ġæ¯ı å¹´
ĠçķĻ ä¸ĭ
Ġbrother s
m ic
ĠC hen
åŁİ æ±ł
å°± ä¸įèĥ½
æłĩ æľ¬
if ies
Ġsp oke
Ġæį §
87 0
j ust
ð Ł
è¿Ļ å°ı
æķ° çĽ®
ĠSc ient
è¯ ħåĴĴ
è¾ĵ äºĨ
éĽ ı
Ġçº ³
miss ions
ĠAnth ony
èĥ½ æľī
åĬ¨ åĳĺ
åİŁåĽł æĺ¯
Ġthe atre
all as
Ġconstit u
çļĦ çĶŁåĳ½
çļĦ è®¡åĪĴ
Ġs in
Ġo d
å®Ĺ å¸Ī
çģ ¸
gl as
ä¿ĺ èĻı
çĶ¨ åľ°
ig ate
æĥ³ èµ·äºĨ
T est
æĶ» åĬ¿
ãģ ĭ
V P
Ġt ack
ĠB alt
å¼Ģ ä¸ļ
ä¸Ĭå¸Ĥ åħ¬åı¸
è¿Ļæĺ¯ ä»Ģä¹Ī
D NA
çļĦ èĦ¸èī²
ĠæĦı å¤ĸ
å°ı æľĭåıĭ
æĤ ļ
è½» å¾®
å°½ åĬĽ
è¿Ľ åıĸ
å·¦åı³ çļĦ
Ġinvol ving
ä»² è£ģ
ĠæĶ¾ ä¸ĭ
ä¸į éĢĤ
Ġp owers
åī¯ å±Ģéķ¿
æľĢåĲİ ä¸Ģä¸ª
å®½ åº¦
åĮĸ åĴĮ
t hes
ĠF ive
ĠN ature
ä¼ģä¸ļ å®¶
é£ŀ æī¬
m ade
å¼ł ä¸ĵè¾ĳ
12 2
çĽĴ åŃĲ
æ·±æ·± çļĦ
Ġretire ment
å¹¶ åħ¥
Ġå®¶ éķ¿
ĠGr ant
æĿĨ èıĮ
èĩª æĦ¿
è¿Ĳ æ²³
ĠV in
Ġçķ ¥
achel or
åı£ ç¢ĳ
Ġprov in
çļĦè¯Ŀ è¯Ń
èĬ ľ
çİ°åľ¨ æĺ¯
Ġren der
è¡Į ä½¿
ç¦ı å·ŀ
Ġbro ke
Ġst ood
å½ĵ çľŁ
Ġv ice
Ġold est
Ġredu cing
ĠB ible
çļĩ å®¤
ĠJ ay
Ġgl ad
l ik
ĠHow ard
Ġæķ° åŃĹ
æī¶ æĮģ
ç§ī æī¿
Ġæ²¡ åĪ°
æĻļ æľŁ
ĠProfess ional
V C
åħ¬ ç¤¾
ĠW el
Ġå½¢ è±¡
Ġt ut
ä¸İ äºº
åĩºç§Ł è½¦
åŃķ å¦ĩ
åħĥ å¸ħ
Ġrem ark
ä»į åľ¨
åº µ
p ng
å¤ļ å½©
åĬ¨ çĶ¨
qu es
éĩĳ çļĦ
ĠK elly
å¤į ä»ĩ
è¡¡ éĩı
éĩĳ ä¸¹
ĠArch itect
ĠE mer
åĪº å®¢
æ¬º éªĹ
Ġé¹¿ æĻĹ
å¤ª é«ĺ
çļĦ æĹ¥åŃĲ
Ġæľ¬ ç«ł
ĠåĽ½ å¤ĸ
åĬł å¯Ĩ
èĪ¹ åıª
Ġgener ated
Ġç¤¼ æĭľ
Ġaut o
ĠèĪ Ĵ
æľĢ æĸ°çļĦ
ĠW W
çĭ ¡
åĬŁ åĬ³
Ġrepe ated
Ġçĩ ķ
åİ¿ æĶ¿åºľ
æ·· èĽĭ
l ib
ä¸Ģ åłĨ
ä¸ī ç»´
èµŀ åĬ©
ĠB owl
è¶³çĲĥ ä¿±ä¹Ĳéĥ¨
ĠTur k
è¾ĥ å°ĳ
ol t
çģŃ ç»Ŀ
é£İ æĥħ
Ġf ont
è¯¥ åĽ½
æį¢ äºĨ
éĢ® æįķ
ĠYou Tube
ä»¥ä¸º æĺ¯
å¤ļ æľĪ
è¯¸ å¦Ĥ
Ġc able
éĺ² çģ«
æ¾ İ
Ġdist ingu
çīĻ åĪ©
Ġåĩ īå¿«
ĠWe bsite
Ġinv ited
Ġæľī è¶£
çļĦ çİ°è±¡
in put
ä¸Ģ ç¬Ķ
ä¸į éļ¾
æĦŁ æģ©
Ġex port
ur ches
els on
a a
åĲĪ ä¼Ļ
å¼ł å¼Ģ
ĠSe attle
ä¾¦ å¯Ł
Ġwor ry
è§Ĥ åħī
Ġè°ĥ æķ´
Ġobs erv
? )
ĠåªĴ ä½ĵ
ä¸ĩ åįĥ
è¿Ļä¹Ī å¤§
è¿Ļä¹Ī ä¹ħ
éļĲ çº¦
æī Ĵ
Ġç½ĳ ç«Ļ
Ġequival ent
Ġw ins
Ġ# ##
æĭŁ è®¢
a ire
ĠC ert
Ġåıª è§ģ
Ġæµ ĵ
âĢ ¢
Ġâ Ī
æĢ§ å¼º
Ġappoint ment
Ġåıį èĢĮ
m ble
Ġf er
ä¾Ŀ æ¬¡
æĶ¹éĿ© å¼ĢæĶ¾
èº« å¿ĥ
ĠO R
æ°ĳ æĶ¿
Ġå¹ »
å³¡ è°·
çĶ¨æĪ· çļĦ
ä¸ĢåĪĩ éĥ½
Ġroad s
ĠHer itage
Ġconsist ent
or ne
å¯ Ŀ
è´ ¿
é½Ĳ é½Ĳ
éĽĨä¸Ń åľ¨
è¡Į æĥħ
ĠN az
os es
Ġéķ¿ æ²Ļ
èĥ §
ç»Ŀ å¤§éĥ¨åĪĨ
Ġçľī æ¯Ľ
åĴĮ æĸ°
åĩł åĲį
çŃĶ ä¸»
å¦ĸ æĹı
ĠTr ade
ĠUl t
æĴķ è£Ĥ
Ġæĸĩ åŃĹ
ĠM A
ĠéĽ ħ
roll er
Ġp it
åįģ æľĪ
çļĦ ç»ıéªĮ
ĠäºĨ æ²¡
Ġinstrum ents
Ġå¥½ å¼Ģå¿ĥ
Ġshe ll
æ¯« åħĭ
} ,
æĿ¡ä»¶ çļĦ
ĠèĢģ å¤§
ä½ĵçİ° äºĨ
Ġpers ons
æłĩ æ³¨
æ·±åľ³ å¸Ĥ
Ġsurpr ise
ul ous
ĠæĶ Ĵ
çĸ ļ
ä½Ĩæĺ¯ æĪĳ
ĠProv ince
å®ĥ åľ¨
Ġinstrum ent
Ġåª ³å¦ĩ
Ġå¥½ äºĭ
çļĦ åı¯èĥ½æĢ§
Ġä¸Ģ äºº
Ġèĳ ¡èĲĦ
ä¸Ń çļĦä¸Ģ
åĨ· æ¼ł
èº«ä½ĵ çļĦ
ĠCo oper
çĸ² æĥ«
åı¤èĢģ çļĦ
Ġå° ¾
çİ° ä»Ĭ
Ġincred ible
² æŁĵ
ä¸į å¸¦
ĠéĹ ´
å³ ¥
è¦ģ çĶ¨
Ġch ap
è·³ è·ĥ
Ġåįļ ä¸»
Ġ ä¼¼ä¹İ
ĠT an
ä¸įäºĨ è§£
Ġå² Ĥ
æĮĩæĮ¥ å®ĺ
çŃĶ é¢ĺ
åįİ ä¸ľ
Ġplan e
çļĦ åħ·ä½ĵ
æł· å¼ı
Ġèī¾ çī¹
åĵ Ĵ
æł¼ æĭī
æ·ĭ å·´
èĤł éģĵ
, '
Ġy ards
æīĭ å·¥
ĠN ap
Ġstat ements
ĠC ape
è°ĥ åĳ³
æŃĮ åĶ±
æłĸ æģ¯
Ġag ents
å¹´ åĴĮ
å°ı ç»ĵ
igh th
éĵ¸ éĢł
Ġä»» æĢ§
ĠC irc
ä¸ĩ åİĨ
æĤ¨ å¥½
çĨŁæĤī çļĦ
ĠEconom ic
å¾Ĺ ä¸į
æĸ¹ å½¢
åĩº èµĦ
å¥½ ä¸įå¥½
Ġè° ¦
Ġobs erved
å±± é¡¶
èµ° ä¸Ĭ
é¢Ħ èŃ¦
ç£ ķ
Ġcheck ing
Ġappear ances
âĺħ âĺħ
G Hz
he ll
å®¢ æĪ¿
è¡Ĺ å¤´
Ġ ä¼´
æ¥¼ çļĦ
ä¹ĭ å¤§
ä»ĸ æľī
ä¹ł ä¿Ĺ
çĶµ ç¼Ĩ
è¯Ħ åĪĨ
èĩ´ åĳ½
çĶŁ æķĪ
ot te
æ³ķå¾ĭ æ³ķè§Ħ
ç«ł èĬĤ
åį³ æĺ¯
åŁºç¡Ģ çŁ¥è¯Ĩ
ĠåľŁ è±Ĩ
Ġan x
wor ld
Ġæ£Ģ æŁ¥
l ie
æīĭ éĩĮçļĦ
ç«ĭ çļĦ
éĺ² èĮĥ
åįł äºĨ
Ġ1 01
Ġch ampion
ç¬¬ä¸Ģ ä½į
Ġ8 8
æ³¨æĦı äºĭé¡¹
Ġheav ily
m ap
æľĢ éĩįè¦ģ
ç¤ ģ
èį §
å¼ł å°ı
æĢ» é¢Ŀ
åıªæĺ¯ åľ¨
Ġw et
æĿ¥ äºº
æīį åįİ
ĠKent ucky
lah oma
b el
å°± è·Ł
ä¼Ĺ çĶŁ
arg o
Ġw er
å±Ģ éĻĲ
çļĦ æ¯Ķ
ĠéĤ£ åĦ¿
çľģ åĨħ
æĬ¥ è¡¨
Ġå¥ĩ èĳ©
èĤ ĺ
Ġpil ot
æľ¬ åĵģ
å¤į åį°
Ġapp s
rodu ction
åģľè½¦ åľº
å½ Ŀ
Ġguid elines
ä¸į éĢĤåĲĪ
Ġè± ª
Ġunivers ities
åı¯ åĪĨä¸º
åĨ° ç®±
Ġmin ing
Ġt ight
å¯¹ æĪĳä»¬
ĠæľºåĻ¨ äºº
Ġéĥģ éĹ·
w ords
å¾· æĭī
ä¸Ń ä»ĭ
ç»ĵ æĻ¶
Ġâ Ĩ
å·¡ åĽŀ
è¡Ģ çļĦ
ç¥ĸ åħĪ
ç¥ŀ è¯Ĩ
æģ° å¥½
u in
ä¸į å¦¨
æ³¢ ç½Ĺ
åĴĮ ä»ĸä»¬
Ġpe ak
ä¸½ èİİ
Ń èıľ
åİĭ æł¹
Ġæļĸ åĴĮ
ä¸į è®¸
éĿ ´
Ġæ³ķ åĽ½
Ġdo ors
Ġpass es
æĪĳ åı¯
æĪĲ åŀĭ
ig ious
å¼Ģ å¹ķ
ä¿ĿæĮģ çĿĢ
Ġw aters
ĠReg ion
ĠN ich
Ġus age
Ġpre gn
çļĦ åĽĽ
Ð¾ ÑĤ
alle l
éĩĮ åħĭ
Ġæī ĺ
ç± ½
ĠæĬ¥ åĲį
Ġæ®µ æĹ¶éĹ´
è¯´ å¥½
éĩĳ å¸ģ
è´¨ çļĦ
ĠæĿ¥ èĩª
éŃĶ ç¥ŀ
ac ent
Ġåħ ģ
å¯¼ ä½ĵ
Ġå¸ ½åŃĲ
çıł å®Ŀ
åŃĲ åŃĻ
iv a
Ġpar liament
ï¿ ½
å¢ŀ å¤§
è¿· èĮ«
Ġun cle
éĤ ¸
é³ Ħ
Ġill ness
Ġsh ops
h ard
æ²¡ å¿ħè¦ģ
åĨĽ ä¸Ń
æıĲ åĪ°çļĦ
æµģ è½¬
vert ical
ĠM oh
Ġçľĭ ä¸įè§ģ
Ġconsider ing
ĠDet roit
ç»ĵ å°¾
ä¸ĥ ä¸ª
æģ¨ ä¸įå¾Ĺ
éĺ´ éģĵ
ç»ĦæĪĲ éĥ¨åĪĨ
æİĮæı¡ äºĨ
åľ¨ æ°´
ä¹ĭ æ³ķ
ä»İ ä¸į
æŃ¤æĹ¶ çļĦ
åĲĪ åĶ±
ä¸İ ç®¡çĲĨ
å¤ĸ æ±ĩ
ä»£è¡¨ çĿĢ
ãĥ Ī
çĲī çĴĥ
åĮº åĮº
Ġæ´ ª
ĠéŃ ı
Ġtransfer red
Ġ ]
ĠåıĹ ä¼¤
Ġç»Ŀ æľĽ
è ²
åĢ ª
Ġspec ified
å®ŀ è®Ń
Ġæľ¬ èº«
Ġæ¹ĸ åįĹ
ĠR ow
è£Ĥ ç¼Ŀ
ĠF ile
äºĭ äºĨ
ç¬ĳ çļĦ
æ²¹ çĶ»
çģ« çĤ®
Ġweek ly
ĠåŁ¹ è®Ń
å¯¹ ä»ĸçļĦ
çŃī æĪĳ
ĠD ate
æ¬¢ åĳ¼
é»ĺ è®¤
èĻļ æĹł
ĠåŃ£ èĬĤ
éļı èĳĹ
äºı æįŁ
Ġd uty
çĲĨ æĻº
ä»½ é¢Ŀ
Ġv ine
åħĥ ä»¶
Ġcomp ris
å½»åºķ çļĦ
Ġsubs id
è¿ Ħ
éľ¸ çİĭ
çĦĬ æİ¥
ä¿¡ çīĩ
åĪĺ éĤ¦
= '
å¤´ çĸ¼
èĻ½çĦ¶ æ²¡æľī
Ġrel ief
ä¸İ ä¸ŃåĽ½
çķĻ è¨Ģ
æīĵ åĩº
ĠæķĻ ç»ĥ
æ¼© æ¶¡
åĨľæĿĳ ç»ıæµİæĢ»æĶ¶åħ¥
Ġå¸ħ æ°Ķ
Ġeffic iency
ĠS ource
åĴĮ å¥¹
æŃ¦ éģĵ
U p
æĻ ¦
èº« ç©¿
Ġo k
åĲĳ åĲİ
Ġmach ines
æĿĢ çļĦ
Ġdesign ated
çļĦäºĭ å®ŀ
ä¸º æĤ¨
te gr
çĶµ éĺ»
è¶ħ åĩº
æĲ ĵ
æģ¶ æĢ§
æ© ĺ
T r
b urn
ĠM other
çģµ çŁ³
ater n
è¿½ ç©¶
ä¸į å¹³
å±± åºĦ
ä¸»è¦ģ ç§įæ¤į
æ¯«ä¸į çĬ¹è±«
Ġcru cial
åĨ² å¤©
åĹ ĸ
Ġkey board
ä¸ª ä¸ª
' :
è¢« è®¤ä¸ºæĺ¯
Ġincorpor ated
Ġpro of
çī© æµ¦
æľª æĽ¾
Ã¶ r
ĠLat ino
åľ¨ åįĹ
åĲĦ åľ°çļĦ
Ġ6 6
ang o
Ġsequ ence
ä¹Ł å¤ª
æŃ» äºº
åī¯ ä½ľçĶ¨
æīŃ å¤´
èĬ ¹
çĻ½ éĵ¶
ĠæĿ¥ å¾Ĺ
åĢº æĿĥ
Ġh idden
ä»ª è¡¨
çģ« çģ¾
ä¸¾ èµ·
çıŃ ä¸»ä»»
Ġd ining
åı£ æľį
Ġsitu ations
Ġå°ı æľĭåıĭ
æĿĲæĸĻ çļĦ
ĠYear s
åĲį èªī
E F
re tt
ĠA thlet
è®¤ çľŁçļĦ
ĠN OT
çļĦ çĪ¶äº²
åĢ Ń
ĠåĮħ æĭ¬
ä»£ è¨Ģ
å¿į åıĹ
Ġè¾ ħ
O ver
éĩı åĮĸ
ä¼ł æİĪ
åĨį å¤ļ
Ġæľĭåıĭ åľĪ
æģ¶ æĦı
ol ar
é¥ ºåŃĲ
Ġtra ins
Ġtren ds
å¿ĥ æĥ³
æŁĲ ä¸Ģ
æĪĺåľº ä¸Ĭ
Ĭ Ļ
ot ten
éŃĶ åĬĽ
æĬµ æĬ¼
ĠPost ed
up er
é¢Ħ æĬ¥
æľ¬èº« çļĦ
Ġre in
æľº ä½ĵ
é¾Ļ æĹı
Ġå¤ª å¤§
Ġent reprene
æµģ çļĦ
Ġad ap
Ġäºĭå®ŀ ä¸Ĭ
çĻ¾ éĩĮ
æıĲ åĢ¡
èİ º
Ġatt orney
Ġè¸ ı
Ġbur ied
ĠéĤ Ģ
Ġtick et
æĹĭ åį³
éļĲ çŀĴ
B u
ĠéĻ¤ éĿŀ
) "
æĺİ æľĪ
ĠæŃ ª
r us
åŃĹ ç¬¦
çħ ²
Ġsqu ad
iss ions
Ġæ» ĭ
æ¼Ķ æĬĢ
hold ers
ol as
Ġren amed
åĪĨ åħ¬åı¸
æĬĬ ä»ĸä»¬
Ġenc ourag
èĬ¬ åħ°
ac c
ĠIm age
T rans
çŃ Ŀ
çĻ½ è¡£
ĠCom b
åĽº ä½ĵ
ur l
ĠR ick
åı¤ äºº
Ġann iversary
Ġrank ed
R L
Ġs oup
å¹³ æĹ¥
æķ°æį® åĪĨæŀĲ
Ġcomb at
éĢī åĮº
åľŁæľ¨ ç»ĵæŀĦä½ıæĪ¿
Ġå¾· åĽ½
çĤ¹ çĩĥ
ĠåĪ º
rupt ion
ä¸īåĮħ æľįåĬ¡
å¹¶ å¯¹
Ġçİĭ èĢħ
åĩ» ä¸Ń
äº² çľ¼
åľ¨ é¦Ļæ¸¯
å¤ĩ æ¡Ī
æĺ¾ çİ°
Ġæķ ²
inem a
ä¹Ł æĽ¾
æ¿ Ĵ
ĠR ain
Ġsh ift
Ġé£Ł çī©
And roid
æĪĳ ä¹Łæĺ¯
ro ke
pe ople
çļĦä¸Ģ èĪ¬
çģµ åĬĽ
ru its
åľ¨ ä¸Ĭæµ·
æ¸ Ŀ
Ġj un
Ġ à¤
æĹ© å·²ç»ı
è¿ľ äºĨ
å®ĺ åħµ
åĽº çĦ¶
Ġincreasing ly
v ens
æİ¥ è¿ŀ
æľīéĻĲ è´£ä»»
åĳ ¦
å¾Ī é«ĺçļĦ
Ġéģ ¥
åĽºå®ļ èµĦäº§
æ´» æ³¼
åŃĹ çļĦ
Ġå¤ļ å¤ļ
ĠV ar
i Phone
ä¸º æĪĳ
ĠS H
ĠB ud
åı° çļĦ
æŀĹ é£İ
bl ock
è½»è½» çļĦ
ä¸į å¿į
ic ations
æĪĳ åħĪ
iv als
ĠæĦŁ æħ¨
è¡ĮæĶ¿ ç®¡çĲĨ
ç½ļ æ¬¾
å°± éľĢè¦ģ
äºĨä¸Ģ åľº
Ġstrugg le
è½¦ åŀĭ
ann y
Ġstri ke
Ġvul ner
ä¸ī åĽĽ
Ġåįĩ çº§
Ġadministr ative
ä¸Ģ çļĦ
çĶ¨ éĩı
äºĨä¸Ģ å¤§
M E
ä¸ĭ è·Į
çºł æŃ£
b ase
æĭī å¼Ģ
çĿ¡ ä¸įçĿĢ
æıĲ çĲ´
åĨľ åİĨ
åĳĨ äºĨ
Ġspirit ual
çĮª èĤī
è£ ³
ang a
å¤ľ éĹ´
ell ite
æµģ å¤±
ific ial
ĠèĪį å¾Ĺ
g age
æł¹æľ¬ æĹłæ³ķ
Ġcont ained
Ġsignific ance
Ġadvent ure
Ġhapp ening
çļĦ éĤ£äºĽ
Ġex clusive
Ġmov es
Ġg ear
å®¢ åľº
Ġany where
ÑĨ Ð¸
S o
éĿ ĵ
ĠB uck
çĬ¶ èħº
ĠHistor ical
Ġw arn
æĪĳ å°±ä¸į
ĠBar on
Ġla id
Ġz ero
ĠLab our
Ġæ¾ ¡
S K
ĠK ings
åĽ´ æĶ»
è½® èĥİ
Ġè¹ ²
Ġstrateg ic
å£® å¤§
ä¸Ńæĸĩ åĲį
èµĽ è½¦
row se
åĩº æģ¯
Ġhead s
åĢ¾ æĸľ
ä½ł åħĪ
Ġn urs
å¤ļ ä¸ĩ
ab ama
Ġä¸į èµ·
Ġfact ory
ç§ĳåŃ¦ çļĦ
çī©çĲĨ åŃ¦
çļĦ ç¨ĭåº¦
æĹł åĲį
éĥ¨éĹ¨ çļĦ
Ġå¼Ł å¼Ł
éĹ´ éļĶ
Ġæī ©
æĺ¯ä¸Ģ åº§
Ġhard ware
Ġé¼» åŃĲ
æķĻèĤ² æķĻåŃ¦
ĠAd v
å¯¹ ä¸ŃåĽ½
Ġas ide
Ġcomp at
enn a
å¥½ æ»´
åĻ¨ ä»¶
æº¶ è§£
Ġattempt s
ĠåĬĽ éĩı
ĠåŃ¦ æľŁ
è§£åĨ³ éĹ®é¢ĺ
Ġc os
ä¹ĭ æĥħ
é¢ľ åĢ¼
ĠçĲĥ è¿·
æĢª åħ½
ä¹± çļĦ
Ġcare fully
æľ¬ç§ĳ çĶŁ
« æĥħ
Ã© t
åŃĺåľ¨ çĿĢ
Ġmiss ed
Ġth orough
æĪĲ åĵģ
Ġè´¨ ä¿Ŀ
Ġå¤© ä¸ĭ
ç»Ŀ ä¸ĸ
Ġlaw yer
Ġcover ing
ĠStud ent
ĠCor ps
ä¹ĭ ä½ľ
Ġe c
åĪĨ å·¥
ĠçĽ Ĳ
Ġæīĵ æī°
å¤§ åį«
Ġäºº ä»¬
è¿Ļä¹Ī å¤§çļĦ
åľ° æŃ¥
P E
å°ı é¾Ļ
ĠæĢ Ĥ
Ġâ ĭ¯
AN D
éĻķè¥¿ çľģ
åı Ń
ä¸ĢèĪ¬ æĿ¥è¯´
Ġren t
Ġé² ģ
ĠD yn
è¯į åħ¸
vent h
ĠB h
ä¸ļ åĨħ
æľĪ ä»»
éĽ· æĸ¯
ĠåĶ ®
èµ° åľ¨
Ġpotential ly
éĺ¶ å±Ĥ
includ ing
ç»ıåİĨ è¿ĩ
d ie
2 30
l en
ĠF u
åįĹ å®«
ç»Ł çŃ¹
ä¿¡çĶ¨ åį¡
ĠLear ning
L in
ĠA PI
æĶ¿ æ³ķ
æİ¢ éĻ©
Ġç©¿ çĿĢ
åĨħå®¹ ç®Ģä»ĭ
Ġè¾ ŀ
é¥± åĴĮ
Ġse ctions
ĠæŃ£ ç¡®
ä»¥ åĨħ
ä¿® çľŁ
Ġä¸Ĭ æĿ¥
çªģ åıĳ
è¿Ļä¹Ī ä¸Ģä¸ª
m aster
æĦ ī
Ġdown town
Ġvis ible
æĪĳ æĢİä¹Ī
Ġå¸¦ ä½łåİ»
Ġmonth ly
5 50
Ġè¿Ļ çĤ¹
ç¾ ²
Ġ7 2
Ġfl ower
çŁ¥åĲį åº¦
Ġimpro ving
Ġ ãĦ
çĶŁ å¯¼å¸Ī
ĠD ue
åĽ° æī°
Ġt ank
é¢Ĩå¯¼ çļĦ
ä¹Ł æľīäºĽ
åº¦ è¿ĩ
åĪĽ æĸ°çļĦ
ä¸ĥåħ« ç³Ł
åıĳ åħī
ä¿¡ å¾Ĵ
è¯§ å¼Ĥ
èĶ ĳ
åĬŁèĥ½ çļĦ
æĶ¾ å¼Ģ
Ġå®ī éĢ¸
æ¯Ķ æĪĳ
æŃ» åľ¨
æĿĢ ä¼¤
Ġæĳ ĩ
ĠçĶ ²
ä¸ĸçºª çļĦ
çŀ ħ
ä½ł åºĶè¯¥
å¹ ¢
æł ©
åįķ åįķ
Ġgen re
ĠèĻ ½
Ġengine er
Ġbelie ves
ä¸¤ éģĵ
Ġr ating
Ġresident ial
ä¸ŃåĮ» èį¯
ĠéĨĴ æĿ¥
ĠPl aces
Ġsk ill
æĺĨ èĻ«
ä¸į æĦ§
é«ĺ æĸ°æĬĢæľ¯
il st
D o
è´¢åĬ¡ ç®¡çĲĨ
gress ive
æĺ¯ ä¸įä¼ļ
è¯¥ æĢİä¹Ī
Ġbirth day
ĠOk lahoma
å®¶ åĽŃ
çģŃ äºĨ
Ġbreak fast
Ġdra wn
å¤§ ä¸ĵ
ĠåĲµ æŀ¶
ä¹ ĵ
è¿Ļ åĦ¿
ĠB ush
Ġcomp are
ĠDem ographics
M D
åĴĮ ä¸ŃåĽ½
æ³ķ æ¡Ī
æĲ Ĥ
å®ĮæĪĲ çļĦ
Ġsitu ated
Ġå¤§ äºº
Ġæ¾ ³
æĹ¶ æ®µ
Ġm olec
å¤§ æľī
ç«Ļ çļĦ
è®¸ ä¹ħ
Ġfood s
çī¹ æĽ¼
æķ¬ ä¸ļ
æ¸© é¦¨
ä¸ĵ æłı
on ut
ä¸į å°½
ĠM ove
çº¿ ä¸ĭ
æľĽ è¿ľéķľ
ä¾¦ æİ¢
åħ¶å®ŀ å°±æĺ¯
Ġs ought
ĠC zech
m ates
Ġè¿Ļ è¾ĪåŃĲ
ä¸įæĺ¯ ä¸Ģä¸ª
èĽ Ĭ
ĠçĪ± å¥½
ĠæĪĳ åĽ½
è½» å£°
ä¸º å®¢æĪ·
åģļ æĪĲ
èĻļ å¼±
å¹¿å·ŀ å¸Ĥ
b ound
ä¸į åĲĪ
éĿ¢ çĽ®
éħ Į
Ġex ists
éĢł åĮĸ
ĠDown load
Ġä½ĵ ä¼ļ
Ġt ap
åİŁ åŀĭ
æĮĩ æľĽ
Ġæ¦ ´
è·ĳ åİ»
( ãĢĬ
æ¥¼ ä¸Ĭ
Ġinform ed
r ine
åĲĪä½ľ ä¼Ļä¼´
Ġåħ¶ä»ĸ äºº
åįĬ åľº
âĢĿ )
è¿Ļ éģĵ
å¼ł å¤§
Ġsc r
åĺ² è®½
åĵ Ĩ
æĪĳ æīį
Ġä¸» äºº
Ġæĸ¹ éĿ¢
æīĭ æŀª
åĪ¶éĢł ä¸ļ
66 6
Ġä¸Ģ æľ¬
og y
ç¬¬ä¸Ģ çĻ¾
Ġæ¸ħ æĸ°
Ġbig ger
åħĥ å©´
ĠG ab
ĠTur key
æĹı éķ¿
åĩºäºĨ ä¸Ģä¸ª
Â·Â· Â·Â·
ä¸įèĥ½ åĨį
Ġè´ ¾
Ġy ield
ç»¼ èīº
ç¾İ åŃ¦
éĢĥ èĦ±
Ġl ists
Ġocc urs
ä¸į ç»Ļ
Ġè¿Ļ ä½į
çļĦ åıį
Ġl unch
Ġæ² Ł
åıª åľ¨
æī© å»º
äºº ç§°
ç«¥ å¹´
Ġp ip
åīį åİ»
æ²ī æĢĿ
ä¼¦ çĲĨ
æĮ¯ åĬ¨
Ġun us
Ġ ì
éĥ½ å°Ĩ
è¡Ģ èĤī
ãģ ¦
èĥĨ åŃĲ
æ°ĳä¸» åħļ
æīĢå¾Ĺ ç¨İ
å¯ ħ
Ġä¸Ģ èº«
ĠPri or
çĥ¹ é¥ª
ĠAust in
ĠTra ining
ĠH ig
ĠçĮ Ľ
çļĦ æĹ¶ä»£
çĤ¹ åįĬ
ĠPe ace
Ġfant astic
ä¸º æł¸å¿ĥ
ĠW as
å¤§ åı«
Ġä¸į åĩĨ
æ²¡ çĶ¨
çºªå½ķ çīĩ
Ġre act
åıĳ çĥŃ
åŀ ¦
ä¸İ æĪĳ
Ġå§ ĵ
ram a
ä»ĸä»¬ ä¹Ł
ĠçĿ¡ çľł
å¯¼èĩ´ äºĨ
åı¯ä»¥ ä»İ
ud i
ic ut
äº¤ ä»ĺ
æİ© é¥°
Ġpresident ial
Ġåĳ ĺ
çİ² çıĳ
Ġab use
ĠT able
ĠR aj
æĤ¬ æµ®
çļĦ åı¯èĥ½
åĴĮ å¯¹
äºĮåįģ åĽĽ
er ver
ä¸Ģ è½¬
Ġmembers hip
æľī äºĭ
çŃī äººçļĦ
ĠæıĲ ä¾Ľ
éĻª ä¼´
æīĵ å¼ĢäºĨ
æł¼ éĩĮ
åıĺ å¼Ĥ
çģµ æĦŁ
Ġå®ī éĿĻ
Ġå¸® åĬ©
Ġæ¶ ¨
C omm
ĠSt ew
ĠWith out
ĠJ osh
æĽ´ å¼º
ĠV i
è¿Ļç§į äºĭæĥħ
Ġè´£ ä»»
æĪĳä»¬ çİ°åľ¨
Ġr id
çĳ ¾
ç¦ģ å¿Į
æĥ¨ åı«
Ġcateg ories
ce ived
æİ¥åıĹ äºĨ
Ġeng agement
èĤº çĤİ
Ġmer ch
æĿ¥ åģļ
ĠM ind
å±± å¸Ĥ
è¯ķ åį·
Ġç¿» è¯ĳ
ä¸ª å°ı
èĢħ åľ¨
ä¾¿ åı¯
Ġexp osure
ĠMar ine
Ġphil osophy
Ġdisapp oint
æľī åħ´è¶£
è¿ľ å¾ģ
Ġ ä¸Ķ
Ġur l
ĠTok yo
çĶŁ åĮĸ
ä¹ĭ åĲį
æĺ¯ä¸Ģ æ¬¾
ä¹ĭéĹ´çļĦ åħ³ç³»
æĢ ł
Ġcon vent
Ġrele ases
net ic
ä½Ĩ å¦Ĥæŀľ
Ġæ± ª
Ġsett led
é£Ł æĿĲ
æľĢ å°ĳ
æİ¨ åĩºçļĦ
æ¿Ģ çĥĪçļĦ
æİ© æĬ¤
åµ ©
ãĢ ķ
çĥŃ çĤ¹
Ġæ¨¡ å¼ı
ä¸į åĪĨ
ĠM S
Ã Ł
Ġt ours
åı£ å¾Ħ
å§ĭ çļĩ
äºĨä¸Ģ éģĵ
Ġen roll
éĺµ éĺµ
ä»į æĺ¯
le ep
æŀģ åĵģ
å¹´ çĶ±
åıĳ åĩºçļĦ
çĿĢ å®ŀ
å·²ç»ı æĪĲä¸º
éļ¾ çľĭ
è¿ŀ è½½
ä½İ æ¸©
Ġå½ »
å© ¿
ool s
å¤© åįĹ
Ġæ±½ è½¦
ĠSever al
ter y
ç¨ £
Ġperfect ly
äºº çĶŁçļĦ
el and
æįĲ èµł
E l
æł¹æľ¬ å°±æ²¡æľī
Ġå¥ ĭ
éķ¿ ä¹ħ
èµ° è·¯
Ġä¸Ĭ ç½ĳ
çķª èĮĦ
Ġinflu enced
n on
ĠBr un
Ġæ±ī åŃĲ
N O
èµ· è¯ī
æīĵ äºĨä¸ª
Ġconst antly
ers hip
Ġs ail
ä¸º ä¸»è¦ģ
at al
çİ° ä¸º
è´Ł åĢº
åĪĨåĪ« åįł
ES S
ĠN umber
æµ· çļĦ
èµ« çĦ¶
Ġåħ´ å¥ĭ
iss ue
è¿Ļä¹Ī å¤ļå¹´
ĠæĿĲ æĸĻ
çļĦ å¿ĥçĲĨ
Ġè¯ ¸
ok ed
æĹ© èµ·
Ġb ike
äºĭ å®ľ
Ġtr ouble
èĥ¡ æ¤Ĵ
ĠF M
çĪ± å¿ĥ
ĠæĶ¾ æĿ¾
å½Ĵ çº³
ĠMor gan
e z
ĠM and
Ð¸ Ð½
åħ¶ä¸Ń åĨľä¸ļäººåı£
T E
Ġint ent
ĠI ron
ĠæĹ© é¥Ń
ĠAl an
Ġå¡ «
ĠF ig
ĵ é£İ
ä»ĸ æĥ³
Ġj ur
Ġå¥Ĺ è·¯
è¿ĳ è§Ĩ
ĠæµĻ æ±Ł
æľĪ ä¸Ń
æĢ» ç®Ĺ
çļĦ æķ°éĩı
8 99
ĠYou th
ĠãĢ İ
å¤§ çĲĨ
å¾Ĳ å·ŀ
Ġèį ·
Ġç¼ĺ åĪĨ
Ġå®¶ æĹı
èĤ¥ èĥĸ
åĸ §
åıĳå±ķ è§ĦåĪĴ
Ġsing ing
Ġå¤¸ å¼ł
Ġv end
çĿĢ äºĨ
å®ŀéĻħ æĥħåĨµ
f unction
Ġrat io
uten ant
> >
ĠH ug
ak h
æľ¬ æ¬¡
ç§° èµŀ
é¢Ĩ åıĸ
ç»Ī æŀģ
æĤ¬ æĮĤ
Ġw ra
é«ĺ æ¡£
ç®¡ å®¶
Ġcompos er
çļĦ è¯Ńè¨Ģ
å¼Ģ å¤´
å¤ļå°ĳ éĴ±
è¿Ļæł· çļĦäºº
Ġtw e
ĠåŃ Ķ
è¿½ æº¯
ĠAm b
fol io
ĠC ond
ĠæĦı è§ģ
ĠæĶ¹ å¤©
Ġæµª æ¼«
æľº çĶ²
æ¶ ķ
ĠåĪĨ å¼Ģ
æĹ¥ æľĪ
N ot
r ated
t itle
è® ª
é©¬ éĢĬ
Ġinst ruct
å½Ĵ æĿ¥
er ts
Ġf lying
ĠåĴ ³
åŃĺåľ¨ äºİ
åħ³ åį¡
ä½ł è¯´çļĦ
Ġne ut
ĠComp uter
Ġ( $
ä½ı éĻ¢
Ġmem ories
Ġlight ing
ä¸į æĥľ
om er
ä¹Ł åı¯èĥ½
æ²¡æľī åĬŀæ³ķ
è¾¾ æłĩ
Ñ ĺ
åľ¨ è¥¿
bs p
æĽ´åĬł çļĦ
åİŁæĿ¥ æĺ¯
Ġch ose
Ġpay ing
ĠCons ider
åħī çĽĺ
ĠG h
int s
Ġéĺħ è¯»
æľ¬ ä¼ļ
çŃī å¤ļ
ĠCl imate
å¯Ĵ åĨ·
æ³° å±±
Ġæĺ¾ å¾Ĺ
æĹ¶ åĮºä¸º
åı¤ é£İ
çĤ¹å¤´ éģĵ
Ġslow ly
åĨµ ä¸Ķ
L P
åĩ¶ æīĭ
Ġåľ° ä¸Ĭ
Ġæ¦´ èİ²
äºĮ çļĦ
ä¸į çľĭ
ç«¥ è¯Ŀ
Ġcontain er
Ġä¸Ľ ä¹¦åĲį
ĠSt adium
iction ary
èĪ Ķ
éĩį åĬĽ
é¢ģ å¸ĥ
æ°¨ éħ¸
åħ¨ éķĩ
åĲĦ çķĮ
Ġå¸ §
å¹² äºĨ
è¿¹ è±¡
as ant
æ¬¡ å¹´
Ġ5 9
çĥŃ è¡Ģ
Ġdim ensions
g ra
åħĪ è¡Į
ob by
éĢĨ è½¬
Ġprovid ers
Ġpriv acy
æ¼ı æ´ŀ
Ġintegr ated
Ġun f
10 6
hemat ics
æĮ ļ
Ġind eed
åı³ ä¾§
itzer land
æĬ¥ åĪĬ
é²ģ è¿ħ
åĩºçİ°åľ¨ äºĨ
å¹¶ è¢«
w estern
æľī çļĦäºº
ĠJew s
çĢĳ å¸ĥ
çļĦ èĩª
Ġus ual
éº» éº»
ä½ľ é£İ
Ġprefer red
çļĦ é©¬
Ġcon sole
Ġpopular ity
« åŃĲ
æľī ä¸Ģå®ļçļĦ
é£İ æīĩ
ĠÐ ľ
Ġæ»¡ æĦı
åĮķ é¦ĸ
6 50
åĲ¬ çļĦ
å°½ å¤´
å°Ĩ ä»ĸä»¬
åįĹ ä¸ĭ
Ġcent ers
ãĤ ĵ
åĲį é¢Ŀ
Ġrepresent ing
æĺ¯æĢİä¹Ī åĽŀäºĭ
ç³ ¯
åĪĩ éĻ¤
æľĪ ç»ı
æĶ¹ èī¯
Ġbelie fs
åĭĭ ç«ł
ĠG ordon
P ath
ch i
k t
åľ¨ åħ¶ä¸Ń
æīĭ èħķ
ä¸įæĺ¯ å¾Ī
è¿ĲåĬ¨ çļĦ
Ġç§ĺ å¯Ĩ
ar o
Ġmo ist
æĪĳ åıª
ä¸į åºĶ
Ġç¾½ ç»Ĵæľį
å®ŀ åĬ¡
w all
åŃ¦ è´¹
Ġmanag ing
Ġsubject s
å´ĩ ç¥¯
ĠM obile
Ġimp ossible
åĲĳ å¾Ģ
Ġchild hood
GB T
çļĦ åĬŀæ³ķ
èĤ Ľ
ĠO il
Ġ9 6
çĴ ¨
ĠåĪ© çĶ¨
å¹³ æĿ¿
ç¬¬ä¸Ģ åĲį
åĪ© æĸ¯
èĲ¨ åħĭ
å¦Ĥä»Ĭ çļĦ
Ġsuppl ies
ä¸į è¿ľå¤Ħ
ĠG ib
å¼¹ èį¯
çĭ¼ çĭĪ
Ġç¬¬åħŃ èĬĤ
å®¶ çĶ¨
è®¸ ç´«çĥŁ
Ġæĳ ĺ
æĤł æĤł
èħ Į
ĠD ance
åı¯ä»¥ çľĭ
oura ged
åıĳ è¡ĮçļĦ
å®¶ å±ŀ
èĲ¥ åľ°
çº³ ç²¹
ist ed
è¯¥ æł¡
çļĦ å¯¹è±¡
Ġco at
Ġent rance
Ġç½ ¢
Ġ äºĳåįĹ
ä½Ĩ å¥¹
ä¿® çĲĨ
è¿Ļ ä¸īä¸ª
æı £
å±ĭ é¡¶
{ \
æĺ ¼
ĠH aving
Ġposs ibility
Ġcra ck
çİ© çļĦ
ç©¿ éĢı
Ġexpect ations
ĠèģĮä¸ļ çĶŁæ¶¯
Ġor ange
ä¸Ģ æĹģ
å·¨ é¾Ļ
Ġd iversity
Ġdyn amic
å§ Ĺ
ĠF ather
ĠF uture
Ġincre ases
Ġt ou
åįĹ æĺĮ
åĬŁ åĬĽ
Ġrel ative
åĳ¼ åķ¸
g ov
æ·± å¤ľ
ĠFre der
ä¹ĭ ä½Ļ
Ġè¿Ļä¹Ī æĻļ
æķ£ çĥŃ
ä¸ĩ åĪĨ
ç¿ Į
Ġcent uries
Ġcomb ine
å¾ Ļ
åİ ķ
å¤ª åı¤
çŁ¥è¯Ĩ çļĦ
æĪĲç«ĭ çļĦ
çıł åŃĲ
Ġeng aging
Ġæħ Į
d am
çĽ¸ éģĩ
ä¹¦ æĪ¿
èµ° åĪ°äºĨ
æľīäºº åı£
Ġprincip les
K ey
åŃ ľ
ĠW y
æ´Ĺ è¡£
Ġemploy ed
æŁ´ æ²¹
Ġproced ures
æķĻ ä¸»
ĠçľŁ çĽ¸
ard o
æŀĹ çļĦ
äºĨ åĳ¢
ĠAl abama
å®¶æĹı çļĦ
åİŁ æľī
Ġçľ¼ æ³ª
sh ow
F O
ors hip
oy d
åģĩ æĹ¥
åĽ½åĨħ çļĦ
ä¹ĭ åĬ¿
ĠP ast
åį° å°¼
Ġcontin uing
æ¶¦ æ»ĳ
ä¸Ģ çŀ¬éĹ´
8 95
Ġ ä½³
èī° èĭ¦
Ġ5 7
åĨľ äº§åĵģ
åĪ¶åº¦ çļĦ
æĺ¯ èĩªå·±
å¾Ĺ å¤ª
ĠP ear
Ġv ital
åıĹ çĲĨ
ç¼ĵ åŃĺ
Ġtell ing
se ason
å²Ľ çļĦ
æļĹ èĩª
åįģäºĮ æĿ¡
Ġcarry ing
æĢ ¯
å°ı åĦ¿
ĠSt aff
æĪ¿ ä»·
Ġå·¥ ç¨ĭ
äº® çĤ¹
Ġcontroll ed
Er ror
ĠF OR
ĠV IP
æŀĹ ä¸ľ
åĿĩ åı¯
è®¾å¤ĩ çļĦ
ĠB ishop
ul ating
æĺİ äº®
ä¼ª è£ħ
ĠDou glas
Ġout standing
ç´ł åħ»
çļĦ åľ¨
æĺİ æĹ¥
D D
ç»ı éĶĢ
Ġçľĭ å¾Ĺ
è¿Ŀ èĥĮ
å®ĮåĸĦ çļĦ
èĦ ĵ
Ġen emy
çĭŃ çªĦ
ĠBru ce
æ´Ĺ æ¾¡
Ġmount ains
ä½ł åĴĮ
Ġdis pl
å¯¼èĩ´ çļĦ
æ¯ĶåĪ© æĹ¶
Ġåħ¨ ä¸ĸçķĮ
çŁ© éĺµ
æĺ¯ æĪĳçļĦ
Ġle ather
Ġæĸ° é²ľ
Ġtow er
ä½ľ çļĦ
Ġå¥½ åĩłä¸ª
ãĢĭ ;
æ²ī å£°éģĵ
Ġins ights
æĩ ¿
Ġfac ilit
æİĴè¡Į æ¦ľ
è¡Ģ èħ¥
ç¥ŀ çİĭ
ç«Ļ ç«ĭ
æĲľ éĽĨ
æľī ä¸ĢçĤ¹
ä¸Ĭ åıĳè¡¨
ĠL anguage
æ¬¡ äºİ
ĠM ars
éĤ£ ä¸ªäºº
æ²ī æ·Ģ
ä»İ å®¹
Ġcuis ine
æ²¡ éĴ±
å¾Ī å¼ºçļĦ
Ġçĥ¦ æģ¼
ä¸Ńå°ı ä¼ģä¸ļ
ĠViet nam
Ġåĩ ¯
å±ĭ åŃĲ
ä¸ĭ è¾¾
ub b
çļĦä¸Ģ åº§
è½½ ä½ĵ
æĺ¾çĦ¶ æĺ¯
çĿĢ çľ¼çĿĽ
igen ous
ä»İ ä»ĸ
å·´ åħĭ
fl ix
Ġsubsequ ent
é© ¿
å¾· æĸ¯
éĿĴ äºĳ
èĪĮ å¤´
Ġgraph ics
Ġæ²» çĸĹ
éĺ ľ
æģ ª
çļĦ å¯¹æīĭ
ĠB ey
åĪĨ æł¡
å§Ķ ä¹¦è®°
èĥ¡ èĲĿåįľ
Ġjournal ist
æ· Į
è½¬ è½½
Ġ ä¾ĿæĹ§
åı¯ä»¥ åİ»
æľį å½¹
æĪ· åŀĭ
Ġç« ŀ
Ġp itch
æĭ ĩ
Ġèħ ¹
est ed
èĤĿ èĦı
Ġmill ions
é«ĺçŃī åŃ¦æł¡
è¿Ļ èĤ¡
ort heast
ä½ķ å¤Ħ
Ġfin ance
ĠBib li
Ġreal ize
ä¸į ç¡®å®ļ
ç¾Ĭ èĤī
G u
ä¸¤ åı¥
è¢« èªīä¸º
å¤ĸ è¡¨
æĶ¶ æķĽ
ĠSp irit
Ġp s
ĠMic hel
éĩ ī
Ġsh oes
æ´»åĬ¨ ä¸Ń
åģ¥åº· çļĦ
çī Ł
ĠO bs
ie val
ä½Ļ ç¯ĩ
Ðµ Ð´
èĪ¹ ä¸Ĭ
å¤ª ä¸Ĭ
æĶ¶ è§Ĩ
ç»Ĩ ç»Ĩ
Ġè§Ĥ ä¼Ĺ
å¤§ åĲĮ
Ġpick ed
ä»¥ å¤ĸçļĦ
åķĨ åŁİ
æľĽ åĲĳ
ä¼¼ä¹İ æĺ¯
ĠæĦ¿ æľĽ
æ°ĳ ä¿Ĺ
è®¡åĪĴ çĶŁèĤ²
åºĦ åĽŃ
ipp i
æ´ª æ°´
ĠAtl anta
é»ĳ äºº
Ġdistrib uted
ĠTh ird
çīµ å¼ķ
è¯¦ç»Ĩ çļĦ
ĠL am
èĢĮ æĪĲçļĦ
Ġmusic ian
ĠI de
ug s
Ġon ion
åıª åī©
åĸ µ
Ġs ons
ĠéĻ ¢
Ġè¶ħ è¿ĩ
ĠçŁŃ è¢ĸ
çĶ± æĿ¥
éļ¾ çĤ¹
æĹĹ èĪ°
è¡Į æĿİ
æĽ´ æĶ¹
Ġme ets
éľĩ èį¡
? ãĢį
èį Ķ
çŃ¹ å¤ĩ
Ġder ived
ĠTransport ation
åĴĮ ä¸Ń
ĠM s
åĶĲ ä¸ī
8 98
R C
Ġ ä¸½
ĠR ound
ĠJ ason
åĲ¬ è¯Ŀ
let ter
Ġrepresent ative
ang ed
æĭĽ æłĩ
æ§ Ĳ
è¯ łéĩĬ
åħ° å·ŀ
å»¶ è¿Ł
ĠæĴ ¸
Ġå¤į ä¹ł
Ġg iant
åĩłä¹İ æ²¡æľī
èĩª æľī
em on
èĲ¨ å°Ķ
æ¢³ çĲĨ
2 01
Ð¾Ð º
å¦ĸ æĢª
Ġle tt
çŁ¥ åİ¿
çī¹ æľīçļĦ
åĽ½éĻħ æľºåľº
Ġimmedi ate
èĭ Ľ
åªĴ ä»ĭ
S W
y es
Ġbe ans
åħ¨ åĮº
13 5
Ġå¤± æģĭ
Ġbreat h
ĠéĢ Ĩ
çļĦ åŁİå¸Ĥ
è¿ĺ è¯·
éĿ¢ æĿ¿
åĮĸ è§£
å·¦ ä¾§
ä½Ĩ è¿ĺæĺ¯
Ġå¤ª ä¹ħ
æł¹æľ¬ å°±ä¸į
Ġdel ight
Ġpri ze
ĠOrig in
ax y
Ġå¸Ī åĤħ
ä¹ĭ ä»¥
ç»Ĩ èĩ´
Ġå¹´è½» äºº
ç¾½æ¯Ľ çĲĥ
ä¸Ĭ æ¸¸
æ´» çļĦ
æł¼ å¤ĸ
ä¸į èĩ³äºİ
åıĻ äºĭ
ä¹¡æĿĳ äººåı£
ĥ èŁ¹
11 3
èº«ä»½ è¯ģ
Ġparticip ated
å¼Ģ å·¥
ĠæĢ ¼
Ġour selves
èµ¢ äºĨ
Ġä¸įå¤ª å¥½
çļĦä¸Ģ éĿ¢
ĠèĢģ å®ŀ
Ġlist ening
Ġå®ŀéĻħ ä¸Ĭ
ä¸ľ èİŀ
G O
ĠT el
il er
èµ· åºĬ
ag u
æĮĩ åĲĳ
å·´ å°Ķ
Ġ çļĩ
å¼Ģ èĬ±
æĥħ æĢĢ
Ġv it
åį³ æĹ¶
çľĭ æł·åŃĲ
æłĩ è¯Ĩ
åı¶ æŀ«
ä¹Łä¸į è¦ģ
Ġprof it
Ġ äºīåıĸ
10 9
ĠAcc ount
Ġfrequ ency
çľĭ æ¸ħ
est ab
ĠCo ver
æ¶ ¤
åĲ¦ å®ļ
åľ¨ éĩĮéĿ¢
åı£ è¢ĭ
ç«¯ åı£
Ġmod er
ĠHar vard
Ġk ne
ĠD ick
ç¥ŀ çģµ
æķ°æį® çļĦ
Ġmanag ers
åħ± è®¡
ro t
Ġè¯ º
å¹ħ åº¦
äºº æľī
åįİ åĮĹ
Ġå§ ¿
èħĲ è´¥
Ġbe ef
ä½į æķ°
åįİ ä¸½
æ¸ħæĻ° çļĦ
å·¡ éĢ»
åħ¶ éĹ´
è¾ĥ å°ı
åĲ¬ åĲ¬
èģĮ åĳĺ
ç» ·
ä¿® éģĵ
Ġinstit ution
æĿ¥ åİĨ
æ° ĵ
å¥½ å¥½çļĦ
åħ¬ åŃĻ
å¤ª å¤§çļĦ
Ġä¸ī è§Ĥ
æĬĹ æĪĺ
b ow
é¦ĸ ä¸ª
Ġè ł
hed ral
Ġcomple ment
Ġä¸» é¢ĺ
åĳĬè¯ī ä»ĸ
åįģä¸Ģ æĿ¡
Ġå¥½ è¿Ĳ
oc a
çī¹ å®ļçļĦ
ĠéĢĤ çĶ¨
åĨľæĪ· æĢ»æķ°çļĦ
Ġ ÃĹ
æĹ¶ æĬ¥
or ia
åľ¨ æµ·
çĻ½ èıľ
æĭħ å½ĵ
Ġindic ate
Ġcomp ens
éĤ» å±ħ
Ġrespons es
ç´ł çļĦ
olog ists
ĠBr and
çĶŁ çĹħ
çīĩ æ®µ
ä¹Ŀ å·ŀ
æ·¡ çĦ¶
on om
Ġ- >
å¼Ģå§ĭ æ¸¸æĪı
Ġè¯· åģĩ
ĠC ities
ä¸» æīĵ
æ¡Į éĿ¢
el ing
Ġç» Ń
åħħ æĸ¥
Ġformer ly
éĦĻ è§Ĩ
ĠM ess
Ġpropos al
ĠÐ· Ð°
ä»İ å¤´
åıĺ è¿ģ
è¡Įä¸º çļĦ
ĠæıĲ é«ĺ
Ġ# #
Ġfact s
p op
Ġp ink
ig s
ĠåĪĨ æŀĲ
æ¡£ æ¬¡
a fter
çĽ´ æµģ
ä¸ĸ æ°ĳ
é£ŀ éĢŁ
çīĮ åŃĲ
al so
Ġb ars
åĮĸ äºĨ
åĲĮ æĢ§
è¦ģæ±Ĥ çļĦ
ĠéĿĴ å²Ľ
Ġ! =
åĪĨéĴŁ åĲİ
ĠVe gas
Ġast ron
è£ħ æľī
åĲĦç§į åĲĦæł·çļĦ
Ġperson ality
æĭĨ éĻ¤
ĠåºĹ éĩĮ
ä¹° ä¸ª
' ;
ä¸¤ å®¶
åŃ µ
åįł æ¯Ķ
æĥħ æĦ¿
æ¦ Ĩ
é¦ĸ æī¹
ĠBl og
ç»ıéªĮ çļĦ
äºº æīĢ
Ġéħ¸ å¥¶
Ġflav ors
é£İæł¼ çļĦ
ĠO d
ri ers
åı¶ åŃĲ
åĵģçīĮ çļĦ
éĶĻ çļĦ
Ġæĭ¿ åĪ°
çŁ¿ äº§
éĢļ æĬ¥
åĳĬ åĪ«
rest ling
Ġåľ¨ çº¿
Ġè¯´ çĿĢ
é©¬ çļĦ
çļĦä¸Ģ æĿ¡
å¸Į å°Ķ
åıĳå¸ĥ çļĦ
ç¦ §
ä»ĸ ä¾¿
Ġinj ured
Ġvict ims
ĠT y
å°ı éķĩ
åĨ· æ±Ĺ
Ġdefe at
Ġpro ve
ä¸ĢçĤ¹ çļĦ
çĶŁ æĢķ
æĺŁ éĻħ
Ġ ä¼łè¯´
äºº å¤ļ
æľĢ å¼ºçļĦ
ĠéŃħ åĬĽ
æĢ§ ä¸İ
çĶ¨ ä»¥
Ġad min
å¹² æ¶ī
che ck
å¿Ļ ç¢Į
ĠèĪ ¹
æĮ¡ ä½ı
Ġç¬Ķ è®°
ä½ł æĪĳ
åĴĮ çİĭ
å¾Īå¤ļ æĹ¶åĢĻ
ĠInd ones
åĹĵ åŃĲ
Ġæ± Ĺ
ĠLiber al
« æ¯Ľ
å¥³ ä¸»è§Ĵ
ĠçĽ Ĵ
éĺ² ç©º
Ġrepresent ation
è¿Ľ åĩºåı£
ç«£ å·¥
åľ¨ è¿ĻäºĽ
Ġæ¼ Ĥ
å¿ħ éľĢ
è¿Ļ ä¸Ģä¸ª
ç¬ ĥ
å»º æ¨¡
å½±åĵį çļĦ
Ġå± Ĥ
å¤§ çĪ·
è¯ķ çĤ¹
ĠèĢģ äºº
é«ĺ è´¨éĩı
Ad d
Ġsomew hat
ĠS ac
Ġunder t
éļ¶ å±ŀ
æĺ¯ è¿Ļæł·çļĦ
ĠMo ore
ĠS ep
çĺ Ł
i em
p ur
åĴĮ åĽ½å®¶
ĠåķĬ ä¸į
ne ver
è¿Ļ å¸®
å¯¹ æĪĺ
Ġknow ing
O B
y cl
ä¹Ł æ¯Ķè¾ĥ
Ġphot ography
åĬł è½½
ç»Ŀ ä¸įä¼ļ
å« ¡
Ġmanufactur ers
ç«ĭæĸ¹ ç±³
Ġal ive
ear ing
åĪĻ åľ¨
ĠéĽ ¾
Ġlim its
Ġimprove ment
O H
ä¿ĿæĬ¤ åĮº
G M
or er
çļĦ çľŁ
æİ§åĪ¶ åĻ¨
Ġmar ks
ĠéĦ Ļ
è§ ĳ
ĠH ans
éħ °
å¤Ħ éķ¿
st art
æĸŃ è£Ĥ
æ´ĭ æ´ĭ
Ġç§» åĬ¨
èĭ ŀ
å¨ ł
Ġéľ į
ç³»åĪĹ çļĦ
ĠMay or
f ire
Ã ª
ĠH op
åīį æ²¿
Ġher itage
ç¾¤ çļĦ
ĠçĲĨ è®º
äºĶ äºº
åĬł å°Ķ
ĠçĶ¨ å¿ĥ
å² Ķ
æĻ¯ èī²
èĬĿ éº»
Ġb old
åħ¨ å¹´
è½¦ åİ¢
Ġåĺ ²
åģĩ æľŁ
Ġæ¤į çī©
ĠB orn
æĹł ä¸į
æī¹ åıĳ
å¤ļ ä½Ļ
åĪĩ çļĦ
ĠâĹ İ
æĺ¯ éĿŀ
Ġun e
ç»½ æĶ¾
end a
æľª ç»ı
å·¨ å¤´
d ers
ç¦» èģĮ
æĺŁ ç³»
ĠæĻ ´
Ġå®¢ æľį
å¸Ĳ ç¯·
Ä Ľ
ĠGr am
æ¸ ²æŁĵ
éĢļ è¡Į
Ġæī ĳ
ĠçĶ¨ æĿ¥
In ter
ush ing
Ġcommunic ations
èĶ Ĺ
orm al
ĠChrist opher
Ġ ^
åĮĪ çīĻåĪ©
èİ·å¾Ĺ çļĦ
Ġcap abilities
è§ģ ä»ĸ
Ġèµ° èµ°
æ²¡ åķ¥
æ¸ħåįİ å¤§åŃ¦
Ġche ap
æĮª å¨ģ
ĠD allas
èģĶ ä¿Ŀ
Ġhigh lights
ä¹īåĬ¡ æķĻèĤ²
ä¸Ģ è½®
è¦ģ å¡ŀ
ç®¡çĲĨ ç³»ç»Ł
w er
um ps
é«ĺ ç§ĳæĬĢ
Ġæ· »
æ¸ħæ¥ļ äºĨ
Ġhop es
å°± çľĭ
Ġåĵª æĢķ
Ġæ¡ £
Ġst ake
ç¾İ è§Ĥ
Ġopp osed
N T
è¯´ ä½ł
éŃĶ æľ¯
çļĦ éģĵè·¯
åħ¬åı¸ åľ¨
Ġè®° å½ķ
Ġç»¿ èī²
ä¹¦ éĿ¢
Ġæ¡ ĳ
ĠNor way
åĴĮ æ°´
æĸ¯ åħĭ
Ġj ava
Ġæ²¡ åĲĥè¿ĩ
åĳ¼ åĲģ
è¶£ åĳ³
Ġproced ure
Ġåķ ĥ
ur er
Ġè¢« çªĿ
ĠTem ple
å·¦ è¾¹
Ġpublic ations
Ġä¿Ŀ æļĸ
Ġmaintain ed
èĦĳæµ· ä¸Ń
å°± çĽ´æİ¥
éĤ£ åĲį
è§ģ çĬ¶
å¤ª å¥½äºĨ
éĿĴ æµ·
ä¹Ŀ å¤©
55 5
ĠPal est
Ġrestrict ions
æľ¬ æĸĩ
ĠTe le
ĠSer ver
Ġacqu is
éº ĵ
è°ģ çŁ¥éģĵ
ãģ Ĩ
Ġ} ,
ĠçĬ ¹
ä¸ļ çķĮ
çħ¤ çŁ¿
Ĭ å¨ł
è¿ĺ åı¯
ist ical
ĠäºĶ æľĪ
J ava
Ġbre aking
ä¸į ç»ı
åĽ½ éģĵ
st ep
ĠFrank lin
åı¯ä»¥ å°Ĩ
Ġar ran
Ġmag ic
ĠSong s
m aking
åĳ¨ åĪĬ
Ġconne ctions
åĵ¥ä¼¦ æ¯Ķäºļ
å°ı å£°
èĥİ åĦ¿
ä¸ĵæ³¨ äºİ
Ġè®¸ å¤ļ
Ġext reme
che ll
ĠéĿ¢ èĨľ
Ġchair man
u its
Ġr ising
æ² Ĥ
ĠE ag
åķĨ è´¸
ä¹ĭ åŁİ
Ġy es
åľ¨ æķ´ä¸ª
Ġfranch ise
éŁ ¶
ĠåĨį æ¬¡
ä¹Ĵ ä¹ĵ
b in
10 7
ä¸ºä»Ģä¹Ī ä¸į
ĠMiss iss
åľ° å°Ĩ
ä½Ĩ çİ°åľ¨
æĦıä¹ī ä¸Ĭ
ä¹Ł è®©
å®¶ ä¸»
åĪĩ å°Ķ
çļĦ è·Ŀç¦»
èµ¶ å¿«
Ġb le
ĠG iven
ĠConnect icut
ä¸Ń å°ıåŃ¦
el ve
am ental
ĠD J
Ġper mission
ĠæľĪ äº®
æĻ®éĢļ è¯Ŀ
çĶ· äººçļĦ
å¸ĮæľĽ èĥ½
Ġcrit ics
it is
æľī çĽĬ
Ġçİ Ħ
ĠY et
Ġèµ· çłģ
Ġç¬¬ åįģä¸Ģç«ł
ä¿Ŀ æ¸©
é¢Ĩ ä¸»
EE E
æĦı æĦ¿
ig a
åĲĦ æĸ¹
Ġå¸¦ æĿ¥
Ġtemper atures
éķ¿ äºĨ
äºĨ ä¸ĬæĿ¥
ä¸ĩ ä¸ĩ
ov ation
ç½Ĺ å¾·
çĶ² çĬ¶èħº
æĶ¹ åĪ¶
æĺ¯ä½įäºİ ç¾İåĽ½
è§Ĵ çļĦ
ä»¿ çľŁ
dis play
2 60
è§£ è¯´
Ġå¿ Ĺ
Ġte ch
Ġ3 60
ĠTe ch
çīĪ çº¸
å°Ķ å¤ļ
åħ³ æĢĢ
Ġkind s
ãĢģ (
ĠD omin
æĪĳä»¬ ä¼ļ
Ġ6 2
ä½Ľ ç½Ĺ
æİ¢ ç©¶
è¿ª å£«
åį«çĶŁ æīĢ
Ã¡ s
åĤ¬ åĬ¨
ĠProdu ction
èµ £
åĲİ åı°
Ġperson ally
Ġæ¸¸æĪı å¤§å°ı
Ġansw ers
Ġt ab
åĩºåİ» äºĨ
T w
çĶ¨ åĪ°
è§ī éĨĴ
èĥľ è´Ł
æľīæķĪ çģĮæºī
Ġappro val
Ġtot ally
ir ts
æ·ĭ æ¼ĵ
Ġrom antic
æĪĳ ä¸ĢçĽ´
Ġwood en
? (
å®ļ çĲĨ
ĠJun ior
ĠçŁŃ ä¿¡
ĠMean while
t ax
id o
åĲį çīĩ
ä½ı å®¿
ang el
åıĪ å¦Ĥä½ķ
å³ ¨
ä½ľåĵģ çļĦ
éĺ³ åİ¿
Ġm ob
æĪĳ ä¸įä¼ļ
ĠèĬ Ĵ
Ġcompos ition
Ġp ul
ĠS ud
æ¼ ±
æĪĳ çľŁçļĦ
ĠF C
ç¥ Ľ
ul um
è¿Ľ çļĦ
ĠCh all
Ñģ ÑĮ
çĲĨäºĭ éķ¿
ĠH oll
äºĨä¸Ģ è·³
ä¹Ł æĥ³
Ġsy nd
Ġpromot ing
Ġunc ertain
Ġåıį é©³
ĠæĳĦåĥı å¤´
or ous
ä½ł è¿ĺæĺ¯
æĹ© æĻ¨
åı² æĸĻ
ç½® äºİ
be an
Ġsus pect
es c
åĢŁ æ¬¾
fam ilies
ä¸Ģ åľĪ
Ġ ä¹¡
åħ¨ å®¶
ç¿ ©
æİĴ åºı
èĲ§ çĤİ
æ¤ħ åŃĲ
B R
è¿Ļ æľ¬
ĠåĬ ²
ĠCl in
å¯¹ éĿ¢çļĦ
æĶ¹ è£ħ
ä¸¾ ä¾ĭ
åĬĽ æ±Ĥ
é¦ĸ ä½į
S m
çļĦè¯Ŀ é¢ĺ
èĵ ¦
Ġè¿Ľ æŃ¥
ä¿® åħ»
èĢĮ ä»ĸ
ä¹ĭ åĪĿ
éħ¸ çĽĲ
ç¬¬ä¸ī æ¬¡
Th at
ĠBet ween
ä¸¾ äºº
ĠCol on
Ġæľº ç¥¨
åĮĸå¦Ĩ åĵģ
Ġst rict
èĬĤ è¯¾
è´Ł èį·
æīĢæľī äººçļĦ
è®¸å¤ļ äºº
ĠHe y
Ġè¡Į åĬ¨
ĠLear n
æĹł å¿§
æĪĸ åħ¶ä»ĸ
æľĢæĹ© çļĦ
åħ¨ åľº
èµ° åĬ¿
Ġè¶ ´
ĠGree ce
å¤§ å°ıçļĦ
åĽŀ è¿ĩ
Ġexpl oring
Ġfac es
ĠMc K
ĠAnn ual
æĪĳ åĨį
æĶ¯ éħį
ant ry
ĠT ag
Ġåį §
() );
è·¯ çĶ±
åĽłä¸º åľ¨
Ġimplement ed
è¯´ èĩªå·±
äºĮ èĢħ
åĬł æĭī
å»º æĿĲ
Ġfall s
Ġoper ates
ç¨ĭåºı åĳĺ
en cing
äºĮåįģ å¹´
ĠGirl s
Ġä»ĸ çļĦ
Ġå©ļ ç¤¼
é©¬åħĭæĢĿ ä¸»ä¹ī
Ġacc used
Ġassess ment
[...]
