{
  "version": "1.0",
  "truncation": null,
  "padding": null,
  "added_tokens": [
    {
      "id": 0,
      "content": "<|endoftext|>",
      "single_word": false,
      "lstrip": false,
      "rstrip": false,
      "normalized": false,
      "special": true
    },
    {
      "id": 1,
      "content": "<|im_start|>",
      "single_word": false,
      "lstrip": false,
      "rstrip": false,
      "normalized": false,
      "special": true
    },
    {
      "id": 2,
      "content": "<|im_end|>",
      "single_word": false,
      "lstrip": false,
      "rstrip": false,
      "normalized": false,
      "special": true
    },
    {
      "id": 3,
      "content": "<|think|>",
      "single_word": false,
      "lstrip": false,
      "rstrip": false,
      "normalized": false,
      "special": true
    },
    {
      "id": 4,
      "content": "<|/think|>",
      "single_word": false,
      "lstrip": false,
      "rstrip": false,
      "normalized": false,
      "special": true
    },
    {
      "id": 5,
      "content": "<unk>",
      "single_word": false,
      "lstrip": false,
      "rstrip": false,
      "normalized": false,
      "special": true
    }
  ],
  "normalizer": {
    "type": "Sequence",
    "normalizers": [
      {
        "type": "NFKC"
      },
      {
        "type": "Replace",
        "pattern": {
          "Regex": "\\s+"
        },
        "content": " "
      },
      {
        "type": "Strip",
        "strip_left": true,
        "strip_right": true
      }
    ]
  },
  "pre_tokenizer": {
    "type": "Sequence",
    "pretokenizers": [
      {
        "type": "Split",
        "pattern": {
          "Regex": "(?<![.\\/\\-:a-zA-Z])\\d{1,3}(?=(\\d{3})*\\b)"
        },
        "behavior": "Isolated",
        "invert": false
      },
      {
        "type": "ByteLevel",
        "add_prefix_space": false,
        "trim_offsets": true,
        "use_regex": true
      }
    ]
  },
  "post_processor": null,
  "decoder": {
    "type": "ByteLevel",
    "add_prefix_space": true,
    "trim_offsets": true,
    "use_regex": true
  },
  "model": {
    "type": "BPE",
    "dropout": null,
    "unk_token": "<unk>",
    "continuing_subword_prefix": null,
    "end_of_word_suffix": null,
    "fuse_unk": false,
    "byte_fallback": false,
    "ignore_merges": false,
    "vocab": {
      "<|endoftext|>": 0,
      "<|im_start|>": 1,
      "<|im_end|>": 2,
      "<|think|>": 3,
      "<|/think|>": 4,
      "<unk>": 5,
      "!": 6,
      "\"": 7,
      "#": 8,
      "$": 9,
      "%": 10,
      "&": 11,
      "'": 12,
      "(": 13,
      ")": 14,
      "*": 15,
      "+": 16,
      ",": 17,
      "-": 18,
      ".": 19,
      "/": 20,
      "0": 21,
      "1": 22,
      "2": 23,
      "3": 24,
      "4": 25,
      "5": 26,
      "6": 27,
      "7": 28,
      "8": 29,
      "9": 30,
      ":": 31,
      ";": 32,
      "<": 33,
      "=": 34,
      ">": 35,
      "?": 36,
      "@": 37,
      "A": 38,
      "B": 39,
      "C": 40,
      "D": 41,
      "E": 42,
      "F": 43,
      "G": 44,
      "H": 45,
      "I": 46,
      "J": 47,
      "K": 48,
      "L": 49,
      "M": 50,
      "N": 51,
      "O": 52,
      "P": 53,
      "Q": 54,
      "R": 55,
      "S": 56,
      "T": 57,
      "U": 58,
      "V": 59,
      "W": 60,
      "X": 61,
      "Y": 62,
      "Z": 63,
      "[": 64,
      "\\": 65,
      "]": 66,
      "^": 67,
      "_": 68,
      "`": 69,
      "a": 70,
      "b": 71,
      "c": 72,
      "d": 73,
      "e": 74,
      "f": 75,
      "g": 76,
      "h": 77,
      "i": 78,
      "j": 79,
      "k": 80,
      "l": 81,
      "m": 82,
      "n": 83,
      "o": 84,
      "p": 85,
      "q": 86,
      "r": 87,
      "s": 88,
      "t": 89,
      "u": 90,
      "v": 91,
      "w": 92,
      "x": 93,
      "y": 94,
      "z": 95,
      "{": 96,
      "|": 97,
      "}": 98,
      "~": 99,
      "¡": 100,
      "¢": 101,
      "£": 102,
      "¤": 103,
      "¥": 104,
      "¦": 105,
      "§": 106,
      "¨": 107,
      "©": 108,
      "ª": 109,
      "«": 110,
      "¬": 111,
      "®": 112,
      "¯": 113,
      "°": 114,
      "±": 115,
      "²": 116,
      "³": 117,
      "´": 118,
      "µ": 119,
      "¶": 120,
      "·": 121,
      "¸": 122,
      "¹": 123,
      "º": 124,
      "»": 125,
      "¼": 126,
      "½": 127,
      "¾": 128,
      "¿": 129,
      "À": 130,
      "Á": 131,
      "Â": 132,
      "Ã": 133,
      "Ä": 134,
      "Å": 135,
      "Æ": 136,
      "Ç": 137,
      "È": 138,
      "É": 139,
      "Ê": 140,
      "Ë": 141,
      "Ì": 142,
      "Í": 143,
      "Î": 144,
      "Ï": 145,
      "Ð": 146,
      "Ñ": 147,
      "Ò": 148,
      "Ó": 149,
      "Ô": 150,
      "Õ": 151,
      "Ö": 152,
      "×": 153,
      "Ø": 154,
      "Ù": 155,
      "Ú": 156,
      "Û": 157,
      "Ü": 158,
      "Ý": 159,
      "Þ": 160,
      "ß": 161,
      "à": 162,
      "á": 163,
      "â": 164,
      "ã": 165,
      "ä": 166,
      "å": 167,
      "æ": 168,
      "ç": 169,
      "è": 170,
      "é": 171,
      "ê": 172,
      "ë": 173,
      "ì": 174,
      "í": 175,
      "î": 176,
      "ï": 177,
      "ð": 178,
      "ñ": 179,
      "ò": 180,
      "ó": 181,
      "ô": 182,
      "õ": 183,
      "ö": 184,
      "÷": 185,
      "ø": 186,
      "ù": 187,
      "ú": 188,
      "û": 189,
      "ü": 190,
      "ý": 191,
      "þ": 192,
      "ÿ": 193,
      "Ā": 194,
      "ā": 195,
      "Ă": 196,
      "ă": 197,
      "Ą": 198,
      "ą": 199,
      "Ć": 200,
      "ć": 201,
      "Ĉ": 202,
      "ĉ": 203,
      "Ċ": 204,
      "ċ": 205,
      "Č": 206,
      "č": 207,
      "Ď": 208,
      "ď": 209,
      "Đ": 210,
      "đ": 211,
      "Ē": 212,
      "ē": 213,
      "Ĕ": 214,
      "ĕ": 215,
      "Ė": 216,
      "ė": 217,
      "Ę": 218,
      "ę": 219,
      "Ě": 220,
      "ě": 221,
      "Ĝ": 222,
      "ĝ": 223,
      "Ğ": 224,
      "ğ": 225,
      "Ġ": 226,
      "ġ": 227,
      "Ģ": 228,
      "ģ": 229,
      "Ĥ": 230,
      "ĥ": 231,
      "Ħ": 232,
      "ħ": 233,
      "Ĩ": 234,
      "ĩ": 235,
      "Ī": 236,
      "ī": 237,
      "Ĭ": 238,
      "ĭ": 239,
      "Į": 240,
      "į": 241,
      "İ": 242,
      "ı": 243,
      "Ĳ": 244,
      "ĳ": 245,
      "Ĵ": 246,
      "ĵ": 247,
      "Ķ": 248,
      "ķ": 249,
      "ĸ": 250,
      "Ĺ": 251,
      "ĺ": 252,
      "Ļ": 253,
      "ļ": 254,
      "Ľ": 255,
      "ľ": 256,
      "Ŀ": 257,
      "ŀ": 258,
      "Ł": 259,
      "ł": 260,
      "Ń": 261,
      "Ġå": 262,
      "Ġæ": 263,
      "Ġä": 264,
      "Ġç": 265,
      "Ġ,": 266,
      "Ġè": 267,
      "Ġã": 268,
      "ĠãĢ": 269,
      "Ġä¸": 270,
      "Ġt": 271,
      "Ġé": 272,
      "Ġçļ": 273,
      "ĠçļĦ": 274,
      "Ġa": 275,
      "he": 276,
      "in": 277,
      "ĠãĢĤ": 278,
      "er": 279,
      "on": 280,
      "ä¸": 281,
      "Ġ.": 282,
      "Ġthe": 283,
      "re": 284,
      "Ġs": 285,
      "Ġäº": 286,
      "at": 287,
      "Ġo": 288,
      "en": 289,
      "an": 290,
      "Ġåı": 291,
      "äº": 292,
      "Ġw": 293,
      "or": 294,
      "Ġc": 295,
      "es": 296,
      "is": 297,
      "it": 298,
      "Ġæľ": 299,
      "ed": 300,
      "al": 301,
      "Ġf": 302,
      "ar": 303,
      "Ġp": 304,
      "nd": 305,
      "Ġb": 306,
      "Ġåľ": 307,
      "Ġåħ": 308,
      "Ġof": 309,
      "Ġin": 310,
      "Ġå¹": 311,
      "Ġä»": 312,
      "ĠãĢģ": 313,
      "ing": 314,
      "ĺ¯": 315,
      "Ġè¿": 316,
      "ä»": 317,
      "Ġ)": 318,
      "ic": 319,
      "Ġ(": 320,
      "æľ": 321,
      "ou": 322,
      "Ġå¤": 323,
      "åħ": 324,
      "Ġm": 325,
      "Ġand": 326,
      "ion": 327,
      "as": 328,
      "Ġd": 329,
      "Ġä¸Ģ": 330,
      "åĪ": 331,
      "Ġto": 332,
      "å¤": 333,
      "ĠåĲ": 334,
      "åı": 335,
      "le": 336,
      "Ġåľ¨": 337,
      "å®": 338,
      "Ġä½": 339,
      "ĠæĹ": 340,
      "ro": 341,
      "Ġ\"": 342,
      "ĠæĪ": 343,
      "ĠS": 344,
      "Ġæĺ¯": 345,
      "ĠT": 346,
      "Ġä¹": 347,
      "ĠåĪ": 348,
      "åĬ": 349,
      "Ġh": 350,
      "Ġ-": 351,
      "åĽ": 352,
      "Ġå°": 353,
      "ĠA": 354,
      "Ġå®": 355,
      "åĲ": 356,
      "ĠçĶ": 357,
      "ĠC": 358,
      "Ġå¹´": 359,
      "ent": 360,
      "åŃ": 361,
      "ä½": 362,
      "Ġâ": 363,
      "æĸ": 364,
      "çĶ": 365,
      "il": 366,
      "ĠâĢ": 367,
      "Ġåį": 368,
      "Ġä¸į": 369,
      "ĠåĽ": 370,
      "Ġre": 371,
      "Ġn": 372,
      "Ġl": 373,
      "om": 374,
      "Ġ:": 375,
      "ĴĮ": 376,
      "Ġç»": 377,
      "ĠäºĨ": 378,
      "Ġä¸Ń": 379,
      "el": 380,
      "ç»": 381,
      "Ġth": 382,
      "st": 383,
      "ĠI": 384,
      "ĠM": 385,
      "ct": 386,
      "ä¹": 387,
      "ĠåĴĮ": 388,
      "è¯": 389,
      "Ġè¯": 390,
      "ĥ½": 391,
      "åº": 392,
      "Ġe": 393,
      "å¸": 394,
      "Ġæī": 395,
      "et": 396,
      "ä¼": 397,
      "ol": 398,
      "Ġæĸ": 399,
      "åĽ½": 400,
      "am": 401,
      "Ġè®": 402,
      "ĠP": 403,
      "Ġæľī": 404,
      "ĠB": 405,
      "Ġäºº": 406,
      "åĮ": 407,
      "åį": 408,
      "Ġä¸º": 409,
      "æĿ": 410,
      "åľ": 411,
      "å°": 412,
      "Ġ'": 413,
      "Ġä¼": 414,
      "ĠåĨ": 415,
      "id": 416,
      "Ġg": 417,
      "Ġè¿Ļ": 418,
      "éĩ": 419,
      "ad": 420,
      "ation": 421,
      "ä¸ª": 422,
      "è¿": 423,
      "ur": 424,
      "00": 425,
      "Ġå¤§": 426,
      "è®": 427,
      "iv": 428,
      "å¾": 429,
      "ig": 430,
      "ac": 431,
      "æĹ": 432,
      "è¡": 433,
      "ĠåŃ": 434,
      "Ġfor": 435,
      "im": 436,
      "ut": 437,
      "ot": 438,
      "ĠèĢ": 439,
      "Ġå·": 440,
      "ç§": 441,
      "us": 442,
      "ä¸º": 443,
      "Ġå¯": 444,
      "äºº": 445,
      "¦ģ": 446,
      "Ġå¼": 447,
      "ly": 448,
      "çī": 449,
      "ĠH": 450,
      "ĩº": 451,
      "ĠéĢ": 452,
      "å¹": 453,
      "Ġon": 454,
      "Ġis": 455,
      "æĪ": 456,
      "ĠThe": 457,
      "ĠR": 458,
      "ĠD": 459,
      "äºİ": 460,
      "Ġæķ": 461,
      "ĠæĿ": 462,
      "Ġèĩ": 463,
      "ĠæĶ": 464,
      "ow": 465,
      "åĨ": 466,
      "Ġå¾": 467,
      "ay": 468,
      "å¼": 469,
      "å±": 470,
      "ers": 471,
      "Ġbe": 472,
      "æł": 473,
      "å·": 474,
      "æĺ¯": 475,
      "æľī": 476,
      "çº": 477,
      "ir": 478,
      "ĠF": 479,
      "Ġå½": 480,
      "ĠL": 481,
      "ch": 482,
      "ĠçĽ": 483,
      "Ġå¸": 484,
      "ĠW": 485,
      "Ġå¥": 486,
      "Ġéĩ": 487,
      "Ġst": 488,
      "ĠæľĪ": 489,
      "Ġä»¥": 490,
      "éĻ": 491,
      "ĠåĮ": 492,
      "éĹ": 493,
      "èĢ": 494,
      "Ġåİ": 495,
      "ith": 496,
      "ce": 497,
      "ĠæĬ": 498,
      "ĠÐ": 499,
      "æ°": 500,
      "ul": 501,
      "Ġåı¯": 502,
      "ĥ¨": 503,
      "æŀ": 504,
      "ĠN": 505,
      "Ġä»ĸ": 506,
      "ĠG": 507,
      "ĠE": 508,
      "åŃ¦": 509,
      "ĠæĹ¥": 510,
      "Ġä¸Ĭ": 511,
      "ĠæŃ": 512,
      "µ·": 513,
      "ĠæĪĳ": 514,
      "³ķ": 515,
      "ter": 516,
      "ĠåĬ": 517,
      "åĳ": 518,
      "un": 519,
      "Ġ;": 520,
      "em": 521,
      "Ġas": 522,
      "Ġæ¯": 523,
      "æĢ": 524,
      "è§": 525,
      "çĲ": 526,
      "Ġè¡": 527,
      "Ġä¹Ł": 528,
      "Ġä¸İ": 529,
      "Ġæ²": 530,
      "Ġwith": 531,
      "ĠæĹ¶": 532,
      "Ġwas": 533,
      "ä¼ļ": 534,
      "Ġåıĳ": 535,
      "ver": 536,
      "her": 537,
      "çİ": 538,
      "Ġå¯¹": 539,
      "Ġthat": 540,
      "éĢ": 541,
      "æķ": 542,
      "è¡Į": 543,
      "æŃ": 544,
      "Ġal": 545,
      "01": 546,
      "Ġçİ": 547,
      "Ġå°±": 548,
      "çĶŁ": 549,
      "Ġç§": 550,
      "Ġä¹ĭ": 551,
      "Ġåħ¶": 552,
      "è´": 553,
      "ra": 554,
      "Ġç¬": 555,
      "ç«": 556,
      "Ġæİ": 557,
      "ist": 558,
      "Ġè§": 559,
      "çĶ¨": 560,
      "åŃĲ": 561,
      "æĺ": 562,
      "os": 563,
      "Ġy": 564,
      "Ġèĩª": 565,
      "Ġv": 566,
      "Ġan": 567,
      "Ġcon": 568,
      "ĠæĢ": 569,
      "Ġåľ°": 570,
      "éĿ": 571,
      "«ĺ": 572,
      "Ġä¿": 573,
      "Ġwh": 574,
      "ag": 575,
      "çĽ": 576,
      "å¯": 577,
      "å¿": 578,
      "æĭ": 579,
      "ĠèĢĮ": 580,
      "and": 581,
      "ĠçŃ": 582,
      "īį": 583,
      "ĠæĽ": 584,
      "å®¶": 585,
      "ä¸ļ": 586,
      "Ġpro": 587,
      "åİ": 588,
      "¦Ĥ": 589,
      "è¾": 590,
      "å¹´": 591,
      "å¤§": 592,
      "ĠJ": 593,
      "ĠåĲİ": 594,
      "ĠãĢĭ": 595,
      "ä»¥": 596,
      "um": 597,
      "ķ¿": 598,
      "if": 599,
      "th": 600,
      "Ġè´": 601,
      "è¦ģ": 602,
      "Ġç¬¬": 603,
      "Ġå±": 604,
      "est": 605,
      "Ġçī": 606,
      "ĠO": 607,
      "ĠãĢĬ": 608,
      "od": 609,
      "av": 610,
      "ĠæľĢ": 611,
      "Ġit": 612,
      "Ġè¢": 613,
      "éĥ¨": 614,
      "ĠåŃ¦": 615,
      "Ġçľ": 616,
      "Ġæ°": 617,
      "ĠæĪĲ": 618,
      "Ġ/": 619,
      "æĹ¶": 620,
      "æĶ": 621,
      "Ġr": 622,
      "æī": 623,
      "Ġçº": 624,
      "ä¸Ģ": 625,
      "Ġå¹¶": 626,
      "æĿ¥": 627,
      "Ġèµ": 628,
      "ĠåŁ": 629,
      "åĪ°": 630,
      "op": 631,
      "Ġcom": 632,
      "ä»¬": 633,
      "åĬ¨": 634,
      "Ġåħ¬": 635,
      "Ġby": 636,
      "ä½ľ": 637,
      "Ġè¢«": 638,
      "Ġde": 639,
      "Ġæĭ": 640,
      "Ġat": 641,
      "å½": 642,
      "Ġåº": 643,
      "¥¿": 644,
      "ĠâĢľ": 645,
      "éĺ": 646,
      "ĠâĢĿ": 647,
      "ab": 648,
      "Ġæł": 649,
      "Ġ\\": 650,
      "Ġåĩº": 651,
      "åĮº": 652,
      "èĥ½": 653,
      "æ´": 654,
      "ĠåĽ½": 655,
      "å¥": 656,
      "Ġhe": 657,
      "ill": 658,
      "ĠéĿ": 659,
      "ity": 660,
      "ate": 661,
      "Ġä¸Ģä¸ª": 662,
      "Ġor": 663,
      "Ġéĺ": 664,
      "åĲİ": 665,
      "èµ": 666,
      "rom": 667,
      "Ġäºİ": 668,
      "æĸ¯": 669,
      "æ¬": 670,
      "åĵ": 671,
      "çĲĨ": 672,
      "ies": 673,
      "åº¦": 674,
      "ĠéĻ": 675,
      "res": 676,
      "Ġéĥ½": 677,
      "oc": 678,
      "ģĵ": 679,
      "å°Ķ": 680,
      "Ġä¸»": 681,
      "ĠçŃī": 682,
      "é¢": 683,
      "éĹ´": 684,
      "pp": 685,
      "»º": 686,
      "ĠæīĢ": 687,
      "ĠÂ": 688,
      "ĠæĮ": 689,
      "Ġè½": 690,
      "ain": 691,
      "ew": 692,
      "æĪĲ": 693,
      "ess": 694,
      "æ³ķ": 695,
      "å®ļ": 696,
      "ĠåĪĨ": 697,
      "èĢħ": 698,
      "åĩº": 699,
      "Ġä½Ĩ": 700,
      "æĸ¹": 701,
      "ä¸Ń": 702,
      "Ġse": 703,
      "qu": 704,
      "¾İ": 705,
      "Ġä¼ļ": 706,
      "Ġè¾": 707,
      "æ²": 708,
      "ĠçĶŁ": 709,
      "ĠU": 710,
      "ri": 711,
      "Ġå¤ļ": 712,
      "åĬĽ": 713,
      "è½": 714,
      "our": 715,
      "èĩ": 716,
      "Ġå¼Ģ": 717,
      "Ġfrom": 718,
      "æĢ§": 719,
      "Ġåĩ": 720,
      "ç½": 721,
      "Ġare": 722,
      "igh": 723,
      "ld": 724,
      "Ġåģ": 725,
      "Ġè¿Ľ": 726,
      "ç§į": 727,
      "Ł¥": 728,
      "Ġex": 729,
      "éĿ¢": 730,
      "ĠIn": 731,
      "Ġ?": 732,
      "Ġé«ĺ": 733,
      "åĳĺ": 734,
      "ort": 735,
      "ĠçĶ±": 736,
      "åĮĸ": 737,
      "ak": 738,
      "ore": 739,
      "ĠåĽł": 740,
      "Ġæ¸": 741,
      "art": 742,
      "Ġä¸ĭ": 743,
      "Ġæı": 744,
      "Ġèĭ": 745,
      "å§": 746,
      "æ±": 747,
      "Ġå¿": 748,
      "åľ°": 749,
      "ĠK": 750,
      "Ġå½ĵ": 751,
      "ĠÂ·": 752,
      "å¾Ĺ": 753,
      "ä½ĵ": 754,
      "ect": 755,
      "ant": 756,
      "Ġæĺ": 757,
      "Ġæĸ°": 758,
      "æľ¬": 759,
      "Ġsu": 760,
      "se": 761,
      "çĤ": 762,
      "ment": 763,
      "Ħ¶": 764,
      "ĠåĪ°": 765,
      "æµ": 766,
      "³»": 767,
      "Ġå°ı": 768,
      "ä¸Ĭ": 769,
      "Ġåĳ": 770,
      "çī©": 771,
      "Ġè¿ĺ": 772,
      "Ġé¢": 773,
      "åĲį": 774,
      "éĩĮ": 775,
      "è¿ĩ": 776,
      "ive": 777,
      "Ġä¾": 778,
      "ud": 779,
      "Ħı": 780,
      "Ġè¦ģ": 781,
      "Ġå¦Ĥ": 782,
      "Ġå·¥": 783,
      "åŁ": 784,
      "Ġå°Ĩ": 785,
      "Ġä½ľ": 786,
      "ĠåĲĮ": 787,
      "éķ¿": 788,
      "ĠæĪĸ": 789,
      "ard": 790,
      "all": 791,
      "ä¸ĭ": 792,
      "èĤ": 793,
      "æ°ĳ": 794,
      "æĬ": 795,
      "åħ¥": 796,
      "çİ°": 797,
      "ĠéĤ": 798,
      "Ġæĥ": 799,
      "·¯": 800,
      "åĪĨ": 801,
      "ĠéĹ": 802,
      "Ł³": 803,
      "ĠSt": 804,
      "Ġç»ı": 805,
      "éģĵ": 806,
      "æĥ": 807,
      "Ġch": 808,
      "end": 809,
      "äºĽ": 810,
      "ĠÃ": 811,
      "Ġä¸ī": 812,
      "Ġk": 813,
      "çķ": 814,
      "æ¸": 815,
      "Ġåı¯ä»¥": 816,
      "Ġèĥ½": 817,
      "å¤ļ": 818,
      "èī": 819,
      "Ġæĸ¹": 820,
      "Ġä»İ": 821,
      "ç¨": 822,
      "éĩı": 823,
      "ial": 824,
      "ap": 825,
      "å¼ı": 826,
      "å£": 827,
      "ĠæĿ¥": 828,
      "ç±": 829,
      "ä½į": 830,
      "Ġé¦": 831,
      "nt": 832,
      "ber": 833,
      "Ġç¾İ": 834,
      "ge": 835,
      "ich": 836,
      "ĠæıĲ": 837,
      "æľŁ": 838,
      "çľ": 839,
      "ĠçĽ¸": 840,
      "Ġå¾Ī": 841,
      "åľº": 842,
      "Ġ_": 843,
      "åĪ©": 844,
      "æ¬¡": 845,
      "Ġä¸¤": 846,
      "Ġle": 847,
      "ĠãĢį": 848,
      "og": 849,
      "ĠçĶµ": 850,
      "æį": 851,
      "ĠåıĬ": 852,
      "ĠãĢĮ": 853,
      "Ġéĩį": 854,
      "Ġåħ¨": 855,
      "ĠV": 856,
      "Ġæĸĩ": 857,
      "ĠæķĻ": 858,
      "åĩ": 859,
      "ä¾": 860,
      "Ġä½ł": 861,
      "Ġæ²¡": 862,
      "Ġå»º": 863,
      "Ġèģ": 864,
      "ia": 865,
      "å¸Ĥ": 866,
      "ear": 867,
      "ust": 868,
      "ĠåĨħ": 869,
      "Ġä¸ŃåĽ½": 870,
      "Ġæ¯Ķ": 871,
      "99": 872,
      "æİ": 873,
      "ä»£": 874,
      "Ġu": 875,
      "Ġ|": 876,
      "Ġä½¿": 877,
      "ĠÑ": 878,
      "Ġ=": 879,
      "ure": 880,
      "ov": 881,
      "10": 882,
      "ĠæĽ´": 883,
      "Ġsh": 884,
      "ip": 885,
      "ight": 886,
      "®¡": 887,
      "åĲĪ": 888,
      "ian": 889,
      "åĿ": 890,
      "ell": 891,
      "ave": 892,
      "ĠæĹł": 893,
      "ine": 894,
      "åĨĽ": 895,
      "Ġç«": 896,
      "åĬ¡": 897,
      "Ġpl": 898,
      "©¬": 899,
      "åľ¨": 900,
      "Ġéļ": 901,
      "Ġ$": 902,
      "Ġç½": 903,
      "äºĭ": 904,
      "ec": 905,
      "çŃ": 906,
      "ated": 907,
      "ĠâĢĵ": 908,
      "Ġæ´": 909,
      "ĠéĢļ": 910,
      "ä¹Ī": 911,
      "Ġ{": 912,
      "ä¿": 913,
      "Ġ}": 914,
      "ç©": 915,
      "Ġè¶": 916,
      "Ġæµ": 917,
      "Ġå¹³": 918,
      "ast": 919,
      "çĤ¹": 920,
      "åı£": 921,
      "Ġè¯¥": 922,
      "çĦ¶": 923,
      "rou": 924,
      "ç«ĭ": 925,
      "æŀľ": 926,
      "ack": 927,
      "Ġsp": 928,
      "æĮ": 929,
      "ĠçĶ¨": 930,
      "é¡": 931,
      "Ġåīį": 932,
      "Ġæ³ķ": 933,
      "gh": 934,
      "ost": 935,
      "Ġnot": 936,
      "åħĭ": 937,
      "ĠéĽ": 938,
      "Ġhis": 939,
      "Ġè¿ĩ": 940,
      "Ġus": 941,
      "Ġè¥¿": 942,
      "Ġè¡Į": 943,
      "pt": 944,
      "æ¯": 945,
      "å¿ĥ": 946,
      "Ġè¯´": 947,
      "Ġå®ŀ": 948,
      "Ġè°": 949,
      "Ġæ±": 950,
      "åĢ": 951,
      "Ġé£": 952,
      "ĠCh": 953,
      "ĠæĢ»": 954,
      "Ġ!": 955,
      "åĲĮ": 956,
      "ical": 957,
      "Ġyou": 958,
      "20": 959,
      "ary": 960,
      "Ġçİ°": 961,
      "æ³": 962,
      "æĶ¿": 963,
      "ĠåĬł": 964,
      "ction": 965,
      "Ġä¸ľ": 966,
      "éĽ": 967,
      "æľº": 968,
      "ç¤": 969,
      "ä»»": 970,
      "Ġçł": 971,
      "ong": 972,
      "ere": 973,
      "Ġçī¹": 974,
      "ĠçĲ": 975,
      "ĠæĻ": 976,
      "ĠåŁº": 977,
      "Ġæľ¬": 978,
      "ĠåİŁ": 979,
      "Ġä¸ª": 980,
      "ç¨ĭ": 981,
      "Ġè®¾": 982,
      "åīį": 983,
      "º«": 984,
      "Ġæ³": 985,
      "é¢ĺ": 986,
      "Ġåĵ": 987,
      "åĪ¶": 988,
      "Ġèİ": 989,
      "ame": 990,
      "Ġæŀ": 991,
      "åĵģ": 992,
      "ork": 993,
      "ĠæĶ¿": 994,
      "ĠæŃ£": 995,
      "Ġthis": 996,
      "Ġéľ": 997,
      "ok": 998,
      "æĸĩ": 999,
      "å·±": 1000,
      "ç»ı": 1001,
      "ĿĢ": 1002,
      "éĻ¢": 1003,
      "per": 1004,
      "ire": 1005,
      "æĻ": 1006,
      "Ġåıª": 1007,
      "Ļ½": 1008,
      "are": 1009,
      "ĠéĤ£": 1010,
      "out": 1011,
      "Ġcomp": 1012,
      "åĬł": 1013,
      "è°": 1014,
      "æł·": 1015,
      "å¸¸": 1016,
      "Ġå¸Ĥ": 1017,
      "ĠèĤ": 1018,
      "ff": 1019,
      "Ġhave": 1020,
      "ome": 1021,
      "ub": 1022,
      "Ġèĩªå·±": 1023,
      "Ġèĩ³": 1024,
      "è·¯": 1025,
      "ĠTh": 1026,
      "iz": 1027,
      "ord": 1028,
      "ĠçĪ": 1029,
      "..": 1030,
      "æģ": 1031,
      "å¤ĸ": 1032,
      "Ġj": 1033,
      "ĠæĪĳä»¬": 1034,
      "éĺŁ": 1035,
      "Ġwe": 1036,
      "Ġwhich": 1037,
      "åıĳ": 1038,
      "èĬ": 1039,
      "Ġè¡¨": 1040,
      "Ġåħ³": 1041,
      "ä¸»": 1042,
      "æľ¯": 1043,
      "çº¿": 1044,
      "æŃ¤": 1045,
      "ie": 1046,
      "Ġéĵ": 1047,
      "age": 1048,
      "Ġtr": 1049,
      "Ġæ²¡æľī": 1050,
      "Ġwere": 1051,
      "Ġä¿Ŀ": 1052,
      "Ġçľĭ": 1053,
      "ĠâĢĶ": 1054,
      "åıĬ": 1055,
      "Ġå·²": 1056,
      "è¥¿": 1057,
      "ould": 1058,
      "ç³»": 1059,
      "ŀĭ": 1060,
      "ther": 1061,
      "èĲ": 1062,
      "Ġç¤": 1063,
      "Ġå¢": 1064,
      "ĠåĮĹ": 1065,
      "å¤©": 1066,
      "èĪ": 1067,
      "cc": 1068,
      "12": 1069,
      "Ġun": 1070,
      "å±ķ": 1071,
      "ç¥": 1072,
      "Ġå¤©": 1073,
      "ous": 1074,
      "ue": 1075,
      "Ġç¼": 1076,
      "å·ŀ": 1077,
      "ish": 1078,
      "ans": 1079,
      "Ġcl": 1080,
      "ç»Ł": 1081,
      "Ġç»ĵ": 1082,
      "Ġèĭ±": 1083,
      "è½¦": 1084,
      "Ġä½į": 1085,
      "Ġ*": 1086,
      "ide": 1087,
      "åı¸": 1088,
      "å¾·": 1089,
      "æł¼": 1090,
      "ign": 1091,
      "ĠåĲį": 1092,
      "Ġad": 1093,
      "Ġab": 1094,
      "so": 1095,
      "æį®": 1096,
      "Ġinc": 1097,
      "ice": 1098,
      "ĠåĲĦ": 1099,
      "ä»¶": 1100,
      "ĦŁ": 1101,
      "Ġen": 1102,
      "Ġcont": 1103,
      "Ġäºĭ": 1104,
      "Ġæľº": 1105,
      "ĠåĿ": 1106,
      "mer": 1107,
      "ass": 1108,
      "ĠäºĮ": 1109,
      "Ġæķ°": 1110,
      "Ġç±": 1111,
      "æ¡": 1112,
      "Ġhas": 1113,
      "Ġwhe": 1114,
      "äº§": 1115,
      "Ġæµ·": 1116,
      "äºļ": 1117,
      "çī¹": 1118,
      "å£«": 1119,
      "æĺİ": 1120,
      "ä¸į": 1121,
      "Ġint": 1122,
      "Ġæ·": 1123,
      "ĠY": 1124,
      "Ġåģļ": 1125,
      "Ġæ¯ı": 1126,
      "èī²": 1127,
      "ĠæĶ¹": 1128,
      "ĠæŃ¤": 1129,
      "Ġcan": 1130,
      "Ġæ¬": 1131,
      "çķĮ": 1132,
      "ĠåįĹ": 1133,
      "æ²»": 1134,
      "èµĽ": 1135,
      "å¸Ī": 1136,
      "ĠæĮĩ": 1137,
      "ĠåºĶ": 1138,
      "ĠåıĤ": 1139,
      "Ġä¸ĵ": 1140,
      "pl": 1141,
      "ry": 1142,
      "èģ": 1143,
      "Ġå¥½": 1144,
      "è¯Ń": 1145,
      "Ġé»": 1146,
      "Ġéĥ¨": 1147,
      "98": 1148,
      "çº§": 1149,
      "åħ¬": 1150,
      "æķ°": 1151,
      "Ġè®¤": 1152,
      "Ħ¿": 1153,
      "Ġä¸ĸ": 1154,
      "Ġéģ": 1155,
      "ations": 1156,
      "Ġéķ¿": 1157,
      "Ġall": 1158,
      "Ġå®ī": 1159,
      "Ġæ°´": 1160,
      "Ġç¥": 1161,
      "ult": 1162,
      "ition": 1163,
      "Ġé¡": 1164,
      "Ġèĥ": 1165,
      "å²": 1166,
      "åįĹ": 1167,
      "ĠåĮħ": 1168,
      "ĠèĬ": 1169,
      "å¸ĥ": 1170,
      "çĹ": 1171,
      "Ġç¾İåĽ½": 1172,
      "11": 1173,
      "fer": 1174,
      "Ġåī": 1175,
      "du": 1176,
      "Ġå®¶": 1177,
      "Ġè¿Ľè¡Į": 1178,
      "èµ·": 1179,
      "åºľ": 1180,
      "æĭī": 1181,
      "çĲĥ": 1182,
      "ence": 1183,
      "è®¡": 1184,
      "¼Ķ": 1185,
      "ä¹ī": 1186,
      "Ġres": 1187,
      "ĠèĪ": 1188,
      "å®ŀ": 1189,
      "ĠRe": 1190,
      "ik": 1191,
      "å§ĭ": 1192,
      "Ġar": 1193,
      "åħ³": 1194,
      "orm": 1195,
      "Ġbut": 1196,
      "Ġæ¶": 1197,
      "Ġim": 1198,
      "ĠéĹ®": 1199,
      "ib": 1200,
      "ĠéĢī": 1201,
      "æ®": 1202,
      "ç´": 1203,
      "ķĩ": 1204,
      "Ġè¿Ĳ": 1205,
      "Ġte": 1206,
      "æĦı": 1207,
      "ĠéľĢ": 1208,
      "Ġå®ĥ": 1209,
      "Ġå¤ĸ": 1210,
      "ime": 1211,
      "Ġç§ĳ": 1212,
      "ķĨ": 1213,
      "é«ĺ": 1214,
      "è¶": 1215,
      "Ġalso": 1216,
      "Ġäº§": 1217,
      "Ġé¦ĸ": 1218,
      "Ġç²": 1219,
      "çĸ": 1220,
      "èĤ²": 1221,
      "ĠåĽĽ": 1222,
      "éĹ¨": 1223,
      "ĠåĲĪ": 1224,
      "Ġæİ¥": 1225,
      "éļ": 1226,
      "erv": 1227,
      "ĠåıĪ": 1228,
      "å·¥": 1229,
      "ru": 1230,
      "ĠæĪĺ": 1231,
      "Ġtheir": 1232,
      "Ġç¤¾": 1233,
      "ount": 1234,
      "å±±": 1235,
      "Ġè·": 1236,
      "rit": 1237,
      "Ġå¾Ĺ": 1238,
      "ĠåĪ¶": 1239,
      "Ġåı°": 1240,
      "åĨħ": 1241,
      "åĪ«": 1242,
      "¦»": 1243,
      "Ġhad": 1244,
      "Ġå°±æĺ¯": 1245,
      "ace": 1246,
      "å¹³": 1247,
      "Ġåįģ": 1248,
      "able": 1249,
      "ĠçłĶ": 1250,
      "Ġç©": 1251,
      "åħ°": 1252,
      "æº": 1253,
      "Ġå®Į": 1254,
      "è®®": 1255,
      "Ġå·¥ä½ľ": 1256,
      "è¯´": 1257,
      "ç¤º": 1258,
      "Ġapp": 1259,
      "ang": 1260,
      "Ġç»Ħ": 1261,
      "Ġäº¤": 1262,
      "Ġèī": 1263,
      "ance": 1264,
      "éĶ": 1265,
      "ach": 1266,
      "æĽ": 1267,
      "è¡¨": 1268,
      "ĠIt": 1269,
      "Ġä»ĸä»¬": 1270,
      "act": 1271,
      "é£": 1272,
      "å¥½": 1273,
      "Ġå§": 1274,
      "02": 1275,
      "Ġgo": 1276,
      "å¢": 1277,
      "ind": 1278,
      "äºĮ": 1279,
      "åı°": 1280,
      "Ġè¿Ļä¸ª": 1281,
      "ĠUn": 1282,
      "çĽ®": 1283,
      "ond": 1284,
      "Ġä»»": 1285,
      "ens": 1286,
      "ally": 1287,
      "Ġåıį": 1288,
      "ory": 1289,
      "çľģ": 1290,
      "ĠèĲ": 1291,
      "000": 1292,
      "çļ": 1293,
      "ĠHe": 1294,
      "ĠèģĶ": 1295,
      "Ġè®©": 1296,
      "tern": 1297,
      "ç©¶": 1298,
      "Ġé©¬": 1299,
      "ĠæĽ¾": 1300,
      "Ġone": 1301,
      "è®º": 1302,
      "Ġä½¿çĶ¨": 1303,
      "åħĥ": 1304,
      "ile": 1305,
      "Ġéĺ¿": 1306,
      "æ±Ĥ": 1307,
      "ĠåĢ": 1308,
      "æĮģ": 1309,
      "Ġpart": 1310,
      "Ġåħ±": 1311,
      "Ġèµ·": 1312,
      "åŀĭ": 1313,
      "Ġæĥħ": 1314,
      "ĠAl": 1315,
      "Ġå¥³": 1316,
      "éª": 1317,
      "Ġåįķ": 1318,
      "èĥ": 1319,
      "ä¹¦": 1320,
      "Ġper": 1321,
      "own": 1322,
      "ĠéĿŀ": 1323,
      "ç§ĳ": 1324,
      "ions": 1325,
      "ĠéĿ¢": 1326,
      "Ġå¥¹": 1327,
      "Ġne": 1328,
      "æ°´": 1329,
      "Ġèİ·": 1330,
      "åı²": 1331,
      "Ġéĩĳ": 1332,
      "Ġåİ»": 1333,
      "Ġä¼ł": 1334,
      "Ġä½ĵ": 1335,
      "one": 1336,
      "Ġç¬¬ä¸Ģ": 1337,
      "97": 1338,
      "Ġman": 1339,
      "Ġ...": 1340,
      "Ġç®¡": 1341,
      "ĠçĽ´": 1342,
      "ĠåĨį": 1343,
      "Ġçģ": 1344,
      "Ġme": 1345,
      "åįģ": 1346,
      "Ġyear": 1347,
      "ĠåĽŀ": 1348,
      "ĠåĽ½å®¶": 1349,
      "ph": 1350,
      "ĠçĽ®": 1351,
      "ĠèµĦ": 1352,
      "æµ·": 1353,
      "Ġå¼Ģå§ĭ": 1354,
      "éĻħ": 1355,
      "Ġout": 1356,
      "æķĻ": 1357,
      "ç±»": 1358,
      "æł¡": 1359,
      "Ġwho": 1360,
      "ark": 1361,
      "ĠæĦı": 1362,
      "Ġå¹¿": 1363,
      "æ¹": 1364,
      "ĠåŁİ": 1365,
      "Ġåıĳå±ķ": 1366,
      "ç«Ļ": 1367,
      "ä¹Ĳ": 1368,
      "Ļ¨": 1369,
      "ite": 1370,
      "ĠæĬĬ": 1371,
      "irst": 1372,
      "ric": 1373,
      "ĠçŁ¥": 1374,
      "éĩĳ": 1375,
      "ents": 1376,
      "å¯¹": 1377,
      "Ġä¸ĩ": 1378,
      "Ġup": 1379,
      "Ġæį": 1380,
      "ĠéĩĮ": 1381,
      "Ġå½¢": 1382,
      "Ġæĺİ": 1383,
      "¡®": 1384,
      "Ġæ°ĳ": 1385,
      "Ġç»Ļ": 1386,
      "æĥħ": 1387,
      "æĪĺ": 1388,
      "ĠéĹ®é¢ĺ": 1389,
      "èį": 1390,
      "ĠåĮº": 1391,
      "ĠåĪĽ": 1392,
      "Ġ>": 1393,
      "¨Ģ": 1394,
      "å¼Ģ": 1395,
      "æīĭ": 1396,
      "éħ": 1397,
      "è´¨": 1398,
      "Ġdis": 1399,
      "ĠèĢģ": 1400,
      "Ġè½¦": 1401,
      "è¾¾": 1402,
      "Ġèį": 1403,
      "èĩ³": 1404,
      "Ġå½±": 1405,
      "åĮĹ": 1406,
      "ree": 1407,
      "Ġåı¯èĥ½": 1408,
      "ress": 1409,
      "å°ĳ": 1410,
      "Ġits": 1411,
      "Ġéħ": 1412,
      "ook": 1413,
      "èĢĮ": 1414,
      "ĠæĪĲä¸º": 1415,
      "åįİ": 1416,
      "ĠçłĶç©¶": 1417,
      "Ġæīĵ": 1418,
      "15": 1419,
      "ail": 1420,
      "Ġthey": 1421,
      "Ġä»£": 1422,
      "Ġsc": 1423,
      "ase": 1424,
      "ound": 1425,
      "ater": 1426,
      "ä¸ĸ": 1427,
      "Ġwill": 1428,
      "é¦": 1429,
      "ors": 1430,
      "éĢļ": 1431,
      "port": 1432,
      "å¦Ĥ": 1433,
      "30": 1434,
      "æĹ¥": 1435,
      "ces": 1436,
      "Ġdo": 1437,
      "Ġæİ¨": 1438,
      "ĠåıĹ": 1439,
      "Ġåį³": 1440,
      "Ġä½įäºİ": 1441,
      "ĠéĴ": 1442,
      "ĠåİĨ": 1443,
      "åī": 1444,
      "äºĨ": 1445,
      "Ġä¸»è¦ģ": 1446,
      "ĠçĲĨ": 1447,
      "ates": 1448,
      "Ġåıĺ": 1449,
      "Ġä¿¡": 1450,
      "ĠåĨĽ": 1451,
      "Ġå²": 1452,
      "æ´»": 1453,
      "Ġå¤ª": 1454,
      "åİ¿": 1455,
      "æ¶": 1456,
      "ç§°": 1457,
      "Ģä¹Ī": 1458,
      "96": 1459,
      "çł": 1460,
      "lic": 1461,
      "ely": 1462,
      "Ġother": 1463,
      "ä¹ł": 1464,
      "Ġæģ": 1465,
      "ĠæĶ¶": 1466,
      "å»º": 1467,
      "è§Ĩ": 1468,
      "Ġç³»": 1469,
      "Ġå¢ŀ": 1470,
      "Ġro": 1471,
      "åºĶ": 1472,
      "ĠæĦŁ": 1473,
      "Ġè§Ħ": 1474,
      "ose": 1475,
      "Ġmore": 1476,
      "Ġåĸ": 1477,
      "ee": 1478,
      "Ġag": 1479,
      "è±": 1480,
      "Ġä»¥åıĬ": 1481,
      "ĠåĽłä¸º": 1482,
      "ĠçĹ": 1483,
      "ake": 1484,
      "ĥŃ": 1485,
      "int": 1486,
      "Ġæ¸ħ": 1487,
      "åħ¨": 1488,
      "æĭ¬": 1489,
      "ĠéĶ": 1490,
      "Ġç¨": 1491,
      "Ġå¾·": 1492,
      "wo": 1493,
      "ĠçľŁ": 1494,
      "ç½Ĺ": 1495,
      "Ġrec": 1496,
      "94": 1497,
      "vel": 1498,
      "Ġè½¬": 1499,
      "ĠåĪĻ": 1500,
      "Ġå±±": 1501,
      "åĻ¨": 1502,
      "Ġå¿ĥ": 1503,
      "Ġçİĭ": 1504,
      "ĠåĲĳ": 1505,
      "ath": 1506,
      "Ġçĭ": 1507,
      "Ġå¦Ĥæŀľ": 1508,
      "fter": 1509,
      "wn": 1510,
      "hed": 1511,
      "èµĦ": 1512,
      "95": 1513,
      "è£": 1514,
      "Ġev": 1515,
      "Ġfirst": 1516,
      "è§£": 1517,
      "¨¡": 1518,
      "çģ": 1519,
      "Ġäººåı£": 1520,
      "ĠçĻ": 1521,
      "ç®¡": 1522,
      "lud": 1523,
      "ĠæĶ¯": 1524,
      "Ġnew": 1525,
      "Ġso": 1526,
      "ĠæĬķ": 1527,
      "Ġwork": 1528,
      "Ġå¤Ħ": 1529,
      "ild": 1530,
      "å¯¼": 1531,
      "ĠåĮħæĭ¬": 1532,
      "èĭ": 1533,
      "åħ±": 1534,
      "æºĲ": 1535,
      "Ġæīĭ": 1536,
      "form": 1537,
      "éĩį": 1538,
      "Ġåĩł": 1539,
      "å¤´": 1540,
      "å°¼": 1541,
      "Ġè§£": 1542,
      "ob": 1543,
      "ĠåĬ¨": 1544,
      "è¿Ľ": 1545,
      "èº«": 1546,
      "æĸ°": 1547,
      "Ġåħ¬åı¸": 1548,
      "æ°Ķ": 1549,
      "ĠéĢļè¿ĩ": 1550,
      "ä»ĸ": 1551,
      "ç¼": 1552,
      "ç®": 1553,
      "Ġpre": 1554,
      "ç»Ń": 1555,
      "çīĩ": 1556,
      "è®¾": 1557,
      "ey": 1558,
      "18": 1559,
      "Ġbeen": 1560,
      "ng": 1561,
      "æĿĥ": 1562,
      "--": 1563,
      "ä½ķ": 1564,
      "Ġæł¹": 1565,
      "éĴ": 1566,
      "old": 1567,
      "ä¸ľ": 1568,
      "æŀĹ": 1569,
      "ational": 1570,
      "oll": 1571,
      "ĠæŁ": 1572,
      "è¯Ĩ": 1573,
      "ĠèĢĥ": 1574,
      "éĢł": 1575,
      "Ġç®": 1576,
      "Ġher": 1577,
      "Ġèĳ": 1578,
      "åĲĳ": 1579,
      "æµİ": 1580,
      "Ġç½ĳ": 1581,
      "Ġç§°": 1582,
      "Ġæĥ³": 1583,
      "åł": 1584,
      "Ġé¢Ĩ": 1585,
      "ĠéľĢè¦ģ": 1586,
      "æĹı": 1587,
      "Ġtime": 1588,
      "æĺĵ": 1589,
      "åĪĴ": 1590,
      "Ġbec": 1591,
      "Ġqu": 1592,
      "ĠäºĶ": 1593,
      "å¤ĩ": 1594,
      "èĩª": 1595,
      "Ġå±ŀ": 1596,
      "oy": 1597,
      "æīĢ": 1598,
      "æ¸¯": 1599,
      "Ġåı·": 1600,
      "ĠDe": 1601,
      "çĪ": 1602,
      "å®ī": 1603,
      "ç±³": 1604,
      "Ġ<": 1605,
      "éķĩ": 1606,
      "è¨Ģ": 1607,
      "Ġæ´»": 1608,
      "æģ¯": 1609,
      "æ®µ": 1610,
      "ks": 1611,
      "æŀĦ": 1612,
      "erm": 1613,
      "Ġover": 1614,
      "ä¸ī": 1615,
      "Ġæ¡": 1616,
      "ĥı": 1617,
      "aw": 1618,
      "Ġæµģ": 1619,
      "åŁŁ": 1620,
      "Ġå¼ķ": 1621,
      "åĢĻ": 1622,
      "Ġåħ¶ä¸Ń": 1623,
      "Ĭ¶": 1624,
      "very": 1625,
      "ĠçĿĢ": 1626,
      "ħ§": 1627,
      "ings": 1628,
      "ĠçĤ": 1629,
      "ä¹ĭ": 1630,
      "åĵį": 1631,
      "é©¬": 1632,
      "å½±": 1633,
      "èĦ": 1634,
      "åĪĹ": 1635,
      "Ġå¼º": 1636,
      "ĠåĶ": 1637,
      "nder": 1638,
      "Ġè¿ĻäºĽ": 1639,
      "èİ": 1640,
      "Ġinclud": 1641,
      "ĠæĹ¥æľ¬": 1642,
      "amp": 1643,
      "åĨµ": 1644,
      "çĿĢ": 1645,
      "ĠåŃ¦çĶŁ": 1646,
      "Ġéļı": 1647,
      "Ġcomm": 1648,
      "Ġæľª": 1649,
      "reat": 1650,
      "Ġåħ¶ä»ĸ": 1651,
      "Ġdes": 1652,
      "Ġé¦Ļ": 1653,
      "Ġè®¡": 1654,
      "Ġçľģ": 1655,
      "Ġé£İ": 1656,
      "ade": 1657,
      "les": 1658,
      "land": 1659,
      "å±Ģ": 1660,
      "ç§¯": 1661,
      "æµģ": 1662,
      "åĽł": 1663,
      "ĠCom": 1664,
      "éĵ": 1665,
      "ough": 1666,
      "Ġå·´": 1667,
      "æİ¥": 1668,
      "ĠAr": 1669,
      "Ġèº«": 1670,
      "åŃĹ": 1671,
      "Ġè°ĥ": 1672,
      "ĠåħĪ": 1673,
      "ĠæĹ¶éĹ´": 1674,
      "¾Ļ": 1675,
      "å¤Ħ": 1676,
      "Ġç¤¾ä¼ļ": 1677,
      "çİĩ": 1678,
      "ool": 1679,
      "ĠåĪ©": 1680,
      "Ġè®¤ä¸º": 1681,
      "æĸĻ": 1682,
      "Ġæ£": 1683,
      "ç½®": 1684,
      "Ġpe": 1685,
      "Ġæīį": 1686,
      "è§ģ": 1687,
      "ons": 1688,
      "16": 1689,
      "ft": 1690,
      "ĠAs": 1691,
      "Ġæľį": 1692,
      "te": 1693,
      "Ġä¸Ģç§į": 1694,
      "Ġpr": 1695,
      "Ġç´": 1696,
      "ays": 1697,
      "Ġä¸ĸçķĮ": 1698,
      "14": 1699,
      "Ġabout": 1700,
      "æ´²": 1701,
      "Ġçĸ": 1702,
      "Ġform": 1703,
      "Ġåħ·": 1704,
      "Ġéģĵ": 1705,
      "ĠåİĨåı²": 1706,
      "Ġyour": 1707,
      "ĠæĤ": 1708,
      "ĠæĬĢ": 1709,
      "Ġæ¸¸": 1710,
      "ä¸Ķ": 1711,
      "Ġè¾¾": 1712,
      "æĺŁ": 1713,
      "ĠèĦ": 1714,
      "Ġkn": 1715,
      "å¡": 1716,
      "åĳ½": 1717,
      "Ġoff": 1718,
      "æŁ¥": 1719,
      "ited": 1720,
      "Ġçī©": 1721,
      "å¤«": 1722,
      "åĽ¢": 1723,
      "Ġ[": 1724,
      "çº¦": 1725,
      "Ġä¸ĢäºĽ": 1726,
      "Ġå¯¼": 1727,
      "ĠThis": 1728,
      "èĬĤ": 1729,
      "æłĩ": 1730,
      "Ġ&": 1731,
      "iss": 1732,
      "Ġ]": 1733,
      "ç¾İ": 1734,
      "ĠéĽĨ": 1735,
      "èĮ": 1736,
      "ĠåĮ»": 1737,
      "Ġä½ľä¸º": 1738,
      "æ¹¾": 1739,
      "Ġç±³": 1740,
      "Ġæ»": 1741,
      "åİ»": 1742,
      "orn": 1743,
      "ople": 1744,
      "åĴĮ": 1745,
      "Ġinto": 1746,
      "25": 1747,
      "13": 1748,
      "ced": 1749,
      "Ġçº¦": 1750,
      "ĠæľŁ": 1751,
      "å±ŀ": 1752,
      "ĠåķĨ": 1753,
      "æ¡Ī": 1754,
      "Ġä½Ĩæĺ¯": 1755,
      "Ġtwo": 1756,
      "©åŃĲ": 1757,
      "ike": 1758,
      "Ġwould": 1759,
      "Ġåľ°åĮº": 1760,
      "è±¡": 1761,
      "Ġè¶ħ": 1762,
      "Ġçķ": 1763,
      "ĠNew": 1764,
      "urn": 1765,
      "çĹħ": 1766,
      "Ġåı¦": 1767,
      "åıĹ": 1768,
      "äº¬": 1769,
      "å°ı": 1770,
      "Ġwhen": 1771,
      "Ġè®°": 1772,
      "¦ı": 1773,
      "Ġç²¾": 1774,
      "èĩ´": 1775,
      "Ġåĳ¨": 1776,
      "pe": 1777,
      "æŃ¥": 1778,
      "åĭ": 1779,
      "åĬ©": 1780,
      "è¯Ŀ": 1781,
      "ıŃ": 1782,
      "å®¹": 1783,
      "Ġå¸¦": 1784,
      "Ġè¿ŀ": 1785,
      "Ġthere": 1786,
      "Ġatt": 1787,
      "ç´ł": 1788,
      "ĠåĲĮæĹ¶": 1789,
      "ĠæĬ¥": 1790,
      "åĶ": 1791,
      "å¢ĥ": 1792,
      "Ġèİ·å¾Ĺ": 1793,
      "Ġsy": 1794,
      "¾¤": 1795,
      "èģĶ": 1796,
      "Ġacc": 1797,
      "ram": 1798,
      "ual": 1799,
      "è¿Ĳ": 1800,
      "meric": 1801,
      "etw": 1802,
      "19": 1803,
      "æĬ¤": 1804,
      "Ġè·¯": 1805,
      "çĶµ": 1806,
      "æ»": 1807,
      "ģä¸ļ": 1808,
      "Ġç®¡çĲĨ": 1809,
      "ĠæīĢä»¥": 1810,
      "åĩ»": 1811,
      "Ġç»´": 1812,
      "rough": 1813,
      "ä¿¡": 1814,
      "åı·": 1815,
      "ĠçĶ±äºİ": 1816,
      "ĠåĽłæŃ¤": 1817,
      "ä»½": 1818,
      "è´¹": 1819,
      "ĠAmeric": 1820,
      "Ġå½±åĵį": 1821,
      "åŁİ": 1822,
      "Ġå¡": 1823,
      "Ġè¾ĥ": 1824,
      "Ġæ·±": 1825,
      "uring": 1826,
      "Ġç¬¬äºĮ": 1827,
      "çļĦ": 1828,
      "Ġå£": 1829,
      "åħ¶": 1830,
      "Ġind": 1831,
      "ĠåŃ©åŃĲ": 1832,
      "Ġplay": 1833,
      "çŁ¥": 1834,
      "Ġç©º": 1835,
      "Ġåı¤": 1836,
      "17": 1837,
      "Ġä¸įæĺ¯": 1838,
      "ont": 1839,
      "Ġæĳ": 1840,
      "å¦": 1841,
      "io": 1842,
      "Ġåıĸ": 1843,
      "Ġå·²ç»ı": 1844,
      "ased": 1845,
      "Ġä¸įåĲĮ": 1846,
      "aus": 1847,
      "ick": 1848,
      "Ġå¸¸": 1849,
      "éªĮ": 1850,
      "ivers": 1851,
      "Ġçİ¯": 1852,
      "ĠæĿİ": 1853,
      "Ġæłĩ": 1854,
      "æŁ": 1855,
      "æĶ¾": 1856,
      "æĥ³": 1857,
      "Ġç»ıæµİ": 1858,
      "Ġæķ´": 1859,
      "æĢģ": 1860,
      "éĢī": 1861,
      "Ġä»Ģä¹Ī": 1862,
      "ĠOn": 1863,
      "éĢŁ": 1864,
      "Ġæ¶Ī": 1865,
      "Ġéĩĩ": 1866,
      "åģ": 1867,
      "xt": 1868,
      "ĴŃ": 1869,
      "ious": 1870,
      "Ġè§Ĥ": 1871,
      "Ġå¿ħ": 1872,
      "Ġå¥¥": 1873,
      "Ġåıĳçİ°": 1874,
      "ĠMar": 1875,
      "Ġsome": 1876,
      "ĠÐ¾": 1877,
      "Ġthem": 1878,
      "Ġact": 1879,
      "Ġco": 1880,
      "è¿ĳ": 1881,
      "ĠçĶ·": 1882,
      "ied": 1883,
      "ĠæķĻèĤ²": 1884,
      "æľĪ": 1885,
      "Ġä¹ĭåĲİ": 1886,
      "æ£": 1887,
      "åħļ": 1888,
      "Ġåĩºçİ°": 1889,
      "Ġè£": 1890,
      "ĠèĮ": 1891,
      "Ġthan": 1892,
      "Ġç¥ŀ": 1893,
      "æ¼Ķ": 1894,
      "æĪ·": 1895,
      "ics": 1896,
      "93": 1897,
      "ities": 1898,
      "lect": 1899,
      "æĽ²": 1900,
      "Ġunder": 1901,
      "éŁ³": 1902,
      "ject": 1903,
      "ĠåŃ¦ä¹ł": 1904,
      "åĩĨ": 1905,
      "ĠçŁ": 1906,
      "olog": 1907,
      "è¯ķ": 1908,
      "Ġåħĥ": 1909,
      "æ¯Ķ": 1910,
      "ood": 1911,
      "Ġafter": 1912,
      "å¨": 1913,
      "ĠæĻ®": 1914,
      "å¾Ģ": 1915,
      "uc": 1916,
      "Ġä»Ĭ": 1917,
      "èĻ": 1918,
      "Ġ+": 1919,
      "ĠçĦ¶": 1920,
      "Ġä¼ģä¸ļ": 1921,
      "Ġä¸¾": 1922,
      "red": 1923,
      "çĻ": 1924,
      "Ġéĩįè¦ģ": 1925,
      "ç»ĩ": 1926,
      "ĠæĢ§": 1927,
      "ä»·": 1928,
      "orld": 1929,
      "Ġserv": 1930,
      "Ġç±»": 1931,
      "ific": 1932,
      "ĠæĸĩåĮĸ": 1933,
      "Ġé¦Ļæ¸¯": 1934,
      "ĠçĶŁæ´»": 1935,
      "ock": 1936,
      "çĥ": 1937,
      "åħī": 1938,
      "ĠæĶ¾": 1939,
      "ç»Ħ": 1940,
      "åıĺ": 1941,
      "Ġäºļ": 1942,
      "ĠPro": 1943,
      "ç®Ĺ": 1944,
      "Ġæł¹æį®": 1945,
      "æĿ¡": 1946,
      "ward": 1947,
      "ĠÐ°": 1948,
      "ĠåĨ³": 1949,
      "Ġé»Ħ": 1950,
      "åı¯": 1951,
      "å½ĵ": 1952,
      "ĠçĻ½": 1953,
      "Ġif": 1954,
      "Ġcons": 1955,
      "Ġsec": 1956,
      "Ġä¼ĺ": 1957,
      "éĺ³": 1958,
      "24": 1959,
      "æı": 1960,
      "Ġå®£": 1961,
      "Ġå®ļ": 1962,
      "ĠåŃĺ": 1963,
      "éľ": 1964,
      "Ġcent": 1965,
      "ĠåĽ¾": 1966,
      "Ġè¯Ħ": 1967,
      "Ġé¢Ħ": 1968,
      "ĠAn": 1969,
      "Ġam": 1970,
      "ident": 1971,
      "hip": 1972,
      "çİĭ": 1973,
      "Ġreg": 1974,
      "åĦ¿": 1975,
      "Ġå¹³æĸ¹": 1976,
      "åıĸ": 1977,
      "Ġæ¼Ķ": 1978,
      "Ġç½Ĺ": 1979,
      "è¯ģ": 1980,
      "ä¾Ľ": 1981,
      "ĠçĪ±": 1982,
      "ember": 1983,
      "Ġinter": 1984,
      "åĽŃ": 1985,
      "ren": 1986,
      "å½¢": 1987,
      "Ġonly": 1988,
      "Ġå¸ĥ": 1989,
      "ug": 1990,
      "ĠæĥħåĨµ": 1991,
      "éģ": 1992,
      "ĠLe": 1993,
      "Ġæķħ": 1994,
      "Ġç®Ģ": 1995,
      "é¡¹": 1996,
      "itt": 1997,
      "50": 1998,
      "Ġsa": 1999,
      "Ġç¼ĸ": 2000,
      "æĬ¥": 2001,
      "Ġä¹¦": 2002,
      "ran": 2003,
      "Ġany": 2004,
      "Ġfe": 2005,
      "Ġè¿Ļæł·": 2006,
      "Ġshe": 2007,
      "Ġæĭī": 2008,
      "Ġè¿Ļç§į": 2009,
      "ert": 2010,
      "å¾ĭ": 2011,
      "Ġpeople": 2012,
      "Ġæ¢": 2013,
      "ĵ¦": 2014,
      "æĸŃ": 2015,
      "Ġrel": 2016,
      "æķĪ": 2017,
      "æŃ£": 2018,
      "rib": 2019,
      "ĠéŁ³": 2020,
      "åĳĬ": 2021,
      "Ġfl": 2022,
      "æ¢": 2023,
      "Ġç«Ļ": 2024,
      "ps": 2025,
      "çº³": 2026,
      "èħ": 2027,
      "å¿µ": 2028,
      "äºī": 2029,
      "Ġå¼ł": 2030,
      "ç»´": 2031,
      "Ġè®¾è®¡": 2032,
      "ĠWh": 2033,
      "Ġæ²³": 2034,
      "åĸ": 2035,
      "Ġæ¨¡": 2036,
      "å§Ķ": 2037,
      "Ġçª": 2038,
      "ener": 2039,
      "äº¤": 2040,
      "çºª": 2041,
      "ĠSh": 2042,
      "Ġmost": 2043,
      "Ġå¤į": 2044,
      "Ġmy": 2045,
      "Ġcol": 2046,
      "ict": 2047,
      "éĻ©": 2048,
      "ĠæĲ": 2049,
      "chool": 2050,
      "ĠæĿ¡": 2051,
      "Ġåį¡": 2052,
      "ĠåĨľ": 2053,
      "ĠSe": 2054,
      "ĠæĬĢæľ¯": 2055,
      "ĠæĹ©": 2056,
      "Ġå¾Īå¤ļ": 2057,
      "Ġass": 2058,
      "ç©º": 2059,
      "åĢ¼": 2060,
      "åįķ": 2061,
      "Ġsub": 2062,
      "æĪı": 2063,
      "Ġç¡®": 2064,
      "è´£": 2065,
      "Ġprodu": 2066,
      "Ġprov": 2067,
      "Ġåħ¥": 2068,
      "ement": 2069,
      "Ġåı°æ¹¾": 2070,
      "gan": 2071,
      "round": 2072,
      "Ġè´Ł": 2073,
      "Ġä¾ĭ": 2074,
      "Ġèĭı": 2075,
      "Ġç³»ç»Ł": 2076,
      "Ġå¨": 2077,
      "éĤ": 2078,
      "ĠæĹ¶åĢĻ": 2079,
      "ular": 2080,
      "ĠæľįåĬ¡": 2081,
      "oth": 2082,
      "ĠWe": 2083,
      "Ġæĭħ": 2084,
      "ĠåĽ½éĻħ": 2085,
      "stem": 2086,
      "Ġbl": 2087,
      "Ġno": 2088,
      "ĠèģĮ": 2089,
      "Ġæļ": 2090,
      "ĠåıĳçĶŁ": 2091,
      "Ġæ³¨": 2092,
      "æľĽ": 2093,
      "å²Ľ": 2094,
      "een": 2095,
      "æĸ½": 2096,
      "é£İ": 2097,
      "ä¼Ĺ": 2098,
      "Ġéĵģ": 2099,
      "Ġåįı": 2100,
      "als": 2101,
      "Ġå¤§åŃ¦": 2102,
      "èĲ¥": 2103,
      "21": 2104,
      "Ġthrough": 2105,
      "ann": 2106,
      "hen": 2107,
      "Ġé©": 2108,
      "Ġem": 2109,
      "ĠæĶ¿æ²»": 2110,
      "ç¥ŀ": 2111,
      "oint": 2112,
      "é²": 2113,
      "è·": 2114,
      "ĠçĹħ": 2115,
      "æľĿ": 2116,
      "Ġåħĭ": 2117,
      "çŃī": 2118,
      "ĠçĲĥ": 2119,
      "Ġæ´»åĬ¨": 2120,
      "ating": 2121,
      "ĠåĪĹ": 2122,
      "ĠÃ©": 2123,
      "Ġè¯Ń": 2124,
      "ĠåĨĻ": 2125,
      "åĽ¾": 2126,
      "Ġçº¿": 2127,
      "Ġæ¬§": 2128,
      "åŁº": 2129,
      "Ġä½İ": 2130,
      "åĬŁ": 2131,
      "Ġéª": 2132,
      "ĠåıĮ": 2133,
      "ublic": 2134,
      "æŃ¢": 2135,
      "ĠæıĲä¾Ľ": 2136,
      "Ġyears": 2137,
      "Ġè®¸": 2138,
      "å¤į": 2139,
      "Ġå½ĵæĹ¶": 2140,
      "Ġç«ĭ": 2141,
      "ĠæīĢæľī": 2142,
      "Ġend": 2143,
      "Ġbu": 2144,
      "Ġph": 2145,
      "å¤Ł": 2146,
      "åĬ¿": 2147,
      "è®°": 2148,
      "å¸¦": 2149,
      "ç¬": 2150,
      "Ġçĭ¬": 2151,
      "Ġä¾Ŀ": 2152,
      "ĠæİĴ": 2153,
      "Ġè¶Ĭ": 2154,
      "Ġpol": 2155,
      "iew": 2156,
      "any": 2157,
      "Ġæĸ¯": 2158,
      "å±Ĥ": 2159,
      "Ġwhere": 2160,
      "åĪĻ": 2161,
      "ve": 2162,
      "å¼º": 2163,
      "¥¼": 2164,
      "Ġä»£è¡¨": 2165,
      "åĨ³": 2166,
      "ĠæŃ¦": 2167,
      "oh": 2168,
      "ĠéĿĴ": 2169,
      "Ġè¡ĮæĶ¿": 2170,
      "Ġè¿ĺæĺ¯": 2171,
      "Ġå¸Į": 2172,
      "ĠSp": 2173,
      "Ġä¿®": 2174,
      "Ġdec": 2175,
      "Ġac": 2176,
      "Ġlike": 2177,
      "Ġsuch": 2178,
      "Ġget": 2179,
      "è¿°": 2180,
      "Ġå§Ķ": 2181,
      "Ġmod": 2182,
      "Ġret": 2183,
      "ative": 2184,
      "ĠéĻ¤": 2185,
      "Ġäº¦": 2186,
      "Ġadd": 2187,
      "ise": 2188,
      "Ġæ²»": 2189,
      "Ġæ®": 2190,
      "æ±Ł": 2191,
      "tt": 2192,
      "çĸĹ": 2193,
      "çŃĳ": 2194,
      "åŃ£": 2195,
      "è¾¹": 2196,
      "ĠZ": 2197,
      "ä¿Ŀ": 2198,
      "Ġhim": 2199,
      "ĠçĥŃ": 2200,
      "åıĭ": 2201,
      "èĳ": 2202,
      "Ġinv": 2203,
      "Ġç»Ł": 2204,
      "Ġå¯¹äºİ": 2205,
      "Ġè¡¨ç¤º": 2206,
      "Ġè¦ģæ±Ĥ": 2207,
      "å½ķ": 2208,
      "Ġloc": 2209,
      "ily": 2210,
      "Ġæ¹": 2211,
      "ĠæĮī": 2212,
      "çĶ±": 2213,
      "Ġset": 2214,
      "ah": 2215,
      "22": 2216,
      "ĠåĪĿ": 2217,
      "éĽĨ": 2218,
      "90": 2219,
      "æ²³": 2220,
      "Ġmay": 2221,
      "ife": 2222,
      "ĠéĢł": 2223,
      "Ġåį´": 2224,
      "èĪ¬": 2225,
      "Ġåį°": 2226,
      "å¯Ł": 2227,
      "çĶ»": 2228,
      "ĠÐ¸": 2229,
      "åĽ´": 2230,
      "ĠæĶ¿åºľ": 2231,
      "ç¦»": 2232,
      "ĠæĢĿ": 2233,
      "å¤§åŃ¦": 2234,
      "ts": 2235,
      "èĢĥ": 2236,
      "Ġå°ĳ": 2237,
      "ĠèĻ½": 2238,
      "Ġour": 2239,
      "Ġrem": 2240,
      "å¯Ĩ": 2241,
      "ĠAmerican": 2242,
      "Ġexp": 2243,
      "Ġå¸Ĥåľº": 2244,
      "Ġfil": 2245,
      "Ġé¥": 2246,
      "åĬŀ": 2247,
      "Ġç»§": 2248,
      "Ġæ°Ķ": 2249,
      "Ġè¿ĲåĬ¨": 2250,
      "Ġpres": 2251,
      "Ġéĺ²": 2252,
      "ä»¤": 2253,
      "Ġåİ¿": 2254,
      "ix": 2255,
      "ink": 2256,
      "ĠåŃ¦æł¡": 2257,
      "é¦Ĩ": 2258,
      "Ġä¸įèĥ½": 2259,
      "23": 2260,
      "å¿Ĺ": 2261,
      "Ġi": 2262,
      "ĠéŁ": 2263,
      "Ġæ³ķåĽ½": 2264,
      "Ń¦": 2265,
      "Ġçİ°åľ¨": 2266,
      "Ġãģ": 2267,
      "ĠèĬĤ": 2268,
      "ç¡": 2269,
      "Ġä»į": 2270,
      "Ġtra": 2271,
      "ower": 2272,
      "Ġimp": 2273,
      "åħĪ": 2274,
      "au": 2275,
      "èı": 2276,
      "ĠæľĢåĲİ": 2277,
      "ĠæŃ»": 2278,
      "ĠEx": 2279,
      "ale": 2280,
      "Ġéĥ¨åĪĨ": 2281,
      "ures": 2282,
      "åī§": 2283,
      "ĠÐµ": 2284,
      "ĠCl": 2285,
      "ĠçĶµå½±": 2286,
      "Ġstud": 2287,
      "åħµ": 2288,
      "Ġåī¯": 2289,
      "Ġä¸ĢèĪ¬": 2290,
      "æĻ¯": 2291,
      "ä½¿": 2292,
      "ĠQ": 2293,
      "Ġdef": 2294,
      "ĠèµĽ": 2295,
      "Ġèµ°": 2296,
      "Ġçº¢": 2297,
      "åķĨ": 2298,
      "iel": 2299,
      "ç»Ī": 2300,
      "ĠåĬŀ": 2301,
      "fore": 2302,
      "Ġåħī": 2303,
      "Ġç»Ħç»ĩ": 2304,
      "å®ĺ": 2305,
      "ĠåĮĸ": 2306,
      "28": 2307,
      "Ġæĸ¹å¼ı": 2308,
      "å¼ł": 2309,
      "Ġsupp": 2310,
      "å¸Ŀ": 2311,
      "Ġä¸¥": 2312,
      "æ¬¾": 2313,
      "ys": 2314,
      "åħ»": 2315,
      "Ġä¼Ĭ": 2316,
      "Ġtrans": 2317,
      "az": 2318,
      "æĿĳ": 2319,
      "æĭ©": 2320,
      "Ġå®ĺ": 2321,
      "ĠèĴ": 2322,
      "Ġåįł": 2323,
      "ll": 2324,
      "è§Ĥ": 2325,
      "Ġç§į": 2326,
      "å®¤": 2327,
      "Ġä¾¿": 2328,
      "Ġé»ĳ": 2329,
      "Ġé¡¹": 2330,
      "eth": 2331,
      "hes": 2332,
      "ĠåŃĹ": 2333,
      "Ġæķ°æį®": 2334,
      "inal": 2335,
      "ĠSc": 2336,
      "ĠéĿŀå¸¸": 2337,
      "Ġéĥ": 2338,
      "ier": 2339,
      "ĠFor": 2340,
      "ros": 2341,
      "etween": 2342,
      "ĠéĻĪ": 2343,
      "ove": 2344,
      "è£ħ": 2345,
      "çĿ": 2346,
      "±¼": 2347,
      "çĽ´": 2348,
      "æĦŁ": 2349,
      "Ġå¤±": 2350,
      "ouse": 2351,
      "arg": 2352,
      "ins": 2353,
      "Ġused": 2354,
      "Ġä»·": 2355,
      "Ġpos": 2356,
      "åº§": 2357,
      "ĠåĬŁ": 2358,
      "Ġä¸ºäºĨ": 2359,
      "è¶³": 2360,
      "ments": 2361,
      "26": 2362,
      "çīĪ": 2363,
      "Ġå¦": 2364,
      "ism": 2365,
      "Ġæ³¢": 2366,
      "air": 2367,
      "ton": 2368,
      "åłĤ": 2369,
      "Ġéħį": 2370,
      "elf": 2371,
      "Ġent": 2372,
      "ĠæĪĸèĢħ": 2373,
      "27": 2374,
      "é¾Ļ": 2375,
      "ĠèĬ±": 2376,
      "ata": 2377,
      "çĬ¶": 2378,
      "ĠçĪ¶": 2379,
      "çĻ½": 2380,
      "ause": 2381,
      "Ġä¹ĭéĹ´": 2382,
      "Ġnum": 2383,
      "Ġdif": 2384,
      "oun": 2385,
      "Ġä»¬": 2386,
      "ines": 2387,
      "Ġè§Ĩ": 2388,
      "ince": 2389,
      "åİĨ": 2390,
      "Ġagain": 2391,
      "éĻĲ": 2392,
      "Ġthen": 2393,
      "Ġä¸Ńåįİ": 2394,
      "Ġback": 2395,
      "Ġåįİ": 2396,
      "Ġé£Ł": 2397,
      "çīĮ": 2398,
      "Ġwhat": 2399,
      "Ġè¿ĳ": 2400,
      "Ġhow": 2401,
      "è¾ĥ": 2402,
      "Ġspec": 2403,
      "Ġå¹²": 2404,
      "velop": 2405,
      "é»": 2406,
      "Ġå»ºçŃĳ": 2407,
      "Ġè¯¾": 2408,
      "vern": 2409,
      "ĠåħŃ": 2410,
      "ä¼ł": 2411,
      "Ġä¸Ńå¿ĥ": 2412,
      "ŀį": 2413,
      "ĠèĳĹ": 2414,
      "ĠéĢīæĭ©": 2415,
      "ĠåľŁ": 2416,
      "ä¾ĭ": 2417,
      "Ġåľ£": 2418,
      "ĠçŁ³": 2419,
      "Ġæĺ¾": 2420,
      "Ġå±ħ": 2421,
      "æĶ¿åºľ": 2422,
      "att": 2423,
      "ollow": 2424,
      "ral": 2425,
      "Ġbetween": 2426,
      "orth": 2427,
      "çŁ³": 2428,
      "è§Ĵ": 2429,
      "Ġè¿ĩç¨ĭ": 2430,
      "çıŃ": 2431,
      "ution": 2432,
      "ĠåŁİå¸Ĥ": 2433,
      "man": 2434,
      "ĠçĽ®åīį": 2435,
      "its": 2436,
      "Ġwell": 2437,
      "è°ĥ": 2438,
      "ĠéĢĤ": 2439,
      "ished": 2440,
      "ision": 2441,
      "ĠæŃĮ": 2442,
      "Ġç¦»": 2443,
      "åįĩ": 2444,
      "çĽĬ": 2445,
      "row": 2446,
      "èĬ±": 2447,
      "ĠçĤ¹": 2448,
      "Ġåįļ": 2449,
      "Ġèĭ±åĽ½": 2450,
      "ences": 2451,
      "Ġä¹ĭä¸Ģ": 2452,
      "Ġéļ¾": 2453,
      "åĽĽ": 2454,
      "Ġåĭ": 2455,
      "Ġä¸Ģå®ļ": 2456,
      "å¥³": 2457,
      "Ġè¯ģ": 2458,
      "ĠÐ½": 2459,
      "ç¿": 2460,
      "ax": 2461,
      "Ġcall": 2462,
      "ĠéĿ¢ç§¯": 2463,
      "Ġèĥ½åĬĽ": 2464,
      "Ġuse": 2465,
      "Ġå®¢": 2466,
      "Ġz": 2467,
      "ility": 2468,
      "Ġé²": 2469,
      "010": 2470,
      "Ġæĸ¹æ³ķ": 2471,
      "Ġæĸ¹éĿ¢": 2472,
      "ç»ĵ": 2473,
      "Ġæ¸¸æĪı": 2474,
      "Ġsystem": 2475,
      "åºķ": 2476,
      "ĠåĽ¢": 2477,
      "Ġfam": 2478,
      "der": 2479,
      "ç«ł": 2480,
      "100": 2481,
      "Ġra": 2482,
      "ç¡®": 2483,
      "erson": 2484,
      "arn": 2485,
      "Ġå·¦": 2486,
      "ç²": 2487,
      "å»": 2488,
      "äº²": 2489,
      "ames": 2490,
      "Ġob": 2491,
      "ury": 2492,
      "Ġåľ°æĸ¹": 2493,
      "ring": 2494,
      "ful": 2495,
      "Ġå¿«": 2496,
      "019": 2497,
      "Ġmany": 2498,
      "è¯¥": 2499,
      "Ġçģ«": 2500,
      "Ġè¿Ľåħ¥": 2501,
      "Ġè§Ĵ": 2502,
      "Ġä¸¤ä¸ª": 2503,
      "ĠIs": 2504,
      "Ġright": 2505,
      "Ġthese": 2506,
      "ĠåıĤåĬł": 2507,
      "å®³": 2508,
      "ern": 2509,
      "ient": 2510,
      "Ĺı": 2511,
      "Ġed": 2512,
      "ash": 2513,
      "æĢĿ": 2514,
      "çħ§": 2515,
      "020": 2516,
      "ten": 2517,
      "Ġsaid": 2518,
      "Ġjust": 2519,
      "40": 2520,
      "ĠæķĪ": 2521,
      "åį¡": 2522,
      "018": 2523,
      "way": 2524,
      "Ġæī§": 2525,
      "ĠåŃĺåľ¨": 2526,
      "ars": 2527,
      "åŃĺ": 2528,
      "Ġinst": 2529,
      "èģĮ": 2530,
      "Ġè¿ĺæľī": 2531,
      "ĠInd": 2532,
      "ep": 2533,
      "æ¯į": 2534,
      "è¾ĳ": 2535,
      "ĠçĽĳ": 2536,
      "ĠçĶļ": 2537,
      "çŃĸ": 2538,
      "ists": 2539,
      "ĠåĴ": 2540,
      "æĴŃ": 2541,
      "æ·": 2542,
      "iversity": 2543,
      "iet": 2544,
      "ĠçĽ¸åħ³": 2545,
      "è¯»": 2546,
      "ĠæĴ": 2547,
      "Ġå²ģ": 2548,
      "Ġèīº": 2549,
      "éĥ¨åĪĨ": 2550,
      "åİŁ": 2551,
      "Ġé£ŀ": 2552,
      "ĠAd": 2553,
      "Ġè®¡åĪĴ": 2554,
      "Ġmon": 2555,
      "å¤®": 2556,
      "Ġè¶³": 2557,
      "ç½ĳ": 2558,
      "ĠæľŁéĹ´": 2559,
      "Ġéĵ¶": 2560,
      "Ġäººæ°ĳ": 2561,
      "Ġãĥ": 2562,
      "Ġaut": 2563,
      "outh": 2564,
      "Ġç¿": 2565,
      "Ġmade": 2566,
      "und": 2567,
      "ĠCon": 2568,
      "åĽŀ": 2569,
      "Ġæ£Ģ": 2570,
      "ĠåĪĺ": 2571,
      "eg": 2572,
      "Ġæ±ī": 2573,
      "ull": 2574,
      "Ġæİ§": 2575,
      "ĠæĪĲç«ĭ": 2576,
      "Ġç»Ĩ": 2577,
      "åįĥ": 2578,
      "Ġæ¯Ķè¾ĥ": 2579,
      "Ġä¸ĵä¸ļ": 2580,
      "ä½ı": 2581,
      "è§ī": 2582,
      "ĠèĻ½çĦ¶": 2583,
      "016": 2584,
      "Ġæ±Ł": 2585,
      "Ġèħ": 2586,
      "ĠX": 2587,
      "ĠTr": 2588,
      "Ġå¯¼èĩ´": 2589,
      "æĪ¿": 2590,
      "éĻ¤": 2591,
      "é¡»": 2592,
      "Ġè®²": 2593,
      "Ġart": 2594,
      "ä¸İ": 2595,
      "åĭĴ": 2596,
      "Ġåħ«": 2597,
      "Ġest": 2598,
      "Ġåħ·æľī": 2599,
      "çľĭ": 2600,
      "inn": 2601,
      "Ġè·Ł": 2602,
      "Ġæ¬¡": 2603,
      "Ġåĩı": 2604,
      "çĮ": 2605,
      "ĠCol": 2606,
      "Ġå»": 2607,
      "é£Ł": 2608,
      "raph": 2609,
      "Ġcount": 2610,
      "iver": 2611,
      "ract": 2612,
      "Ġéķĩ": 2613,
      "ĠèĲ¥": 2614,
      "ĠçĻ¾": 2615,
      "irect": 2616,
      "Ġduring": 2617,
      "ĠæĪ¿": 2618,
      "æĤ": 2619,
      "Ġpop": 2620,
      "ĠçŁ¥éģĵ": 2621,
      "ows": 2622,
      "ĠBl": 2623,
      "ĠUnited": 2624,
      "æĶ¶": 2625,
      "cy": 2626,
      "017": 2627,
      "¿Ģ": 2628,
      "Ġæĭħä»»": 2629,
      "ĠAnd": 2630,
      "æµĭ": 2631,
      "ĠéŁ³ä¹Ĳ": 2632,
      "åĥı": 2633,
      "é¢Ĩ": 2634,
      "up": 2635,
      "other": 2636,
      "ible": 2637,
      "els": 2638,
      "Ġæŀģ": 2639,
      "ç¢": 2640,
      "ĠTe": 2641,
      "Ġsur": 2642,
      "åħ·": 2643,
      "Ġåĸľ": 2644,
      "Ġå§Ķåĳĺ": 2645,
      "ĠèĥĮ": 2646,
      "èĲ½": 2647,
      "Ġç¬¬ä¸ī": 2648,
      "cept": 2649,
      "Ġè®¸å¤ļ": 2650,
      "çĭ": 2651,
      "ĠåŁºæľ¬": 2652,
      "aj": 2653,
      "Ġbeing": 2654,
      "Ġäº§çĶŁ": 2655,
      "Ġåħ³ç³»": 2656,
      "Ġåĥı": 2657,
      "Ġä¹¡": 2658,
      "chn": 2659,
      "Ġ~": 2660,
      "Ġfound": 2661,
      "ason": 2662,
      "Ġser": 2663,
      "ĠçĮ": 2664,
      "Ġeff": 2665,
      "60": 2666,
      "ĠåĨħå®¹": 2667,
      "èĴ": 2668,
      "éļ¾": 2669,
      "Ġä¸ªäºº": 2670,
      "ĠåĲİæĿ¥": 2671,
      "åº·": 2672,
      "Ġown": 2673,
      "Ġmin": 2674,
      "ĠæĢİ": 2675,
      "Ġhigh": 2676,
      "Ġsm": 2677,
      "åı¤": 2678,
      "ĠPh": 2679,
      "åºŃ": 2680,
      "ever": 2681,
      "ĠåĲĥ": 2682,
      "çĽ¸": 2683,
      "ĠEng": 2684,
      "Ġåģľ": 2685,
      "å·´": 2686,
      "ä¸»ä¹ī": 2687,
      "Ġdist": 2688,
      "æŀģ": 2689,
      "----": 2690,
      "æŀĲ": 2691,
      "Ġgr": 2692,
      "Ġè´¢": 2693,
      "emb": 2694,
      "Ġå±ķ": 2695,
      "Ġçªģ": 2696,
      "ĠåĿĩ": 2697,
      "Ġçĥ": 2698,
      "Ġdet": 2699,
      "ĠçĶŁäº§": 2700,
      "ĠåĲ¬": 2701,
      "Ġmed": 2702,
      "æĬĢ": 2703,
      "Ġå±ŀäºİ": 2704,
      "Ġä¿Ħ": 2705,
      "è¯į": 2706,
      "ather": 2707,
      "Ġclass": 2708,
      "Ġè£ħ": 2709,
      "Ġwrit": 2710,
      "Ġç¦ı": 2711,
      "Ġæł¼": 2712,
      "ield": 2713,
      "Ġvar": 2714,
      "015": 2715,
      "éĿ©": 2716,
      "Ġfollow": 2717,
      "Ġä»¥ä¸ĭ": 2718,
      "Ġfilm": 2719,
      "éĹ®": 2720,
      "Ġneed": 2721,
      "lish": 2722,
      "Ġé¡¹çĽ®": 2723,
      "Ġcould": 2724,
      "Ġæī¿": 2725,
      "äººæ°ĳ": 2726,
      "ĠJoh": 2727,
      "è½½": 2728,
      "Ġå°½": 2729,
      "è§Ħ": 2730,
      "ank": 2731,
      "Ġåħ¨åĽ½": 2732,
      "let": 2733,
      "Ġå¸Ĥéķĩ": 2734,
      "ĠæľĢç»Ī": 2735,
      "Ġå½¢æĪĲ": 2736,
      "Ġx": 2737,
      "æ¸¸": 2738,
      "pen": 2739,
      "ĠYou": 2740,
      "ç¡Ģ": 2741,
      "éĻĨ": 2742,
      "ĠPl": 2743,
      "ues": 2744,
      "ĠèĤ¡": 2745,
      "Ġä½ľåĵģ": 2746,
      "ĠæĿĳ": 2747,
      "ĠåĵĪ": 2748,
      "Ġwhile": 2749,
      "ĠåįĬ": 2750,
      "ature": 2751,
      "ĠæĶ¯æĮģ": 2752,
      "Ġdevelop": 2753,
      "ĠåĮĹäº¬": 2754,
      "Ġåıªæľī": 2755,
      "Ġä¿¡æģ¯": 2756,
      "çĽŁ": 2757,
      "Ġäº§åĵģ": 2758,
      "ices": 2759,
      "ĠÑĢ": 2760,
      "011": 2761,
      "Ġå®īåħ¨": 2762,
      "Ġæº": 2763,
      "ĠæŁĲ": 2764,
      "Ġæł¸": 2765,
      "Ġcre": 2766,
      "çłģ": 2767,
      "Ġsign": 2768,
      "Ġå¤ı": 2769,
      "Ġèĥ½å¤Ł": 2770,
      "Ġè´Łè´£": 2771,
      "uch": 2772,
      "Ġcap": 2773,
      "Ġæ½": 2774,
      "è¾ĸ": 2775,
      "Ġæī¾": 2776,
      "Ġä¹Į": 2777,
      "oot": 2778,
      "ĠãĤ": 2779,
      "ives": 2780,
      "Ġç¨ĭ": 2781,
      "ange": 2782,
      "80": 2783,
      "Ġæł¡": 2784,
      "Ġåı£": 2785,
      "Ġèı": 2786,
      "Ġrequ": 2787,
      "ĠéĻĦ": 2788,
      "Ġmus": 2789,
      "ĠæĮģ": 2790,
      "è¶Ĭ": 2791,
      "Ġåįķä½į": 2792,
      "ĠéĤ£ä¹Ī": 2793,
      "ĠèŃ¦": 2794,
      "Ġå¤§å®¶": 2795,
      "014": 2796,
      "ĠåĦ¿": 2797,
      "Ġçİ¯å¢ĥ": 2798,
      "Ġå¸®": 2799,
      "¤į": 2800,
      "ĠèĢĮä¸Ķ": 2801,
      "ĠåĩĨ": 2802,
      "Ġåħļ": 2803,
      "åħ¬åı¸": 2804,
      "Ġå¾®": 2805,
      "å°Ħ": 2806,
      "åºı": 2807,
      "Ġåı¸": 2808,
      "pr": 2809,
      "Ġthree": 2810,
      "Ġgener": 2811,
      "ĠçķĻ": 2812,
      "Ġlead": 2813,
      "Ġå»ºç«ĭ": 2814,
      "arl": 2815,
      "ä¸ĩ": 2816,
      "cess": 2817,
      "Ġå®ĮæĪĲ": 2818,
      "ĠåºĶè¯¥": 2819,
      "Ġresp": 2820,
      "ĠåĨ³å®ļ": 2821,
      "Ġå®¹": 2822,
      "012": 2823,
      "Ġå»ºè®¾": 2824,
      "Ġèĭ±è¯Ń": 2825,
      "ç¥¨": 2826,
      "åħ¬éĩĮ": 2827,
      "Ġlong": 2828,
      "å¸Ń": 2829,
      "013": 2830,
      "Ġä¸įä¼ļ": 2831,
      "ç»ľ": 2832,
      "æľį": 2833,
      "äºĶ": 2834,
      "Ġoper": 2835,
      "ized": 2836,
      "Ġç¡": 2837,
      "ĠçĽ´æİ¥": 2838,
      "Ġåįĩ": 2839,
      "Ġæ¯ķ": 2840,
      "Ġincluding": 2841,
      "ĠåŃĲ": 2842,
      "Ġnow": 2843,
      "Ġgu": 2844,
      "29": 2845,
      "Ġä»ħ": 2846,
      "ĠçĻ»": 2847,
      "aking": 2848,
      "ĠèĪª": 2849,
      "ĠåŁºç¡Ģ": 2850,
      "ĠéĻį": 2851,
      "ĠèĮĥ": 2852,
      "æĻ®": 2853,
      "Ġçī¹åĪ«": 2854,
      "Ġçļĩ": 2855,
      "Ġä¸ļ": 2856,
      "ty": 2857,
      "Ġext": 2858,
      "Ġå£°": 2859,
      "Ġbefore": 2860,
      "Ġ#": 2861,
      "Ġåķ": 2862,
      "è´¥": 2863,
      "Ġdiffer": 2864,
      "ä¹İ": 2865,
      "åľŁ": 2866,
      "Ġä¸Ģæł·": 2867,
      "ron": 2868,
      "ĠçĶļèĩ³": 2869,
      "è¯·": 2870,
      "Ġsee": 2871,
      "ĠæĬķèµĦ": 2872,
      "Ġå¿ħé¡»": 2873,
      "Ġåĳ½": 2874,
      "ç¾¤": 2875,
      "Ġå¤´": 2876,
      "Ġdisc": 2877,
      "æ´ĭ": 2878,
      "Ġval": 2879,
      "Ġå¾ĹåĪ°": 2880,
      "ĠæĹħ": 2881,
      "ĠèĻ": 2882,
      "åĪĿ": 2883,
      "ĠJohn": 2884,
      "Ġç§ĳåŃ¦": 2885,
      "éĥ½": 2886,
      "enn": 2887,
      "ode": 2888,
      "led": 2889,
      "çķ¥": 2890,
      "ĠHow": 2891,
      "ĠæĹ¶æľŁ": 2892,
      "å·Ŀ": 2893,
      "ĠæĿĥ": 2894,
      "ĠæŀĹ": 2895,
      "imes": 2896,
      "Ġåĵª": 2897,
      "ĠåĪ«": 2898,
      "ĠçĶµè§Ĩ": 2899,
      "Ġ^": 2900,
      "008": 2901,
      "Ġçºª": 2902,
      "Ġchar": 2903,
      "iving": 2904,
      "roup": 2905,
      "Ġåľº": 2906,
      "Ġè½¦ç«Ļ": 2907,
      "é¥": 2908,
      "Ġç§°ä¸º": 2909,
      "ven": 2910,
      "Ġsim": 2911,
      "app": 2912,
      "æĳ": 2913,
      "Ġå·¥ç¨ĭ": 2914,
      "ç»ĥ": 2915,
      "Ġåī§": 2916,
      "ets": 2917,
      "æ°ı": 2918,
      "ross": 2919,
      "ä¼¼": 2920,
      "ined": 2921,
      "ience": 2922,
      "Ġåı²": 2923,
      "Ġè¯ķ": 2924,
      "Ġmain": 2925,
      "å®¢": 2926,
      "ĠComm": 2927,
      "ä»ħ": 2928,
      "Ġprog": 2929,
      "Ġmov": 2930,
      "ley": 2931,
      "Ġmake": 2932,
      "Ġhel": 2933,
      "Ġå¾Ģ": 2934,
      "ology": 2935,
      "ox": 2936,
      "ually": 2937,
      "arly": 2938,
      "Ġæ¯ĶèµĽ": 2939,
      "çīĻ": 2940,
      "Ġæ»¡": 2941,
      "Ġrep": 2942,
      "Ġåĳ¢": 2943,
      "Ġevery": 2944,
      "009": 2945,
      "Ġæ¸©": 2946,
      "Ġboth": 2947,
      "ble": 2948,
      "Ġéº": 2949,
      "åħ¸": 2950,
      "ĠUniversity": 2951,
      "ĠæĶ»": 2952,
      "ĠçīĪ": 2953,
      "ç¤¾": 2954,
      "å§Ĩ": 2955,
      "åį«": 2956,
      "Ġç¢": 2957,
      "é¡¿": 2958,
      "Ġç»ĵæŀľ": 2959,
      "Ġins": 2960,
      "anc": 2961,
      "Ġä¹Ŀ": 2962,
      "æ³¨": 2963,
      "ider": 2964,
      "uss": 2965,
      "ina": 2966,
      "Ġcar": 2967,
      "ä¼¦": 2968,
      "Ġå¨ģ": 2969,
      "Ġä¸Ģæ¬¡": 2970,
      "Ġç¾¤": 2971,
      "Ġå¢ŀåĬł": 2972,
      "Ġå¹´ä»£": 2973,
      "ants": 2974,
      "Ġæİ§åĪ¶": 2975,
      "ctions": 2976,
      "Ġè¡¥": 2977,
      "åĴĮåĽ½": 2978,
      "Ġdid": 2979,
      "ĠÑģ": 2980,
      "å¾ģ": 2981,
      "åħ´": 2982,
      "Ġä¹Ĳ": 2983,
      "Ġç§¯": 2984,
      "Ġèīºæľ¯": 2985,
      "çĶ°": 2986,
      "Ġæĭ¥": 2987,
      "ĠæĺŁ": 2988,
      "åĪĩ": 2989,
      "Ġå¹³æĸ¹åħ¬éĩĮ": 2990,
      "Ġäº²": 2991,
      "å®Ĺ": 2992,
      "vent": 2993,
      "Ġbel": 2994,
      "æļ": 2995,
      "Ġteam": 2996,
      "ĠThere": 2997,
      "äº¡": 2998,
      "ĵį": 2999,
      "ula": 3000,
      "Ġä¸ĥ": 3001,
      "Ġinf": 3002,
      "ĠçĬ¶": 3003,
      "ĠæĪĲåĬŁ": 3004,
      "Ġæħ": 3005,
      "son": 3006,
      "Ġæ´¾": 3007,
      "Ġåĵģ": 3008,
      "ä¼¯": 3009,
      "éĵģ": 3010,
      "Ġà": 3011,
      "ä¸¾": 3012,
      "Ġä»¥ä¸Ĭ": 3013,
      "å¤±": 3014,
      "å£°": 3015,
      "ĠåıĤä¸İ": 3016,
      "èĳĹ": 3017,
      "Ġè¡Ģ": 3018,
      "iam": 3019,
      "Ġpublic": 3020,
      "ĠæľĿ": 3021,
      "ĠçŁŃ": 3022,
      "ĠæŃ£å¼ı": 3023,
      "Ġbr": 3024,
      "ĠShe": 3025,
      "Ġstart": 3026,
      "Ġä¸ĢçĽ´": 3027,
      "iness": 3028,
      "ĠèĢħ": 3029,
      "ĠOr": 3030,
      "æķ´": 3031,
      "Ġty": 3032,
      "åĶ®": 3033,
      "Ġname": 3034,
      "Ġå¹¶ä¸Ķ": 3035,
      "Ġfun": 3036,
      "ĠæĤ£": 3037,
      "Ġrele": 3038,
      "Ġè¿½": 3039,
      "Ġå·®": 3040,
      "Ġåħħ": 3041,
      "Ġè¯·": 3042,
      "ĠéĢĢ": 3043,
      "é²ģ": 3044,
      "çĳ": 3045,
      "ional": 3046,
      "ç´¢": 3047,
      "éĽ·": 3048,
      "Ġäº¿": 3049,
      "Ġå¦Ĥä½ķ": 3050,
      "çĻ¾": 3051,
      "æŁĵ": 3052,
      "å¤ª": 3053,
      "æģ©": 3054,
      "æīĺ": 3055,
      "å¡Ķ": 3056,
      "Ġå¸Ī": 3057,
      "ages": 3058,
      "Ġå¼Ģåıĳ": 3059,
      "ck": 3060,
      "ĠPr": 3061,
      "åĸĦ": 3062,
      "ĠéĹ¨": 3063,
      "Ġä»»ä½ķ": 3064,
      "ically": 3065,
      "ĠäºĴ": 3066,
      "Ġç§»": 3067,
      "Ġåħ´": 3068,
      "ĠçĬ": 3069,
      "Ġworld": 3070,
      "Ġå°¼": 3071,
      "021": 3072,
      "ĠéĢłæĪĲ": 3073,
      "ting": 3074,
      "ĠÎ": 3075,
      "ä»Ĭ": 3076,
      "Ġè¯»": 3077,
      "é©": 3078,
      "Ġä¸Ĭæµ·": 3079,
      "©ļ": 3080,
      "æĿ¿": 3081,
      "Ġé¸": 3082,
      "Ġåĺ": 3083,
      "è¡Ģ": 3084,
      "007": 3085,
      "ize": 3086,
      "ĠÑĤ": 3087,
      "è¿ľ": 3088,
      "Ġä¸ĸçºª": 3089,
      "Ġ1": 3090,
      "ĠæĬĹ": 3091,
      "Ġè´¨": 3092,
      "ĠæĹłæ³ķ": 3093,
      "Ġnumber": 3094,
      "ĠæıĲåĩº": 3095,
      "çĵ¦": 3096,
      "å®Ŀ": 3097,
      "Ġdesign": 3098,
      "å¥ĸ": 3099,
      "Ġbecause": 3100,
      "Ġsecond": 3101,
      "Ġä¸Ńå¤®": 3102,
      "åĿĩ": 3103,
      "Ġä¼łç»Ł": 3104,
      "Ġsupport": 3105,
      "lement": 3106,
      "åİĭ": 3107,
      "è®¸": 3108,
      "ĠBe": 3109,
      "Ġdep": 3110,
      "ĠçĦ¶åĲİ": 3111,
      "ute": 3112,
      "ĠèĩªçĦ¶": 3113,
      "ç¦ı": 3114,
      "ä¹ħ": 3115,
      "åĲ¦": 3116,
      "ĠåŁ¹": 3117,
      "Ġç»Ī": 3118,
      "ĠAt": 3119,
      "ober": 3120,
      "ene": 3121,
      "ĠCan": 3122,
      "éĥ": 3123,
      "ĠæłĩåĩĨ": 3124,
      "èį¯": 3125,
      "ruct": 3126,
      "ä½İ": 3127,
      "Ġæī¹": 3128,
      "å³": 3129,
      "Ġvery": 3130,
      "Ġå½ĵåľ°": 3131,
      "ural": 3132,
      "Ġcur": 3133,
      "æ¥¼": 3134,
      "Ġè®®": 3135,
      "Ġeven": 3136,
      "ĠåĬĽ": 3137,
      "ived": 3138,
      "Ġknown": 3139,
      "ital": 3140,
      "Ġbased": 3141,
      "Ġåŀĭ": 3142,
      "Ġè¡Ĺ": 3143,
      "Ġå¾·åĽ½": 3144,
      "ĠåĪ¶ä½ľ": 3145,
      "æħ": 3146,
      "006": 3147,
      "åĨĻ": 3148,
      "æ¬¢": 3149,
      "Ġä¹°": 3150,
      "ĠéŁ©": 3151,
      "ired": 3152,
      "Ġfin": 3153,
      "istory": 3154,
      "Ġçİ©": 3155,
      "ĠStates": 3156,
      "Ġcommun": 3157,
      "å¥ĩ": 3158,
      "Ġconst": 3159,
      "Ġschool": 3160,
      "Ġä¸įè¿ĩ": 3161,
      "Ġgovern": 3162,
      "å±ħ": 3163,
      "Ġå·ŀ": 3164,
      "Ġlater": 3165,
      "Ġdr": 3166,
      "æ´¾": 3167,
      "Ġå®ŀéĻħ": 3168,
      "arm": 3169,
      "ved": 3170,
      "èĮĥ": 3171,
      "ĠéģĹ": 3172,
      "ĠéĩĩçĶ¨": 3173,
      "¾³": 3174,
      "Ġsame": 3175,
      "alth": 3176,
      "ĠÐ²": 3177,
      "å¿«": 3178,
      "iqu": 3179,
      "ĠåĲĦç§į": 3180,
      "Ġæ¼": 3181,
      "Ġæ²»çĸĹ": 3182,
      "Ġæ¹ĸ": 3183,
      "çĿ£": 3184,
      "88": 3185,
      "ĠåİŁåĽł": 3186,
      "Ġæ²Ļ": 3187,
      "ĠæľĢå¤§": 3188,
      "Ġä½ı": 3189,
      "Ġreturn": 3190,
      "ç»Ļ": 3191,
      "Ġè¿ľ": 3192,
      "Ġåģ¥": 3193,
      "Ġè±": 3194,
      "Ġåħ¶å®ŀ": 3195,
      "ĠåĲĹ": 3196,
      "Ġbus": 3197,
      "éĺ²": 3198,
      "éĹ»": 3199,
      "ection": 3200,
      "Ġé¾Ļ": 3201,
      "Ġèį¯": 3202,
      "æ¨¡": 3203,
      "Ġcontin": 3204,
      "Ġç¼º": 3205,
      "lished": 3206,
      "Ġæĭ¿": 3207,
      "æŃ»": 3208,
      "ä¸½": 3209,
      "Ġè§ī": 3210,
      "Ġshould": 3211,
      "Ġè¡Įä¸º": 3212,
      "é¸": 3213,
      "ĠåĿļ": 3214,
      "Ġlife": 3215,
      "Ġè¿Ļæĺ¯": 3216,
      "çĪ±": 3217,
      "æ²¹": 3218,
      "ªĴ": 3219,
      "ĠåĬŁèĥ½": 3220,
      "Ġexper": 3221,
      "Ġresult": 3222,
      "ĠAll": 3223,
      "Ġä¸´": 3224,
      "Ġway": 3225,
      "001": 3226,
      "æĹł": 3227,
      "Ġeach": 3228,
      "Ġrecord": 3229,
      "ulation": 3230,
      "Ġrun": 3231,
      "Ġday": 3232,
      "005": 3233,
      "70": 3234,
      "ared": 3235,
      "çª": 3236,
      "rent": 3237,
      "æŃĮ": 3238,
      "Ġthose": 3239,
      "Ġè§Ħå®ļ": 3240,
      "åºĹ": 3241,
      "Ġpoint": 3242,
      "ĠçŁ¥è¯Ĩ": 3243,
      "Ġsing": 3244,
      "ç«¯": 3245,
      "eng": 3246,
      "ĠèĢģå¸Ī": 3247,
      "åħŃ": 3248,
      "Ġä½ľçĶ¨": 3249,
      "å¸ģ": 3250,
      "Ġä¸Ķ": 3251,
      "rist": 3252,
      "day": 3253,
      "Ġref": 3254,
      "ĠéŃ": 3255,
      "Ġåħ³äºİ": 3256,
      "Ġagainst": 3257,
      "ĠåıĹåĪ°": 3258,
      "æ³¢": 3259,
      "æ»¡": 3260,
      "Ġä¾Ľ": 3261,
      "ĠåĲ¸": 3262,
      "Ġæ°¸": 3263,
      "è®¤": 3264,
      "é¢Ŀ": 3265,
      "ĠåĪĨåĪ«": 3266,
      "31": 3267,
      "ĠçĶ»": 3268,
      "Ġåİĭ": 3269,
      "æ¯Ĵ": 3270,
      "Ġdown": 3271,
      "å¯Į": 3272,
      "Ġå§Ķåĳĺä¼ļ": 3273,
      "Ġéĵģè·¯": 3274,
      "ä¾¿": 3275,
      "Ġæ¯į": 3276,
      "ograph": 3277,
      "Ġåįĥ": 3278,
      "atch": 3279,
      "ĠæĢİä¹Ī": 3280,
      "Ġè¯Ĺ": 3281,
      "Ġdirect": 3282,
      "å°Ĩ": 3283,
      "Ġappro": 3284,
      "ĠæĪĲåĳĺ": 3285,
      "Ġç»ĵæŀĦ": 3286,
      "Ġå®¡": 3287,
      "Ġchild": 3288,
      "Ġå®Įåħ¨": 3289,
      "Ġstate": 3290,
      "Ġå®Ŀ": 3291,
      "Ġé¼": 3292,
      "Ġperson": 3293,
      "view": 3294,
      "Ġæ¦Ĥ": 3295,
      "arch": 3296,
      "Ġstr": 3297,
      "ĠåĲĪä½ľ": 3298,
      "Ġå¥ĸ": 3299,
      "Ġknow": 3300,
      "ĠåĪĨæŀĲ": 3301,
      "Ġshow": 3302,
      "èīº": 3303,
      "Ġhelp": 3304,
      "rol": 3305,
      "Ġè§ģ": 3306,
      "éĿŀ": 3307,
      "ĠçĶ³": 3308,
      "ĠåĲī": 3309,
      "æ£®": 3310,
      "å±Ĭ": 3311,
      "è¢": 3312,
      "ĠéĢĲ": 3313,
      "Ġæĭ¥æľī": 3314,
      "Ġç»§ç»Ń": 3315,
      "Ġè¾¾åĪ°": 3316,
      "ĠUS": 3317,
      "Ġä¹ĭåīį": 3318,
      "Ġä½Ľ": 3319,
      "¯ĩ": 3320,
      "æĿŁ": 3321,
      "Ġä¿ĿæĬ¤": 3322,
      "èĹı": 3323,
      "Ġå»¶": 3324,
      "Ġä¸Ģèµ·": 3325,
      "åĳ¨": 3326,
      "Ġlook": 3327,
      "ĠèĲ½": 3328,
      "ĠèģĶåĲĪ": 3329,
      "èĲ¨": 3330,
      "Ġçĭ¬ç«ĭ": 3331,
      "ĠÅ": 3332,
      "Ġå®ŀçİ°": 3333,
      "ĠMay": 3334,
      "çŁ": 3335,
      "ĠéĻĨ": 3336,
      "Ġåħ¬éĩĮ": 3337,
      "Ġav": 3338,
      "ium": 3339,
      "formation": 3340,
      "Ġåį«": 3341,
      "ä¼¤": 3342,
      "Ġäººçī©": 3343,
      "Ġopen": 3344,
      "Ġäºĭä»¶": 3345,
      "urch": 3346,
      "ĠåĶĲ": 3347,
      "uro": 3348,
      "Ġç«ŀ": 3349,
      "Ġè¶ħè¿ĩ": 3350,
      "Ġsl": 3351,
      "ĠæĿ¥èĩª": 3352,
      "Ġdata": 3353,
      "ĠCount": 3354,
      "æ¸ħ": 3355,
      "Ġè¡¨çİ°": 3356,
      "Ġåł": 3357,
      "Ġconf": 3358,
      "Ġå¤ĦçĲĨ": 3359,
      "ands": 3360,
      "Ġæ³ķå¾ĭ": 3361,
      "Ġçº³": 3362,
      "è¯ī": 3363,
      "å¨ģ": 3364,
      "åĳ³": 3365,
      "æĸĹ": 3366,
      "Ġread": 3367,
      "Ġäºĳ": 3368,
      "æīį": 3369,
      "Ġmark": 3370,
      "ball": 3371,
      "Ġpartic": 3372,
      "ĠæĻº": 3373,
      "ĠåĨł": 3374,
      "Ġæĭį": 3375,
      "Ġåıªæĺ¯": 3376,
      "ĠIf": 3377,
      "Ġold": 3378,
      "è¯º": 3379,
      "Ġç½ĳç»ľ": 3380,
      "Ġäººä»¬": 3381,
      "Ġå¸ĮæľĽ": 3382,
      "ĠéĺŁ": 3383,
      "ĠæŀĦ": 3384,
      "ĠThey": 3385,
      "ially": 3386,
      "Ġè¾¹": 3387,
      "ĠçĦ¶èĢĮ": 3388,
      "æľ¨": 3389,
      "ner": 3390,
      "Ġçľ¼": 3391,
      "Ġterm": 3392,
      "Ġä¾ĭå¦Ĥ": 3393,
      "line": 3394,
      "Ġæľīåħ³": 3395,
      "å®Ī": 3396,
      "ĠçľĭåĪ°": 3397,
      "ĠæľĢé«ĺ": 3398,
      "Ġfour": 3399,
      "æ´Ľ": 3400,
      "Ġprogram": 3401,
      "ĠBrit": 3402,
      "Ġä¸įè¦ģ": 3403,
      "ĠæıĲé«ĺ": 3404,
      "Ġèĭ¥": 3405,
      "ĠWorld": 3406,
      "Ġequ": 3407,
      "ĠæĿĢ": 3408,
      "Ġæķħäºĭ": 3409,
      "Ġorig": 3410,
      "ĠæĹ¶ä»£": 3411,
      "con": 3412,
      "æł¹": 3413,
      "oad": 3414,
      "ĠæĹ§": 3415,
      "Ġtechn": 3416,
      "ĠCent": 3417,
      "Ġçĳ": 3418,
      "Ġbook": 3419,
      "ĠåĲ«": 3420,
      "inc": 3421,
      "Ġorgan": 3422,
      "tain": 3423,
      "Ġcor": 3424,
      "ĠåĬ³": 3425,
      "ĠGe": 3426,
      "Ġmuch": 3427,
      "æİ§": 3428,
      "Ġåıĳè¡Į": 3429,
      "ĠéĹ´": 3430,
      "Ġperform": 3431,
      "Ġlast": 3432,
      "Ġconc": 3433,
      "ä»Ģä¹Ī": 3434,
      "ĠÐº": 3435,
      "Ġbro": 3436,
      "por": 3437,
      "åĵ¥": 3438,
      "Ġla": 3439,
      "ĠÐ»": 3440,
      "Ġimport": 3441,
      "35": 3442,
      "ĠÄ": 3443,
      "Ġè½»": 3444,
      "Ġé¡º": 3445,
      "ĠJan": 3446,
      "ĠAm": 3447,
      "æĮ¥": 3448,
      "ä¾§": 3449,
      "Ġæī©": 3450,
      "æ±ī": 3451,
      "Ġæį®": 3452,
      "Ġæİ¥åıĹ": 3453,
      "ccess": 3454,
      "æĺ¾": 3455,
      "ĠéĢļå¸¸": 3456,
      "ĠMe": 3457,
      "Ġæ¯Ķå¦Ĥ": 3458,
      "Ġåı¦å¤ĸ": 3459,
      "ĠåĨ²": 3460,
      "Ġè§£åĨ³": 3461,
      "æĿĲ": 3462,
      "Ġæµĭ": 3463,
      "ĠåºĶçĶ¨": 3464,
      "Ġé¢Ĩå¯¼": 3465,
      "çģ«": 3466,
      "004": 3467,
      "ior": 3468,
      "ĠMan": 3469,
      "Ġæ¿Ģ": 3470,
      "å¾ħ": 3471,
      "éĻį": 3472,
      "ĠBr": 3473,
      "bs": 3474,
      "Ġprocess": 3475,
      "åĿĹ": 3476,
      "ĠåĪ©çĶ¨": 3477,
      "æį¢": 3478,
      "ĠæķĻåŃ¦": 3479,
      "Ġå¯Ĩ": 3480,
      "Ġmet": 3481,
      "alk": 3482,
      "Ġdifferent": 3483,
      "Ġpat": 3484,
      "ator": 3485,
      "ĠMus": 3486,
      "ĠGo": 3487,
      "Ġäººç±»": 3488,
      "åħ±åĴĮåĽ½": 3489,
      "ç½Ĺæĸ¯": 3490,
      "ĠBut": 3491,
      "ott": 3492,
      "åİĤ": 3493,
      "Ġcity": 3494,
      "Ġcare": 3495,
      "ĠåĤ": 3496,
      "Ġç»ĦæĪĲ": 3497,
      "ä½Ļ": 3498,
      "Ġadv": 3499,
      "mp": 3500,
      "Ġè®º": 3501,
      "Ġbuild": 3502,
      "til": 3503,
      "yn": 3504,
      "éĶĢ": 3505,
      "ç»©": 3506,
      "eb": 3507,
      "Ġarea": 3508,
      "ery": 3509,
      "Ġè§īå¾Ĺ": 3510,
      "ç¼ĸ": 3511,
      "Ġäºī": 3512,
      "ç§Ģ": 3513,
      "ird": 3514,
      "isc": 3515,
      "é±¼": 3516,
      "ĠåĬłåħ¥": 3517,
      "ĠèĩªçĶ±": 3518,
      "Ġå±Ģ": 3519,
      "Ġpass": 3520,
      "æĶ¯": 3521,
      "Ġann": 3522,
      "Ġsever": 3523,
      "ç»Ĩ": 3524,
      "åĪ©äºļ": 3525,
      "gy": 3526,
      "une": 3527,
      "Ġcalled": 3528,
      "æİĪ": 3529,
      "Ġpar": 3530,
      "ission": 3531,
      "ister": 3532,
      "çĹĩ": 3533,
      "æĭĶ": 3534,
      "Ġæ¬§æ´²": 3535,
      "45": 3536,
      "çİ¯": 3537,
      "ĠæľºæŀĦ": 3538,
      "Ġçļ®": 3539,
      "Ġç»Ŀ": 3540,
      "åı¥": 3541,
      "Ġè®¡ç®Ĺ": 3542,
      "Ġair": 3543,
      "éħ¸": 3544,
      "Ġgood": 3545,
      "ĠéĻ¤äºĨ": 3546,
      "çĥŃ": 3547,
      "Ġçł´": 3548,
      "ales": 3549,
      "oci": 3550,
      "Ġå¤§éĩı": 3551,
      "Ġå®¶åºŃ": 3552,
      "ĠWar": 3553,
      "Ġcentury": 3554,
      "ä¿®": 3555,
      "Ġhome": 3556,
      "åĪ»": 3557,
      "Ġaround": 3558,
      "éĤ¦": 3559,
      "Ġæ³¨æĦı": 3560,
      "Ġéĺ¶": 3561,
      "Ġç»ıè¿ĩ": 3562,
      "Ġå·¨": 3563,
      "ferences": 3564,
      "Ġæİ¢": 3565,
      "Ġäººåĳĺ": 3566,
      "åħį": 3567,
      "Ġche": 3568,
      "½Ĳ": 3569,
      "Ġå®£å¸ĥ": 3570,
      "ĠçĨ": 3571,
      "çĨ": 3572,
      "æ¡¥": 3573,
      "atic": 3574,
      "èĻĳ": 3575,
      "Ġdel": 3576,
      "æľĹ": 3577,
      "osed": 3578,
      "ai": 3579,
      "Ġprot": 3580,
      "Ġleg": 3581,
      "Ġformula": 3582,
      "Ġæĺ¯åĲ¦": 3583,
      "ĠäºĨè§£": 3584,
      "022": 3585,
      "åħ«": 3586,
      "ĠçŃ¾": 3587,
      "Ġè¯Ńè¨Ģ": 3588,
      "éĴŁ": 3589,
      "Ġå´": 3590,
      "ajor": 3591,
      "500": 3592,
      "ration": 3593,
      "86": 3594,
      "Ġæ¾³": 3595,
      "å²¸": 3596,
      "ĠGr": 3597,
      "over": 3598,
      "Ġsince": 3599,
      "Ġfamily": 3600,
      "Ġçİ°ä»£": 3601,
      "ality": 3602,
      "ĠNational": 3603,
      "ä½³": 3604,
      "éħį": 3605,
      "Ġå°ģ": 3606,
      "ĠçĲĨè®º": 3607,
      "ĠPol": 3608,
      "ĠéģŃ": 3609,
      "åįĬ": 3610,
      "Ġve": 3611,
      "ĠèĽ": 3612,
      "çķĻ": 3613,
      "Ġä¸¾è¡Į": 3614,
      "ternal": 3615,
      "Ġleft": 3616,
      "ĠåĲ§": 3617,
      "èİ±": 3618,
      "å®ģ": 3619,
      "èĢģ": 3620,
      "ĠComp": 3621,
      "ling": 3622,
      "Ġæ¯ķä¸ļ": 3623,
      "Ġæ··": 3624,
      "Ġå¸®åĬ©": 3625,
      "èĦĳ": 3626,
      "Ġprof": 3627,
      "ĠæĻļ": 3628,
      "ected": 3629,
      "Ġå°¤": 3630,
      "ĠAust": 3631,
      "ourn": 3632,
      "Ġç»¼": 3633,
      "lection": 3634,
      "Ġå°ıæĹ¶": 3635,
      "Ġgame": 3636,
      "Ġsmall": 3637,
      "Ġseries": 3638,
      "Ġsom": 3639,
      "Ġä¸įæĸŃ": 3640,
      "ĠYork": 3641,
      "bum": 3642,
      "æľª": 3643,
      "ĠSchool": 3644,
      "çĥĪ": 3645,
      "Ġhead": 3646,
      "èĥŀ": 3647,
      "ĠæŁ¥": 3648,
      "87": 3649,
      "é¦ĸ": 3650,
      "Ġå½Ĵ": 3651,
      "ĠçĽ®æłĩ": 3652,
      "äºĪ": 3653,
      "oss": 3654,
      "read": 3655,
      "Ġusing": 3656,
      "Ġå®Ĺ": 3657,
      "èŀį": 3658,
      "ĠæĶ¿çŃĸ": 3659,
      "ness": 3660,
      "ĠEd": 3661,
      "åºĵ": 3662,
      "hor": 3663,
      "Ġcour": 3664,
      "Ġæĸ½": 3665,
      "Ġbecame": 3666,
      "ternational": 3667,
      "Ġwant": 3668,
      "Ġel": 3669,
      "Ġåıĸå¾Ĺ": 3670,
      "ris": 3671,
      "Ġè´Ŀ": 3672,
      "Ġestab": 3673,
      "æĽ¼": 3674,
      "ĠRes": 3675,
      "ĠåŁĥ": 3676,
      "ĠII": 3677,
      "Ġdoes": 3678,
      "ke": 3679,
      "Ġthough": 3680,
      "Ġelect": 3681,
      "ĭåıĭ": 3682,
      "oard": 3683,
      "ided": 3684,
      "ĠèĮĥåĽ´": 3685,
      "ĠæĿ¨": 3686,
      "ĠçıŃ": 3687,
      "æİĴ": 3688,
      "lex": 3689,
      "illion": 3690,
      "Ġexpl": 3691,
      "Ġsol": 3692,
      "ĠçĶ²": 3693,
      "Ġuntil": 3694,
      "Ġå¡Ķ": 3695,
      "ĠåĩºæĿ¥": 3696,
      "Ġå®¹æĺĵ": 3697,
      "å¡ŀ": 3698,
      "ĠæĭĽ": 3699,
      "ians": 3700,
      "Ġfr": 3701,
      "Ġsoc": 3702,
      "ization": 3703,
      "Ġä»ĭ": 3704,
      "Ġgl": 3705,
      "omen": 3706,
      "å½¹": 3707,
      "Ġeng": 3708,
      "Ġstill": 3709,
      "Ġbeg": 3710,
      "ploy": 3711,
      "akes": 3712,
      "Ġrece": 3713,
      "Ġå»ºè®®": 3714,
      "åı³": 3715,
      "ĠSu": 3716,
      "Ġfind": 3717,
      "ĠéĻĲ": 3718,
      "Ġåĸľæ¬¢": 3719,
      "Ġreport": 3720,
      "reen": 3721,
      "å®«": 3722,
      "Ġåħ¼": 3723,
      "ĠåĪĨå¸ĥ": 3724,
      "Ġè´¹": 3725,
      "rict": 3726,
      "ret": 3727,
      "Ġlist": 3728,
      "ĠåŃ¦éĻ¢": 3729,
      "Ġlaw": 3730,
      "éĴ±": 3731,
      "Ġèĵ": 3732,
      "Ġlin": 3733,
      "ĠGerm": 3734,
      "Ġåħ»": 3735,
      "çł´": 3736,
      "Ġç²¾ç¥ŀ": 3737,
      "å¹²": 3738,
      "003": 3739,
      "åĮ»": 3740,
      "ĠåĳĬ": 3741,
      "ĠFl": 3742,
      "Ġå½¢å¼ı": 3743,
      "Ġmusic": 3744,
      "Ġæĵį": 3745,
      "Ġgreat": 3746,
      "85": 3747,
      "ĠAfter": 3748,
      "ides": 3749,
      "Ġpost": 3750,
      "get": 3751,
      "æŀ¶": 3752,
      "Ġä»·åĢ¼": 3753,
      "ised": 3754,
      "Ġè¿ĻéĩĮ": 3755,
      "ĠCo": 3756,
      "è½¬": 3757,
      "ms": 3758,
      "å¼Ĥ": 3759,
      "ĠEuro": 3760,
      "min": 3761,
      "Ġbest": 3762,
      "Ġplace": 3763,
      "ĠChrist": 3764,
      "Ġåģĩ": 3765,
      "ek": 3766,
      "Ġvis": 3767,
      "Ġpower": 3768,
      "Ġeffect": 3769,
      "Ġå¥³æĢ§": 3770,
      "Ġrest": 3771,
      "Ġè½¯": 3772,
      "ains": 3773,
      "è¯¾": 3774,
      "ĠåĲ´": 3775,
      "Ġèİ«": 3776,
      "ç±į": 3777,
      "Ġæľ¨": 3778,
      "Ġä¸Ģä½į": 3779,
      "Ġdesc": 3780,
      "Ġäº¤éĢļ": 3781,
      "Ġä¸ľè¥¿": 3782,
      "Ġgroup": 3783,
      "èĥľ": 3784,
      "Ġtake": 3785,
      "Ġèµ·æĿ¥": 3786,
      "iven": 3787,
      "embers": 3788,
      "ĠæĿ¥è¯´": 3789,
      "ä¹¡": 3790,
      "Ġåı«": 3791,
      "å¼¹": 3792,
      "Ġpolit": 3793,
      "Ġpresent": 3794,
      "è¯Ħ": 3795,
      "Ġhouse": 3796,
      "Ġåħ±åĲĮ": 3797,
      "aving": 3798,
      "Ġç¾": 3799,
      "ĠéĢı": 3800,
      "ĠçĿ": 3801,
      "ried": 3802,
      "Ġä¿Ħç½Ĺæĸ¯": 3803,
      "åł¡": 3804,
      "Ġæ²¿": 3805,
      "Ġcharact": 3806,
      "èī¯": 3807,
      "æ¸Ĳ": 3808,
      "Ġbusiness": 3809,
      "ats": 3810,
      "ĠæĴŃ": 3811,
      "å¾Ħ": 3812,
      "ĠNov": 3813,
      "ĠSy": 3814,
      "ĠäºĮåįģ": 3815,
      "Ġçħ§": 3816,
      "Ġvers": 3817,
      "gg": 3818,
      "Ġä¸°": 3819,
      "Ġfact": 3820,
      "ĠéĴ±": 3821,
      "Ġæ¨¡å¼ı": 3822,
      "ody": 3823,
      "Ġä¸¥éĩį": 3824,
      "ĠæĤ£èĢħ": 3825,
      "åĶ±": 3826,
      "Ġline": 3827,
      "Ġoffic": 3828,
      "ĠWill": 3829,
      "ency": 3830,
      "ĠæľīæķĪ": 3831,
      "ĠèĲ¨": 3832,
      "Ġåį°åº¦": 3833,
      "Ġåıĳå¸ĥ": 3834,
      "å¹¿": 3835,
      "éĨ": 3836,
      "Ġç¨³": 3837,
      "Ġincre": 3838,
      "ĠèĴĻ": 3839,
      "urity": 3840,
      "Ġä»¤": 3841,
      "ĠGu": 3842,
      "ĠåĢŁ": 3843,
      "ĠåıĺåĮĸ": 3844,
      "æĿ¾": 3845,
      "Ġæ¯ıä¸ª": 3846,
      "Ġç»ĵæĿŁ": 3847,
      "Ġåħį": 3848,
      "Ġåį±": 3849,
      "Ġsk": 3850,
      "Ġtown": 3851,
      "002": 3852,
      "Ġæľ±": 3853,
      "Ġè´Ń": 3854,
      "ķľ": 3855,
      "ĠæŃ¤å¤ĸ": 3856,
      "åĲ«": 3857,
      "Ġåħ¨çĲĥ": 3858,
      "äººæ°ĳåħ±åĴĮåĽ½": 3859,
      "ining": 3860,
      "éĩĬ": 3861,
      "åĿ¦": 3862,
      "æī¹": 3863,
      "ĠAss": 3864,
      "çłĶ": 3865,
      "ªĴä½ĵ": 3866,
      "Ġtop": 3867,
      "çľŁ": 3868,
      "ĠçĪĨ": 3869,
      "ĠéħĴ": 3870,
      "è½»": 3871,
      "Ġå¹³åı°": 3872,
      "³ĸ": 3873,
      "200": 3874,
      "Ġä¹ł": 3875,
      "Ġes": 3876,
      "Ġæıı": 3877,
      "Ġage": 3878,
      "ç«¥": 3879,
      "åĿĢ": 3880,
      "ĠçĶ¨äºİ": 3881,
      "ĠEn": 3882,
      "Ġä¸Ģä¸ĭ": 3883,
      "ĠSouth": 3884,
      "36": 3885,
      "ĠåĲĮå¹´": 3886,
      "Ġåĩ»": 3887,
      "Ġiss": 3888,
      "ĠJu": 3889,
      "éº": 3890,
      "Ġè´§": 3891,
      "Ġlevel": 3892,
      "Ġgovernment": 3893,
      "ĠCar": 3894,
      "ĠåĮºåŁŁ": 3895,
      "ĠéĶĢ": 3896,
      "ĠæĪĺäºī": 3897,
      "Ġå¢ĥ": 3898,
      "Ġè¯¸": 3899,
      "Ġorder": 3900,
      "Ġocc": 3901,
      "Ġèī¾": 3902,
      "Ġç´§": 3903,
      "Ġæĺ¥": 3904,
      "æĿĢ": 3905,
      "Ġæ´Ľ": 3906,
      "Ġæ³°": 3907,
      "ĠæķĻå¸Ī": 3908,
      "Ġearly": 3909,
      "æĺł": 3910,
      "ĠèģĮä¸ļ": 3911,
      "è¿ª": 3912,
      "Ġseveral": 3913,
      "Ġhand": 3914,
      "ense": 3915,
      "Ġå°ļ": 3916,
      "Ġå¡ŀ": 3917,
      "Ġç©ºéĹ´": 3918,
      "Ġåģ¥åº·": 3919,
      "ĠAb": 3920,
      "ĠæľªæĿ¥": 3921,
      "ĠReferences": 3922,
      "ĠåĲ¯": 3923,
      "aces": 3924,
      "æ³½": 3925,
      "ively": 3926,
      "lev": 3927,
      "Ġdem": 3928,
      "æĶ¹": 3929,
      "çĶ²": 3930,
      "Ġalbum": 3931,
      "vers": 3932,
      "ĠCounty": 3933,
      "ĠNo": 3934,
      "ases": 3935,
      "Ġæ¸¯": 3936,
      "ple": 3937,
      "Ġäºİæĺ¯": 3938,
      "Ġçı": 3939,
      "ony": 3940,
      "Ġå¹³åĿĩ": 3941,
      "æŃ¦": 3942,
      "åİħ": 3943,
      "Ġå¯Į": 3944,
      "ĠSo": 3945,
      "åºĨ": 3946,
      "ä»ĺ": 3947,
      "arge": 3948,
      "my": 3949,
      "Ġnear": 3950,
      "Ġer": 3951,
      "åıį": 3952,
      "çĽĺ": 3953,
      "ript": 3954,
      "ung": 3955,
      "ane": 3956,
      "Ġè¡Įä¸ļ": 3957,
      "¤Ĳ": 3958,
      "Ġå®ĥä»¬": 3959,
      "Ġconsider": 3960,
      "Ġposs": 3961,
      "ç¨İ": 3962,
      "Ġä¸Ńåįİäººæ°ĳåħ±åĴĮåĽ½": 3963,
      "ĠåĽ½åĨħ": 3964,
      "ified": 3965,
      "åŃ¦å®¶": 3966,
      "Ġdon": 3967,
      "ĠæįŁ": 3968,
      "Ġæ¤į": 3969,
      "amb": 3970,
      "åı¶": 3971,
      "Ġéģ¿": 3972,
      "Ġnon": 3973,
      "ĠåĪĩ": 3974,
      "Ġæ¡Ī": 3975,
      "èĭ±": 3976,
      "ately": 3977,
      "èĨ": 3978,
      "ĠéĻ¢": 3979,
      "è½®": 3980,
      "é¾": 3981,
      "ves": 3982,
      "Ġmar": 3983,
      "å¼Ł": 3984,
      "æīĵ": 3985,
      "ĠNorth": 3986,
      "ĠçĶµåŃĲ": 3987,
      "Ġè¾ĵ": 3988,
      "è¶£": 3989,
      "Ġmanag": 3990,
      "ĠWhen": 3991,
      "Ġseason": 3992,
      "Ġæīįèĥ½": 3993,
      "Ġwithin": 3994,
      "Ġæ¨": 3995,
      "amed": 3996,
      "ĠæĢ»ç»Ł": 3997,
      "ä¸ĥ": 3998,
      "Ġæĺ¾ç¤º": 3999,
      "itions": 4000,
      "ĠåĩºçīĪ": 4001,
      "Ġtest": 4002,
      "åĵĪ": 4003,
      "yl": 4004,
      "ĠéĽ·": 4005,
      "ĠFr": 4006,
      "ä¸ģ": 4007,
      "oman": 4008,
      "ĠåĪ¤": 4009,
      "Ġä¸ĢåĲį": 4010,
      "ĠåĶ¯": 4011,
      "éļľ": 4012,
      "ĠæĿ¡ä»¶": 4013,
      "Ġä¿ĥ": 4014,
      "åĪ¤": 4015,
      "åĲī": 4016,
      "Ġå¼Ĥ": 4017,
      "çĮ®": 4018,
      "Ġå¼ķèµ·": 4019,
      "ĠæĮģç»Ń": 4020,
      "Ġæĸ¹åĲĳ": 4021,
      "etwork": 4022,
      "æ¸©": 4023,
      "ĠFran": 4024,
      "Ġä½įç½®": 4025,
      "Ġstand": 4026,
      "sp": 4027,
      "Ġä¸įä»ħ": 4028,
      "ĠCanad": 4029,
      "ĠéĽĨåĽ¢": 4030,
      "åįĪ": 4031,
      "ç½ª": 4032,
      "Ġinformation": 4033,
      "Ġreal": 4034,
      "ĠCity": 4035,
      "ĠEurope": 4036,
      "èĭı": 4037,
      "é¹": 4038,
      "ĠæľīéĻĲ": 4039,
      "Ġcompany": 4040,
      "ĠTo": 4041,
      "ĠCal": 4042,
      "Ġsuccess": 4043,
      "Ġborn": 4044,
      "Ġåŀ": 4045,
      "Ġsong": 4046,
      "Ġæķ´ä¸ª": 4047,
      "Ġç©¿": 4048,
      "ĠBro": 4049,
      "éħĴ": 4050,
      "Ġä¼Ĺ": 4051,
      "äºĳ": 4052,
      "Ġé¢ĨåŁŁ": 4053,
      "Ġä¸ĢçĤ¹": 4054,
      "Ġåģı": 4055,
      "Ġæ¯Ľ": 4056,
      "ST": 4057,
      "ĠAug": 4058,
      "Ġopp": 4059,
      "æĹ¶éĹ´": 4060,
      "Ġèº«ä½ĵ": 4061,
      "ĠPe": 4062,
      "ç»į": 4063,
      "Ġèĥ¡": 4064,
      "Ġéĵ¶è¡Į": 4065,
      "Ġlocal": 4066,
      "ä¹Ŀ": 4067,
      "by": 4068,
      "ĠBy": 4069,
      "ĠæľīäºĽ": 4070,
      "ĠçĽ¸å¯¹": 4071,
      "Ġmajor": 4072,
      "¥ļ": 4073,
      "Ġhum": 4074,
      "ĠMed": 4075,
      "åŃ¦éĻ¢": 4076,
      "éĽĦ": 4077,
      "éļĨ": 4078,
      "Ġè§Ĵèī²": 4079,
      "Ġthink": 4080,
      "ote": 4081,
      "Ġä»¥åĲİ": 4082,
      "33": 4083,
      "æıĲ": 4084,
      "Ġé¢ĺ": 4085,
      "Ġdiv": 4086,
      "Ġçİĩ": 4087,
      "éĶ®": 4088,
      "Ġalong": 4089,
      "uary": 4090,
      "riend": 4091,
      "rop": 4092,
      "Ġbre": 4093,
      "ĠçĽ®çļĦ": 4094,
      "Ġmonth": 4095,
      "Ġéĩįæĸ°": 4096,
      "Ġé±¼": 4097,
      "Ġanal": 4098,
      "Ġç®Ģåįķ": 4099,
      "Ġéĩĳèŀį": 4100,
      "Ġç§ģ": 4101,
      "Ġç£": 4102,
      "ĠOct": 4103,
      "ĠéĴĪ": 4104,
      "Ġattack": 4105,
      "Ġæī§è¡Į": 4106,
      "å¼ķ": 4107,
      "Ġè¶³çĲĥ": 4108,
      "è®Ń": 4109,
      "ĠæĹ¢": 4110,
      "ently": 4111,
      "Ġç³»åĪĹ": 4112,
      "ĠBritish": 4113,
      "aster": 4114,
      "Ġç»¿": 4115,
      "iety": 4116,
      "Ġproject": 4117,
      "å°¼äºļ": 4118,
      "ĠHar": 4119,
      "ording": 4120,
      "Ġé©»": 4121,
      "Ġç¿»": 4122,
      "Ġä¸ļåĬ¡": 4123,
      "Ġservice": 4124,
      "Ġå±Ĥ": 4125,
      "Ġç»¼åĲĪ": 4126,
      "Ġå®ĭ": 4127,
      "65": 4128,
      "é¢ĳ": 4129,
      "ĠEl": 4130,
      "Ġè¯Ŀ": 4131,
      "ĠçĶ¨æĪ·": 4132,
      "ĠHowever": 4133,
      "ying": 4134,
      "ĠKing": 4135,
      "åºĦ": 4136,
      "ilt": 4137,
      "å³°": 4138,
      "ended": 4139,
      "ilit": 4140,
      "Ġstat": 4141,
      "æ¹ĸ": 4142,
      "Ġanother": 4143,
      "æī¿": 4144,
      "Ġpub": 4145,
      "Ġçĵ¦": 4146,
      "ä¹±": 4147,
      "eter": 4148,
      "Ġsw": 4149,
      "ipp": 4150,
      "conom": 4151,
      "ĠéĢŁ": 4152,
      "Ġoften": 4153,
      "istor": 4154,
      "ĠéĶĻ": 4155,
      "Ġè¯į": 4156,
      "Ġfollowing": 4157,
      "Ġè°ĥæŁ¥": 4158,
      "çĽĸ": 4159,
      "ĠçļĦè¯Ŀ": 4160,
      "Ġä¸ºä»Ģä¹Ī": 4161,
      "ued": 4162,
      "Ġè®¾æľī": 4163,
      "Ġæĸ°éĹ»": 4164,
      "Ġè·Ŀ": 4165,
      "Ġèĥľ": 4166,
      "ĠSec": 4167,
      "990": 4168,
      "èĽ": 4169,
      "Ġèįī": 4170,
      "me": 4171,
      "Ġä¿ĿæĮģ": 4172,
      "Ġåº§": 4173,
      "sh": 4174,
      "ĠNe": 4175,
      "Ġä¼¤": 4176,
      "ç½²": 4177,
      "Ġbas": 4178,
      "Ġpo": 4179,
      "Ġcr": 4180,
      "çĸĳ": 4181,
      "aim": 4182,
      "Ġå¿ĥçĲĨ": 4183,
      "ample": 4184,
      "ĠHis": 4185,
      "æĺ¥": 4186,
      "æ²Ļ": 4187,
      "Ġä¸īä¸ª": 4188,
      "ä»İ": 4189,
      "999": 4190,
      "Ġhere": 4191,
      "ĠæĶ¹åıĺ": 4192,
      "ĠåķĨä¸ļ": 4193,
      "Ġå¤§éĻĨ": 4194,
      "Ġå²Ľ": 4195,
      "Ġwater": 4196,
      "resent": 4197,
      "Ġhtt": 4198,
      "Ġ2": 4199,
      "ç»Ŀ": 4200,
      "Ġåħ³æ³¨": 4201,
      "iron": 4202,
      "ĠSept": 4203,
      "Ġå§ĭ": 4204,
      "med": 4205,
      "ĠÃ¡": 4206,
      "ĠAf": 4207,
      "37": 4208,
      "Ġåīįå¾Ģ": 4209,
      "Ġbeh": 4210,
      "èĴĤ": 4211,
      "å©ļ": 4212,
      "Ġtext": 4213,
      "ille": 4214,
      "ĠçĶŁå¹³": 4215,
      "ĠçĪ¶äº²": 4216,
      "Ġåħ·ä½ĵ": 4217,
      "å¥¥": 4218,
      "Ġå¸Ŀ": 4219,
      "Ġå·¥ä¸ļ": 4220,
      "Ġèĩ´": 4221,
      "wards": 4222,
      "Ġwithout": 4223,
      "ĠæĬµ": 4224,
      "Ġcurrent": 4225,
      "ĠMarch": 4226,
      "Ġå½ķ": 4227,
      "ĠEnglish": 4228,
      "Ġäº§ä¸ļ": 4229,
      "Ġformer": 4230,
      "ĠçĲĨè§£": 4231,
      "æĦ¿": 4232,
      "itor": 4233,
      "Ġçģµ": 4234,
      "Ġçĳŀ": 4235,
      "ĠéľĢæ±Ĥ": 4236,
      "ĠéĢģ": 4237,
      "ument": 4238,
      "Ġ@": 4239,
      "uck": 4240,
      "Ġè¡ĮåĬ¨": 4241,
      "ĠåĿĲ": 4242,
      "ER": 4243,
      "Ġmust": 4244,
      "Ġæµ·æĭĶ": 4245,
      "Ġinclude": 4246,
      "Ġåľ°çĲĨ": 4247,
      "Ġå®½": 4248,
      "ĠOne": 4249,
      "ĠåĪļ": 4250,
      "ĠçĶ³è¯·": 4251,
      "angu": 4252,
      "ĠèµĦæĸĻ": 4253,
      "Ġç»ıå¸¸": 4254,
      "cl": 4255,
      "èĪ°": 4256,
      "hern": 4257,
      "Ġmembers": 4258,
      "ĠèĢĮæĺ¯": 4259,
      "Ġè®Ń": 4260,
      "Ġå®ŀæĸ½": 4261,
      "çľ¼": 4262,
      "Ġcle": 4263,
      "ĠåĬª": 4264,
      "ĠæĬ¥åĳĬ": 4265,
      "Ġident": 4266,
      "Ġç¬¦": 4267,
      "éĢģ": 4268,
      "ival": 4269,
      "Ġä¸ĵè¾ĳ": 4270,
      "acy": 4271,
      "Ġæ¶Īè´¹": 4272,
      "yle": 4273,
      "ĠåĪ¶éĢł": 4274,
      "Ġåį¢": 4275,
      "Ġå¥ĩ": 4276,
      "ĠçŃĶ": 4277,
      "Ġè¿Ŀ": 4278,
      "lege": 4279,
      "ç¥ĸ": 4280,
      "½è½¦": 4281,
      "Ġdeath": 4282,
      "çĤİ": 4283,
      "ĠApr": 4284,
      "Ġé¦ĸæ¬¡": 4285,
      "Ġæľĭåıĭ": 4286,
      "Ġä½ķ": 4287,
      "ĠSw": 4288,
      "ĠèµĦæºĲ": 4289,
      "ĠåĨłåĨĽ": 4290,
      "Ġå¤§å¤ļ": 4291,
      "Ġåı³": 4292,
      "ma": 4293,
      "ways": 4294,
      "Ġéĺ¶æ®µ": 4295,
      "less": 4296,
      "ĠåĳĪ": 4297,
      "ĠPart": 4298,
      "ĠåĮ»éĻ¢": 4299,
      "Ġäº¤æĺĵ": 4300,
      "ĠåĩĨå¤ĩ": 4301,
      "ĠæĢĿæĥ³": 4302,
      "ained": 4303,
      "çı": 4304,
      "ĠAugust": 4305,
      "éŃ": 4306,
      "34": 4307,
      "eep": 4308,
      "ĠæİĪ": 4309,
      "ĠåªĴä½ĵ": 4310,
      "ĠMc": 4311,
      "Ġfew": 4312,
      "ware": 4313,
      "¹ģ": 4314,
      "Ġåº·": 4315,
      "ĠæĿĲ": 4316,
      "urs": 4317,
      "Ġçĸ¾": 4318,
      "Ġå®ŀéªĮ": 4319,
      "Ġä¼ļè®®": 4320,
      "Ġéĩı": 4321,
      "æķ£": 4322,
      "±ä¹Ĳ": 4323,
      "Ġä¸Ģå¹´": 4324,
      "itional": 4325,
      "Ġèİ±": 4326,
      "Ġå¼Ĺ": 4327,
      "ĠAir": 4328,
      "Ġçº§": 4329,
      "èįī": 4330,
      "Ġæ°´å¹³": 4331,
      "ĠèĪ¹": 4332,
      "çļ®": 4333,
      "ĠBar": 4334,
      "ords": 4335,
      "æķħ": 4336,
      "æĮĩ": 4337,
      "ĠçīĽ": 4338,
      "ĠåĪ¶åº¦": 4339,
      "ĠWith": 4340,
      "iod": 4341,
      "èĤ¡": 4342,
      "ç§»": 4343,
      "Ġcontrol": 4344,
      "Ġæłĳ": 4345,
      "ĠJanuary": 4346,
      "84": 4347,
      "ĠæĪĳåĽ½": 4348,
      "Ġåħµ": 4349,
      "Ġå·¦åı³": 4350,
      "ĠæĮīçħ§": 4351,
      "Ġèī¯": 4352,
      "Ġtrad": 4353,
      "åĺ": 4354,
      "çĬ": 4355,
      "Ġevent": 4356,
      "Ġlinks": 4357,
      "Ġä½Ļ": 4358,
      "ĠæĿĤ": 4359,
      "Ġlarge": 4360,
      "ĠæķĪæŀľ": 4361,
      "ittle": 4362,
      "ĠèĬĤçĽ®": 4363,
      "Ġèģļ": 4364,
      "Ġactiv": 4365,
      "raft": 4366,
      "Ġæį¢": 4367,
      "ĠJune": 4368,
      "ged": 4369,
      "ĠæıĲåįĩ": 4370,
      "Ġmult": 4371,
      "Ġæĺİæĺ¾": 4372,
      "Ġä»·æł¼": 4373,
      "Ġé£İéĻ©": 4374,
      "self": 4375,
      "ĠSeptember": 4376,
      "Ġä»»åĬ¡": 4377,
      "é²ľ": 4378,
      "Ġä¸ľåĮĹ": 4379,
      "ĠçļĨ": 4380,
      "çĪ¶": 4381,
      "augh": 4382,
      "ĠåŃĻ": 4383,
      "ne": 4384,
      "æ¼": 4385,
      "çŃĶ": 4386,
      "ĠçĶŁçī©": 4387,
      "Ġ3": 4388,
      "ĠéĻĦè¿ĳ": 4389,
      "ĠçĶŁåĳ½": 4390,
      "Ġä¹ī": 4391,
      "Ġç®Ĺ": 4392,
      "ĠåĪĹè½¦": 4393,
      "Ġbet": 4394,
      "è®¯": 4395,
      "Ġåĩıå°ĳ": 4396,
      "Ġaff": 4397,
      "åīĤ": 4398,
      "idd": 4399,
      "ĠAustral": 4400,
      "æĹ©": 4401,
      "ĠWest": 4402,
      "ĠèĶ": 4403,
      "ĠåĪº": 4404,
      "ĠèĢĥèĻĳ": 4405,
      "ĠåĢ¼": 4406,
      "Ġå±ħæ°ĳ": 4407,
      "Ġå¾ģ": 4408,
      "åįĥç±³": 4409,
      "Ġç»ıèĲ¥": 4410,
      "çº¢": 4411,
      "Ġç¥ĸ": 4412,
      "Ġæ°ĳæĹı": 4413,
      "ĠRec": 4414,
      "ster": 4415,
      "åįļ": 4416,
      "Ġç§¯æŀģ": 4417,
      "Ġä¹ĺ": 4418,
      "Ġåħ±æľī": 4419,
      "æ´¥": 4420,
      "Ġå¼ı": 4421,
      "Ġéĺ´": 4422,
      "ĠæŃ¥": 4423,
      "Ġpopulation": 4424,
      "ç¯ĩ": 4425,
      "ential": 4426,
      "Ġéķ¿æľŁ": 4427,
      "å°±": 4428,
      "75": 4429,
      "023": 4430,
      "èĩ£": 4431,
      "éĶĻ": 4432,
      "ç³»ç»Ł": 4433,
      "Ġå¹³æĸ¹åįĥç±³": 4434,
      "ĠåĽº": 4435,
      "Ġè¯º": 4436,
      "çĹĽ": 4437,
      "Ġå¸¦æĿ¥": 4438,
      "ĠéļıçĿĢ": 4439,
      "ĠLa": 4440,
      "è¿ŀ": 4441,
      "Ġæļ´": 4442,
      "Ġæ¯«": 4443,
      "ĠéĢīä¸¾": 4444,
      "ĠÐ´": 4445,
      "ĠéĩįçĤ¹": 4446,
      "Ġäºĭæĥħ": 4447,
      "Ġæīĺ": 4448,
      "Ġchang": 4449,
      "ĠçľŁæŃ£": 4450,
      "ĠåĽ½æ°ĳ": 4451,
      "åĿı": 4452,
      "Ġéģĩ": 4453,
      "ĠåķĬ": 4454,
      "Ġèŀį": 4455,
      "Ġåħ¬åħ±": 4456,
      "Ġåıªèĥ½": 4457,
      "ç¤¼": 4458,
      "ĠApril": 4459,
      "Ġé¥®": 4460,
      "Ġå®«": 4461,
      "Ġç¬¬åĽĽ": 4462,
      "å¥Ĺ": 4463,
      "ĠOctober": 4464,
      "ague": 4465,
      "ĠçĬ¶æĢģ": 4466,
      "æ½": 4467,
      "Ġcase": 4468,
      "Ġproduct": 4469,
      "è´Ń": 4470,
      "ĠMy": 4471,
      "Ġè®¨": 4472,
      "Ġchildren": 4473,
      "Ġtit": 4474,
      "Ġaccess": 4475,
      "Ġå¤«": 4476,
      "ĠæĶ¹éĿ©": 4477,
      "Ġæ¢ħ": 4478,
      "ĠState": 4479,
      "Ġfac": 4480,
      "ĠåĪĽä½ľ": 4481,
      "ĠJuly": 4482,
      "Ġåıĳè¡¨": 4483,
      "ĠåºŁ": 4484,
      "ering": 4485,
      "Ġèľ": 4486,
      "ä¸´": 4487,
      "Ġè¯Ħä»·": 4488,
      "Ġfunction": 4489,
      "Ġé¦ĸåħĪ": 4490,
      "Ġinterest": 4491,
      "å¦Ī": 4492,
      "Ġç¨ĭåº¦": 4493,
      "Ġè´µ": 4494,
      "64": 4495,
      "ĠæĦŁè§ī": 4496,
      "ĠçľŁçļĦ": 4497,
      "mber": 4498,
      "Ġturn": 4499,
      "ĠæİĮ": 4500,
      "å·®": 4501,
      "AR": 4502,
      "æłĳ": 4503,
      "Ġæ¶ī": 4504,
      "è¾ĵ": 4505,
      "ethod": 4506,
      "ots": 4507,
      "Ġcamp": 4508,
      "ĠèģĶçĽŁ": 4509,
      "ffic": 4510,
      "Ġè´¨éĩı": 4511,
      "Ġnext": 4512,
      "æĶ»": 4513,
      "Ġå½ĵçĦ¶": 4514,
      "ries": 4515,
      "Ġ--": 4516,
      "Ġarr": 4517,
      "998": 4518,
      "éľ²": 4519,
      "èıĮ": 4520,
      "Ġopt": 4521,
      "Ġéĥ¨éĹ¨": 4522,
      "ination": 4523,
      "å»·": 4524,
      "ĠåĨĽäºĭ": 4525,
      "ä¸ĢæŃ¥": 4526,
      "ĠæĻ®éĢļ": 4527,
      "é¾Ħ": 4528,
      "Ġç§ĳæĬĢ": 4529,
      "Ġalign": 4530,
      "è¾Ĩ": 4531,
      "Ġä¸ĭè¾ĸ": 4532,
      "Ġé¢ĳ": 4533,
      "ories": 4534,
      "è°ĵ": 4535,
      "Ġåºķ": 4536,
      "vious": 4537,
      "Ġtw": 4538,
      "Ġlarg": 4539,
      "atter": 4540,
      "Ġlab": 4541,
      "ĠçĽ¸å½ĵ": 4542,
      "çģµ": 4543,
      "ĠåĲĮæł·": 4544,
      "ream": 4545,
      "çĵ": 4546,
      "Ġtem": 4547,
      "æĴ": 4548,
      "ability": 4549,
      "980": 4550,
      "å±ĭ": 4551,
      "ered": 4552,
      "Ġåº¦": 4553,
      "ĠApp": 4554,
      "ope": 4555,
      "ĠæĢĢ": 4556,
      "Ġet": 4557,
      "ĠåıįåºĶ": 4558,
      "Ġwar": 4559,
      "ç»ª": 4560,
      "Ġappear": 4561,
      "ĠæĴ¤": 4562,
      "ards": 4563,
      "Ġland": 4564,
      "å¯Ĩåº¦": 4565,
      "ĠDav": 4566,
      "aint": 4567,
      "ĠãĢĳ": 4568,
      "ino": 4569,
      "ĠSoc": 4570,
      "Ġè¿ĩåİ»": 4571,
      "Ġinvest": 4572,
      "hold": 4573,
      "Ġåĺī": 4574,
      "Ġæľºä¼ļ": 4575,
      "Ġallow": 4576,
      "Ġéº¦": 4577,
      "Ġèµµ": 4578,
      "Ġè¿Ļä¸Ģ": 4579,
      "urther": 4580,
      "ĠæĬ¤": 4581,
      "ĠæĳĦ": 4582,
      "åħ¹": 4583,
      "Ġå¢ŀéķ¿": 4584,
      "èĤī": 4585,
      "rodu": 4586,
      "Ġè®Ńç»ĥ": 4587,
      "Ġsay": 4588,
      "af": 4589,
      "ler": 4590,
      "Ġshort": 4591,
      "ĠæĽ²": 4592,
      "ĠDece": 4593,
      "Ġç±»ä¼¼": 4594,
      "Ġå·¡": 4595,
      "Ġcrit": 4596,
      "ĠæķĻæİĪ": 4597,
      "Ġavail": 4598,
      "Ġçĩ": 4599,
      "Ġspe": 4600,
      "though": 4601,
      "ĠéŁ©åĽ½": 4602,
      "irc": 4603,
      "Ġåħ¨éĥ¨": 4604,
      "ä¼Ĭ": 4605,
      "ĠåĪĨä¸º": 4606,
      "ĠGeor": 4607,
      "ä½Ľ": 4608,
      "ĠçĪ¶æ¯į": 4609,
      "ĠMin": 4610,
      "ĠPres": 4611,
      "Ġåħ¬å¼Ģ": 4612,
      "Ġè¯¾ç¨ĭ": 4613,
      "ĠPar": 4614,
      "Ġfoot": 4615,
      "ĠDecember": 4616,
      "ham": 4617,
      "åįı": 4618,
      "å¼ĥ": 4619,
      "Ġview": 4620,
      "ĠæŃ£å¸¸": 4621,
      "æ·±": 4622,
      "ä¹°": 4623,
      "Ġè´£": 4624,
      "æľ«": 4625,
      "Ġåı¶": 4626,
      "Ġä½ĵèĤ²": 4627,
      "Ġèĸ": 4628,
      "éĩİ": 4629,
      "ĠRep": 4630,
      "ĠéĢĲæ¸Ĳ": 4631,
      "Ġmillion": 4632,
      "ĠæĽ¾ç»ı": 4633,
      "--------": 4634,
      "Ġå¤§éĥ¨åĪĨ": 4635,
      "Ġsum": 4636,
      "Ġéĺħ": 4637,
      "æ¶²": 4638,
      "Ġä»¥æĿ¥": 4639,
      "ĠØ": 4640,
      "IN": 4641,
      "Ġfree": 4642,
      "32": 4643,
      "verage": 4644,
      "ĠåŃ¦åĲį": 4645,
      "ĠPark": 4646,
      "Ġæ½ľ": 4647,
      "Ġç§ĺ": 4648,
      "ĠæĪª": 4649,
      "Ġproper": 4650,
      "æĿĤ": 4651,
      "Ġç¡®å®ļ": 4652,
      "apan": 4653,
      "ĠGl": 4654,
      "Ġæľīäºº": 4655,
      "Ġpriv": 4656,
      "Ġä¸Ģéĥ¨åĪĨ": 4657,
      "ĠåľŁåľ°": 4658,
      "Ġæĵįä½ľ": 4659,
      "rew": 4660,
      "æĭ¿": 4661,
      "ĠNovember": 4662,
      "èĦī": 4663,
      "ĠæĿľ": 4664,
      "ĠèĵĿ": 4665,
      "Ġcountry": 4666,
      "Ġä¸Ńåħ±": 4667,
      "ĠåĽ´": 4668,
      "Ġdue": 4669,
      "ĠåĪĽæĸ°": 4670,
      "Ġåºĵ": 4671,
      "Ġç¡¬": 4672,
      "Ġå¯»": 4673,
      "èĪª": 4674,
      "Ġä¸»å¸Ń": 4675,
      "è¯ĳ": 4676,
      "Ġéĥĳ": 4677,
      "ĠÐ¼": 4678,
      "Ġç¦ģ": 4679,
      "ĠThese": 4680,
      "Ġide": 4681,
      "æĸ¹éĿ¢": 4682,
      "Ġç»ĵåĲĪ": 4683,
      "ĠåĨįæ¬¡": 4684,
      "ĠReg": 4685,
      "Ġæķĳ": 4686,
      "ored": 4687,
      "Ġç´¢": 4688,
      "Ġçĸ¾çĹħ": 4689,
      "ä¸Ŀ": 4690,
      "ĠæĪĲç»©": 4691,
      "Ġeas": 4692,
      "Ġåĳ¼": 4693,
      "èĪ¹": 4694,
      "ĠèĤ¯": 4695,
      "ertain": 4696,
      "Ġproble": 4697,
      "Ġprom": 4698,
      "....": 4699,
      "eder": 4700,
      "Ġéĥ¡": 4701,
      "èª": 4702,
      "Ġä¸Ģåº§": 4703,
      "Ġless": 4704,
      "Ġè®¾ç½®": 4705,
      "Ġå¹¼": 4706,
      "ĠæŃ»äº¡": 4707,
      "Ġåĩłä¸ª": 4708,
      "che": 4709,
      "Ġbelie": 4710,
      "Ġrese": 4711,
      "è¯¯": 4712,
      "ĠHigh": 4713,
      "ĠçĦ": 4714,
      "ĠHer": 4715,
      "Ġdev": 4716,
      "Ġæģ¶": 4717,
      "å¹¶": 4718,
      "ĠæĿĲæĸĻ": 4719,
      "AT": 4720,
      "Ġrefer": 4721,
      "par": 4722,
      "Ġimportant": 4723,
      "Ġauthor": 4724,
      "ĠéļıåĲİ": 4725,
      "Ġconn": 4726,
      "Ġä»Ĭå¤©": 4727,
      "ĠQu": 4728,
      "Ġlim": 4729,
      "Ġfore": 4730,
      "å¤§åĪ©": 4731,
      "997": 4732,
      "Ġé¡¶": 4733,
      "å¹ħ": 4734,
      "æĪĳ": 4735,
      "oph": 4736,
      "Ġoffer": 4737,
      "Ġåĳĺ": 4738,
      "ĠåĦ¿ç«¥": 4739,
      "reet": 4740,
      "Ġç¨³å®ļ": 4741,
      "Ġå°¤åħ¶": 4742,
      "ĠNot": 4743,
      "è´§": 4744,
      "Ġè°ģ": 4745,
      "ĠéĤ£äºĽ": 4746,
      "ĠåĬ¨çī©": 4747,
      "Ġfield": 4748,
      "ĠèĳĹåĲį": 4749,
      "Ġè¿Ľä¸ĢæŃ¥": 4750,
      "Ġæ¤įçī©": 4751,
      "ĠãĢĲ": 4752,
      "åĿ¡": 4753,
      "ĠèĪ°": 4754,
      "ured": 4755,
      "ĠåĮħåĲ«": 4756,
      "Ġprop": 4757,
      "ĠJapan": 4758,
      "ĠéĢĥ": 4759,
      "ĠèĻļ": 4760,
      "Ġæ±½è½¦": 4761,
      "ä¸¹": 4762,
      "Ġæ¥¼": 4763,
      "ĠåĨ·": 4764,
      "ĠèĦ±": 4765,
      "éģį": 4766,
      "ĠCor": 4767,
      "Ġhistory": 4768,
      "ĠExternal": 4769,
      "ĠçĲĥéĺŁ": 4770,
      "æı¡": 4771,
      "Ġreleased": 4772,
      "ention": 4773,
      "Ġè¿Ļä¹Ī": 4774,
      "Ġåħ³éĶ®": 4775,
      "ivid": 4776,
      "55": 4777,
      "Ġæł¸å¿ĥ": 4778,
      "ole": 4779,
      "Ġæ²¹": 4780,
      "ĠWilliam": 4781,
      "Ġlearn": 4782,
      "éĿ¢ç§¯": 4783,
      "ĠAct": 4784,
      "Ġç»ıéªĮ": 4785,
      "Ġperiod": 4786,
      "part": 4787,
      "Ġäººåı£å¯Ĩåº¦": 4788,
      "ĠFeb": 4789,
      "è¿¹": 4790,
      "ald": 4791,
      "Ġç»ıåİĨ": 4792,
      "ĠWhat": 4793,
      "Ġweek": 4794,
      "Ġè®¾å¤ĩ": 4795,
      "Ġè°Ī": 4796,
      "ç¾": 4797,
      "ĠInst": 4798,
      "ĠåĨĽéĺŁ": 4799,
      "Ġåĩłä¹İ": 4800,
      "Ġhealth": 4801,
      "Ġport": 4802,
      "ĠåŁºéĩĳ": 4803,
      "ĠæĻĭ": 4804,
      "ights": 4805,
      "osp": 4806,
      "Ġæ®µ": 4807,
      "èµ°": 4808,
      "Ġcult": 4809,
      "Ġsingle": 4810,
      "ĠåĽ°": 4811,
      "ĠÑĥ": 4812,
      "ĠçĽ´åĪ°": 4813,
      "Ġèī²": 4814,
      "æł¸": 4815,
      "ĠåĽłç´ł": 4816,
      "Ġäº¬": 4817,
      "ĠSee": 4818,
      "viron": 4819,
      "ĠæĮĩåĩº": 4820,
      "Ġæĳ©": 4821,
      "Ġä¸įå°ĳ": 4822,
      "Ġè¿ģ": 4823,
      "Ġåıªè¦ģ": 4824,
      "Ġkey": 4825,
      "996": 4826,
      "ĠæĽ´åĬł": 4827,
      "ĠåĲĮåŃ¦": 4828,
      "ĠåŃ£": 4829,
      "Ġä»İèĢĮ": 4830,
      "Ġnever": 4831,
      "ĠPre": 4832,
      "å£¤": 4833,
      "Ġfre": 4834,
      "ush": 4835,
      "Ġá": 4836,
      "ef": 4837,
      "Ġcharacter": 4838,
      "ĠéĴĪå¯¹": 4839,
      "ĠCont": 4840,
      "side": 4841,
      "å¾Ĵ": 4842,
      "Ġcond": 4843,
      "ounc": 4844,
      "äººåĳĺ": 4845,
      "éĽ¨": 4846,
      "åħĭåħ°": 4847,
      "urg": 4848,
      "ones": 4849,
      "Ġtook": 4850,
      "åĪĽ": 4851,
      "é¼": 4852,
      "Ġç¬Ķ": 4853,
      "ump": 4854,
      "ĠAg": 4855,
      "Ġçº½": 4856,
      "rench": 4857,
      "Ġå°½ç®¡": 4858,
      "ribut": 4859,
      "çıŃçīĻ": 4860,
      "åĬ±": 4861,
      "Ġsit": 4862,
      "Ġtimes": 4863,
      "Ġè®¾ç«ĭ": 4864,
      "Ġwon": 4865,
      "ĠåĲįç§°": 4866,
      "çļĩ": 4867,
      "Ġæİ¨åĩº": 4868,
      "ĠçīĪæľ¬": 4869,
      "Ġè¥¿çıŃçīĻ": 4870,
      "Ġbegan": 4871,
      "br": 4872,
      "Ġçħ": 4873,
      "Ġfriend": 4874,
      "Ġçºªå¿µ": 4875,
      "Ġlangu": 4876,
      "Ġfull": 4877,
      "ĠéĤ®": 4878,
      "ĠæĦıä¹ī": 4879,
      "ĠæĻ¯": 4880,
      "Ġç¤¼": 4881,
      "ĠPer": 4882,
      "ĠåĨ°": 4883,
      "arent": 4884,
      "ondon": 4885,
      "ource": 4886,
      "Ġå¤ªéĺ³": 4887,
      "aul": 4888,
      "ĠåľĨ": 4889,
      "alf": 4890,
      "Ġexample": 4891,
      "ĠçĶ°": 4892,
      "ours": 4893,
      "Ġep": 4894,
      "iter": 4895,
      "å½©": 4896,
      "ĠçĶŁäºİ": 4897,
      "è°·": 4898,
      "ĠçĹĩ": 4899,
      "ĠæľĢä½³": 4900,
      "Ġä¸»é¢ĺ": 4901,
      "ĠéĿł": 4902,
      "Ġcommon": 4903,
      "Ġè·Ŀç¦»": 4904,
      "Ġgoing": 4905,
      "ĠåĬ³åĬ¨": 4906,
      "ze": 4907,
      "Ġåıįå¯¹": 4908,
      "æĬĹ": 4909,
      "Ġä»ĭç»į": 4910,
      "Ġä»įçĦ¶": 4911,
      "ĠDes": 4912,
      "Ġæ°ĳä¸»": 4913,
      "Ġä¸ĢæĿ¡": 4914,
      "Ġvol": 4915,
      "çĻ»": 4916,
      "Ġå¼¹": 4917,
      "Ġant": 4918,
      "ĠèĪªç©º": 4919,
      "åĮħ": 4920,
      "idge": 4921,
      "ĠéĿ©": 4922,
      "ideo": 4923,
      "å¢ŀ": 4924,
      "å²ģ": 4925,
      "Ġput": 4926,
      "Ġavailable": 4927,
      "Ġä¸ľåįĹ": 4928,
      "cer": 4929,
      "ison": 4930,
      "44": 4931,
      "Ġéĺ³": 4932,
      "Ġtoo": 4933,
      "38": 4934,
      "Ġæµ·åĨĽ": 4935,
      "ĠAfric": 4936,
      "Ġgrow": 4937,
      "ON": 4938,
      "ĠæģĲ": 4939,
      "ances": 4940,
      "ĠæĹ©æľŁ": 4941,
      "èĴĻ": 4942,
      "ĠèĪŀ": 4943,
      "ĠLondon": 4944,
      "ĠAcc": 4945,
      "ĠéĶĢåĶ®": 4946,
      "aut": 4947,
      "Ġpract": 4948,
      "è®¿": 4949,
      "Ġfive": 4950,
      "Ġå½ĵä¸Ń": 4951,
      "Ġæģ¢": 4952,
      "Ġinvol": 4953,
      "Ġmarket": 4954,
      "åŀ": 4955,
      "äº®": 4956,
      "ĠæĮĳ": 4957,
      "åį³": 4958,
      "éª¨": 4959,
      "Ġä¸ĢåĪĩ": 4960,
      "ĠèĭıèģĶ": 4961,
      "éĿł": 4962,
      "Ġeduc": 4963,
      "Ġrepl": 4964,
      "Ġtri": 4965,
      "Ġæĸĩç«ł": 4966,
      "Ġside": 4967,
      "Ġç»Łä¸Ģ": 4968,
      "icle": 4969,
      "æĻº": 4970,
      "itive": 4971,
      "åĨł": 4972,
      "æ¦": 4973,
      "ĠThat": 4974,
      "ography": 4975,
      "Ġindust": 4976,
      "ĠDr": 4977,
      "aced": 4978,
      "ĠåįģåĪĨ": 4979,
      "Ġåħ¨éĿ¢": 4980,
      "æı´": 4981,
      "Ġä¸¾åĬŀ": 4982,
      "Ġéĩİ": 4983,
      "Ġè°ĥæķ´": 4984,
      "Ġlog": 4985,
      "be": 4986,
      "Ġband": 4987,
      "stand": 4988,
      "Ġè¡ĮæĶ¿åĮº": 4989,
      "Ġä¸įåı¯": 4990,
      "Ġæ¯ıå¹´": 4991,
      "Ġrad": 4992,
      "æĺĮ": 4993,
      "Ġç½Ĺé©¬": 4994,
      "ae": 4995,
      "Ġspecial": 4996,
      "Ġç§¦": 4997,
      "Ġä¼ĳ": 4998,
      "å¿Ĩ": 4999,
      "Ġæķ°éĩı": 5000,
      "omm": 5001,
      "Ġç¤¾åĮº": 5002,
      "ĠåŁ¹åħ»": 5003,
      "put": 5004,
      "ese": 5005,
      "Ġç¬¬åįģ": 5006,
      "Ġç¦»å¼Ģ": 5007,
      "Ġä¸įå¾Ĺ": 5008,
      "ches": 5009,
      "oid": 5010,
      "ĠEm": 5011,
      "ably": 5012,
      "Ġæ£ĢæŁ¥": 5013,
      "ĠæŃĮæĽ²": 5014,
      "ĠéĽ¶": 5015,
      "ĠæºĲ": 5016,
      "èİ·": 5017,
      "Ġmen": 5018,
      "ĠMon": 5019,
      "å·²": 5020,
      "Ġtype": 5021,
      "Ġacross": 5022,
      "Ġæģ¢å¤į": 5023,
      "Ġstory": 5024,
      "Ġè¿ĲåĬ¨åĳĺ": 5025,
      "Ġparticular": 5026,
      "Ġéª¨": 5027,
      "Ġä¸»ä»»": 5028,
      "ĠRuss": 5029,
      "Ġtot": 5030,
      "Ġgiven": 5031,
      "Ġå°Ķ": 5032,
      "äº«": 5033,
      "Ġid": 5034,
      "ustom": 5035,
      "ä»ĭ": 5036,
      "ĠåĪĴ": 5037,
      "Ġcost": 5038,
      "Ġbecome": 5039,
      "ĠåıĬåħ¶": 5040,
      "Ġè·ĳ": 5041,
      "ĠåĮ»çĸĹ": 5042,
      "Ġè°¢": 5043,
      "Ġçİ°è±¡": 5044,
      "Ġéĺ»": 5045,
      "ĠArt": 5046,
      "ĠFrench": 5047,
      "èıľ": 5048,
      "è¡Ĺ": 5049,
      "æĳĦ": 5050,
      "Ġä¹Įåħĭåħ°": 5051,
      "Ġåĳ½åĲį": 5052,
      "ror": 5053,
      "iber": 5054,
      "Ġzh": 5055,
      "å°º": 5056,
      "ĠåĬªåĬĽ": 5057,
      "Ġdevelopment": 5058,
      "Ġinit": 5059,
      "ĠSm": 5060,
      "Ġwomen": 5061,
      "Ġä½¿å¾Ĺ": 5062,
      "Ġnetwork": 5063,
      "Ġéĺ¿å°Ķ": 5064,
      "imate": 5065,
      "ĠéĢŁåº¦": 5066,
      "ĠåĪĽéĢł": 5067,
      "Ġçĸ«": 5068,
      "Ġtyp": 5069,
      "ĠåĶ±": 5070,
      "ta": 5071,
      "ividual": 5072,
      "Ġå¾Īå¤§": 5073,
      "Ġæ¦Ĥå¿µ": 5074,
      "Ġå®¶éķ¿": 5075,
      "ĠæĪĺæĸĹ": 5076,
      "Ġmaking": 5077,
      "ĠåĵģçīĮ": 5078,
      "ask": 5079,
      "ĠéļĲ": 5080,
      "Ġå¥³åŃĲ": 5081,
      "èĭ¦": 5082,
      "Ġé¼ĵ": 5083,
      "ique": 5084,
      "ateg": 5085,
      "300": 5086,
      "å¹ķ": 5087,
      "995": 5088,
      "å¤ľ": 5089,
      "Ġæ¼«": 5090,
      "ruary": 5091,
      "ĠSer": 5092,
      "Ġä¸ºä¸»": 5093,
      "lu": 5094,
      "Ġamong": 5095,
      "empt": 5096,
      "éĵ¶": 5097,
      "Ġæ¯ıå¤©": 5098,
      "Ġè§ĦåĪĴ": 5099,
      "ĠåĶ¯ä¸Ģ": 5100,
      "ĠAng": 5101,
      "oney": 5102,
      "na": 5103,
      "Ġbig": 5104,
      "Ġä¸Ńåįİæ°ĳ": 5105,
      "éĢĶ": 5106,
      "ĠçĶ·åŃĲ": 5107,
      "Ġå£«": 5108,
      "ĠFebruary": 5109,
      "Ġç¬¬ä¸Ģæ¬¡": 5110,
      "Ġå¤Ħäºİ": 5111,
      "Ġè¯´æĺİ": 5112,
      "Ġquest": 5113,
      "æ¤į": 5114,
      "Ġä½ĵç³»": 5115,
      "Ġä¾µ": 5116,
      "Ġdays": 5117,
      "ç¦": 5118,
      "ilities": 5119,
      "åĨĮ": 5120,
      "Ġæ¨ª": 5121,
      "ĠèµĦéĩĳ": 5122,
      "ead": 5123,
      "Ġè¥¿åĮĹ": 5124,
      "ĠæµĻ": 5125,
      "éŁ": 5126,
      "Ġprofess": 5127,
      "æĿ¯": 5128,
      "æ³°": 5129,
      "umb": 5130,
      "aff": 5131,
      "Ġçī©ç§į": 5132,
      "ĠÃ³": 5133,
      "çĺ": 5134,
      "Ġrepresent": 5135,
      "ĠæĪĲæľ¬": 5136,
      "ĠçŃīçŃī": 5137,
      "Ġeconom": 5138,
      "ched": 5139,
      "Ġè·¨": 5140,
      "éĺ¶": 5141,
      "ford": 5142,
      "ana": 5143,
      "æ®Ĭ": 5144,
      "è°¢": 5145,
      "ĠæĢ¥": 5146,
      "Ġpay": 5147,
      "ape": 5148,
      "èįĲ": 5149,
      "970": 5150,
      "Ġä¼¯": 5151,
      "ĠåĨħéĥ¨": 5152,
      "å¯º": 5153,
      "Ġéĺħè¯»": 5154,
      "ĠæĿ¾": 5155,
      "994": 5156,
      "Ġemploy": 5157,
      "æĥ¯": 5158,
      "Ġsocial": 5159,
      "Ġcommunity": 5160,
      "ĠæľĢå¥½": 5161,
      "Ġæııè¿°": 5162,
      "ington": 5163,
      "Ġè´£ä»»": 5164,
      "ted": 5165,
      "ĠSch": 5166,
      "ĠæĦ": 5167,
      "ĠèĢĥè¯ķ": 5168,
      "Ġæ¯įäº²": 5169,
      "éĺµ": 5170,
      "ger": 5171,
      "Ġå¾Ĳ": 5172,
      "here": 5173,
      "ĠGener": 5174,
      "ĠæŃ£åľ¨": 5175,
      "ex": 5176,
      "Ġreally": 5177,
      "Ġæ²ī": 5178,
      "Ġéĥ¨éĺŁ": 5179,
      "Ġstudents": 5180,
      "Ġmag": 5181,
      "Ġä¸ŃåŃ¦": 5182,
      "æ¯Ľ": 5183,
      "Ġhapp": 5184,
      "ĠæĿ°": 5185,
      "èªī": 5186,
      "è¡¡": 5187,
      "Ġservices": 5188,
      "Ġhard": 5189,
      "ĠâĢĻ": 5190,
      "Ġbuilt": 5191,
      "Ġè¯ģæĺİ": 5192,
      "Ġçīĩ": 5193,
      "Ġå¼Ģå±ķ": 5194,
      "Ġæī¾åĪ°": 5195,
      "Ġå®£ä¼ł": 5196,
      "Ġå¹¿ä¸ľ": 5197,
      "Ġåĵ¥": 5198,
      "Ġå¢ĥåĨħ": 5199,
      "ä¸ĸçķĮ": 5200,
      "å®ľ": 5201,
      "å¼±": 5202,
      "__": 5203,
      "Ġnamed": 5204,
      "æ¶¯": 5205,
      "BC": 5206,
      "Ġè®°å½ķ": 5207,
      "åºĬ": 5208,
      "ĠPhil": 5209,
      "å¥ı": 5210,
      "å¸Į": 5211,
      "Ġåįĸ": 5212,
      "å°¾": 5213,
      "Ġå®Ī": 5214,
      "ĠÃŃ": 5215,
      "Ġapplic": 5216,
      "idence": 5217,
      "ĠéĴ¢": 5218,
      "Ġæľ¬èº«": 5219,
      "ĠÂ°": 5220,
      "Ġstyle": 5221,
      "Ġfinal": 5222,
      "Ġmethod": 5223,
      "of": 5224,
      "Ġoriginal": 5225,
      "Ġredu": 5226,
      "ĠåĬłå¼º": 5227,
      "Ġä¼¦": 5228,
      "åĤ": 5229,
      "ĠInternational": 5230,
      "å®¾": 5231,
      "å´": 5232,
      "ĠÙ": 5233,
      "attle": 5234,
      "Ġdi": 5235,
      "ĠèĮ¶": 5236,
      "Ġnational": 5237,
      "è´µ": 5238,
      "Ġéģĵè·¯": 5239,
      "ĠçĬ¯": 5240,
      "Ġæĺĵ": 5241,
      "åĨį": 5242,
      "Ġä¸ĵå®¶": 5243,
      "æ±ł": 5244,
      "Ġæħ¢": 5245,
      "Ġç¥¨": 5246,
      "æ³Ľ": 5247,
      "å½Ĵ": 5248,
      "ification": 5249,
      "992": 5250,
      "irth": 5251,
      "ators": 5252,
      "Ġè¶ĬæĿ¥": 5253,
      "Ġé¹": 5254,
      "ĠHouse": 5255,
      "ĠDo": 5256,
      "Ġèµŀ": 5257,
      "é£ŀ": 5258,
      "Ġè§£éĩĬ": 5259,
      "ĠèĥĮæĻ¯": 5260,
      "Ġcomplet": 5261,
      "Ġhaving": 5262,
      "Ġè¶ĬæĿ¥è¶Ĭ": 5263,
      "ĠåĢĴ": 5264,
      "Ġvalue": 5265,
      "lin": 5266,
      "Ġchange": 5267,
      "levision": 5268,
      "Ġç»Ĩèĥŀ": 5269,
      "ĠåĿļæĮģ": 5270,
      "ĠÐ¿": 5271,
      "ĠåĨ¬": 5272,
      "ending": 5273,
      "Ġjo": 5274,
      "Ġhig": 5275,
      "Ġhy": 5276,
      "è§¦": 5277,
      "Ġäº«": 5278,
      "ä»ģ": 5279,
      "ĠåĬ©": 5280,
      "Ġæľºåľº": 5281,
      "Ġæ®ĭ": 5282,
      "Ġå¿«éĢŁ": 5283,
      "éģĩ": 5284,
      "ĠæĮĩæĮ¥": 5285,
      "Ġcomb": 5286,
      "åĴ": 5287,
      "ç¼ĺ": 5288,
      "Ġsite": 5289,
      "ĠChe": 5290,
      "Ġheld": 5291,
      "çĩ": 5292,
      "ĠéĻįä½İ": 5293,
      "Ġéªĳ": 5294,
      "gether": 5295,
      "ĠéĽĨä¸Ń": 5296,
      "Ġæĺİç¡®": 5297,
      "è´Ŀ": 5298,
      "Ġenc": 5299,
      "Ġè®¤è¯Ĩ": 5300,
      "Ġtogether": 5301,
      "77": 5302,
      "Ġclaim": 5303,
      "Ġdescrib": 5304,
      "Ġè¿ŀæİ¥": 5305,
      "ify": 5306,
      "Ġèį£": 5307,
      "ĠVal": 5308,
      "Ġplayed": 5309,
      "iting": 5310,
      "Ġcame": 5311,
      "Ġçī¹å¾ģ": 5312,
      "Ġthird": 5313,
      "Ġcome": 5314,
      "ising": 5315,
      "Ġstruct": 5316,
      "inning": 5317,
      "¦Ĩ": 5318,
      "Ġè¡¨è¾¾": 5319,
      "Ġmember": 5320,
      "ĠæĲŃ": 5321,
      "AS": 5322,
      "ĠTV": 5323,
      "è¯¢": 5324,
      "olution": 5325,
      "Ġç¹ģ": 5326,
      "ĠåĬ¨çĶ»": 5327,
      "ysis": 5328,
      "ilar": 5329,
      "ĠMich": 5330,
      "Ġç®¡è¾ĸ": 5331,
      "Ġsix": 5332,
      "Ġèº«ä»½": 5333,
      "ĠåĬĽéĩı": 5334,
      "ocus": 5335,
      "Ġmodel": 5336,
      "çĽĽ": 5337,
      "Ġarch": 5338,
      "Ġindividual": 5339,
      "æĢ¥": 5340,
      "ĠSte": 5341,
      "ĠæľīæĹ¶": 5342,
      "ç¬Ķ": 5343,
      "Ġæķ£": 5344,
      "ither": 5345,
      "Ġmight": 5346,
      "icy": 5347,
      "ĠæĦıè¯Ĩ": 5348,
      "Ġè¥¿åįĹ": 5349,
      "Ġdeb": 5350,
      "Ġä½ľèĢħ": 5351,
      "ĠæĭįæĳĦ": 5352,
      "Ġgames": 5353,
      "ĠHistory": 5354,
      "ems": 5355,
      "Ġç¨İ": 5356,
      "ilitary": 5357,
      "ĠæĹħæ¸¸": 5358,
      "ruction": 5359,
      "æĭħ": 5360,
      "ĠåĦ¿åŃĲ": 5361,
      "Ġyoung": 5362,
      "æ¥ļ": 5363,
      "ĠGerman": 5364,
      "ĠæĶ¹ä¸º": 5365,
      "aps": 5366,
      "Ġç´ł": 5367,
      "Ġéģ¿åħį": 5368,
      "Ġæ±Ĥ": 5369,
      "Ġå®¶æĹı": 5370,
      "Ġéľį": 5371,
      "raw": 5372,
      "Ġlittle": 5373,
      "æĢ»": 5374,
      "Ġé£Łçī©": 5375,
      "Ġversion": 5376,
      "Ġrole": 5377,
      "ĠâĢĭ": 5378,
      "Ġä¿ĥè¿Ľ": 5379,
      "ĠæĸĩåŃ¦": 5380,
      "Ġç½ĳç«Ļ": 5381,
      "ĠSan": 5382,
      "Ġäº¤æµģ": 5383,
      "ning": 5384,
      "atures": 5385,
      "ĠæĿ¥æºĲ": 5386,
      "åľ°åĮº": 5387,
      "Ġåľ°çĲĥ": 5388,
      "ĠæĦŁæŁĵ": 5389,
      "ĠåĬŀåħ¬": 5390,
      "Ġæ¡¥": 5391,
      "Ġhuman": 5392,
      "æŀª": 5393,
      "ĠæĹĹ": 5394,
      "é¥°": 5395,
      "roll": 5396,
      "Ġç±»åŀĭ": 5397,
      "Ġå¸ķ": 5398,
      "993": 5399,
      "Ġgeneral": 5400,
      "ouncil": 5401,
      "Ġimpro": 5402,
      "sc": 5403,
      "ĠåĨľä¸ļ": 5404,
      "Ġ4": 5405,
      "oon": 5406,
      "Ġestablished": 5407,
      "ĠèĢ¶": 5408,
      "ills": 5409,
      "duct": 5410,
      "Ġå°ıè¯´": 5411,
      "éĿĴ": 5412,
      "Ġç«ŀäºī": 5413,
      "ources": 5414,
      "Ġå¸¸è§ģ": 5415,
      "Ġçİī": 5416,
      "Ġè®°èĢħ": 5417,
      "è·µ": 5418,
      "Ġåı¬": 5419,
      "ĠåĪ«äºº": 5420,
      "Ġworking": 5421,
      "Ġå®¤": 5422,
      "Ġlocated": 5423,
      "adem": 5424,
      "èį£": 5425,
      "ĠæĽ¹": 5426,
      "ops": 5427,
      "Ġcompet": 5428,
      "Ġlet": 5429,
      "Ġå¦ĤæŃ¤": 5430,
      "Ġpot": 5431,
      "AN": 5432,
      "Ġä¸¹": 5433,
      "ief": 5434,
      "Ġå¾Ģå¾Ģ": 5435,
      "æħ¢": 5436,
      "Ġæĩ": 5437,
      "éķľ": 5438,
      "ogn": 5439,
      "Ġè¿Ķ": 5440,
      "Ġä¹Ķ": 5441,
      "Ġè¾ħ": 5442,
      "Ġå®ĺæĸ¹": 5443,
      "rag": 5444,
      "ĠæĦ¿": 5445,
      "Ġèį·": 5446,
      "Ġself": 5447,
      "Ġfund": 5448,
      "Ġfem": 5449,
      "ĠåĽ¢éĺŁ": 5450,
      "Ġlight": 5451,
      "ī´": 5452,
      "ĠæĦıå¤§åĪ©": 5453,
      "Ġmeet": 5454,
      "éĢĤ": 5455,
      "Ġtrack": 5456,
      "Ġåħ¬åĽŃ": 5457,
      "åģ¥": 5458,
      "ĠéĻĲåĪ¶": 5459,
      "ĠæĶ»åĩ»": 5460,
      "aken": 5461,
      "Ġresearch": 5462,
      "è§Ī": 5463,
      "Ġäºĭå®ŀ": 5464,
      "960": 5465,
      "Ġå¼ĢæĶ¾": 5466,
      "ething": 5467,
      "åħħ": 5468,
      "Ġé²ģ": 5469,
      "å§ĵ": 5470,
      "åģĩ": 5471,
      "Ġè½¨": 5472,
      "Ġbetter": 5473,
      "Ġpublished": 5474,
      "estern": 5475,
      "Ġplayers": 5476,
      "Ġæīĭæľº": 5477,
      "Ġèı²": 5478,
      "Ġåħ¬å¸ĥ": 5479,
      "èĢ³": 5480,
      "ĠæķĮ": 5481,
      "IT": 5482,
      "Ġåľ°ä½į": 5483,
      "orts": 5484,
      "é¡¶": 5485,
      "ä¹ı": 5486,
      "ĠèĩªåĬ¨": 5487,
      "ªæĸ½": 5488,
      "Ġdoc": 5489,
      "è¥¿äºļ": 5490,
      "Ġsize": 5491,
      "Ġprovide": 5492,
      "Ġter": 5493,
      "Ġmean": 5494,
      "æĹ¦": 5495,
      "Ġsecurity": 5496,
      "Ġå°Ĭ": 5497,
      "èĻ«": 5498,
      "æķ¦": 5499,
      "Ġçī¹æ®Ĭ": 5500,
      "ĠæļĤ": 5501,
      "Ġå¹´è½»": 5502,
      "Ġalways": 5503,
      "ĠDem": 5504,
      "ĠæĶ¶åħ¥": 5505,
      "ett": 5506,
      "Ġé½Ĳ": 5507,
      "Ġå®ĩ": 5508,
      "Ġé£İæł¼": 5509,
      "ius": 5510,
      "Ġled": 5511,
      "æĸ¯çī¹": 5512,
      "ĠChar": 5513,
      "isk": 5514,
      "ĠåİĭåĬĽ": 5515,
      "ica": 5516,
      "omin": 5517,
      "Ġå®¢æĪ·": 5518,
      "ĠæŃ£ç¡®": 5519,
      "Ġliving": 5520,
      "ĠæĮĩå¯¼": 5521,
      "Ġå¤ľ": 5522,
      "ãĢ": 5523,
      "åıª": 5524,
      "thing": 5525,
      "ĠåĲįåŃĹ": 5526,
      "Ġåħ°": 5527,
      "Ġll": 5528,
      "Ġå®ģ": 5529,
      "Ġé¡¾": 5530,
      "éĥİ": 5531,
      "ĠåİŁåĪĻ": 5532,
      "Ġè¿ŀç»Ń": 5533,
      "æĢķ": 5534,
      "ç¿°": 5535,
      "Ġä¸Ģå®¶": 5536,
      "é¦Ļ": 5537,
      "ĠRiver": 5538,
      "ĠåĮĹéĥ¨": 5539,
      "aper": 5540,
      "ĠAc": 5541,
      "Ġæĸĩä»¶": 5542,
      "RE": 5543,
      "Ġæķ°åŃĹ": 5544,
      "Ġåĩ¯": 5545,
      "991": 5546,
      "39": 5547,
      "Ġè¿Ĳè¡Į": 5548,
      "iol": 5549,
      "çĴ": 5550,
      "åįĸ": 5551,
      "ĠéļĶ": 5552,
      "ĠçĿ¡": 5553,
      "åķ": 5554,
      "Ġable": 5555,
      "è®¢": 5556,
      "èĮ¨": 5557,
      "Ġèĳ£": 5558,
      "ĠæĤ¨": 5559,
      "ĠStud": 5560,
      "Ġste": 5561,
      "ĠåĪĨç±»": 5562,
      "ĠCollege": 5563,
      "Ġè¿ĲèĲ¥": 5564,
      "ients": 5565,
      "Ġå®ļä¹ī": 5566,
      "ĠåĪĨéĴŁ": 5567,
      "Ġå¸ĿåĽ½": 5568,
      "Ġengine": 5569,
      "ĠéĿ©åĳ½": 5570,
      "Ġè§Ħæ¨¡": 5571,
      "epend": 5572,
      "Ġlow": 5573,
      "aterial": 5574,
      "ĠæĪ·": 5575,
      "Ġmath": 5576,
      "ĠèģĶç³»": 5577,
      "ç£": 5578,
      "Ġå°ıåŃ¦": 5579,
      "ĠæĲľ": 5580,
      "Ġä¸īå¹´": 5581,
      "Ġè½®": 5582,
      "ĠéĶ¦": 5583,
      "Ġbody": 5584,
      "éĽħ": 5585,
      "Ġå¹¿æ³Ľ": 5586,
      "istic": 5587,
      "æķĻèĤ²": 5588,
      "Ġè·³": 5589,
      "Ġé¢ľ": 5590,
      "Ġenviron": 5591,
      "Ġhold": 5592,
      "é¢Ĺ": 5593,
      "æ¿Ģ": 5594,
      "æĻļ": 5595,
      "ĠæµĻæ±Ł": 5596,
      "Ġreceived": 5597,
      "Ġincluded": 5598,
      "ĠèĽĭ": 5599,
      "ä»Ģ": 5600,
      "Ġè®°è½½": 5601,
      "ĠæľīéĻĲåħ¬åı¸": 5602,
      "ĠäººçĶŁ": 5603,
      "Ġæ´Ĺ": 5604,
      "Ġæ¢¦": 5605,
      "Ġå¹¸": 5606,
      "Ġå¦Ī": 5607,
      "¸æĺĵ": 5608,
      "Ġæİ¨èįĲ": 5609,
      "ĠåĳĬè¯ī": 5610,
      "Ġstation": 5611,
      "çĸ«": 5612,
      "ĠæĭĴ": 5613,
      "Ġä¸Ńåįİæ°ĳåĽ½": 5614,
      "Ġçī¹çĤ¹": 5615,
      "ĠåŃĶ": 5616,
      "Ġè§Ĥå¯Ł": 5617,
      "ĠBu": 5618,
      "Ġexc": 5619,
      "Ġèĩªèº«": 5620,
      "ental": 5621,
      "Ġåı°åĮĹ": 5622,
      "ĠæľĢåĪĿ": 5623,
      "åĬ³": 5624,
      "èŃ¦": 5625,
      "Ġkm": 5626,
      "Ġcover": 5627,
      "Ġfail": 5628,
      "Ġbuilding": 5629,
      "Ġtre": 5630,
      "Ġhost": 5631,
      "Ġèµ¢": 5632,
      "è¡£": 5633,
      "Ġobject": 5634,
      "ĠIm": 5635,
      "oe": 5636,
      "Ġå¤º": 5637,
      "Ġåįıä¼ļ": 5638,
      "Ġç»Łè®¡": 5639,
      "ĠPresident": 5640,
      "è¿«": 5641,
      "Ġç»ĥ": 5642,
      "Ġprim": 5643,
      "rap": 5644,
      "çĬ¯": 5645,
      "ĠéĿ¢å¯¹": 5646,
      "ule": 5647,
      "Ġå±±ä¸ľ": 5648,
      "Ġåºľ": 5649,
      "Ġtotal": 5650,
      "åľĪ": 5651,
      "Ġpopular": 5652,
      "ĠFil": 5653,
      "Ġä¿Ŀè¯ģ": 5654,
      "Ġæŀ¶": 5655,
      "å¾®": 5656,
      "é©¶": 5657,
      "ĠServ": 5658,
      "Ġæķ´ä½ĵ": 5659,
      "ĠåĸĦ": 5660,
      "Ġç¬¦åĲĪ": 5661,
      "Ġèĳ¡": 5662,
      "66": 5663,
      "Ġsignific": 5664,
      "Ġintrodu": 5665,
      "Ġå«": 5666,
      "Ġèĩ³å°ĳ": 5667,
      "Ġask": 5668,
      "ĠæĹłè®º": 5669,
      "leg": 5670,
      "Ġå°Ħ": 5671,
      "Ġphot": 5672,
      "47": 5673,
      "ç¾İåħĥ": 5674,
      "ĠåĬłä¸Ĭ": 5675,
      "ĠåŁºäºİ": 5676,
      "Ġcareer": 5677,
      "åĪĬ": 5678,
      "Ġæķ°åŃ¦": 5679,
      "Ġä¸Ģæ®µ": 5680,
      "ĠÃ¼": 5681,
      "Ġå¤§åŀĭ": 5682,
      "iding": 5683,
      "Ġè¿ª": 5684,
      "Ġåįļå£«": 5685,
      "950": 5686,
      "Ġå¿Ĺ": 5687,
      "Ġfocus": 5688,
      "Ġç¨ĭåºı": 5689,
      "çİī": 5690,
      "ĠåıĺæĪĲ": 5691,
      "ĠåĮĸåŃ¦": 5692,
      "Ġcirc": 5693,
      "Ġç©Ĩ": 5694,
      "ĠåºĦ": 5695,
      "Ġäºļæ´²": 5696,
      "Ġæĸĩçī©": 5697,
      "ĠéĽħ": 5698,
      "ocr": 5699,
      "ĠåħĦ": 5700,
      "Ġè®¨è®º": 5701,
      "uture": 5702,
      "å§Ķåĳĺ": 5703,
      "Ġcustom": 5704,
      "Ġprevious": 5705,
      "åŃ©": 5706,
      "åĮ¹": 5707,
      "rain": 5708,
      "Ġè´Ńä¹°": 5709,
      "ĠéŃĶ": 5710,
      "Ġè¯Ħè®º": 5711,
      "ĠåıĳåĬ¨": 5712,
      "åĽłä¸º": 5713,
      "Ġexist": 5714,
      "Ġçī©çĲĨ": 5715,
      "Ġä¸°å¯Į": 5716,
      "ĠåıĬæĹ¶": 5717,
      "äºĴ": 5718,
      "Ġå¹¿å·ŀ": 5719,
      "ĠæĪı": 5720,
      "å¨ľ": 5721,
      "Ġplan": 5722,
      "Ġæĺ¯åĽłä¸º": 5723,
      "Ġlove": 5724,
      "ĠAmerica": 5725,
      "ĠçŃĸ": 5726,
      "ara": 5727,
      "Ġæĸ¹æ¡Ī": 5728,
      "Ġhistor": 5729,
      "enc": 5730,
      "æ±ĩ": 5731,
      "ĠIN": 5732,
      "illed": 5733,
      "alt": 5734,
      "ĠçĶĺ": 5735,
      "ĠèĦĳ": 5736,
      "Ġpolitical": 5737,
      "ĠèĹı": 5738,
      "Ġçľģä»½": 5739,
      "ĠDavid": 5740,
      "ĠåįģäºĮ": 5741,
      "Ġå¹´éĹ´": 5742,
      "Ġå®ĹæķĻ": 5743,
      "Ġéº»": 5744,
      "ĠåĲ¦": 5745,
      "éĿĻ": 5746,
      "Ġcho": 5747,
      "Ġthings": 5748,
      "ĠéĢĤåĲĪ": 5749,
      "å°ģ": 5750,
      "ibr": 5751,
      "ĠçĹĩçĬ¶": 5752,
      "æįŁ": 5753,
      "Ġç»Łæ²»": 5754,
      "Ġsomething": 5755,
      "æ¢°": 5756,
      "Ġpri": 5757,
      "è¿ĲåĬ¨": 5758,
      "è°Ī": 5759,
      "Ġpast": 5760,
      "çĳŀ": 5761,
      "ĠTrans": 5762,
      "ĠDist": 5763,
      "éĻµ": 5764,
      "pect": 5765,
      "Ġåħ¸": 5766,
      "ĠåĽŀåĪ°": 5767,
      "Ġlate": 5768,
      "æ¶Ī": 5769,
      "ĠçĬ¹": 5770,
      "reg": 5771,
      "éĹŃ": 5772,
      "Ġexec": 5773,
      "Ġå¤ļå°ĳ": 5774,
      "Ġçī©è´¨": 5775,
      "Ġsuper": 5776,
      "éĢĢ": 5777,
      "Ġred": 5778,
      "Ġåĵ²": 5779,
      "ĠçİĽ": 5780,
      "Ġèį¯çī©": 5781,
      "ĠDon": 5782,
      "æĭ¿å¤§": 5783,
      "Ġä¼ĺåĬ¿": 5784,
      "Ġassoci": 5785,
      "ä¸Ńå¿ĥ": 5786,
      "æİī": 5787,
      "æī¬": 5788,
      "èĸ": 5789,
      "Ġbar": 5790,
      "irl": 5791,
      "uf": 5792,
      "Ġæŀľ": 5793,
      "ĠItal": 5794,
      "Ġvarious": 5795,
      "Ġéĩĩåıĸ": 5796,
      "ç²¾": 5797,
      "Ġaway": 5798,
      "Ġstrong": 5799,
      "ĠæĽ¼": 5800,
      "Ġ`": 5801,
      "Ġå©ļ": 5802,
      "Ġæİ¨åĬ¨": 5803,
      "ĠDuring": 5804,
      "ĠæĪ´": 5805,
      "Ġsystems": 5806,
      "Ġens": 5807,
      "Ġç§Ł": 5808,
      "Ġrelations": 5809,
      "ĠåĪĳ": 5810,
      "SE": 5811,
      "ç¬¬": 5812,
      "uk": 5813,
      "Ġè·¯çº¿": 5814,
      "ĠåĬłæĭ¿å¤§": 5815,
      "ĠÏ": 5816,
      "ari": 5817,
      "ĠJames": 5818,
      "ĠFrom": 5819,
      "Ġwin": 5820,
      "ĠåĲĽ": 5821,
      "Ġé©±": 5822,
      "cast": 5823,
      "å©": 5824,
      "Ġaccount": 5825,
      "Ġothers": 5826,
      "cent": 5827,
      "Ġä»¥åīį": 5828,
      "Ġåį³ä½¿": 5829,
      "ĠéĩĮéĿ¢": 5830,
      "çī©é¦Ĩ": 5831,
      "Ġåİ»ä¸ĸ": 5832,
      "Ġproduction": 5833,
      "ĠèµĽäºĭ": 5834,
      "985": 5835,
      "Ġson": 5836,
      "988": 5837,
      "Ġæ»¡è¶³": 5838,
      "Ġfeel": 5839,
      "çģŃ": 5840,
      "Ġä¸»æĮģ": 5841,
      "ological": 5842,
      "Ġæľ«": 5843,
      "Ġæ¢ģ": 5844,
      "ĠæīĢè°ĵ": 5845,
      "Ġæł·": 5846,
      "Ġç¼ĵ": 5847,
      "çĲ´": 5848,
      "ĠBlack": 5849,
      "ivil": 5850,
      "ĠçĽ¸åĲĮ": 5851,
      "Ġder": 5852,
      "Ġä¸īåįģ": 5853,
      "é½Ĳ": 5854,
      "ĠéŁ¦": 5855,
      "ĠRober": 5856,
      "Ġè¯¥åĽ½": 5857,
      "èĨľ": 5858,
      "Ġå®ŀè·µ": 5859,
      "Ġsimilar": 5860,
      "ĠæŃ¤æĹ¶": 5861,
      "é¡¾": 5862,
      "Ġä¼¼": 5863,
      "co": 5864,
      "Ġtreat": 5865,
      "ĠRed": 5866,
      "Ġmeas": 5867,
      "Ġannoun": 5868,
      "ĠGod": 5869,
      "ĠåıĮæĸ¹": 5870,
      "Ġä¸įè¶³": 5871,
      "Ġattempt": 5872,
      "ID": 5873,
      "ĠIsland": 5874,
      "ĠèģĶèµĽ": 5875,
      "minist": 5876,
      "æļ´": 5877,
      "ĠçĶŁéķ¿": 5878,
      "Ġçº¯": 5879,
      "ĠçĶŁæĢģ": 5880,
      "ĠEast": 5881,
      "Ġä¸įåĨį": 5882,
      "Ġç²ī": 5883,
      "989": 5884,
      "ĠèĩªæĪĳ": 5885,
      "ĠæĬ½": 5886,
      "Ġkeep": 5887,
      "avy": 5888,
      "Ġlive": 5889,
      "Ġå¤§å¤ļæķ°": 5890,
      "ĠäºĴèģĶ": 5891,
      "Ġwent": 5892,
      "ĠMark": 5893,
      "ä¿Ĺ": 5894,
      "Ġsent": 5895,
      "è£Ĥ": 5896,
      "Ġå®īæİĴ": 5897,
      "Ġpossible": 5898,
      "æ¢ħ": 5899,
      "Ġçļĩå¸Ŀ": 5900,
      "æ¤": 5901,
      "Ġaverage": 5902,
      "å¿ħ": 5903,
      "æķĳ": 5904,
      "48": 5905,
      "Ġè¨Ģ": 5906,
      "Ġgen": 5907,
      "ĠéĤ£ä¸ª": 5908,
      "Ġcaus": 5909,
      "Ġæµģè¡Į": 5910,
      "Ġç¬¬ä¸Ģä¸ª": 5911,
      "46": 5912,
      "Ġmem": 5913,
      "ĠéĿĴå¹´": 5914,
      "ĠçĽ¸ä¿¡": 5915,
      "Ġcou": 5916,
      "400": 5917,
      "åĪ¸": 5918,
      "ĠæľĿé²ľ": 5919,
      "åį°": 5920,
      "Ġver": 5921,
      "ĠAnt": 5922,
      "ĠWind": 5923,
      "éĽª": 5924,
      "ĠåĲĪå¹¶": 5925,
      "Ġä¸ĭéĻį": 5926,
      "äººåı£": 5927,
      "ĠæĪĲéķ¿": 5928,
      "èħĬ": 5929,
      "åħĭæĸ¯": 5930,
      "Ġexperience": 5931,
      "ication": 5932,
      "Ġèµ«": 5933,
      "Ġposition": 5934,
      "Ġbirth": 5935,
      "ĠCalif": 5936,
      "æħ§": 5937,
      "ĠæĬĵ": 5938,
      "uel": 5939,
      "ael": 5940,
      "èĹ": 5941,
      "Ġæµĭè¯ķ": 5942,
      "iction": 5943,
      "Ġnorth": 5944,
      "èĪį": 5945,
      "Ġçĵ": 5946,
      "é»İ": 5947,
      "Ġå¤ĩ": 5948,
      "Ġä¸Ģå¤©": 5949,
      "é³": 5950,
      "Ġéĵľ": 5951,
      "Ġæ±ĩ": 5952,
      "Ġcal": 5953,
      "èĲĦ": 5954,
      "Ġlanguage": 5955,
      "Ġè¡Ĺéģĵ": 5956,
      "Ġèµ¤": 5957,
      "ĠéĿĻ": 5958,
      "Ġæ£®": 5959,
      "åģ¿": 5960,
      "Ġphys": 5961,
      "Ġcreated": 5962,
      "é»ĺ": 5963,
      "ĠçĶ·æĢ§": 5964,
      "onse": 5965,
      "Ġleast": 5966,
      "ĠSome": 5967,
      "Ġé«ĺåº¦": 5968,
      "iles": 5969,
      "Ġnov": 5970,
      "ĠÃ¶": 5971,
      "ĠåºĶå½ĵ": 5972,
      "ampions": 5973,
      "Ġhowever": 5974,
      "Ġgot": 5975,
      "omes": 5976,
      "Ġå·¨å¤§": 5977,
      "Ġspace": 5978,
      "Ġparty": 5979,
      "Ġdest": 5980,
      "urb": 5981,
      "Ġ%": 5982,
      "ama": 5983,
      "Ġè§Ĩé¢ĳ": 5984,
      "ĠæĬķåħ¥": 5985,
      "ĠRich": 5986,
      "ĠHol": 5987,
      "ux": 5988,
      "ĠæİĴåĲį": 5989,
      "ney": 5990,
      "ĠæĪĺçķ¥": 5991,
      "Ġfeature": 5992,
      "lete": 5993,
      "ortun": 5994,
      "Ġé«ĺéĢŁ": 5995,
      "æł¼åħ°": 5996,
      "Ġä¼ĺç§Ģ": 5997,
      "Ġ5": 5998,
      "ville": 5999,
      "ĠåĽ¢ä½ĵ": 6000,
      "Ġä»ª": 6001,
      "Ġä¸¤ç§į": 6002,
      "ume": 6003,
      "Ġsqu": 6004,
      "ĠåįĹäº¬": 6005,
      "Ġlik": 6006,
      "Ġfurther": 6007,
      "ĠèĤī": 6008,
      "Ġç®Ģç§°": 6009,
      "ĠåĻ¨": 6010,
      "ĠEngland": 6011,
      "Ġcell": 6012,
      "Ġç¬¬äºĶ": 6013,
      "Ġå¦Ĥä¸ĭ": 6014,
      "Ġå¹´åº¦": 6015,
      "Ġæ¼Ķåĩº": 6016,
      "Ġåľ°ä¸ĭ": 6017,
      "æĦ": 6018,
      "Ġé©¾": 6019,
      "Ġfamil": 6020,
      "ĠåŃ¦èĢħ": 6021,
      "ids": 6022,
      "dom": 6023,
      "sel": 6024,
      "çĨŁ": 6025,
      "Ġà¸": 6026,
      "ĠGeneral": 6027,
      "åį·": 6028,
      "Ġbo": 6029,
      "Ġsold": 6030,
      "ĠåĩºçĶŁ": 6031,
      "ĠåĵªäºĽ": 6032,
      "Ġreview": 6033,
      "æĭŁ": 6034,
      "äº§åħļ": 6035,
      "Ġce": 6036,
      "Ġç«¯": 6037,
      "ĠGovern": 6038,
      "Ġhousehold": 6039,
      "umn": 6040,
      "Ġbegin": 6041,
      "024": 6042,
      "Ġå¤ļä¸ª": 6043,
      "ĠCaliforn": 6044,
      "AC": 6045,
      "val": 6046,
      "ership": 6047,
      "Ġæ²ĥ": 6048,
      "çªģ": 6049,
      "oor": 6050,
      "ç¢į": 6051,
      "ĠCO": 6052,
      "ĠåĢº": 6053,
      "Ġä½łä»¬": 6054,
      "Ġwebs": 6055,
      "ĠåĮ»çĶŁ": 6056,
      "ĠæĭĨ": 6057,
      "Ġmaterial": 6058,
      "ĠCanada": 6059,
      "Ġåį·": 6060,
      "Ġvideo": 6061,
      "Ġè½¯ä»¶": 6062,
      "hers": 6063,
      "Ġfar": 6064,
      "ĠèµĦæł¼": 6065,
      "Ġé¥°": 6066,
      "Ġåįıè®®": 6067,
      "Ġmot": 6068,
      "Ġè¸": 6069,
      "è®²": 6070,
      "Ġç½ª": 6071,
      "æĿ°": 6072,
      "Ġvill": 6073,
      "arth": 6074,
      "ä¼į": 6075,
      "Ġè¾Ľ": 6076,
      "ĠæĽ¿": 6077,
      "ĠæĴŃåĩº": 6078,
      "ãĢĬ": 6079,
      "Ġçİ°å®ŀ": 6080,
      "éľĩ": 6081,
      "ĠRoy": 6082,
      "çĻĮ": 6083,
      "Ġå¤§çº¦": 6084,
      "éļı": 6085,
      "ĠæļĹ": 6086,
      "åľ£": 6087,
      "most": 6088,
      "Ġinteg": 6089,
      "ĠçĨŁ": 6090,
      "æĹĹ": 6091,
      "çĭ¬": 6092,
      "Ġpress": 6093,
      "Ġèī¯å¥½": 6094,
      "ips": 6095,
      "åŁĥ": 6096,
      "Ġå¾ĭ": 6097,
      "ournal": 6098,
      "Ġæł¹æľ¬": 6099,
      "Ġèĳ¡èĲĦ": 6100,
      "ĠèĹ": 6101,
      "è¯Ĭ": 6102,
      "Ġtitle": 6103,
      "Ġplayer": 6104,
      "uation": 6105,
      "ĠCD": 6106,
      "Ġä¸Ģéĥ¨": 6107,
      "gr": 6108,
      "iation": 6109,
      "Ġä»İäºĭ": 6110,
      "Ġorigin": 6111,
      "èµĸ": 6112,
      "apt": 6113,
      "Ġworks": 6114,
      "omb": 6115,
      "Ġarg": 6116,
      "Ġofficial": 6117,
      "Ġè¥¿éĥ¨": 6118,
      "ĠCalifornia": 6119,
      "é«ĺåº¦": 6120,
      "ĠåĽŀçŃĶ": 6121,
      "ä»ª": 6122,
      "Ġcreate": 6123,
      "hel": 6124,
      "Ġå®ŀéĻħä¸Ĭ": 6125,
      "ĠåįĹéĥ¨": 6126,
      "Ġdied": 6127,
      "è·Ŀ": 6128,
      "Ġgive": 6129,
      "Ġstarted": 6130,
      "ĠPaul": 6131,
      "Ġfig": 6132,
      "è¯Ĺ": 6133,
      "Ġhalf": 6134,
      "St": 6135,
      "Ġå±Ĭ": 6136,
      "Ġevents": 6137,
      "Ġwind": 6138,
      "ĠLeague": 6139,
      "ĠåĢ¾": 6140,
      "ĠåĽĽå·Ŀ": 6141,
      "Ġåĳĺå·¥": 6142,
      "Ġsignificant": 6143,
      "Ġele": 6144,
      "ades": 6145,
      "ĠCour": 6146,
      "ĠèĦļ": 6147,
      "ĠæŀĦæĪĲ": 6148,
      "æ¶¦": 6149,
      "Ġä¸įåĪ°": 6150,
      "èĦı": 6151,
      "Ġsays": 6152,
      "ww": 6153,
      "Ġåľ¨äºİ": 6154,
      "ming": 6155,
      "Ġappe": 6156,
      "ĠFirst": 6157,
      "Ġä¸ľéĥ¨": 6158,
      "ements": 6159,
      "Ġonce": 6160,
      "Ġäººæīį": 6161,
      "ols": 6162,
      "ĠPal": 6163,
      "ĠWhile": 6164,
      "½¿": 6165,
      "Ġå¤įæĿĤ": 6166,
      "ĠUK": 6167,
      "Ġmat": 6168,
      "Ġcreat": 6169,
      "ĠÑĸ": 6170,
      "çº¸": 6171,
      "itch": 6172,
      "Ġì": 6173,
      "æ³ī": 6174,
      "aries": 6175,
      "Ġä¹Ļ": 6176,
      "Ġè¯¥åľ°": 6177,
      "Ġçī¹èī²": 6178,
      "ä¼Ĳ": 6179,
      "ules": 6180,
      "ĠåıĤèĢĥ": 6181,
      "Ġstudy": 6182,
      "ĠRepublic": 6183,
      "ĠPort": 6184,
      "ĠéĢīåĮº": 6185,
      "ç§ĭ": 6186,
      "ĠåĸĿ": 6187,
      "ĠäºĭåĬ¡": 6188,
      "ĠInter": 6189,
      "çīĽ": 6190,
      "çĤ¸": 6191,
      "ĠéĩĬ": 6192,
      "ground": 6193,
      "Ġsouth": 6194,
      "ĠAut": 6195,
      "Ġæµ·æĭĶé«ĺåº¦": 6196,
      "ĠPeople": 6197,
      "Ġareas": 6198,
      "Ġæ±¡": 6199,
      "Ġè±¡": 6200,
      "roups": 6201,
      "ĠäºĴèģĶç½ĳ": 6202,
      "iple": 6203,
      "åħ³ç³»": 6204,
      "åºĻ": 6205,
      "800": 6206,
      "èµ«": 6207,
      "Ġseen": 6208,
      "ĠThom": 6209,
      "anies": 6210,
      "Ġçİ©å®¶": 6211,
      "rest": 6212,
      "Ġä¿ĿéĻ©": 6213,
      "ĠæīĢå±ŀ": 6214,
      "ĠåħħåĪĨ": 6215,
      "Ġè½¦è¾Ĩ": 6216,
      "Ġrequire": 6217,
      "åĪĳ": 6218,
      "Ġéĺµ": 6219,
      "Ġinflu": 6220,
      "Ġç¼©": 6221,
      "ĠâĨ": 6222,
      "Ġè¿ħ": 6223,
      "ires": 6224,
      "ĠÑı": 6225,
      "ä¼°": 6226,
      "Ġtoday": 6227,
      "ift": 6228,
      "æºª": 6229,
      "ĠPat": 6230,
      "ĠTown": 6231,
      "ĠMor": 6232,
      "atural": 6233,
      "ĠStreet": 6234,
      "ç¼©": 6235,
      "Ġè®¿": 6236,
      "ĠÐ³": 6237,
      "ç³ĸ": 6238,
      "Ġæ´ª": 6239,
      "Ġcoll": 6240,
      "Ġlot": 6241,
      "æ³ķéĻ¢": 6242,
      "åĩł": 6243,
      "Ġä¸¤äºº": 6244,
      "åĽº": 6245,
      "Ġå¯º": 6246,
      "Ġåħģ": 6247,
      "Ġä¼°": 6248,
      "Ġé£Łåĵģ": 6249,
      "itted": 6250,
      "ĠæĸŃ": 6251,
      "aining": 6252,
      "ĠBer": 6253,
      "è®©": 6254,
      "è¡¥": 6255,
      "ĠæľīæīĢ": 6256,
      "ĠOther": 6257,
      "ĠæģĴ": 6258,
      "Ġæİ¥è§¦": 6259,
      "Ġè´¡": 6260,
      "Ġè®¾æĸ½": 6261,
      "ĠçľŁå®ŀ": 6262,
      "iff": 6263,
      "ç¿¼": 6264,
      "ĠæĥĬ": 6265,
      "ĠèĤĮ": 6266,
      "Ġå¹¿åĳĬ": 6267,
      "ĠèĨ": 6268,
      "Ġæİ¨è¿Ľ": 6269,
      "984": 6270,
      "ĠçĪĨåıĳ": 6271,
      "ĠEuropean": 6272,
      "Ġmer": 6273,
      "Ġè§ĤçĤ¹": 6274,
      "ĠIndian": 6275,
      "ĠAssoci": 6276,
      "bor": 6277,
      "ĠåŁ¹è®Ń": 6278,
      "ĠGeorge": 6279,
      "Ġå·¥åħ·": 6280,
      "Ġsett": 6281,
      "ĠåĽ½çİĭ": 6282,
      "ensive": 6283,
      "Ġä¿Ŀéļľ": 6284,
      "Ġæĭľ": 6285,
      "Ġthreat": 6286,
      "elling": 6287,
      "Ġfood": 6288,
      "iddle": 6289,
      "æ°§": 6290,
      "Ġæ¦": 6291,
      "éĺ¿": 6292,
      "ĠæĢģ": 6293,
      "ĠSim": 6294,
      "Ġä¹³": 6295,
      "Ġcertain": 6296,
      "986": 6297,
      "eum": 6298,
      "987": 6299,
      "ĠçĲĥåĳĺ": 6300,
      "Ġwww": 6301,
      "ĠåĨľæĿĳ": 6302,
      "ky": 6303,
      "ĠChurch": 6304,
      "è¿İ": 6305,
      "ij": 6306,
      "Ġä¹łæĥ¯": 6307,
      "Ġwritten": 6308,
      "Ġcode": 6309,
      "Ġè´¢æĶ¿": 6310,
      "ĠéģĩåĪ°": 6311,
      "ship": 6312,
      "sw": 6313,
      "Ġsound": 6314,
      "ĠåĬŀæ³ķ": 6315,
      "ĠÃ¤": 6316,
      "Ġç¼ºä¹ı": 6317,
      "Ġcenter": 6318,
      "Ġä½ĵéªĮ": 6319,
      "Ġå¥ī": 6320,
      "èµı": 6321,
      "æĥł": 6322,
      "Ġå¢¨": 6323,
      "Ġstar": 6324,
      "89": 6325,
      "Ġmeans": 6326,
      "ression": 6327,
      "ĠæĽ´å¥½": 6328,
      "Ġæ¬¢": 6329,
      "Ġéĩįå¤§": 6330,
      "åĲĽ": 6331,
      "Ġå¤ĸäº¤": 6332,
      "Ġäººå·¥": 6333,
      "Ġç§»åĬ¨": 6334,
      "Ġä¸ľäº¬": 6335,
      "ĠåħĪåĲİ": 6336,
      "TC": 6337,
      "ready": 6338,
      "Ġå»ºéĢł": 6339,
      "Ġè¥¿æĸ¹": 6340,
      "ĠæİĮæı¡": 6341,
      "ĠåĲĪåĲĮ": 6342,
      "Ġblack": 6343,
      "Ġæ¶īåıĬ": 6344,
      "Ġmodern": 6345,
      "atory": 6346,
      "ĠèĤº": 6347,
      "Ġçĩĥ": 6348,
      "ä¼´": 6349,
      "ien": 6350,
      "ĠåŃ¦æľ¯": 6351,
      "Ġserved": 6352,
      "ĠçĹĽ": 6353,
      "Ġtelevision": 6354,
      "Ġå°ĨåĨĽ": 6355,
      "Ġäººå£«": 6356,
      "Ġfootball": 6357,
      "chan": 6358,
      "ĠJe": 6359,
      "ĠMr": 6360,
      "Ġè¿·": 6361,
      "Ġmonths": 6362,
      "for": 6363,
      "ĠæĶ¯ä»ĺ": 6364,
      "Ġabove": 6365,
      "ĠMag": 6366,
      "Ġå¤ļæ¬¡": 6367,
      "ĠéĢıè¿ĩ": 6368,
      "face": 6369,
      "ĠæĦıæĢĿ": 6370,
      "ĠèµĦäº§": 6371,
      "600": 6372,
      "ĠæĭĴç»Ŀ": 6373,
      "Ġéļ¶": 6374,
      "Ġè¿Ļæ¬¡": 6375,
      "Ġç³ĸ": 6376,
      "Ġrev": 6377,
      "Ġè¡ĮæĶ¿åĮºåĪĴ": 6378,
      "Ġæ²Ł": 6379,
      "ĠæīĢåľ¨": 6380,
      "ä¿ĿæĬ¤": 6381,
      "Ġsaf": 6382,
      "ĠåĪ¶å®ļ": 6383,
      "Ġä¹ĥ": 6384,
      "Ġç¤º": 6385,
      "Ġsurv": 6386,
      "Ġåįļçī©é¦Ĩ": 6387,
      "ĠæľĢæĹ©": 6388,
      "Ġever": 6389,
      "ĠåŃ¦ä¼ļ": 6390,
      "Ġaud": 6391,
      "Ġå±ħä½ı": 6392,
      "ĠList": 6393,
      "Ġé¢ģ": 6394,
      "Ġè§Ĵåº¦": 6395,
      "ĠçĽĽ": 6396,
      "æ£Ģ": 6397,
      "æ®ĸ": 6398,
      "Ġè¿ĲçĶ¨": 6399,
      "hib": 6400,
      "Ġå¦»": 6401,
      "Ġ20": 6402,
      "Ġçİ°åľº": 6403,
      "ĠéĢĶ": 6404,
      "æ¯ģ": 6405,
      "ached": 6406,
      "ĠèĤ¯å®ļ": 6407,
      "Ġç§ĭ": 6408,
      "Ġpur": 6409,
      "Ġjob": 6410,
      "è¡ĮæĺŁ": 6411,
      "itect": 6412,
      "Ġå¤ªå¹³": 6413,
      "Ġèħ¹": 6414,
      "ĠLaw": 6415,
      "è°ĭ": 6416,
      "çĽĳ": 6417,
      "ç«Ł": 6418,
      "Ġfuture": 6419,
      "Ġsugg": 6420,
      "Ġå¤§åĮº": 6421,
      "rick": 6422,
      "ĠChina": 6423,
      "éľĢ": 6424,
      "ĠBel": 6425,
      "Ġç»ĦåĲĪ": 6426,
      "76": 6427,
      "Ġfather": 6428,
      "Ġsuggest": 6429,
      "¯®": 6430,
      "Ġprivate": 6431,
      "Ġrange": 6432,
      "sy": 6433,
      "Ġè½¨éģĵ": 6434,
      "play": 6435,
      "æįķ": 6436,
      "Ġspecific": 6437,
      "unic": 6438,
      "Ġæİ¥å£¤": 6439,
      "åĿĽ": 6440,
      "ving": 6441,
      "åĪļ": 6442,
      "Ġclub": 6443,
      "Ġæ²³åįĹ": 6444,
      "ico": 6445,
      "èľ": 6446,
      "Ġæİªæĸ½": 6447,
      "ç¬ĳ": 6448,
      "Ġè¯¦": 6449,
      "asing": 6450,
      "Ġnec": 6451,
      "Ġçŀ": 6452,
      "ä¸ĭæĿ¥": 6453,
      "Ġæĥ³è¦ģ": 6454,
      "56": 6455,
      "Ġä¸Ģé¡¹": 6456,
      "ĠçĽ¸æ¯Ķ": 6457,
      "ference": 6458,
      "Ġæ¯Ķä¾ĭ": 6459,
      "ĠMod": 6460,
      "ĠMet": 6461,
      "ibility": 6462,
      "Ġå¯¼æ¼Ķ": 6463,
      "Ġæī¹è¯Ħ": 6464,
      "ĠèµĦæľ¬": 6465,
      "åĨľ": 6466,
      "obal": 6467,
      "Ġkind": 6468,
      "ĠLou": 6469,
      "Ġå½ĵå¹´": 6470,
      "aur": 6471,
      "ĠCenter": 6472,
      "Ġconsidered": 6473,
      "ĠAccording": 6474,
      "Ġè®®åĳĺ": 6475,
      "æĹĭ": 6476,
      "Ġaddition": 6477,
      "ĠæĦŁåĪ°": 6478,
      "Ġåı¦ä¸Ģ": 6479,
      "Ġç¥Ń": 6480,
      "Ġå¤ļå¹´": 6481,
      "ĠInc": 6482,
      "Ġener": 6483,
      "Ġåıĺå¾Ĺ": 6484,
      "Ġèĩ³ä»Ĭ": 6485,
      "Ġperformance": 6486,
      "945": 6487,
      "Ġalready": 6488,
      "Ġç»´æĮģ": 6489,
      "Ġindic": 6490,
      "Ġäºĭä¸ļ": 6491,
      "Ġæ¯Ĵ": 6492,
      "Ġesp": 6493,
      "Ġunderstand": 6494,
      "çĸĨ": 6495,
      "Ġcourse": 6496,
      "Ġä¾§": 6497,
      "çĦ": 6498,
      "Ġå±ķå¼Ģ": 6499,
      "å¤ı": 6500,
      "fic": 6501,
      "Ġé«ĺä¸Ń": 6502,
      "è¢Ń": 6503,
      "å°½": 6504,
      "rote": 6505,
      "Ġaction": 6506,
      "Ġnight": 6507,
      "Ġeither": 6508,
      "ĠTra": 6509,
      "Ġå¤ļç§į": 6510,
      "ĠæľºåĻ¨": 6511,
      "Ġmaintain": 6512,
      "ĠCons": 6513,
      "åĲ¯": 6514,
      "æ®¿": 6515,
      "Ġsection": 6516,
      "ĠéĶĻè¯¯": 6517,
      "ĠåİĤ": 6518,
      "Ġbi": 6519,
      "éĢĬ": 6520,
      "Ġçº½çº¦": 6521,
      "Ġèĭ±æĸĩ": 6522,
      "Ġroom": 6523,
      "Ġcomput": 6524,
      "hem": 6525,
      "ened": 6526,
      "Ġbase": 6527,
      "Ġä¸ĭéĿ¢": 6528,
      "Ġéķ": 6529,
      "ĠMal": 6530,
      "Ġpers": 6531,
      "éº¦": 6532,
      "å®¡": 6533,
      "aign": 6534,
      "éĨĴ": 6535,
      "ĠéŃı": 6536,
      "ander": 6537,
      "sequ": 6538,
      "ĠæĻ®éģį": 6539,
      "ĠéĥŃ": 6540,
      "Ġçºªå½ķ": 6541,
      "Ġmilitary": 6542,
      "Ġåıĭ": 6543,
      "¬¼": 6544,
      "Ġå®ª": 6545,
      "Ġå©": 6546,
      "Ġç´¯": 6547,
      "ĠçĽĸ": 6548,
      "Ġåħ¶åĲİ": 6549,
      "Ġæ¨¡åŀĭ": 6550,
      "chie": 6551,
      "èİī": 6552,
      "ĠMac": 6553,
      "Ġå¦Īå¦Ī": 6554,
      "çĪµ": 6555,
      "Ġä¼łæĴŃ": 6556,
      "ĠæľºåĪ¶": 6557,
      "å®ĥ": 6558,
      "Ġgroups": 6559,
      "Ġanalysis": 6560,
      "Ġç»ĺ": 6561,
      "Ġä¸įä¹ħ": 6562,
      "Ġaddress": 6563,
      "Ġç¥ŀç»ı": 6564,
      "IC": 6565,
      "Ġestablish": 6566,
      "Ġregion": 6567,
      "Ġrespons": 6568,
      "Ġé¸Ł": 6569,
      "Ġä¸Ģåľº": 6570,
      "Ġbene": 6571,
      "Ġå½¼": 6572,
      "Ġè¶ĭ": 6573,
      "ĠçĥŃå¸¦": 6574,
      "oming": 6575,
      "Ġè¯¯": 6576,
      "å¦¹": 6577,
      "æ´ģ": 6578,
      "icro": 6579,
      "Ġimplement": 6580,
      "ĠçķĮ": 6581,
      "çģ¾": 6582,
      "ĠéĽª": 6583,
      "æĽ¿": 6584,
      "Ġcy": 6585,
      "Ġä½©": 6586,
      "Ġçł´åĿı": 6587,
      "Ġæŀª": 6588,
      "Ġå¯¹è±¡": 6589,
      "OR": 6590,
      "Ġä»Ĭå¹´": 6591,
      "ĠæĿ¥çľĭ": 6592,
      "Ġé£ŀæľº": 6593,
      "Ġpresident": 6594,
      "ĠæĸĩåŃĹ": 6595,
      "ĠæĦıè§ģ": 6596,
      "ĠâĢ¢": 6597,
      "partment": 6598,
      "æ²¡": 6599,
      "Ġé«ĺçº§": 6600,
      "Ġå¼ºè°ĥ": 6601,
      "Ġroad": 6602,
      "Ġhttp": 6603,
      "Ġrather": 6604,
      "we": 6605,
      "ĠJust": 6606,
      "Ġè¡¨æ¼Ķ": 6607,
      "Ġmoney": 6608,
      "Ġanim": 6609,
      "ait": 6610,
      "å¦ĩ": 6611,
      "ĠåĬ¨ä½ľ": 6612,
      "Ġobs": 6613,
      "Ġå®Ŀå®Ŀ": 6614,
      "è¸": 6615,
      "ctor": 6616,
      "Ġæµĵ": 6617,
      "ĠçŁ¿": 6618,
      "Ġå¤ıåŃ£": 6619,
      "ĠIndia": 6620,
      "Ġlay": 6621,
      "Ġåħ¬åħĥ": 6622,
      "Ġfav": 6623,
      "Ġè§ĦèĮĥ": 6624,
      "Ġfire": 6625,
      "èĦļ": 6626,
      "ĠæıĴ": 6627,
      "Ġåĳ¼åĲ": 6628,
      "Ġå¡«": 6629,
      "ĠåĩŃ": 6630,
      "ĠSen": 6631,
      "èīĩ": 6632,
      "ĠHall": 6633,
      "Ġdetail": 6634,
      "Ġé©¬æĿ¥": 6635,
      "ĠåħĪçĶŁ": 6636,
      "ĠAP": 6637,
      "ĠçĶµèĦĳ": 6638,
      "ault": 6639,
      "field": 6640,
      "å·§": 6641,
      "ĠæĲŀ": 6642,
      "Ġrecogn": 6643,
      "ude": 6644,
      "Ġinternational": 6645,
      "ĠAustralia": 6646,
      "ĠæŁĲäºĽ": 6647,
      "è®¨": 6648,
      "ges": 6649,
      "Ġç¯ĩ": 6650,
      "ĠæĦŁåıĹ": 6651,
      "ception": 6652,
      "Ġfront": 6653,
      "itution": 6654,
      "éĶĭ": 6655,
      "Ġå¥¥è¿Ĳ": 6656,
      "982": 6657,
      "æĳ©": 6658,
      "ĠåķĨåĵģ": 6659,
      "Ġåħģè®¸": 6660,
      "ĠRoman": 6661,
      "utions": 6662,
      "Ġç¦": 6663,
      "ĠFrance": 6664,
      "ĠåĲ¸å¼ķ": 6665,
      "Ġæ©": 6666,
      "983": 6667,
      "AL": 6668,
      "Ġå¼ķåıĳ": 6669,
      "å®ħ": 6670,
      "Ġproblem": 6671,
      "wood": 6672,
      "Ġåħ¶å®ĥ": 6673,
      "Ġwebsite": 6674,
      "Ġlo": 6675,
      "ĠæĶ¹åĸĦ": 6676,
      "ĠçĶŁæ¶¯": 6677,
      "Ġæ¼Ķåĳĺ": 6678,
      "ĠÐ¹": 6679,
      "ĠDel": 6680,
      "Ġè¾½": 6681,
      "Ġæģ©": 6682,
      "ĠWhite": 6683,
      "èĵ": 6684,
      "ĠRobert": 6685,
      "ä¼ĳ": 6686,
      "Ġproduced": 6687,
      "lected": 6688,
      "van": 6689,
      "irt": 6690,
      "é¡º": 6691,
      "ĠMart": 6692,
      "Ġåħ¬ä¼Ĺ": 6693,
      "ĠJack": 6694,
      "Ġmedia": 6695,
      "Ġè¿ħéĢŁ": 6696,
      "42": 6697,
      "Ġç»ĻäºĪ": 6698,
      "ĠDan": 6699,
      "ray": 6700,
      "Ġå¤±åİ»": 6701,
      "ĠæĿ¿": 6702,
      "bers": 6703,
      "ĠåĤ¨": 6704,
      "Ġdou": 6705,
      "ĠãĢī": 6706,
      "AM": 6707,
      "èĤ¤": 6708,
      "ĠæĬĺ": 6709,
      "Ġmiss": 6710,
      "Ġtax": 6711,
      "Ġwhite": 6712,
      "ES": 6713,
      "Ġåģ¶": 6714,
      "Ġéļ¶å±ŀ": 6715,
      "ores": 6716,
      "äºķ": 6717,
      "ĠåĲĮä¸Ģ": 6718,
      "Ġè¡£": 6719,
      "Ġä¹ĭå¤ĸ": 6720,
      "æ´ŀ": 6721,
      "Ġè¶ĬåįĹ": 6722,
      "Ġåı¤ä»£": 6723,
      "aid": 6724,
      "Ġå¯¹æĸ¹": 6725,
      "æķı": 6726,
      "ĠèĪĴ": 6727,
      "Ġge": 6728,
      "Ġä¸ĩåħĥ": 6729,
      "Ġwid": 6730,
      "Ġéļ¾ä»¥": 6731,
      "ĠéģŃåĪ°": 6732,
      "Ġå¤±è´¥": 6733,
      "utes": 6734,
      "Ġground": 6735,
      "Ġé£ŀè¡Į": 6736,
      "Ġfall": 6737,
      "aring": 6738,
      "Ġoffice": 6739,
      "Ġå°¾": 6740,
      "ĠåĪ©çĽĬ": 6741,
      "ĠParty": 6742,
      "è£ģ": 6743,
      "ĠæĿĤå¿Ĺ": 6744,
      "abor": 6745,
      "Ġæ£Ģæµĭ": 6746,
      "Ġentire": 6747,
      "Ġtaken": 6748,
      "Ġéĺ¿æĭī": 6749,
      "OS": 6750,
      "cle": 6751,
      "å¢Ļ": 6752,
      "Ġå¿ħè¦ģ": 6753,
      "Ġprob": 6754,
      "ĠåĲĮæĦı": 6755,
      "Ġsubject": 6756,
      "Ġæ·¡": 6757,
      "Ġrelated": 6758,
      "ĠCouncil": 6759,
      "Ġå½ĵéĢī": 6760,
      "æĹ§": 6761,
      "ensus": 6762,
      "ĠæĪĸæĺ¯": 6763,
      "ĠMusic": 6764,
      "Ġè¡¨éĿ¢": 6765,
      "Ġbroad": 6766,
      "é¥Ń": 6767,
      "ĠåĽ¾ä¹¦": 6768,
      "èı²": 6769,
      "ceed": 6770,
      "Ġéĵ¾": 6771,
      "Ġå®īè£ħ": 6772,
      "ĠåįķæĽ²": 6773,
      "æĸ¯åĿ¦": 6774,
      "978": 6775,
      "Ġè´¸æĺĵ": 6776,
      "Ġåģļå¥½": 6777,
      "Ġè¯´æ³ķ": 6778,
      "Ġæĥħç»ª": 6779,
      "book": 6780,
      "Ġdeterm": 6781,
      "æ½®": 6782,
      "å»ī": 6783,
      "å°ļ": 6784,
      "Ġcop": 6785,
      "ĠGreat": 6786,
      "Ġepis": 6787,
      "ĠSam": 6788,
      "ç®¡çĲĨ": 6789,
      "ederal": 6790,
      "Ġbelow": 6791,
      "Ġsepar": 6792,
      "Ġç¾½": 6793,
      "Ġparticip": 6794,
      "Ġpoints": 6795,
      "Ġhon": 6796,
      "Ġä¸įå¥½": 6797,
      "aker": 6798,
      "ĠQue": 6799,
      "Ġpattern": 6800,
      "é»Ħ": 6801,
      "back": 6802,
      "ĠåģļåĪ°": 6803,
      "Ġæ±¤": 6804,
      "Ġthought": 6805,
      "Ġåħ¬è·¯": 6806,
      "Ġwrote": 6807,
      "979": 6808,
      "å¾½": 6809,
      "Ġresults": 6810,
      "èħº": 6811,
      "ĠãĢĪ": 6812,
      "Ġè½½": 6813,
      "Ġä»ĺ": 6814,
      "itute": 6815,
      "Ġcompanies": 6816,
      "ĠFin": 6817,
      "Ġå¥Ĺ": 6818,
      "Ġnews": 6819,
      "57": 6820,
      "ĠÑĮ": 6821,
      "ples": 6822,
      "Ġren": 6823,
      "ĠèĲ¥åħ»": 6824,
      "Ġç¬¬äºĮæ¬¡": 6825,
      "Ġå¹¿æĴŃ": 6826,
      "ĠSl": 6827,
      "æī¾": 6828,
      "Ġç»§æī¿": 6829,
      "Ġgrad": 6830,
      "Ġå¾ħ": 6831,
      "Ġäºīè®®": 6832,
      "Ġæ¼«çĶ»": 6833,
      "Ġè¦Ĩ": 6834,
      "Ġå¤©æ´¥": 6835,
      "oud": 6836,
      "oo": 6837,
      "ĠæĢĿèĢĥ": 6838,
      "Ġå¥³åĦ¿": 6839,
      "Ġç´«": 6840,
      "ĠJew": 6841,
      "Ġdeg": 6842,
      "Ġindustry": 6843,
      "Ġå·´å£«": 6844,
      "Ġåħ´è¶£": 6845,
      "Ġçº¦ç¿°": 6846,
      "Ġpersonal": 6847,
      "ç´¯": 6848,
      "ĠéĤĢ": 6849,
      "Ġæĸĩæĺİ": 6850,
      "Ġcross": 6851,
      "BA": 6852,
      "ĠBook": 6853,
      "Ġfeatures": 6854,
      "ĠèģĶéĤ¦": 6855,
      "ĠWash": 6856,
      "Ġorg": 6857,
      "ĠåĽ°éļ¾": 6858,
      "Ġclose": 6859,
      "olic": 6860,
      "ecially": 6861,
      "Ġenvironment": 6862,
      "Ġcut": 6863,
      "ĠCap": 6864,
      "Ġçĸ«æĥħ": 6865,
      "Ġå´ĩ": 6866,
      "ĠèµĽåŃ£": 6867,
      "ĠåĭĴ": 6868,
      "Ġonline": 6869,
      "Ġtour": 6870,
      "Ġç¦ıå»º": 6871,
      "mb": 6872,
      "ĠåĽºå®ļ": 6873,
      "Ġresponse": 6874,
      "å§Ĳ": 6875,
      "Ġä¸»åĬ¨": 6876,
      "Ġtarg": 6877,
      "The": 6878,
      "Ġindepend": 6879,
      "ites": 6880,
      "Ġneg": 6881,
      "åİļ": 6882,
      "ç®±": 6883,
      "Ġcred": 6884,
      "Ġdig": 6885,
      "Ġlaun": 6886,
      "Ġsoft": 6887,
      "æ¡£": 6888,
      "Ġåį«çĶŁ": 6889,
      "ĠDay": 6890,
      "Ġtrue": 6891,
      "Ġåı·çº¿": 6892,
      "èĪŀ": 6893,
      "Ġåĩ»è´¥": 6894,
      "Ġstop": 6895,
      "ĠæŃ¤åĲİ": 6896,
      "ĠæĢĿç»´": 6897,
      "±ä¹Ĳéĥ¨": 6898,
      "è¶ħ": 6899,
      "çŁŃ": 6900,
      "ĠPlay": 6901,
      "Ġrespect": 6902,
      "Ġäººæķ°": 6903,
      "Ġä¸¥æł¼": 6904,
      "ĠæľĢè¿ĳ": 6905,
      "¨è¯¢": 6906,
      "ĠæľĪåı°": 6907,
      "Ġè¿ĺè¦ģ": 6908,
      "ĠåĿ¦": 6909,
      "æŁ±": 6910,
      "Ġdeveloped": 6911,
      "Ġdone": 6912,
      "ĠåĲįä¸º": 6913,
      "Ġund": 6914,
      "Ġé¤Ĳ": 6915,
      "ĠçģŃ": 6916,
      "çİĽ": 6917,
      "Ġå¼Ł": 6918,
      "Ġä¿±ä¹Ĳéĥ¨": 6919,
      "Ġä¸ģ": 6920,
      "Ġå®Įæķ´": 6921,
      "cial": 6922,
      "ç»ķ": 6923,
      "reek": 6924,
      "Ġæİ¥è¿ĳ": 6925,
      "Ġcorre": 6926,
      "Ġç»Ŀå¯¹": 6927,
      "Ġmass": 6928,
      "æ¢ģ": 6929,
      "ĠçĶ¨æĿ¥": 6930,
      "æĭľ": 6931,
      "Ġq": 6932,
      "èĢ¶": 6933,
      "EN": 6934,
      "Ġåģļåĩº": 6935,
      "Ġè¿Ĳè¾ĵ": 6936,
      "ĠSuper": 6937,
      "ĠåĢĻ": 6938,
      "anks": 6939,
      "çĺ¤": 6940,
      "now": 6941,
      "orthern": 6942,
      "Ġhttps": 6943,
      "itar": 6944,
      "Ġè¡¨æĺİ": 6945,
      "Ġannounced": 6946,
      "ises": 6947,
      "ĠåĽŃ": 6948,
      "949": 6949,
      "Ġå¦ĩ": 6950,
      "Ġagre": 6951,
      "Ġå¢ĵ": 6952,
      "ĠçīĻ": 6953,
      "ĠçĥŁ": 6954,
      "Ġåħĥç´ł": 6955,
      "Ġå°Ŀ": 6956,
      "ĠÐ·": 6957,
      "Ġè§Ĥä¼Ĺ": 6958,
      "ĠArch": 6959,
      "Ġæ»ĳ": 6960,
      "ĠAT": 6961,
      "Ġviol": 6962,
      "Ġè§Ĩä¸º": 6963,
      "ĠåĬ¨åĬĽ": 6964,
      "ĠMore": 6965,
      "ç½ļ": 6966,
      "Ġenough": 6967,
      "Ġå¹´é¾Ħ": 6968,
      "è´¢": 6969,
      "Ġå±ķç¤º": 6970,
      "ĠåİŁæľ¬": 6971,
      "Ġä¿¡åı·": 6972,
      "Ġeducation": 6973,
      "Ġdeal": 6974,
      "Ġä¹ĭä¸Ń": 6975,
      "ĠèĤĿ": 6976,
      "Ġä½ĵçİ°": 6977,
      "Ġæłĸ": 6978,
      "åģļ": 6979,
      "ĠåĢ¼å¾Ĺ": 6980,
      "ĠèĢĮè¨Ģ": 6981,
      "ä¸¤": 6982,
      "Ġhous": 6983,
      "ĠçªģçĦ¶": 6984,
      "Ġenergy": 6985,
      "Ġäº¿åħĥ": 6986,
      "ĠçĹħæ¯Ĵ": 6987,
      "ĠæĮĳæĪĺ": 6988,
      "49": 6989,
      "Ġlost": 6990,
      "å²©": 6991,
      "ĠåĽĽä¸ª": 6992,
      "Ġå¢ŀå¼º": 6993,
      "mm": 6994,
      "ĠåŁºçĿ£": 6995,
      "èĽĭ": 6996,
      "ĠåºĹ": 6997,
      "Ġç«ĭæ³ķ": 6998,
      "Ġsat": 6999,
      "ĠçĽĲ": 7000,
      "å°Ķæĸ¯": 7001,
      "Ġparent": 7002,
      "ĠåıĻ": 7003,
      "Ġusually": 7004,
      "Ġmoved": 7005,
      "ends": 7006,
      "Ġnorm": 7007,
      "onst": 7008,
      "ampionship": 7009,
      "åĲĦ": 7010,
      "Ġæ³ķéĻ¢": 7011,
      "æĵį": 7012,
      "ĠRoad": 7013,
      "ĠåħĦå¼Ł": 7014,
      "Ġwhy": 7015,
      "lation": 7016,
      "Ġå£°éŁ³": 7017,
      "Ġbehav": 7018,
      "å«": 7019,
      "Ġdiscuss": 7020,
      "çģ¯": 7021,
      "Ġrout": 7022,
      "fect": 7023,
      "ĠæĶ¾å¼ĥ": 7024,
      "Ġæī¹åĩĨ": 7025,
      "Ġmanagement": 7026,
      "go": 7027,
      "Ġpred": 7028,
      "ĠæĹ¥å¸¸": 7029,
      "å®Ļ": 7030,
      "Ġsuccessful": 7031,
      "Ġchall": 7032,
      "ĠæĬ¥éģĵ": 7033,
      "ĠæĩĤ": 7034,
      "Ġè´§å¸ģ": 7035,
      "ĠCourt": 7036,
      "ĠSystem": 7037,
      "981": 7038,
      "Ġæ¾³éĹ¨": 7039,
      "é¸Ł": 7040,
      "Ġcontent": 7041,
      "Ġalthough": 7042,
      "omp": 7043,
      "ĠçĦ¦": 7044,
      "Ġèµ¢å¾Ĺ": 7045,
      "Ġround": 7046,
      "ĠèĢ³": 7047,
      "ancial": 7048,
      "Ġstates": 7049,
      "Ġé³": 7050,
      "rab": 7051,
      "Ġæ¼ĶåĶ±": 7052,
      "ĠæĢ»äººåı£": 7053,
      "ĠMichael": 7054,
      "Ġå¨±ä¹Ĳ": 7055,
      "asc": 7056,
      "Ġlabel": 7057,
      "ĠåįıåĬ©": 7058,
      "ĠåıĳæĮ¥": 7059,
      "ĠæĺİæľĿ": 7060,
      "900": 7061,
      "ength": 7062,
      "Ġaccept": 7063,
      "ĠæĮĤ": 7064,
      "Ġå±ĭ": 7065,
      "Ġabs": 7066,
      "é³į": 7067,
      "ĠOff": 7068,
      "Ġfilms": 7069,
      "ĠçĽ¸äºĴ": 7070,
      "Ġåı¯æĺ¯": 7071,
      "Ġfamilies": 7072,
      "Ġè¿İ": 7073,
      "Ġelection": 7074,
      "ĠUnion": 7075,
      "éĺģ": 7076,
      "Ġæ¯«ç±³": 7077,
      "ĠæĪªèĩ³": 7078,
      "osition": 7079,
      "Ġhimself": 7080,
      "iate": 7081,
      "Ġçº¸": 7082,
      "Ġpercent": 7083,
      "Ġincludes": 7084,
      "Ġbreak": 7085,
      "åĲ¬": 7086,
      "·æ¬¾": 7087,
      "Ġç¡®å®ŀ": 7088,
      "ĠåĲĪçĲĨ": 7089,
      "Ġespecially": 7090,
      "è´Ł": 7091,
      "ĠåĪĨäº«": 7092,
      "Ġæ±Łèĭı": 7093,
      "Ġrelease": 7094,
      "ĠçĤ®": 7095,
      "Ġalmost": 7096,
      "ç³»åĪĹ": 7097,
      "ĠæĬĳ": 7098,
      "ĠåŁİéķĩ": 7099,
      "outhern": 7100,
      "Ġæ²Ī": 7101,
      "Ġå®ĺåĳĺ": 7102,
      "to": 7103,
      "ĠåİŁæĿ¥": 7104,
      "ĠHen": 7105,
      "æĻ®æŁ¥": 7106,
      "Ġten": 7107,
      "åĨ²": 7108,
      "Ġè®¡ç®Ĺæľº": 7109,
      "Ġäººåı£æĻ®æŁ¥": 7110,
      "Ġrelationship": 7111,
      "çĳŁ": 7112,
      "ha": 7113,
      "ĠåĮ»åŃ¦": 7114,
      "ĠèĴĻåı¤": 7115,
      "Ġäººä½ĵ": 7116,
      "ĠæĬ¢": 7117,
      "Ġåıĳå°Ħ": 7118,
      "Ġshows": 7119,
      "ĠèĶ¡": 7120,
      "IS": 7121,
      "Ġdam": 7122,
      "41": 7123,
      "Ġmakes": 7124,
      "ago": 7125,
      "Ġclos": 7126,
      "Ġå½±çīĩ": 7127,
      "Ġop": 7128,
      "Ġåıĸä»£": 7129,
      "Ġfile": 7130,
      "Ġvia": 7131,
      "Ġä¸ĵéĹ¨": 7132,
      "çĥŁ": 7133,
      "Ġden": 7134,
      "ĠéĻķ": 7135,
      "å¾¡": 7136,
      "Ġçıį": 7137,
      "ĠéĶ¦æłĩ": 7138,
      "oul": 7139,
      "Ġbit": 7140,
      "aching": 7141,
      "ĠGroup": 7142,
      "earch": 7143,
      "ston": 7144,
      "Ġå¿½": 7145,
      "ĠChristian": 7146,
      "Ġèĥ½éĩı": 7147,
      "ä¸»æķĻ": 7148,
      "ĠÃĹ": 7149,
      "Ġæľºæ¢°": 7150,
      "Ġè®°å¿Ĩ": 7151,
      "ĠæıĲåĪ°": 7152,
      "ĠWashington": 7153,
      "ĠåĨľæ°ĳ": 7154,
      "Ġè£ģ": 7155,
      "èķ": 7156,
      "Ġåĩ½": 7157,
      "Ġautom": 7158,
      "Ġ..": 7159,
      "Ġé¢ľèī²": 7160,
      "Ġè´¹çĶ¨": 7161,
      "ĠVol": 7162,
      "Ġstandard": 7163,
      "Ġpath": 7164,
      "Ġut": 7165,
      "ĠåģľæŃ¢": 7166,
      "ĠéħįåĲĪ": 7167,
      "Ġexam": 7168,
      "Ġill": 7169,
      "ĠæĻºèĥ½": 7170,
      "æĬĢæľ¯": 7171,
      "Ġä¸ĭæĿ¥": 7172,
      "ĠæĹı": 7173,
      "Ġprovided": 7174,
      "Ġple": 7175,
      "ĠéĤ»": 7176,
      "Ġmid": 7177,
      "Ġå®ŀè¡Į": 7178,
      "Ġupon": 7179,
      "Ġ19": 7180,
      "Ġè¶ħçº§": 7181,
      "ä¸°": 7182,
      "ender": 7183,
      "çĽ¾": 7184,
      "ĠåĬ¿": 7185,
      "çĭ±": 7186,
      "éĥ¨éĹ¨": 7187,
      "ĠæĿĥåĪ©": 7188,
      "Ġèµ¶": 7189,
      "NA": 7190,
      "ĠæĿ¥åĪ°": 7191,
      "atives": 7192,
      "ĠéĽ¨": 7193,
      "Ġä¸ĬéĿ¢": 7194,
      "elt": 7195,
      "Ġåİħ": 7196,
      "ä¸ĵ": 7197,
      "etimes": 7198,
      "ĠçĬ¶åĨµ": 7199,
      "Ġtraining": 7200,
      "Ġcolor": 7201,
      "åŁ¹": 7202,
      "ĠèŃ¦å¯Ł": 7203,
      "Ġå½¢è±¡": 7204,
      "Ġé²ľ": 7205,
      "EC": 7206,
      "Ġincome": 7207,
      "ĠæĹģ": 7208,
      "ĠAward": 7209,
      "Ġä¸Ģç³»åĪĹ": 7210,
      "icles": 7211,
      "not": 7212,
      "Ġæ¡Īä»¶": 7213,
      "Ġcapt": 7214,
      "Ġæ°ĳåĽ½": 7215,
      "Ġrequired": 7216,
      "rated": 7217,
      "å£ģ": 7218,
      "Ġachie": 7219,
      "Ġmess": 7220,
      "ĠMer": 7221,
      "åŃĻ": 7222,
      "é»ĳ": 7223,
      "ĠåĲĦåľ°": 7224,
      "ĠÃ¨": 7225,
      "ption": 7226,
      "Ġrock": 7227,
      "ĠBest": 7228,
      "ĠGold": 7229,
      "çº·": 7230,
      "ĠCompany": 7231,
      "Ġrequest": 7232,
      "Ġreason": 7233,
      "ĠÐ±": 7234,
      "Ġé¸¡": 7235,
      "Ġpage": 7236,
      "Ġvot": 7237,
      "Ġå®ĩå®Ļ": 7238,
      "Ġæī¿è®¤": 7239,
      "Ġuser": 7240,
      "Ġè°·": 7241,
      "ĠåĪ¤æĸŃ": 7242,
      "ĠNews": 7243,
      "Ġèĭ¦": 7244,
      "Ġä½ľæĪĺ": 7245,
      "ĠMary": 7246,
      "iers": 7247,
      "Ġåĩºåı£": 7248,
      "Ġtravel": 7249,
      "Ġå·®å¼Ĥ": 7250,
      "head": 7251,
      "ĠåĽłèĢĮ": 7252,
      "ĠåŃ¦ç§ĳ": 7253,
      "Ġå¤§å°ı": 7254,
      "Ġå¹¶éĿŀ": 7255,
      "Ġé«ĺçŃī": 7256,
      "Ġwhether": 7257,
      "è¿ģ": 7258,
      "Ġpack": 7259,
      "ĠèĢĲ": 7260,
      "Ġä¿ĿçķĻ": 7261,
      "Ġrights": 7262,
      "Ġlink": 7263,
      "Ġcampaign": 7264,
      "ogle": 7265,
      "Ġå°ıç»Ħ": 7266,
      "Ġcheck": 7267,
      "Ġmove": 7268,
      "å¥¶": 7269,
      "Ġsure": 7270,
      "itz": 7271,
      "ĠRoyal": 7272,
      "unt": 7273,
      "Ġface": 7274,
      "Ġåī§æĥħ": 7275,
      "idents": 7276,
      "ables": 7277,
      "ĠæĽ´æĸ°": 7278,
      "pite": 7279,
      "ees": 7280,
      "ĠåĬŀçĲĨ": 7281,
      "Ġçºµ": 7282,
      "den": 7283,
      "Ġæĸ¹ä¾¿": 7284,
      "Ġå¤©æĸĩ": 7285,
      "Ġaward": 7286,
      "ĠæĺĨ": 7287,
      "duc": 7288,
      "ype": 7289,
      "Ġä¾ĿçĦ¶": 7290,
      "ç²ī": 7291,
      "æĩ": 7292,
      "ava": 7293,
      "Ġcountries": 7294,
      "Ġè§ĦåĪĻ": 7295,
      "ĠçĽĳçĿ£": 7296,
      "Ġworked": 7297,
      "iques": 7298,
      "ĠéĨ": 7299,
      "ĠæĢ»ç»ĵ": 7300,
      "ĠåĲķ": 7301,
      "Ġadded": 7302,
      "craft": 7303,
      "ĠæĸĹ": 7304,
      "Ġä½ľå®¶": 7305,
      "Ġquality": 7306,
      "²Į": 7307,
      "Ġstre": 7308,
      "èĮ¶": 7309,
      "Ġaccording": 7310,
      "Ġcourt": 7311,
      "Ġæ¶Īæģ¯": 7312,
      "æĬķ": 7313,
      "Ġrisk": 7314,
      "Ġcontract": 7315,
      "Ġreported": 7316,
      "ida": 7317,
      "ĠåĢį": 7318,
      "Ġä¸ĭåįĪ": 7319,
      "æĪĺäºī": 7320,
      "Ġregard": 7321,
      "Ġconcern": 7322,
      "Ġè®®ä¼ļ": 7323,
      "Ġrelig": 7324,
      "ĠGreen": 7325,
      "ĠArmy": 7326,
      "æµª": 7327,
      "ĠPost": 7328,
      "Ġä¸»ä½ĵ": 7329,
      "ĠTw": 7330,
      "ĠAlex": 7331,
      "çľł": 7332,
      "çĶµè§Ĩ": 7333,
      "ĠæĢ»éĿ¢ç§¯": 7334,
      "å¯¿": 7335,
      "Ġåĭĩ": 7336,
      "ĠLat": 7337,
      "Ġè¯ĳ": 7338,
      "Ġä¸Ńæĸĩ": 7339,
      "ĠWindows": 7340,
      "Ġå¹¿åľº": 7341,
      "ĠæŃ¦åĻ¨": 7342,
      "Ġéĥ¨éķ¿": 7343,
      "940": 7344,
      "ĠæĪ¿å±ĭ": 7345,
      "ĠèĽĭçĻ½": 7346,
      "ĠAssociation": 7347,
      "Ġçľģçº§": 7348,
      "ĠåŁºåľ°": 7349,
      "ĠåºĨ": 7350,
      "ging": 7351,
      "Ġå¥¥æŀĹ": 7352,
      "que": 7353,
      "ĠPress": 7354,
      "Ġè¿ĽæĶ»": 7355,
      "Ġliter": 7356,
      "Ġdocument": 7357,
      "Ġey": 7358,
      "Ġä¸ŃéĹ´": 7359,
      "Ġåľ°éĵģ": 7360,
      "Ġissues": 7361,
      "Ġobserv": 7362,
      "ĠWork": 7363,
      "Ġä¹ħ": 7364,
      "Ġçľĭçľĭ": 7365,
      "Ġchanges": 7366,
      "odes": 7367,
      "ittee": 7368,
      "Ġä¼´": 7369,
      "rug": 7370,
      "ki": 7371,
      "ĠCommun": 7372,
      "Ġä¸Ĭè¿°": 7373,
      "Ġæ°ĳéĹ´": 7374,
      "Ġtalk": 7375,
      "972": 7376,
      "joy": 7377,
      "åĺī": 7378,
      "Ġess": 7379,
      "éĵ¶è¡Į": 7380,
      "Ġè¢Ń": 7381,
      "Ġdesigned": 7382,
      "Ġä¸Ńéĥ¨": 7383,
      "æĢĢ": 7384,
      "åģľ": 7385,
      "Ġç²Ĺ": 7386,
      "Ġéķľ": 7387,
      "Ġæµª": 7388,
      "Ġboard": 7389,
      "ĠæĻļä¸Ĭ": 7390,
      "Ġå¦»åŃĲ": 7391,
      "ĠæĦıåĳ³": 7392,
      "Ġä¸įçĶ¨": 7393,
      "de": 7394,
      "ĠæĪĺå½¹": 7395,
      "ç¦ģ": 7396,
      "Ġèĩªè¡Į": 7397,
      "Ġéģµ": 7398,
      "Ġproducts": 7399,
      "Ġcontinued": 7400,
      "æī°": 7401,
      "é¤Ĳ": 7402,
      "Ġå¹¶äºİ": 7403,
      "ĠåĪ»": 7404,
      "èĿ": 7405,
      "ĠçŃ¹": 7406,
      "çĤ¼": 7407,
      "Ġç¿»è¯ĳ": 7408,
      "èĻİ": 7409,
      "Ġrail": 7410,
      "Ġç¾İåħĥ": 7411,
      "ufact": 7412,
      "èĭĹ": 7413,
      "Ġsource": 7414,
      "Ġè¯ī": 7415,
      "irm": 7416,
      "Ġå¹¼åĦ¿": 7417,
      "Ġå°±ä¸ļ": 7418,
      "ĠåĪĿæľŁ": 7419,
      "Ġè´´": 7420,
      "Ġä»»åĳ½": 7421,
      "Ġsex": 7422,
      "ĠOur": 7423,
      "æ²ĥ": 7424,
      "Ġè¯ģæį®": 7425,
      "976": 7426,
      "ĠæľīçĿĢ": 7427,
      "Ġassist": 7428,
      "èļ": 7429,
      "Ġpolicy": 7430,
      "Ġå¸ĮèħĬ": 7431,
      "Ġimm": 7432,
      "Ġdate": 7433,
      "Ġlargest": 7434,
      "Ġæ¸ħæľĿ": 7435,
      "ĠéĻ¶": 7436,
      "ĠCanadian": 7437,
      "åľ³": 7438,
      "ĠDistrict": 7439,
      "Ġquestion": 7440,
      "ĠDepartment": 7441,
      "rian": 7442,
      "ä¼Ļ": 7443,
      "Ġæīİ": 7444,
      "uff": 7445,
      "Ġè¯Ĭ": 7446,
      "ĠåĴ¨è¯¢": 7447,
      "975": 7448,
      "Ġmother": 7449,
      "Ġåī©": 7450,
      "Ġthroughout": 7451,
      "150": 7452,
      "ĠYear": 7453,
      "Ġæīĭæľ¯": 7454,
      "43": 7455,
      "ĠSing": 7456,
      "ension": 7457,
      "Ġvict": 7458,
      "Ġä¼¦æķ¦": 7459,
      "imately": 7460,
      "Ġæ¸©åº¦": 7461,
      "ĠEv": 7462,
      "Ġä¸´åºĬ": 7463,
      "Ġtable": 7464,
      "Ġfrequ": 7465,
      "Ġrate": 7466,
      "Ġçĥ§": 7467,
      "cript": 7468,
      "é½¿": 7469,
      "ĠTechn": 7470,
      "Ġåħ¬æ°ĳ": 7471,
      "è·ĥ": 7472,
      "Ġvisit": 7473,
      "ĠäºĳåįĹ": 7474,
      "ĠUs": 7475,
      "Ġmatch": 7476,
      "Ġé¼ĵåĬ±": 7477,
      "çĶŁæ´»": 7478,
      "Ġmechan": 7479,
      "çıł": 7480,
      "action": 7481,
      "Ġçº¿è·¯": 7482,
      "usion": 7483,
      "Ġç¬¬åħŃ": 7484,
      "çĤ®": 7485,
      "berg": 7486,
      "ĠSal": 7487,
      "ework": 7488,
      "Ġæīĭæ®µ": 7489,
      "ĠUp": 7490,
      "æ¦Ĥ": 7491,
      "å·ŀå¸Ĥ": 7492,
      "ibrary": 7493,
      "éĴĪ": 7494,
      "Ġadminist": 7495,
      "ç§ĳåŃ¦": 7496,
      "Ġå¾Īå¿«": 7497,
      "ĠInt": 7498,
      "Ġè´«": 7499,
      "Ġhours": 7500,
      "Ġè¡¥åħħ": 7501,
      "ĠDef": 7502,
      "atform": 7503,
      "iment": 7504,
      "æķ¢": 7505,
      "ED": 7506,
      "Ġè¾ŀ": 7507,
      "Ġterms": 7508,
      "Ġopportun": 7509,
      "ĠCharles": 7510,
      "æ±Ĺ": 7511,
      "ĠæĢİæł·": 7512,
      "ĠæĢģåº¦": 7513,
      "æĬĺ": 7514,
      "Ġç»ĵå©ļ": 7515,
      "inese": 7516,
      "Ġå¼ºçĥĪ": 7517,
      "Ġç»ıåħ¸": 7518,
      "Ġè¾Ĳ": 7519,
      "Ġèį·åħ°": 7520,
      "Ġdeliver": 7521,
      "ĠæĹ¥èĩ³": 7522,
      "ĠçĽ¸åºĶ": 7523,
      "ĠåĲĦä¸ª": 7524,
      "Ġcomplex": 7525,
      "Ġä¸Ĭå¸Ĥ": 7526,
      "ĠOver": 7527,
      "ports": 7528,
      "Ġdom": 7529,
      "Ġåĸ·": 7530,
      "oke": 7531,
      "Ġè¯Ħä¼°": 7532,
      "Ġhigher": 7533,
      "Ġä½ľåĩº": 7534,
      "Ġåıĳåĩº": 7535,
      "Ġç©ºæ°Ķ": 7536,
      "Ġå¾ĭå¸Ī": 7537,
      "Ġæ¹ĸåįĹ": 7538,
      "Ġåįłé¢Ĩ": 7539,
      "bert": 7540,
      "Ġmom": 7541,
      "Ġlooking": 7542,
      "ĠéĽĦ": 7543,
      "ĠæĦ¿æĦı": 7544,
      "airs": 7545,
      "Ġæ°§": 7546,
      "ĠDiv": 7547,
      "Ġå¿ł": 7548,
      "Ġä¸´æĹ¶": 7549,
      "Ġæī©å¤§": 7550,
      "ero": 7551,
      "ĠDirect": 7552,
      "ĠBra": 7553,
      "Ġapproach": 7554,
      "ç»§": 7555,
      "Ġç«¹": 7556,
      "Ġfight": 7557,
      "Ġdescribed": 7558,
      "Ġamount": 7559,
      "Ġç»´æĬ¤": 7560,
      "Ġç¡®è®¤": 7561,
      "å»¶": 7562,
      "Ġæ·±åħ¥": 7563,
      "ĠThomas": 7564,
      "Ġè¿ĻæĹ¶": 7565,
      "åĽ°": 7566,
      "Ġtechnology": 7567,
      "rast": 7568,
      "ĠéĤ£éĩĮ": 7569,
      "ĠAdd": 7570,
      "ounter": 7571,
      "Ġè¿ĶåĽŀ": 7572,
      "Ġç½®": 7573,
      "åĬłåĿ¡": 7574,
      "åĮ¹åħĭ": 7575,
      "çĥ§": 7576,
      "ĠLeg": 7577,
      "iance": 7578,
      "Ġquick": 7579,
      "åĤ¨": 7580,
      "Ġpark": 7581,
      "Ġä¸ĩäºº": 7582,
      "ĠRad": 7583,
      "Ġconsist": 7584,
      "ĠåŃ¤": 7585,
      "ĠæĽ´æĺ¯": 7586,
      "ĠçłĶç©¶æīĢ": 7587,
      "ĠCong": 7588,
      "Ġæ¸ħæ¥ļ": 7589,
      "selves": 7590,
      "hood": 7591,
      "ä¸Ńå¤®": 7592,
      "ĠçŁ¥åĲį": 7593,
      "ç»Ħç»ĩ": 7594,
      "ĠéĤĢè¯·": 7595,
      "Ġæľºåħ³": 7596,
      "Ġtaking": 7597,
      "Ġprint": 7598,
      "Ġvo": 7599,
      "ĠOut": 7600,
      "Ġmarried": 7601,
      "åľĨ": 7602,
      "board": 7603,
      "968": 7604,
      "Ġimpact": 7605,
      "ĠTom": 7606,
      "ĠæĢ»æĺ¯": 7607,
      "Ġåħĥå¹´": 7608,
      "Ġword": 7609,
      "ĠCy": 7610,
      "Ġå³": 7611,
      "Ġåıĸæ¶Ī": 7612,
      "ĠåıĪç§°": 7613,
      "åŃķ": 7614,
      "ĠåŁºåĽł": 7615,
      "iences": 7616,
      "ä½ľçĶ¨": 7617,
      "Ġregular": 7618,
      "æ¬§": 7619,
      "Ġåĵ²åŃ¦": 7620,
      "ĠMont": 7621,
      "»è¾ĳ": 7622,
      "ĠæĳĨ": 7623,
      "Ġä¸Ģä»½": 7624,
      "åįł": 7625,
      "ĠçĲĨæĥ³": 7626,
      "è¯ļ": 7627,
      "ĠåĽ½åĬ¡": 7628,
      "rown": 7629,
      "Ġæĸ°åĬłåĿ¡": 7630,
      "Ġç«ł": 7631,
      "Ġearl": 7632,
      "Ġissue": 7633,
      "è°±": 7634,
      "Ġè¯ķåĽ¾": 7635,
      "Ġactually": 7636,
      "ĠSince": 7637,
      "ĠMount": 7638,
      "Ġleading": 7639,
      "Ġç¨į": 7640,
      "Ġlower": 7641,
      "Ġè½¬ç§»": 7642,
      "Ġè¯Ĩ": 7643,
      "ĠéĢĤçĶ¨": 7644,
      "Ġsil": 7645,
      "ĠIr": 7646,
      "Ġnecess": 7647,
      "ĠåĬŀåħ¬å®¤": 7648,
      "Ġnovel": 7649,
      "ledge": 7650,
      "ĠæŃ£æĺ¯": 7651,
      "Ġconduct": 7652,
      "Ġç»Īäºİ": 7653,
      "ĠImp": 7654,
      "Ġé¢Ŀ": 7655,
      "Ġè®¢": 7656,
      "ession": 7657,
      "ube": 7658,
      "Ġç¼ĸè¾ĳ": 7659,
      "ĠJapanese": 7660,
      "ĠAngel": 7661,
      "Ġsus": 7662,
      "load": 7663,
      "Ġæĵ": 7664,
      "Ġå²©": 7665,
      "Ġspecies": 7666,
      "ĠéĤĵ": 7667,
      "ĠGermany": 7668,
      "ospital": 7669,
      "ĠPublic": 7670,
      "Ġæ³¨åĨĮ": 7671,
      "Ġæī¿æĭħ": 7672,
      "ĠåĨ³èµĽ": 7673,
      "ĠNor": 7674,
      "utive": 7675,
      "Ġä¾Ŀæį®": 7676,
      "æ§": 7677,
      "Ġprinc": 7678,
      "Ġæ³¢åħ°": 7679,
      "Ġåĳ¨åĽ´": 7680,
      "Ġnatural": 7681,
      "Ġappoint": 7682,
      "ĠæĿĥåĬĽ": 7683,
      "Ġitself": 7684,
      "ĠGrand": 7685,
      "æĻ¨": 7686,
      "Ġåį±éĻ©": 7687,
      "Ġdidn": 7688,
      "Ġdiffic": 7689,
      "ĠçĶº": 7690,
      "Ġmach": 7691,
      "Ġå°Ŀè¯ķ": 7692,
      "973": 7693,
      "ĠæĺŁæľŁ": 7694,
      "Ġprevent": 7695,
      "Ġproperty": 7696,
      "Ġpotential": 7697,
      "ext": 7698,
      "Ġshare": 7699,
      "ĠæķĻåłĤ": 7700,
      "Ġbring": 7701,
      "ĠStar": 7702,
      "ĠæįŁå¤±": 7703,
      "ĠAfrican": 7704,
      "ĠåĴĮå¹³": 7705,
      "Ġç¾¤ä¼Ĺ": 7706,
      "æ¸¡": 7707,
      "ĠæħĪ": 7708,
      "ĠéĽķ": 7709,
      "Ġè¾ĥå¤§": 7710,
      "In": 7711,
      "gin": 7712,
      "Ġopened": 7713,
      "Ġoutside": 7714,
      "Ġé¼»": 7715,
      "Ġthing": 7716,
      "off": 7717,
      "ĠBay": 7718,
      "Ġmind": 7719,
      "Ġorganiz": 7720,
      "lands": 7721,
      "Ġçªģçł´": 7722,
      "uth": 7723,
      "Ġè§£æĶ¾": 7724,
      "ĠçŃĶæ¡Ī": 7725,
      "Ġèıľ": 7726,
      "Ġvari": 7727,
      "Ġhot": 7728,
      "fl": 7729,
      "è½¯": 7730,
      "éĢĲ": 7731,
      "Ġé¢Ħéĺ²": 7732,
      "å¿ł": 7733,
      "Ġweb": 7734,
      "Ġèĳ£äºĭ": 7735,
      "Ġè¾ĸ": 7736,
      "Ġç¡ķ": 7737,
      "Ġloss": 7738,
      "aves": 7739,
      "Ġçļ®èĤ¤": 7740,
      "æ°¸": 7741,
      "Ġåıįæĺł": 7742,
      "Ġwife": 7743,
      "ĠRock": 7744,
      "Ġèĥ¸": 7745,
      "ä¸įæĺ¯": 7746,
      "ĠMad": 7747,
      "Ġç¼ĸçłģ": 7748,
      "amer": 7749,
      "èĦ±": 7750,
      "ĠåĪ°è¾¾": 7751,
      "Ġé©¾é©¶": 7752,
      "å·¥ç¨ĭ": 7753,
      "Ġdu": 7754,
      "Ġçī¹å®ļ": 7755,
      "974": 7756,
      "Ġèĩªæ²»": 7757,
      "çĨĻ": 7758,
      "æĮ¯": 7759,
      "ĠScott": 7760,
      "ĠEr": 7761,
      "æĤī": 7762,
      "ĠåŃŁ": 7763,
      "ĠMost": 7764,
      "Ġdifficult": 7765,
      "ĠDet": 7766,
      "Ġæłĩå¿Ĺ": 7767,
      "çħ": 7768,
      "Ġrace": 7769,
      "è½¨": 7770,
      "Ġè¯¾åłĤ": 7771,
      "Ġsaw": 7772,
      "Ġä¸ĢæĹ¦": 7773,
      "ĠæĶ¾åľ¨": 7774,
      "Ġyet": 7775,
      "Ġtold": 7776,
      "Ġæµ®": 7777,
      "èĭ¥": 7778,
      "67": 7779,
      "å®Į": 7780,
      "Ġä¾ĽåºĶ": 7781,
      "åĪĢ": 7782,
      "unk": 7783,
      "ĠDemocr": 7784,
      "Ġç¡®ä¿Ŀ": 7785,
      "ribution": 7786,
      "ĠåĮºåĪ«": 7787,
      "è¿·": 7788,
      "Ġæľªèĥ½": 7789,
      "ĠVir": 7790,
      "ĠConst": 7791,
      "ĠBus": 7792,
      "Ġå±ı": 7793,
      "Ġcases": 7794,
      "ĠåĪĨåŃĲ": 7795,
      "Ġè§¦": 7796,
      "è§Ħæ¨¡": 7797,
      "ĠChinese": 7798,
      "annel": 7799,
      "ĠWil": 7800,
      "ĠèĴĭ": 7801,
      "æķ¬": 7802,
      "Ġå°ĳæķ°": 7803,
      "Ġåľ°éĿ¢": 7804,
      "aughter": 7805,
      "Ġinstead": 7806,
      "æīİ": 7807,
      "ĠBill": 7808,
      "Ġacqu": 7809,
      "å¤§åĪ©äºļ": 7810,
      "å§Ķä¼ļ": 7811,
      "ĠMiss": 7812,
      "ĠSub": 7813,
      "Ġå¥¥æŀĹåĮ¹åħĭ": 7814,
      "Ġå¤ĸåĽ½": 7815,
      "05": 7816,
      "Ġéĩįè§Ĩ": 7817,
      "ĠAlthough": 7818,
      "Ġæ¶Īè´¹èĢħ": 7819,
      "ĠâĨĴ": 7820,
      "Ġè¿½æ±Ĥ": 7821,
      "Ġschools": 7822,
      "Ġstri": 7823,
      "ĠéķĩåĮº": 7824,
      "Ġprofessional": 7825,
      "æľºæŀĦ": 7826,
      "Ġèŀ": 7827,
      "ĠçķĻä¸ĭ": 7828,
      "Ġæ·±åľ³": 7829,
      "Ġcommer": 7830,
      "ĠçĬ¯ç½ª": 7831,
      "Ġå¯Ħ": 7832,
      "Ġbooks": 7833,
      "Ġtell": 7834,
      "ĠClass": 7835,
      "Ġheart": 7836,
      "Ġä½ľä¸ļ": 7837,
      "ç¥¥": 7838,
      "uments": 7839,
      "Ġæ½®": 7840,
      "igation": 7841,
      "ç¬¦": 7842,
      "ĠçĽĺ": 7843,
      "éĿ©åĳ½": 7844,
      "Ġclear": 7845,
      "Ġmale": 7846,
      "Ġéľĩ": 7847,
      "Ġpain": 7848,
      "ä»£è¡¨": 7849,
      "Ġè¶³å¤Ł": 7850,
      "èĥģ": 7851,
      "åıĤ": 7852,
      "Ġå°ıè¡ĮæĺŁ": 7853,
      "ought": 7854,
      "ĠæĤ²": 7855,
      "men": 7856,
      "Ġä¸Ģå¸¦": 7857,
      "ĠæĻºæħ§": 7858,
      "å®ĩ": 7859,
      "ml": 7860,
      "Ġçīµ": 7861,
      "ĠRail": 7862,
      "Ġé»ĺ": 7863,
      "Ġå¼ķå¯¼": 7864,
      "pper": 7865,
      "æ¶¨": 7866,
      "Ġæľ¬äºº": 7867,
      "Ġä»¤äºº": 7868,
      "Ġåĩºä»»": 7869,
      "Ġtarget": 7870,
      "Ġdecl": 7871,
      "ĠPri": 7872,
      "Ġpurp": 7873,
      "anning": 7874,
      "BS": 7875,
      "Ġè¿ĽæŃ¥": 7876,
      "cing": 7877,
      "Ġarchitect": 7878,
      "istry": 7879,
      "Ġplaying": 7880,
      "ä¹ĺ": 7881,
      "Ġbenef": 7882,
      "Ġå½©": 7883,
      "ĠFrank": 7884,
      "977": 7885,
      "Ġéĺ²æŃ¢": 7886,
      "vert": 7887,
      "åĩı": 7888,
      "Ġbehind": 7889,
      "Ġç»ĥä¹ł": 7890,
      "olf": 7891,
      "éĤ£": 7892,
      "ä¹¦è®°": 7893,
      "Ġpurch": 7894,
      "ä»°": 7895,
      "Ġä¼¼ä¹İ": 7896,
      "æ¦ľ": 7897,
      "unn": 7898,
      "ĠTer": 7899,
      "åĩĢ": 7900,
      "acing": 7901,
      "Ġçĺ": 7902,
      "ĠéĢ»è¾ĳ": 7903,
      "Ġdepart": 7904,
      "Ġä»¥ä¸º": 7905,
      "Ġä½ĽæķĻ": 7906,
      "Ġä¾ĭåŃĲ": 7907,
      "ä¸ĸçºª": 7908,
      "ĠçĽ¸ä¼¼": 7909,
      "ka": 7910,
      "Ġä¸¤å¹´": 7911,
      "Ġconnect": 7912,
      "ªçİ¯": 7913,
      "Ġçģ¯": 7914,
      "ä¼¸": 7915,
      "ĠæĲ¬": 7916,
      "Ġwriting": 7917,
      "Ġè¾ĵåħ¥": 7918,
      "ĠäºĶå¹´": 7919,
      "Ġçĸı": 7920,
      "alls": 7921,
      "Ġvillage": 7922,
      "erous": 7923,
      "ĠæĢ§è´¨": 7924,
      "Ġå®ľ": 7925,
      "ament": 7926,
      "ĠNow": 7927,
      "Ġé»Ħéĩĳ": 7928,
      "Ġå¾¡": 7929,
      "rey": 7930,
      "II": 7931,
      "Ġbrother": 7932,
      "ĠRichard": 7933,
      "Ġéħ¸": 7934,
      "ĠçĮª": 7935,
      "Ġå±±è¥¿": 7936,
      "ĠEduc": 7937,
      "åĢį": 7938,
      "Ġinsp": 7939,
      "Ġç«¥": 7940,
      "Ġè´¡çĮ®": 7941,
      "ĠçłĶåıĳ": 7942,
      "Ġåĩºèº«": 7943,
      "ĠèĿ": 7944,
      "èħĶ": 7945,
      "ä¼Ł": 7946,
      "ĠåĮĪ": 7947,
      "Ġç¬ĳ": 7948,
      "Ġ×": 7949,
      "ĠOf": 7950,
      "ĠéĢĤåºĶ": 7951,
      "Ġmultiple": 7952,
      "ulated": 7953,
      "Ġä»ĸäºº": 7954,
      "å¤º": 7955,
      "ĠOb": 7956,
      "åıĮ": 7957,
      "Ġcomes": 7958,
      "ĠæĹłçº¿": 7959,
      "ĠåıĤèµĽ": 7960,
      "Ġwest": 7961,
      "aches": 7962,
      "Ġçħ§çīĩ": 7963,
      "Ġé¥®é£Ł": 7964,
      "ĠæĹ¥èµ·": 7965,
      "Ġå¯»æī¾": 7966,
      "æ¢¦": 7967,
      "Ġactivities": 7968,
      "ĠPeter": 7969,
      "Ġåħ·å¤ĩ": 7970,
      "ĠéĿ¢ä¸´": 7971,
      "Ġèĥĥ": 7972,
      "ĠÑĩ": 7973,
      "Ġæ¹¿": 7974,
      "ĠCath": 7975,
      "Ġenjoy": 7976,
      "Ġneeds": 7977,
      "ĠFore": 7978,
      "Ġè®¿éĹ®": 7979,
      "ĠåĳĪçİ°": 7980,
      "Ġèº«ä¸Ĭ": 7981,
      "971": 7982,
      "ĠAre": 7983,
      "Ġcast": 7984,
      "Ġprior": 7985,
      "ocal": 7986,
      "ĠåĽĽå¹´": 7987,
      "Ġä¿®æĶ¹": 7988,
      "Ġoccur": 7989,
      "ç¢ĳ": 7990,
      "Ġlength": 7991,
      "Ġç¦ģæŃ¢": 7992,
      "Ġå»ºæĪĲ": 7993,
      "ĠèĤ¡ç¥¨": 7994,
      "ĠHam": 7995,
      "Ġè¦ĨçĽĸ": 7996,
      "Ġemer": 7997,
      "ĠåĪĽå»º": 7998,
      "roy": 7999,
      "Ġå¸Ń": 8000,
      "ĠTex": 8001,
      "ramework": 8002,
      "ä¾µ": 8003,
      "ĠéĻ·": 8004,
      "Ġæī¶": 8005,
      "Ġæ°´åŁŁ": 8006,
      "oved": 8007,
      "sych": 8008,
      "Ġprovides": 8009,
      "ĠCup": 8010,
      "Ġéī´": 8011,
      "Ġwhole": 8012,
      "Ġsens": 8013,
      "Ġå¡ĳ": 8014,
      "969": 8015,
      "ĠåŁİåĮº": 8016,
      "è²Į": 8017,
      "Ġæ°ĶåĢĻ": 8018,
      "Ġè¯»ä¹¦": 8019,
      "Ġæ°ĳä¼Ĺ": 8020,
      "ĠèĳĹä½ľ": 8021,
      "ĠåĩĢ": 8022,
      "ET": 8023,
      "ç®Ń": 8024,
      "ĠåĨ¯": 8025,
      "Ġè¿Ī": 8026,
      "Ġcontinu": 8027,
      "ios": 8028,
      "ĠHealth": 8029,
      "etic": 8030,
      "Ġçªģåĩº": 8031,
      "Ġéĩĳå±ŀ": 8032,
      "ĠAcadem": 8033,
      "Ġæłĸæģ¯": 8034,
      "ĠçĶµè§Ĩåī§": 8035,
      "Ġå·´é»İ": 8036,
      "Ġæ¡£": 8037,
      "Ġç¤¾ä¼ļä¸»ä¹ī": 8038,
      "åĢĴ": 8039,
      "æĵ": 8040,
      "ĠçĶµè§Ĩåı°": 8041,
      "å¦»": 8042,
      "ĠéĤ®æĶ¿": 8043,
      "éĻ·": 8044,
      "ĠæĶ¹éĢł": 8045,
      "lying": 8046,
      "Ġæĭĵ": 8047,
      "ĠåĹ": 8048,
      "ĠæĹĭ": 8049,
      "ellow": 8050,
      "ĠLouis": 8051,
      "Ġæ¾³å¤§åĪ©äºļ": 8052,
      "Ġstage": 8053,
      "ĠRob": 8054,
      "ĠLet": 8055,
      "ĠäºĮå¹´": 8056,
      "Ġä¸Ĭåįĩ": 8057,
      "Ġupd": 8058,
      "used": 8059,
      "Ġgave": 8060,
      "Ġè´·æ¬¾": 8061,
      "ellig": 8062,
      "è´´": 8063,
      "anced": 8064,
      "ĠçİĭæľĿ": 8065,
      "Ġmount": 8066,
      "ĠAustralian": 8067,
      "Ġå®ĮåĸĦ": 8068,
      "ĠéĢļçŁ¥": 8069,
      "Ġcomplete": 8070,
      "ĠDis": 8071,
      "mit": 8072,
      "unicip": 8073,
      "Ġreturned": 8074,
      "gen": 8075,
      "æĻĵ": 8076,
      "ĠèĤ¾": 8077,
      "Ġå¤ıä»¤": 8078,
      "ĠåħĭéĩĮ": 8079,
      "light": 8080,
      "Ġä¸»å¼ł": 8081,
      "ĠBen": 8082,
      "èĤ¥": 8083,
      "Ġè®¤çľŁ": 8084,
      "łéģĵ": 8085,
      "Ġèµļ": 8086,
      "ĠFranc": 8087,
      "ĠåĪºæ¿Ģ": 8088,
      "07": 8089,
      "rought": 8090,
      "Ġcontact": 8091,
      "Ġä¸Ģé¢Ĺ": 8092,
      "Ġdoing": 8093,
      "ä¸¥": 8094,
      "ĠåĲİæľŁ": 8095,
      "åĨ·": 8096,
      "Ġappeared": 8097,
      "Ġæľ¬ç§ĳ": 8098,
      "ĠåĨĻä½ľ": 8099,
      "ĠCr": 8100,
      "Ġforce": 8101,
      "Ġæĸ°å¢ŀ": 8102,
      "å¼Ĺ": 8103,
      "Ġæ²ŁéĢļ": 8104,
      "order": 8105,
      "Ġinvolved": 8106,
      "Ġåı¸æ³ķ": 8107,
      "Ġè¿Ľå£«": 8108,
      "ĠProf": 8109,
      "Ġçİ»": 8110,
      "å¥Ī": 8111,
      "958": 8112,
      "è±Ĩ": 8113,
      "æģ¶": 8114,
      "964": 8115,
      "ĠæŁı": 8116,
      "Ġdirector": 8117,
      "58": 8118,
      "ç»Ĩèĥŀ": 8119,
      "Ġå¯Ĵ": 8120,
      "Ġæ··åĲĪ": 8121,
      "å®ĭ": 8122,
      "Ġæİ¢ç´¢": 8123,
      "ĠCur": 8124,
      "Ġä¼°è®¡": 8125,
      "ĠåľĪ": 8126,
      "ç§ĺ": 8127,
      "ressed": 8128,
      "Ġidea": 8129,
      "Ġwhose": 8130,
      "Ġä¹¦è®°": 8131,
      "Ġparticularly": 8132,
      "ĠSat": 8133,
      "........": 8134,
      "Ġæĸ½å·¥": 8135,
      "ĠVict": 8136,
      "ĠManag": 8137,
      "Ġveh": 8138,
      "Ġèº": 8139,
      "Ġåİļ": 8140,
      "Ġæ¶²": 8141,
      "ĠåĪĽä¸ļ": 8142,
      "Ġå¯¹åºĶ": 8143,
      "arily": 8144,
      "col": 8145,
      "èİ«": 8146,
      "Ġsoon": 8147,
      "Ġtraditional": 8148,
      "ĠçĬ¹å¤ª": 8149,
      "atal": 8150,
      "Ġåĳ¨è¾¹": 8151,
      "Ġçģ°": 8152,
      "Ġä»¥å¤ĸ": 8153,
      "Ġé©¬åħĭ": 8154,
      "ĠèĲ§": 8155,
      "967": 8156,
      "Ġculture": 8157,
      "æ¯Ķäºļ": 8158,
      "æµ¦": 8159,
      "ĠåĽ½ä¼ļ": 8160,
      "å¤§æĪĺ": 8161,
      "ĠBo": 8162,
      "Ġä¹¡éķĩ": 8163,
      "çĸ¾": 8164,
      "ç«¹": 8165,
      "ĠèĦ¸": 8166,
      "ĠBec": 8167,
      "Ġevidence": 8168,
      "è´¤": 8169,
      "Ġsubst": 8170,
      "burg": 8171,
      "Ġç¯®": 8172,
      "ĠæĬ±": 8173,
      "ĠéĻĨåĨĽ": 8174,
      "ĠæĤ¬": 8175,
      "Ġåħįè´¹": 8176,
      "å°¿": 8177,
      "vin": 8178,
      "Ġcand": 8179,
      "ĠMo": 8180,
      "ĠæĿ¯": 8181,
      "Ġmanufact": 8182,
      "éģ¿": 8183,
      "Ġincrease": 8184,
      "Ġæ·ĺ": 8185,
      "izing": 8186,
      "çº¹": 8187,
      "Ġeast": 8188,
      "ĠæĽ°": 8189,
      "ĠAnn": 8190,
      "ĠåĴĸ": 8191,
      "966": 8192,
      "åĸľ": 8193,
      "Ġé¦ĸéĥ½": 8194,
      "Ġèĭ±éĽĦ": 8195,
      "Ġäº®": 8196,
      "Ġparts": 8197,
      "Ġstaff": 8198,
      "ado": 8199,
      "Ġèļ": 8200,
      "æ»ĳ": 8201,
      "ĠWestern": 8202,
      "band": 8203,
      "Ġä¸Ģåı¥": 8204,
      "Ġä¸Ģèĩ´": 8205,
      "rael": 8206,
      "Ġæ·±åº¦": 8207,
      "ĠCamp": 8208,
      "ĠSmith": 8209,
      "Ġåįģä¸Ģ": 8210,
      "Ġæĭ¼": 8211,
      "Ġwords": 8212,
      "ĠçĲĨå¿µ": 8213,
      "Ġçºł": 8214,
      "Ġmovement": 8215,
      "ĠéĶ¦æłĩèµĽ": 8216,
      "Ġlikely": 8217,
      "Ġfollowed": 8218,
      "ĠæŁ¯": 8219,
      "èģļ": 8220,
      "948": 8221,
      "ĠSociety": 8222,
      "yt": 8223,
      "Ġblock": 8224,
      "Ġåı¬å¼Ģ": 8225,
      "Ġinj": 8226,
      "Ġhit": 8227,
      "ĠPet": 8228,
      "ĠçĶŁåŃĺ": 8229,
      "ĠæŃĮæīĭ": 8230,
      "ĠéĴŁ": 8231,
      "ĠæĶ¹ç¼ĸ": 8232,
      "éļĶ": 8233,
      "ĠèĥľåĪ©": 8234,
      "Ġçº²": 8235,
      "Ġå¼ºå¤§": 8236,
      "ĠSpec": 8237,
      "use": 8238,
      "ĠIS": 8239,
      "Ġparam": 8240,
      "æŀļ": 8241,
      "Ġtry": 8242,
      "Ġplatform": 8243,
      "ĠæľĽ": 8244,
      "rial": 8245,
      "ĠLife": 8246,
      "oms": 8247,
      "asons": 8248,
      "ĠCentral": 8249,
      "Ġç§»æ°ĳ": 8250,
      "ĠMex": 8251,
      "Ġåľ°çĤ¹": 8252,
      "Ġapplication": 8253,
      "Ġè±ª": 8254,
      "ĠKingdom": 8255,
      "Ġhor": 8256,
      "Ġarticle": 8257,
      "Ġé©¬æĿ¥è¥¿äºļ": 8258,
      "Ġsometimes": 8259,
      "Ġå·Ŀ": 8260,
      "ym": 8261,
      "965": 8262,
      "Ġcele": 8263,
      "Ġimage": 8264,
      "itation": 8265,
      "ĠJose": 8266,
      "èµŀ": 8267,
      "Ġå¾Ĺä»¥": 8268,
      "æģĭ": 8269,
      "Ġå¢Ļ": 8270,
      "Ġcapital": 8271,
      "Ġjud": 8272,
      "Ġåĥ": 8273,
      "Ġcivil": 8274,
      "ĠTor": 8275,
      "ĠæľīåĪ©": 8276,
      "946": 8277,
      "çĴĥ": 8278,
      "ĠClub": 8279,
      "Ġlegal": 8280,
      "ĠéĿŀæ´²": 8281,
      "ĠçŃĸçķ¥": 8282,
      "Ġå¹³è¡¡": 8283,
      "Ġæ£®æŀĹ": 8284,
      "ĠçĻ»è®°": 8285,
      "Ġà¤": 8286,
      "Ġéĩįå»º": 8287,
      "ĠProg": 8288,
      "inary": 8289,
      "ĦĴ": 8290,
      "ĠéĢīæīĭ": 8291,
      "çĿĽ": 8292,
      "Ġeight": 8293,
      "Ġbound": 8294,
      "Ġæ¬²": 8295,
      "ĠBre": 8296,
      "ĠTur": 8297,
      "è¹": 8298,
      "arliam": 8299,
      "èĦĤ": 8300,
      "Ġç»¿èī²": 8301,
      "Ġæ¦ľ": 8302,
      "Ġå·´è¥¿": 8303,
      "ixed": 8304,
      "Ġæİ¨å¹¿": 8305,
      "Ġä»Ķ": 8306,
      "Ġbox": 8307,
      "ota": 8308,
      "Ġé¦Ĩ": 8309,
      "åĭ¤": 8310,
      "Ġç§ĺä¹¦": 8311,
      "Ġoperations": 8312,
      "ĠInstitute": 8313,
      "Ġå°±è¦ģ": 8314,
      "Ġåĳ½ä»¤": 8315,
      "ĠAC": 8316,
      "ĠåĩĨç¡®": 8317,
      "Ġcentral": 8318,
      "Ġdefe": 8319,
      "æĤ£": 8320,
      "Ġåĩ¡": 8321,
      "hens": 8322,
      "åķ¡": 8323,
      "ĠåľºæĻ¯": 8324,
      "Ġåįĩçº§": 8325,
      "yr": 8326,
      "Ġæ®ĸ": 8327,
      "ya": 8328,
      "èĳ¬": 8329,
      "Ġadditional": 8330,
      "Ġrunning": 8331,
      "æĺĤ": 8332,
      "Ġå§ĵ": 8333,
      "Ġradio": 8334,
      "ĠéĩįåºĨ": 8335,
      "Ġé¥°æ¼Ķ": 8336,
      "åĳ¼": 8337,
      "Ġæµ·æ´ĭ": 8338,
      "Ġè´¦": 8339,
      "åħ±äº§åħļ": 8340,
      "ety": 8341,
      "imum": 8342,
      "åŃĶ": 8343,
      "Ġsuff": 8344,
      "ĠST": 8345,
      "lam": 8346,
      "ĠLake": 8347,
      "Ġmax": 8348,
      "Ġä¼Ł": 8349,
      "Ġè¡°": 8350,
      "åīĳ": 8351,
      "ĠKe": 8352,
      "Ġä¼Ĺå¤ļ": 8353,
      "ĠçªĹ": 8354,
      "Ġpolice": 8355,
      "ĠKh": 8356,
      "Ġåľ°éľĩ": 8357,
      "èĥİ": 8358,
      "Ġè¾ĥä¸º": 8359,
      "Ġrecent": 8360,
      "ĠæĶ¶çĽĬ": 8361,
      "ĠBig": 8362,
      "Ġåħħæ»¡": 8363,
      "Ġrecorded": 8364,
      "ĠåĲįåįķ": 8365,
      "Ġæ°¸è¿ľ": 8366,
      "ĠStr": 8367,
      "Ġæĸĩçī©ä¿ĿæĬ¤": 8368,
      "ç´§": 8369,
      "ĠCS": 8370,
      "Ġinstall": 8371,
      "956": 8372,
      "ĠèĤ¿": 8373,
      "éĶ¡": 8374,
      "Ġdistrict": 8375,
      "Ġåħ´å»º": 8376,
      "ç¼º": 8377,
      "Ġchurch": 8378,
      "Ġäººåı£æķ°": 8379,
      "Ġä¿ĿåŃĺ": 8380,
      "Ġå¤§ä¼ļ": 8381,
      "Ġspeed": 8382,
      "arliament": 8383,
      "Ġstay": 8384,
      "Ġfinancial": 8385,
      "Ġåįģå¹´": 8386,
      "ĠBur": 8387,
      "oses": 8388,
      "ĠçĶ±æŃ¤": 8389,
      "ĠæľīçĤ¹": 8390,
      "ĠHill": 8391,
      "ĠæĿŃ": 8392,
      "èµĦæºĲ": 8393,
      "åįģå¹´": 8394,
      "æ¢¯": 8395,
      "aged": 8396,
      "ĠæķĪçİĩ": 8397,
      "Ġçłģ": 8398,
      "Ġcommand": 8399,
      "Ġæ·»": 8400,
      "Ġåįıè°ĥ": 8401,
      "Ġå¤ļæķ°": 8402,
      "Ġæµ·å¤ĸ": 8403,
      "Ġæĺ¯ä¸įæĺ¯": 8404,
      "Ġdecision": 8405,
      "Ġå°ļæľª": 8406,
      "ç¨¿": 8407,
      "ĠZe": 8408,
      "èĬ¬": 8409,
      "çŁ¿": 8410,
      "ĠæĳĦå½±": 8411,
      "ĠèĢĥçĶŁ": 8412,
      "ĠIsrael": 8413,
      "----------------": 8414,
      "Ġå¦Ĥä»Ĭ": 8415,
      "ĠæŁ´": 8416,
      "arter": 8417,
      "Ġreading": 8418,
      "ĠæĹ¶åĮº": 8419,
      "Ġç¡ķå£«": 8420,
      "ĠéģĹåĿĢ": 8421,
      "Ġæ²³åĮĹ": 8422,
      "åŃ¦ä½į": 8423,
      "Ġä¸įç®¡": 8424,
      "Ġconstruction": 8425,
      "ĠèµĶ": 8426,
      "mar": 8427,
      "ĠæĽ¾ä»»": 8428,
      "ĠæĺİçĻ½": 8429,
      "Ġsem": 8430,
      "Ġé»İ": 8431,
      "Ġä¸įéĶĻ": 8432,
      "Ġè®ºæĸĩ": 8433,
      "Ġè¿«": 8434,
      "ĠéĻķè¥¿": 8435,
      "æĿĨ": 8436,
      "ĠProt": 8437,
      "ita": 8438,
      "Ġåĩ¤": 8439,
      "Ġèµ´": 8440,
      "Ġåħ¬å°º": 8441,
      "ĠåĲİèĢħ": 8442,
      "Ġæ®ĸæ°ĳ": 8443,
      "Ġå¤©ä¸»æķĻ": 8444,
      "Ġå½Ń": 8445,
      "æį·": 8446,
      "ĠåĨ²çªģ": 8447,
      "ĠçĽĳç®¡": 8448,
      "Ġè´¾": 8449,
      "Ġpromot": 8450,
      "Ġè¿ĳå¹´": 8451,
      "Ġformed": 8452,
      "Ġeconomic": 8453,
      "Ġæĳĩ": 8454,
      "ĽçĽ¾": 8455,
      "ĠMany": 8456,
      "ĠæķĻä¼ļ": 8457,
      "cal": 8458,
      "ĠåĲ¸æĶ¶": 8459,
      "Ġseem": 8460,
      "Ġçĸĳ": 8461,
      "åĢº": 8462,
      "é¡µ": 8463,
      "Ġè¶ĭåĬ¿": 8464,
      "Ġçħ¤": 8465,
      "Ġreve": 8466,
      "Ġä¼Ĭæĸ¯": 8467,
      "Ġå£«åħµ": 8468,
      "æ³³": 8469,
      "ĠèģĶåĲĪåĽ½": 8470,
      "Ġæ±Łè¥¿": 8471,
      "Ġæ±¡æŁĵ": 8472,
      "941": 8473,
      "azine": 8474,
      "ĠåĪĨéħį": 8475,
      "ĠÑĭ": 8476,
      "Ġolder": 8477,
      "uit": 8478,
      "ĠçĻĮ": 8479,
      "Ġæ¤": 8480,
      "ply": 8481,
      "ĠAfrica": 8482,
      "ĠåĲ«æľī": 8483,
      "ĠMuseum": 8484,
      "ĠSum": 8485,
      "ĠåĪ°åºķ": 8486,
      "Ġé¡µ": 8487,
      "Ġç¼ĸåı·": 8488,
      "isions": 8489,
      "Ġå¨ģèĥģ": 8490,
      "ares": 8491,
      "944": 8492,
      "è£Ķ": 8493,
      "èĤĥ": 8494,
      "ĠæĪĪ": 8495,
      "ranch": 8496,
      "ĠèĦĤ": 8497,
      "ĠUnder": 8498,
      "Ġlonger": 8499,
      "Ġassociated": 8500,
      "Ġconditions": 8501,
      "å¹»": 8502,
      "Ġwalk": 8503,
      "Ġscreen": 8504,
      "ĠService": 8505,
      "Ġinn": 8506,
      "Ġä¸§": 8507,
      "ĠSur": 8508,
      "åľ¾": 8509,
      "Ġtechniques": 8510,
      "da": 8511,
      "ada": 8512,
      "è¾ī": 8513,
      "Ġminutes": 8514,
      "æ»¨": 8515,
      "ĠæĢ§èĥ½": 8516,
      "ĥåľ¾": 8517,
      "ĠæıŃ": 8518,
      "Ġåħįçĸ«": 8519,
      "ĠRussian": 8520,
      "Ġap": 8521,
      "ĠæĥħæĦŁ": 8522,
      "ĠRev": 8523,
      "ĠRel": 8524,
      "ĠTexas": 8525,
      "oring": 8526,
      "Ġsomeone": 8527,
      "ĠåĽ¾ä¹¦é¦Ĩ": 8528,
      "Ġë": 8529,
      "èĢĹ": 8530,
      "Ġä¹ĭä¸ĭ": 8531,
      "estival": 8532,
      "ĠéĢ¼": 8533,
      "Ġè¯¦ç»Ĩ": 8534,
      "Ġcurrently": 8535,
      "pped": 8536,
      "éŃĤ": 8537,
      "ĠFe": 8538,
      "Ġdefin": 8539,
      "Ġå·¥äºº": 8540,
      "ĠâĶ": 8541,
      "anish": 8542,
      "mark": 8543,
      "Ġcharacters": 8544,
      "92": 8545,
      "iday": 8546,
      "Ġè¾¾æĪĲ": 8547,
      "å¯¸": 8548,
      "åĨĪ": 8549,
      "ĠTwo": 8550,
      "Ġæīĵå¼Ģ": 8551,
      "Ġé¡»": 8552,
      "Ġpractice": 8553,
      "ening": 8554,
      "Ġconsum": 8555,
      "ĠæĪĲçĨŁ": 8556,
      "ĠæĪĲå°±": 8557,
      "èµ·æĿ¥": 8558,
      "ĠæĹ¥åĨĽ": 8559,
      "ĠTH": 8560,
      "Ġå¥¶": 8561,
      "éļ¶": 8562,
      "Ġå½»": 8563,
      "Ġæĥ³æ³ķ": 8564,
      "hing": 8565,
      "Ġç¾İæľ¯": 8566,
      "Ġå¤©ä¸ĭ": 8567,
      "700": 8568,
      "åĢŁ": 8569,
      "Ġåĩ½æķ°": 8570,
      "è®¼": 8571,
      "ĠæĹłäºº": 8572,
      "Ġball": 8573,
      "çİ©": 8574,
      "ternet": 8575,
      "ivity": 8576,
      "Ġang": 8577,
      "Ġforces": 8578,
      "920": 8579,
      "Ġdraw": 8580,
      "ĠæĮº": 8581,
      "68": 8582,
      "æļĸ": 8583,
      "uge": 8584,
      "Ġç¢³": 8585,
      "èİİ": 8586,
      "åĪº": 8587,
      "ĠDec": 8588,
      "Ġscience": 8589,
      "ĠåĮĹç¾İ": 8590,
      "ĠSol": 8591,
      "Ġä»Ļ": 8592,
      "ĠUTC": 8593,
      "astic": 8594,
      "Ġè¢ģ": 8595,
      "Ġç¬¬ä¸ĥ": 8596,
      "Ġæģ°": 8597,
      "Ġç»Ń": 8598,
      "Ġèĩ³äºİ": 8599,
      "Ġéģĵå¾·": 8600,
      "Ġçĭ¬çī¹": 8601,
      "Ġåŀĥåľ¾": 8602,
      "Ġcontinue": 8603,
      "ĠçĽ´èĩ³": 8604,
      "ĠéĤ£æł·": 8605,
      "ĠâĪ": 8606,
      "51": 8607,
      "Ġå¼±": 8608,
      "edy": 8609,
      "hest": 8610,
      "Ġteams": 8611,
      "obile": 8612,
      "ss": 8613,
      "Ġcollection": 8614,
      "ste": 8615,
      "ĠæĮĩå®ļ": 8616,
      "Ġcannot": 8617,
      "Ġç§Ĵ": 8618,
      "Ġä¸Ģå¼ł": 8619,
      "éĢĴ": 8620,
      "Ġçķ¥": 8621,
      "Ġå¹´åºķ": 8622,
      "ä¼ĺ": 8623,
      "Ġbad": 8624,
      "ĠéĻª": 8625,
      "Ġä¸»ä¹ī": 8626,
      "Ġåħ¸åŀĭ": 8627,
      "Ġplant": 8628,
      "ĠæĬĢèĥ½": 8629,
      "ĠåĲĦç±»": 8630,
      "Ġsearch": 8631,
      "Ġsch": 8632,
      "åĲĪçī©": 8633,
      "Ġneeded": 8634,
      "Ġæ¡ĥ": 8635,
      "è¾Ī": 8636,
      "ĠéĺŁä¼į": 8637,
      "Ġansw": 8638,
      "Ġfemale": 8639,
      "Ġæįķ": 8640,
      "ĠKn": 8641,
      "rie": 8642,
      "Ġwide": 8643,
      "ĠæĬķç¥¨": 8644,
      "aught": 8645,
      "Ġunits": 8646,
      "ĠåĶ±çīĩ": 8647,
      "itting": 8648,
      "lymp": 8649,
      "ĠèĤ¥": 8650,
      "947": 8651,
      "ano": 8652,
      "Ġnames": 8653,
      "Ġæīĵåĩ»": 8654,
      "éĵ¾": 8655,
      "Ġpaper": 8656,
      "Ġä¸Ŀ": 8657,
      "Ġlocation": 8658,
      "zz": 8659,
      "osing": 8660,
      "Ġlearning": 8661,
      "Ġthemselves": 8662,
      "çĵľ": 8663,
      "Ġåĳ¨æľŁ": 8664,
      "het": 8665,
      "æ³Ĭ": 8666,
      "939": 8667,
      "ĠåĶ®": 8668,
      "Ġåį³åı¯": 8669,
      "ĠSaint": 8670,
      "Ġæ¯ıæ¬¡": 8671,
      "Ġç½ĳä¸Ĭ": 8672,
      "Ġstructure": 8673,
      "Ġgirl": 8674,
      "Ġdise": 8675,
      "Ġä¸»æķĻ": 8676,
      "Ġprotect": 8677,
      "Ġstring": 8678,
      "962": 8679,
      "ĠæŃ¦æ±ī": 8680,
      "ĠRo": 8681,
      "ĠYour": 8682,
      "ĠçĶµåĬĽ": 8683,
      "Ġç£ģ": 8684,
      "rem": 8685,
      "Ġwanted": 8686,
      "Ġasked": 8687,
      "å§»": 8688,
      "ĠHenry": 8689,
      "å¡ĺ": 8690,
      "ĠéģĤ": 8691,
      "atively": 8692,
      "ĠGoogle": 8693,
      "Ġå¹¶æľª": 8694,
      "Ġelected": 8695,
      "Ġå¯¹æŃ¤": 8696,
      "Ġtakes": 8697,
      "ĠAtt": 8698,
      "Ġæ´ŀ": 8699,
      "è¿ĲåĬ¨ä¼ļ": 8700,
      "Ġgetting": 8701,
      "Ġbank": 8702,
      "ils": 8703,
      "Ġå®ªæ³ķ": 8704,
      "Ġå½ĵåīį": 8705,
      "ĠåĿĳ": 8706,
      "Ġæł¡åĽŃ": 8707,
      "Ġbrought": 8708,
      "ĠOh": 8709,
      "abilities": 8710,
      "Ġproblems": 8711,
      "ç²¹": 8712,
      "Ġdetection": 8713,
      "Ġemb": 8714,
      "ĠHum": 8715,
      "Ġä¹¾": 8716,
      "è®¾è®¡": 8717,
      "ĠæĿ¡çº¦": 8718,
      "Ġsongs": 8719,
      "Ġç¼´": 8720,
      "ĠæįĲ": 8721,
      "Ġä¸Ĭæĺł": 8722,
      "120": 8723,
      "ä¾¯": 8724,
      "ĠéĢĿ": 8725,
      "CA": 8726,
      "éĶģ": 8727,
      "Ġdisplay": 8728,
      "Ġäººåı£æķ°éĩı": 8729,
      "å³¡": 8730,
      "è¸ª": 8731,
      "ĠMinister": 8732,
      "Ġæ¥ļ": 8733,
      "Ġtim": 8734,
      "å¤§ä¼ļ": 8735,
      "èĤł": 8736,
      "ĠåĽ½åĬ¡éĻ¢": 8737,
      "ĠåłĤ": 8738,
      "Ġåīĳ": 8739,
      "ĠçĶµè¯Ŀ": 8740,
      "Ġimmed": 8741,
      "ĠæµģåŁŁ": 8742,
      "Ġdoesn": 8743,
      "èĤ¯": 8744,
      "Ġelse": 8745,
      "Ġintroduced": 8746,
      "ĠFlor": 8747,
      "ĠMel": 8748,
      "æŀĿ": 8749,
      "Ġæĺ¯ä»İ": 8750,
      "ĠæĽ´åĲį": 8751,
      "etry": 8752,
      "Ġrank": 8753,
      "ĠãĢı": 8754,
      "ĠåĲ¯åĬ¨": 8755,
      "ĠéļĨ": 8756,
      "å²Ń": 8757,
      "ĠFound": 8758,
      "lim": 8759,
      "Ġbeaut": 8760,
      "æĵİ": 8761,
      "éĢı": 8762,
      "ĠæĮĩæłĩ": 8763,
      "Ġçº¢èī²": 8764,
      "Ġéľ²": 8765,
      "åŃ¦æł¡": 8766,
      "Ġéĵģéģĵ": 8767,
      "52": 8768,
      "ĠéĢĲæŃ¥": 8769,
      "Ġç²®": 8770,
      "ĠèĤ¡ä»½": 8771,
      "Ġè¯ķéªĮ": 8772,
      "roid": 8773,
      "cher": 8774,
      "963": 8775,
      "ĠçİĭåĽ½": 8776,
      "ĠåįĹåĮĹ": 8777,
      "éĤ»": 8778,
      "ken": 8779,
      "Ġèĭ±æł¼åħ°": 8780,
      "ĠSant": 8781,
      "ĠOld": 8782,
      "Ġæ¡ĳ": 8783,
      "ĠæĮĸ": 8784,
      "ĠOlymp": 8785,
      "æķĮ": 8786,
      "ĠChic": 8787,
      "Ġæ¯ķç«Ł": 8788,
      "èī²åĪĹ": 8789,
      "ç»ĺ": 8790,
      "ĠVirgin": 8791,
      "Ġçī§": 8792,
      "Ġneigh": 8793,
      "Ġapprox": 8794,
      "Ġé«ĺæł¡": 8795,
      "Ġseven": 8796,
      "Ġscient": 8797,
      "pond": 8798,
      "irit": 8799,
      "ĠNet": 8800,
      "ona": 8801,
      "æ¡ĳ": 8802,
      "Ġå·¥åİĤ": 8803,
      "ĠãĢİ": 8804,
      "Ġäºĭæķħ": 8805,
      "Ġfounded": 8806,
      "åŁĶ": 8807,
      "istics": 8808,
      "åį±": 8809,
      "Ġå¤§æ¦Ĥ": 8810,
      "Ġè¢Ńåĩ»": 8811,
      "930": 8812,
      "ç³": 8813,
      "ĠScience": 8814,
      "Ġæį·": 8815,
      "Ġgrowth": 8816,
      "Ġjoined": 8817,
      "Ġä¸ľæĸ¹": 8818,
      "ĠéĹ»": 8819,
      "Ġship": 8820,
      "ĠåĪĽç«ĭ": 8821,
      "Ġaircraft": 8822,
      "Ġå°ĳå¹´": 8823,
      "955": 8824,
      "Ġå¹¸ç¦ı": 8825,
      "ĠCast": 8826,
      "æ¬²": 8827,
      "Ġä»ģ": 8828,
      "Ġmonitor": 8829,
      "Ġè¯·æ±Ĥ": 8830,
      "ynam": 8831,
      "Ġä»¥èī²åĪĹ": 8832,
      "åĲĥ": 8833,
      "ĠResearch": 8834,
      "961": 8835,
      "Ġä»£çłģ": 8836,
      "Ġåı¸ä»¤": 8837,
      "942": 8838,
      "ç§Ł": 8839,
      "959": 8840,
      "ĠOpen": 8841,
      "Ġå²Ĺ": 8842,
      "åĬ¨çī©": 8843,
      "Ġcontain": 8844,
      "Ġcause": 8845,
      "Ġä¸ŃåĽ½åħ±äº§åħļ": 8846,
      "Ġlack": 8847,
      "Ġæĭĸ": 8848,
      "Ġåĳ¼åĲ¸": 8849,
      "aily": 8850,
      "åĶĲ": 8851,
      "Ġæľ¯": 8852,
      "ĠçīĮ": 8853,
      "æĭīæĸ¯": 8854,
      "ä»Ļ": 8855,
      "Ġæ¸Ĳ": 8856,
      "Ġèĥ½æºĲ": 8857,
      "æİĺ": 8858,
      "Ġäººæ°ĳå¸ģ": 8859,
      "Ġæ´ĭ": 8860,
      "ensity": 8861,
      "Ġforward": 8862,
      "78": 8863,
      "Ġcompleted": 8864,
      "ĠIP": 8865,
      "Ġdeep": 8866,
      "Ġä¸ŃåĮ»": 8867,
      "ini": 8868,
      "Ġfriends": 8869,
      "Ġå¤§è§Ħæ¨¡": 8870,
      "Ġæĭħå¿ĥ": 8871,
      "Ġæİī": 8872,
      "Ġuses": 8873,
      "Ġå¤ªå¹³æ´ĭ": 8874,
      "Ġå¤©çĦ¶": 8875,
      "ç²Ĵ": 8876,
      "osh": 8877,
      "Ġè°ĭ": 8878,
      "å¸ķ": 8879,
      "Ġconcept": 8880,
      "Ġtou": 8881,
      "ĠAM": 8882,
      "Ġbelieve": 8883,
      "Ġglobal": 8884,
      "Ġé¢ĳéģĵ": 8885,
      "Ġä¸ŃåĽ½äººæ°ĳ": 8886,
      "Ġsequ": 8887,
      "ĠLove": 8888,
      "ĠæĢ»éĥ¨": 8889,
      "ĠéħĴåºĹ": 8890,
      "Ġä¸įå¤Ł": 8891,
      "udd": 8892,
      "Ġå¤§æ¥¼": 8893,
      "Ġepisode": 8894,
      "Ġtemper": 8895,
      "952": 8896,
      "Ġä»¿": 8897,
      "©¹": 8898,
      "ĠTime": 8899,
      "li": 8900,
      "alse": 8901,
      "ributed": 8902,
      "èĶ": 8903,
      "ĠOper": 8904,
      "åĩ¡": 8905,
      "Ġdiscover": 8906,
      "Ġä¸Ģçº§": 8907,
      "Ġæ¹ĸåĮĹ": 8908,
      "Ġobtain": 8909,
      "ä¼ı": 8910,
      "erve": 8911,
      "ĠåįĹæĸ¹": 8912,
      "ĠGet": 8913,
      "Ġæĸ°çĸĨ": 8914,
      "Ġplaces": 8915,
      "Ġrecomm": 8916,
      "ria": 8917,
      "937": 8918,
      "Ġcard": 8919,
      "Ġå®¿": 8920,
      "ĠæĢ»çĲĨ": 8921,
      "Ġå¯¹å¤ĸ": 8922,
      "Ġèµ°åĲĳ": 8923,
      "venue": 8924,
      "Ġå°Ĩä¼ļ": 8925,
      "Ġpatterns": 8926,
      "ĠCarol": 8927,
      "ĠæĦıåĳ³çĿĢ": 8928,
      "Ġstudent": 8929,
      "Ġçĸ¼": 8930,
      "Ġallowed": 8931,
      "eks": 8932,
      "ĠåĴĸåķ¡": 8933,
      "Ġbackground": 8934,
      "ĠÃł": 8935,
      "Ġful": 8936,
      "Ġçİ°æĹ¶": 8937,
      "ĠBi": 8938,
      "ĠèĪ°éĺŁ": 8939,
      "å¹¸": 8940,
      "Ġä¹Łè®¸": 8941,
      "Ġåı¥": 8942,
      "Ġprimary": 8943,
      "Ġæ³ķè¯Ń": 8944,
      "iring": 8945,
      "Ġå°±è¯»": 8946,
      "ĠåıĽ": 8947,
      "æĪĪ": 8948,
      "ĠSk": 8949,
      "ĠçĪ¸": 8950,
      "ĠJo": 8951,
      "ĠGovernment": 8952,
      "å°Ķå¾·": 8953,
      "Ġprograms": 8954,
      "Ġdecided": 8955,
      "åĿĳ": 8956,
      "Ġå°ĸ": 8957,
      "ato": 8958,
      "Ġè´¢äº§": 8959,
      "Ġè½°": 8960,
      "Ġgun": 8961,
      "ĠPC": 8962,
      "Ġ18": 8963,
      "ä¼ģä¸ļ": 8964,
      "Ġä¹±": 8965,
      "ady": 8966,
      "ĠæŁ³": 8967,
      "Ġèĩªä¸»": 8968,
      "ĠEducation": 8969,
      "Ġå¸Ĥæ°ĳ": 8970,
      "Ġæķı": 8971,
      "asion": 8972,
      "Ġæł¡éķ¿": 8973,
      "Ġç«ĭåį³": 8974,
      "Ġä¼¤å®³": 8975,
      "ĠæıĲåīį": 8976,
      "ĠåĽ½ç«ĭ": 8977,
      "Ġå»¶ä¼¸": 8978,
      "owers": 8979,
      "Ġactive": 8980,
      "Ġç¼ħ": 8981,
      "èĥ½åĬĽ": 8982,
      "06": 8983,
      "ĠDu": 8984,
      "Ġåħ¥ä¾µ": 8985,
      "Ġanc": 8986,
      "Ġearn": 8987,
      "ĠçĹħäºº": 8988,
      "ĠSecond": 8989,
      "ĠRet": 8990,
      "Ġincreased": 8991,
      "Ġlimited": 8992,
      "ĠæĴŃæĶ¾": 8993,
      "Ġä»£çĲĨ": 8994,
      "Ġmodels": 8995,
      "Ġè®¤å®ļ": 8996,
      "Ġå¥¥æŀĹåĮ¹åħĭè¿ĲåĬ¨ä¼ļ": 8997,
      "ests": 8998,
      "ulations": 8999,
      "Ġcritical": 9000,
      "Ġlat": 9001,
      "Ġprobably": 9002,
      "Ġå¯¿": 9003,
      "Ġpick": 9004,
      "Ġprice": 9005,
      "èį·": 9006,
      "ĠåĪ·": 9007,
      "ĠAv": 9008,
      "Ġåĳ³": 9009,
      "ĠåĽ¾çīĩ": 9010,
      "Ġå¤§å¹ħ": 9011,
      "Ġtransfer": 9012,
      "Ġgrand": 9013,
      "orial": 9014,
      "illing": 9015,
      "IST": 9016,
      "ĠæĹĹä¸ĭ": 9017,
      "æĢª": 9018,
      "ĠéĽĨä½ĵ": 9019,
      "ĠåĨĴ": 9020,
      "Ġpict": 9021,
      "Ġwoman": 9022,
      "ĠæĽ´ä¸º": 9023,
      "ĠIII": 9024,
      "Ġð": 9025,
      "è¿Ķ": 9026,
      "Ġæº¶": 9027,
      "Ġgold": 9028,
      "Ġhom": 9029,
      "Ġå¨ģå»ī": 9030,
      "Ġunc": 9031,
      "ĠHistor": 9032,
      "Ġçľ¼çĿĽ": 9033,
      "Ġæľīæľº": 9034,
      "Ġcommercial": 9035,
      "Ġå¾Īå°ĳ": 9036,
      "å¦Ļ": 9037,
      "ĠTop": 9038,
      "Ġè®¾å®ļ": 9039,
      "ç»ıæµİ": 9040,
      "ician": 9041,
      "ĠRecords": 9042,
      "957": 9043,
      "ĠéĻĨåľ°": 9044,
      "ĠExp": 9045,
      "Ġé¢Ħè®¡": 9046,
      "èĥĮ": 9047,
      "Ġadj": 9048,
      "Ġinterview": 9049,
      "ĠLos": 9050,
      "TV": 9051,
      "Ġæ½ĺ": 9052,
      "Ġä»½": 9053,
      "ĠåħĪè¿Ľ": 9054,
      "ĠèŀįåĲĪ": 9055,
      "çĶŁç´ł": 9056,
      "Ġåľ¨åĨħ": 9057,
      "Ġå¤§ä¼Ĺ": 9058,
      "ĠåĻ": 9059,
      "AP": 9060,
      "ani": 9061,
      "Ġsummer": 9062,
      "èĩªæ²»": 9063,
      "Ġwatch": 9064,
      "ä¾Ŀ": 9065,
      "ĠçĻ½èī²": 9066,
      "ĠåİŁå§ĭ": 9067,
      "Ġæµħ": 9068,
      "åĪĨä¹ĭ": 9069,
      "Ġæ¬¾": 9070,
      "ĠåĪĽåĬŀ": 9071,
      "Ġexpect": 9072,
      "ĠÄģ": 9073,
      "Ġnature": 9074,
      "ĠParis": 9075,
      "954": 9076,
      "çĪ¸": 9077,
      "Ġtheory": 9078,
      "Ġåħ±åĴĮåĽ½": 9079,
      "ĠChampionship": 9080,
      "Ġgre": 9081,
      "ĠåĴ¸": 9082,
      "Ġsoftware": 9083,
      "ĠThen": 9084,
      "och": 9085,
      "Ġåıĳèµ·": 9086,
      "Ġorganization": 9087,
      "æ¶ħ": 9088,
      "Ġçıł": 9089,
      "ĠSil": 9090,
      "Ġéħįç½®": 9091,
      "ĠåıĳçĶµ": 9092,
      "ĠAtl": 9093,
      "ĠæŃ¤æ¬¡": 9094,
      "Ġrow": 9095,
      "Ġtrade": 9096,
      "ĠéĢĨ": 9097,
      "Ġperformed": 9098,
      "Ġmemory": 9099,
      "Ġadop": 9100,
      "Ġèħ°": 9101,
      "åĪ·": 9102,
      "change": 9103,
      "ĠéĦ": 9104,
      "Ġä½ıå®ħ": 9105,
      "Ġ10": 9106,
      "¹æŀľ": 9107,
      "ĠGood": 9108,
      "lor": 9109,
      "ä¿Ħ": 9110,
      "Ġäººç¾¤": 9111,
      "mission": 9112,
      "ĠåŃķ": 9113,
      "938": 9114,
      "ishing": 9115,
      "inner": 9116,
      "Ġmedical": 9117,
      "è½´": 9118,
      "ĠMass": 9119,
      "Ġvalid": 9120,
      "ĠVictor": 9121,
      "æĥľ": 9122,
      "Ġéļ¶å±ŀäºİ": 9123,
      "Ġlevels": 9124,
      "Ġç§įæ¤į": 9125,
      "Ġtowards": 9126,
      "Ġæµĭéĩı": 9127,
      "è´·": 9128,
      "Ġchanged": 9129,
      "ĠåĲĪæ³ķ": 9130,
      "Ġaltern": 9131,
      "å£³": 9132,
      "aled": 9133,
      "Ġä¸Ńæľī": 9134,
      "Ġä¼łè¯´": 9135,
      "Ġæľ¬ä¹¦": 9136,
      "Ġcontext": 9137,
      "orpor": 9138,
      "za": 9139,
      "ĠæľĢä½İ": 9140,
      "ĠéªĮ": 9141,
      "Ġå¤§èĩ£": 9142,
      "Ġreb": 9143,
      "91": 9144,
      "ĠItalian": 9145,
      "gar": 9146,
      "Ġè±¡å¾ģ": 9147,
      "åĹ": 9148,
      "antic": 9149,
      "igned": 9150,
      "Ġgenerally": 9151,
      "aven": 9152,
      "ĠHere": 9153,
      "ĠPop": 9154,
      "ĠæŃ¦è£ħ": 9155,
      "itiz": 9156,
      "Ġdegree": 9157,
      "Ġç¢°": 9158,
      "ĠEst": 9159,
      "ĠHel": 9160,
      "Ġç§ĳåŃ¦å®¶": 9161,
      "ĠBrown": 9162,
      "éĥ¡": 9163,
      "å®¿": 9164,
      "ĠæĴ°": 9165,
      "ĠçĲĨçĶ±": 9166,
      "Ġtransport": 9167,
      "Ġè´¢åĬ¡": 9168,
      "Ġguitar": 9169,
      "ĠåĽ½éĺ²": 9170,
      "ĠèŃ¦æĸ¹": 9171,
      "ties": 9172,
      "Ġåį«æĺŁ": 9173,
      "Ġmeaning": 9174,
      "ĠèģĮåĬ¡": 9175,
      "ĠåĩĮ": 9176,
      "åį¢": 9177,
      "Ġtreatment": 9178,
      "ĠCongress": 9179,
      "set": 9180,
      "iece": 9181,
      "Ġunique": 9182,
      "Ġindividuals": 9183,
      "943": 9184,
      "ura": 9185,
      "Ġweeks": 9186,
      "Ġnumbers": 9187,
      "äº§åĵģ": 9188,
      "ĠæĮĩæķ°": 9189,
      "atre": 9190,
      "éģĹ": 9191,
      "Ġsimple": 9192,
      "Ġå¿ĺ": 9193,
      "Ġå®īå¾½": 9194,
      "Ġcandid": 9195,
      "ĠSpanish": 9196,
      "oper": 9197,
      "reme": 9198,
      "Ġkilled": 9199,
      "Ġä¼ģ": 9200,
      "ĠåĨįåº¦": 9201,
      "Ġåħ¶ä½Ļ": 9202,
      "isco": 9203,
      "OM": 9204,
      "Ġbeginning": 9205,
      "ĠéĩĬæĶ¾": 9206,
      "agn": 9207,
      "Ġåı¯è§ģ": 9208,
      "ĠèĪį": 9209,
      "Ġä¸ĢçĶŁ": 9210,
      "Ġeasy": 9211,
      "Ġcompon": 9212,
      "ĠèĴĤ": 9213,
      "ĠåĽĽåįģ": 9214,
      "Ġå®ŀåĬĽ": 9215,
      "Ġearlier": 9216,
      "è®®éĻ¢": 9217,
      "ĠæŁĶ": 9218,
      "Ġè½¬åıĺ": 9219,
      "éº»": 9220,
      "Ġmention": 9221,
      "Ġåĩºåıĳ": 9222,
      "ĠLand": 9223,
      "è¡Ķ": 9224,
      "æĹ¶æľŁ": 9225,
      "Ġå·¥èµĦ": 9226,
      "Ġè¾©": 9227,
      "Ġç¾¤ä½ĵ": 9228,
      "Ġä»ĵ": 9229,
      "Ġä¸Ģä»¶": 9230,
      "ĠæĶ¶å½ķ": 9231,
      "ĠPac": 9232,
      "ä½©": 9233,
      "Ġåģ·": 9234,
      "ä»ĵ": 9235,
      "Ġå¿«ä¹Ĳ": 9236,
      "Ġfarm": 9237,
      "éĿĸ": 9238,
      "ĠçĮ«": 9239,
      "Ġå©ļå§»": 9240,
      "Ġcoming": 9241,
      "Ġé¥Ń": 9242,
      "ĠMa": 9243,
      "Ġknowledge": 9244,
      "Ġæī«": 9245,
      "æ¸¸æĪı": 9246,
      "ĠæĶ¶è´Ń": 9247,
      "lied": 9248,
      "åĥ": 9249,
      "ĠçĶŁæĪĲ": 9250,
      "ĠåĬłéĢŁ": 9251,
      "ucle": 9252,
      "ĠCommission": 9253,
      "ĠåıĹä¼¤": 9254,
      "ala": 9255,
      "ĠåĲ¹": 9256,
      "åī²": 9257,
      "è´¯": 9258,
      "Ġå¸¸å¸¸": 9259,
      "Ġæī¬": 9260,
      "Ġeventually": 9261,
      "Ġconv": 9262,
      "ç¾½": 9263,
      "ii": 9264,
      "iller": 9265,
      "Ġä¸Ĭä¸ĭ": 9266,
      "ĠHy": 9267,
      "itter": 9268,
      "ĠåŀĤ": 9269,
      "èīĺ": 9270,
      "Ġdirectly": 9271,
      "Ġleader": 9272,
      "Ġnar": 9273,
      "Ġå°¿": 9274,
      "Ġåħ¬å®ī": 9275,
      "Ġæ¬¢è¿İ": 9276,
      "Ġlines": 9277,
      "Ġäº¿ç¾İåħĥ": 9278,
      "oma": 9279,
      "Ġå®¶éĩĮ": 9280,
      "Ġsquare": 9281,
      "Ġäº«åıĹ": 9282,
      "Ġdaughter": 9283,
      "Ġèĥ¶": 9284,
      "Ġbehavior": 9285,
      "Ġä½ľæĸĩ": 9286,
      "bon": 9287,
      "Ġè¯±": 9288,
      "aging": 9289,
      "ĠèĸĦ": 9290,
      "Ġago": 9291,
      "ĠæĶ¶éĽĨ": 9292,
      "Ġæ¶Ĥ": 9293,
      "porary": 9294,
      "ĠFam": 9295,
      "ĠåºĻ": 9296,
      "éĥģ": 9297,
      "Ġmatter": 9298,
      "ĠæĬĢå·§": 9299,
      "ĠCatholic": 9300,
      "é¼ł": 9301,
      "ĠMil": 9302,
      "Ġprem": 9303,
      "Ġstatus": 9304,
      "Ġä¸¤æ¬¡": 9305,
      "icated": 9306,
      "ĠäºĪ": 9307,
      "ĠçĹħä¾ĭ": 9308,
      "Ġèķ": 9309,
      "ĠåĮĹæĸ¹": 9310,
      "Ġsen": 9311,
      "Ġanti": 9312,
      "ĠSun": 9313,
      "ĠMem": 9314,
      "Ġèĭ¹æŀľ": 9315,
      "åľ°äº§": 9316,
      "Ġåĩłå¹´": 9317,
      "å²Ĺ": 9318,
      "å¿Ļ": 9319,
      "Ġå®ļä½į": 9320,
      "Ġæ¯ģ": 9321,
      "ĠæľĹ": 9322,
      "Ġdire": 9323,
      "Ġæħ¢æħ¢": 9324,
      "æ¹¿": 9325,
      "ĠæĺŃ": 9326,
      "ĠåıįèĢĮ": 9327,
      "è±ª": 9328,
      "Ġè±Ĩ": 9329,
      "Ġsurface": 9330,
      "æļĹ": 9331,
      "Ġäº¨": 9332,
      "ĠçłĶç©¶çĶŁ": 9333,
      "ams": 9334,
      "ĠçģĮ": 9335,
      "ĠéļıèĳĹ": 9336,
      "ĠFre": 9337,
      "Ġé¢Ħæµĭ": 9338,
      "Ġå°½éĩı": 9339,
      "æĻĭ": 9340,
      "250": 9341,
      "Ġindependent": 9342,
      "Ġtypes": 9343,
      "ĠWell": 9344,
      "ç»¿": 9345,
      "ĠDevelop": 9346,
      "èĢĢ": 9347,
      "ĠèĬ¬": 9348,
      "953": 9349,
      "ĠWeb": 9350,
      "ĠæĴ¤éĶĢ": 9351,
      "ĠâĢĺ": 9352,
      "Ġä¸įçŁ¥": 9353,
      "Ġsense": 9354,
      "Ġå¹³æĹ¶": 9355,
      "Ġprec": 9356,
      "å¦®": 9357,
      "Ġstep": 9358,
      "Ġè©¹": 9359,
      "Ġbur": 9360,
      "å¨ĺ": 9361,
      "Ġfrac": 9362,
      "Ġç¡®è¯Ĭ": 9363,
      "Ġå¦ĩå¥³": 9364,
      "well": 9365,
      "è¢ĸ": 9366,
      "Ġsimply": 9367,
      "ĠçĤ¸": 9368,
      "ĠéĢĤå½ĵ": 9369,
      "Ġé«ĺäºİ": 9370,
      "box": 9371,
      "Ġunit": 9372,
      "Ġexpected": 9373,
      "åįķä½į": 9374,
      "ena": 9375,
      "Ġçģ¾": 9376,
      "ĠCle": 9377,
      "ĠAcademy": 9378,
      "iful": 9379,
      "ously": 9380,
      "ĠåĲİéĿ¢": 9381,
      "ĠæĢª": 9382,
      "ĠäºĴçĽ¸": 9383,
      "ĠChicago": 9384,
      "ĠEmp": 9385,
      "ĠæĶ¯æı´": 9386,
      "Ġæ³ķåħ°": 9387,
      "èĥĢ": 9388,
      "Ġèį£èªī": 9389,
      "Ġæľ¬æĿ¥": 9390,
      "ĠOl": 9391,
      "Ġcomment": 9392,
      "å¸Ĥåľº": 9393,
      "ĠDivision": 9394,
      "Ġä½İäºİ": 9395,
      "Ġ6": 9396,
      "ĠæĬķèµĦèĢħ": 9397,
      "ĠåĬłå·¥": 9398,
      "Ġåİĺ": 9399,
      "Ġå®¶äºº": 9400,
      "å¥ī": 9401,
      "ĠåĪĹä¸º": 9402,
      "Ġoriginally": 9403,
      "ĠåĿı": 9404,
      "Ġmovie": 9405,
      "Ġä¿Ĺ": 9406,
      "çĪ·": 9407,
      "ella": 9408,
      "Ġbal": 9409,
      "ĠçķĻåŃ¦": 9410,
      "ĠæıĲåĲį": 9411,
      "Ġking": 9412,
      "æĢĴ": 9413,
      "ĠéĢĢä¼ĳ": 9414,
      "Ġå°º": 9415,
      "Ġqual": 9416,
      "Ġå¯¹æīĭ": 9417,
      "Ġperfect": 9418,
      "rate": 9419,
      "ĠåĽ´ç»ķ": 9420,
      "å¹´äºº": 9421,
      "æĸ¯ç§ĳ": 9422,
      "ĠæģĴæĺŁ": 9423,
      "Ġå½»åºķ": 9424,
      "Ġåįģä¸ī": 9425,
      "Ġbirths": 9426,
      "ĠæĮģæľī": 9427,
      "Ġthus": 9428,
      "olk": 9429,
      "Ġå¥¥æĸ¯": 9430,
      "eds": 9431,
      "åħ¬è·¯": 9432,
      "ĠWood": 9433,
      "ĠåĲ¦åĪĻ": 9434,
      "uate": 9435,
      "ĠSocial": 9436,
      "ĠVer": 9437,
      "Ġfavor": 9438,
      "ä¿Ĭ": 9439,
      "ĠæĶ¶åĪ°": 9440,
      "Ġä½Ĳ": 9441,
      "ä¸ĺ": 9442,
      "Ġäºĭå®ŀä¸Ĭ": 9443,
      "ĠHome": 9444,
      "Ġè®¤çŁ¥": 9445,
      "Ġtrying": 9446,
      "æ´»åĬ¨": 9447,
      "Ġquite": 9448,
      "ĠOffic": 9449,
      "Ġæ¶Īå¤±": 9450,
      "08": 9451,
      "Ġæľ¬åľŁ": 9452,
      "Ġå·¥èīº": 9453,
      "Ġåı¯è¾¾": 9454,
      "mitted": 9455,
      "èĬĤçĽ®": 9456,
      "ĠæĴŀ": 9457,
      "Ġå½¢æĢģ": 9458,
      "Ġsn": 9459,
      "936": 9460,
      "ĠLu": 9461,
      "å¯Ĵ": 9462,
      "Ġboy": 9463,
      "ĠéĹª": 9464,
      "Ġæ¸Ķ": 9465,
      "Ġåħ³éĹŃ": 9466,
      "Ġçĳŀå£«": 9467,
      "æĴĳ": 9468,
      "Ġsigned": 9469,
      "Ġshown": 9470,
      "Ġextra": 9471,
      "Ġåı¦ä¸Ģæĸ¹éĿ¢": 9472,
      "elligence": 9473,
      "Ġcontroll": 9474,
      "Ġmeeting": 9475,
      "Ġcollect": 9476,
      "Ġprincip": 9477,
      "ĠåĪĹè¡¨": 9478,
      "çº¯": 9479,
      "Ġpositive": 9480,
      "orning": 9481,
      "Ġconfig": 9482,
      "ĠåŁºæľ¬ä¸Ĭ": 9483,
      "Ġpan": 9484,
      "Ġä¸»è§Ĵ": 9485,
      "edd": 9486,
      "Ġä¸¤èĢħ": 9487,
      "ĠMartin": 9488,
      "Ġincreasing": 9489,
      "Ġè£ħç½®": 9490,
      "54": 9491,
      "ĠIre": 9492,
      "Ġlic": 9493,
      "Ġæĥł": 9494,
      "éģ£": 9495,
      "ĠæµģåĬ¨": 9496,
      "ä¹³": 9497,
      "Ġæľ¬è´¨": 9498,
      "ĠæĶ¿æĿĥ": 9499,
      "ä¸ĸçķĮå¤§æĪĺ": 9500,
      "Ġä¸įå¦Ĥ": 9501,
      "å®īåħ¨": 9502,
      "Ġmedian": 9503,
      "Ġcompl": 9504,
      "ĠæĹ¶ä»»": 9505,
      "Ġåºŀ": 9506,
      "ili": 9507,
      "ĠæĪ¿åľ°äº§": 9508,
      "Ġord": 9509,
      "Ġinside": 9510,
      "Ġoffers": 9511,
      "Ġdrug": 9512,
      "bit": 9513,
      "ĠçĸĹ": 9514,
      "encies": 9515,
      "Ġstru": 9516,
      "Ġwood": 9517,
      "çĽĲ": 9518,
      "haps": 9519,
      "çŃ¾": 9520,
      "æ¼«": 9521,
      "Ġè§Ħå¾ĭ": 9522,
      "å¦Ĥä½ķ": 9523,
      "ĠçŃ¾è®¢": 9524,
      "Ġstudies": 9525,
      "ĠCarl": 9526,
      "Ġå¤§èĩ´": 9527,
      "Ġè£ħå¤ĩ": 9528,
      "ĠBC": 9529,
      "Ġexcept": 9530,
      "éĺĶ": 9531,
      "ĠID": 9532,
      "Ġçĳŀåħ¸": 9533,
      "vis": 9534,
      "PS": 9535,
      "Ġçİ°æľī": 9536,
      "Ġå¼ºåĮĸ": 9537,
      "ĠæĹ©å¹´": 9538,
      "Ġphil": 9539,
      "Ġoccup": 9540,
      "Ġè¯ģåĪ¸": 9541,
      "ĠæĶ¶èĹı": 9542,
      "Ġé¡ºåĪ©": 9543,
      "Ġå®ı": 9544,
      "èģĺ": 9545,
      "æĸ¤": 9546,
      "Ġlives": 9547,
      "Ġremain": 9548,
      "çĶ¸": 9549,
      "Ġç³": 9550,
      "Ġdram": 9551,
      "ĠåĤ¬": 9552,
      "§éģĵ": 9553,
      "ĠæĪĲéĥ½": 9554,
      "Ġä¾¯": 9555,
      "isms": 9556,
      "ĠåŃĲå¥³": 9557,
      "rief": 9558,
      "Ġdim": 9559,
      "ĠèĴ¸": 9560,
      "Ġwor": 9561,
      "ĠLord": 9562,
      "Ġä¸ĢåĲĮ": 9563,
      "Ġä¸ªä½ĵ": 9564,
      "Ġgra": 9565,
      "Ġä¸ĭå±ŀ": 9566,
      "eline": 9567,
      "ĠBoard": 9568,
      "ingu": 9569,
      "ĠåĢĻéĢī": 9570,
      "Ġways": 9571,
      "Ġchalleng": 9572,
      "Ġå¸ĤåĮº": 9573,
      "ĠéĹŃ": 9574,
      "ĠéĢĿä¸ĸ": 9575,
      "951": 9576,
      "Ġå°Ĭéĩį": 9577,
      "ĠçĭĹ": 9578,
      "Ġå®ŀéªĮå®¤": 9579,
      "Ġæķ´çĲĨ": 9580,
      "æĻ¶": 9581,
      "ĠIreland": 9582,
      "Ġå¿ĹæĦ¿": 9583,
      "add": 9584,
      "Ġeffects": 9585,
      "Ġæ³°åĽ½": 9586,
      "vention": 9587,
      "ĠçŁĽçĽ¾": 9588,
      "åľ°åĪ©": 9589,
      "Ġability": 9590,
      "Ġå¹¿è¥¿": 9591,
      "è¾Ľ": 9592,
      "å§Ķåĳĺä¼ļ": 9593,
      "aval": 9594,
      "ĠKore": 9595,
      "Ġä¸ĢæŃ¥": 9596,
      "Ġeverything": 9597,
      "ĠInf": 9598,
      "Ġæ°ı": 9599,
      "ĠPenn": 9600,
      "Ġetc": 9601,
      "åİ¦": 9602,
      "AD": 9603,
      "Ġcollege": 9604,
      "Ġunivers": 9605,
      "Ġæ°Ķè±¡": 9606,
      "Ġæķ¬": 9607,
      "ĠLong": 9608,
      "Ġé»ĳèī²": 9609,
      "è¿ĺ": 9610,
      "ĠåİŁçĲĨ": 9611,
      "Ġdisp": 9612,
      "ĠSov": 9613,
      "53": 9614,
      "onn": 9615,
      "Ġpi": 9616,
      "åıī": 9617,
      "çº²": 9618,
      "Ġç»ĨèĬĤ": 9619,
      "ç¼ĸçłģ": 9620,
      "ĠFilm": 9621,
      "ĠHot": 9622,
      "Ġèİ·åıĸ": 9623,
      "Ġåħ¬åĪĨ": 9624,
      "Ġæµģç¨ĭ": 9625,
      "Ġensure": 9626,
      "ĠçĮİ": 9627,
      "ĠèĻİ": 9628,
      "Ġåºı": 9629,
      "ĠåĬ¿åĬĽ": 9630,
      "Ġèŀº": 9631,
      "ĠConf": 9632,
      "Ġcounty": 9633,
      "Ġå¤§ä½¿": 9634,
      "Ġèµĭ": 9635,
      "Ġèĥİ": 9636,
      "Ġgoal": 9637,
      "Ġjournal": 9638,
      "ĠçĶ»éĿ¢": 9639,
      "Ġéļľ": 9640,
      "anned": 9641,
      "Ġæ¬£": 9642,
      "Ġå§ĭå»º": 9643,
      "Ġåį±æľº": 9644,
      "Ġä¼Ĭæĸ¯åħ°": 9645,
      "Ġæ¡Īä¾ĭ": 9646,
      "pha": 9647,
      "Ġå¸¦æľī": 9648,
[...]
