{
  "<unk>": 0,
  "<|endoftext|>": 1,
  "<|im_start|>": 2,
  "<|im_end|>": 3,
  "<|think|>": 4,
  "<|/think|>": 5,
  "!": 6,
  "\"": 7,
  "#": 8,
  "$": 9,
  "%": 10,
  "&": 11,
  "'": 12,
  "(": 13,
  ")": 14,
  "*": 15,
  "+": 16,
  ",": 17,
  "-": 18,
  ".": 19,
  "/": 20,
  "0": 21,
  "1": 22,
  "2": 23,
  "3": 24,
  "4": 25,
  "5": 26,
  "6": 27,
  "7": 28,
  "8": 29,
  "9": 30,
  ":": 31,
  ";": 32,
  "<": 33,
  "=": 34,
  ">": 35,
  "?": 36,
  "@": 37,
  "A": 38,
  "B": 39,
  "C": 40,
  "D": 41,
  "E": 42,
  "F": 43,
  "G": 44,
  "H": 45,
  "I": 46,
  "J": 47,
  "K": 48,
  "L": 49,
  "M": 50,
  "N": 51,
  "O": 52,
  "P": 53,
  "Q": 54,
  "R": 55,
  "S": 56,
  "T": 57,
  "U": 58,
  "V": 59,
  "W": 60,
  "X": 61,
  "Y": 62,
  "Z": 63,
  "[": 64,
  "\\": 65,
  "]": 66,
  "^": 67,
  "_": 68,
  "`": 69,
  "a": 70,
  "b": 71,
  "c": 72,
  "d": 73,
  "e": 74,
  "f": 75,
  "g": 76,
  "h": 77,
  "i": 78,
  "j": 79,
  "k": 80,
  "l": 81,
  "m": 82,
  "n": 83,
  "o": 84,
  "p": 85,
  "q": 86,
  "r": 87,
  "s": 88,
  "t": 89,
  "u": 90,
  "v": 91,
  "w": 92,
  "x": 93,
  "y": 94,
  "z": 95,
  "{": 96,
  "|": 97,
  "}": 98,
  "~": 99,
  "¡": 100,
  "¢": 101,
  "£": 102,
  "¤": 103,
  "¥": 104,
  "¦": 105,
  "§": 106,
  "¨": 107,
  "©": 108,
  "ª": 109,
  "«": 110,
  "¬": 111,
  "®": 112,
  "¯": 113,
  "°": 114,
  "±": 115,
  "²": 116,
  "³": 117,
  "´": 118,
  "µ": 119,
  "¶": 120,
  "·": 121,
  "¸": 122,
  "¹": 123,
  "º": 124,
  "»": 125,
  "¼": 126,
  "½": 127,
  "¾": 128,
  "¿": 129,
  "À": 130,
  "Á": 131,
  "Â": 132,
  "Ã": 133,
  "Ä": 134,
  "Å": 135,
  "Æ": 136,
  "Ç": 137,
  "È": 138,
  "É": 139,
  "Ê": 140,
  "Ë": 141,
  "Ì": 142,
  "Í": 143,
  "Î": 144,
  "Ï": 145,
  "Ð": 146,
  "Ñ": 147,
  "Ò": 148,
  "Ó": 149,
  "Ô": 150,
  "Õ": 151,
  "Ö": 152,
  "×": 153,
  "Ø": 154,
  "Ù": 155,
  "Ú": 156,
  "Û": 157,
  "Ü": 158,
  "Ý": 159,
  "Þ": 160,
  "ß": 161,
  "à": 162,
  "á": 163,
  "â": 164,
  "ã": 165,
  "ä": 166,
  "å": 167,
  "æ": 168,
  "ç": 169,
  "è": 170,
  "é": 171,
  "ê": 172,
  "ë": 173,
  "ì": 174,
  "í": 175,
  "î": 176,
  "ï": 177,
  "ð": 178,
  "ñ": 179,
  "ò": 180,
  "ó": 181,
  "ô": 182,
  "õ": 183,
  "ö": 184,
  "÷": 185,
  "ø": 186,
  "ù": 187,
  "ú": 188,
  "û": 189,
  "ü": 190,
  "ý": 191,
  "þ": 192,
  "ÿ": 193,
  "Ā": 194,
  "ā": 195,
  "Ă": 196,
  "ă": 197,
  "Ą": 198,
  "ą": 199,
  "Ć": 200,
  "ć": 201,
  "Ĉ": 202,
  "ĉ": 203,
  "Ċ": 204,
  "ċ": 205,
  "Č": 206,
  "č": 207,
  "Ď": 208,
  "ď": 209,
  "Đ": 210,
  "đ": 211,
  "Ē": 212,
  "ē": 213,
  "Ĕ": 214,
  "ĕ": 215,
  "Ė": 216,
  "ė": 217,
  "Ę": 218,
  "ę": 219,
  "Ě": 220,
  "ě": 221,
  "Ĝ": 222,
  "ĝ": 223,
  "Ğ": 224,
  "ğ": 225,
  "Ġ": 226,
  "ġ": 227,
  "Ģ": 228,
  "ģ": 229,
  "Ĥ": 230,
  "ĥ": 231,
  "Ħ": 232,
  "ħ": 233,
  "Ĩ": 234,
  "ĩ": 235,
  "Ī": 236,
  "ī": 237,
  "Ĭ": 238,
  "ĭ": 239,
  "Į": 240,
  "į": 241,
  "İ": 242,
  "ı": 243,
  "Ĳ": 244,
  "ĳ": 245,
  "Ĵ": 246,
  "ĵ": 247,
  "Ķ": 248,
  "ķ": 249,
  "ĸ": 250,
  "Ĺ": 251,
  "ĺ": 252,
  "Ļ": 253,
  "ļ": 254,
  "Ľ": 255,
  "ľ": 256,
  "Ŀ": 257,
  "ŀ": 258,
  "Ł": 259,
  "ł": 260,
  "Ń": 261,
  "ä¸": 262,
  "Ġå": 263,
  "çļ": 264,
  "çļĦ": 265,
  "äº": 266,
  "ãĢ": 267,
  "Ġæ": 268,
  "Ġt": 269,
  "ãĢĤ": 270,
  "ä»": 271,
  "Ġa": 272,
  "in": 273,
  "he": 274,
  "è¿": 275,
  "æľ": 276,
  "ä½": 277,
  "å¤": 278,
  "åı": 279,
  "ä¹": 280,
  "æĺ": 281,
  "er": 282,
  "åħ": 283,
  "on": 284,
  "äºĨ": 285,
  "ä¸Ģ": 286,
  "Ġç": 287,
  "ä¸į": 288,
  "åĪ": 289,
  "å®": 290,
  "æĺ¯": 291,
  "re": 292,
  "Ġthe": 293,
  "åĲ": 294,
  "åľ": 295,
  "Ġè": 296,
  "æĪ": 297,
  "Ġs": 298,
  "or": 299,
  "âĢ": 300,
  "at": 301,
  "å°": 302,
  "è¯": 303,
  "en": 304,
  "Ġ,": 305,
  "an": 306,
  "çĶ": 307,
  "Ġw": 308,
  "æĿ": 309,
  "es": 310,
  "Ġo": 311,
  "ç»": 312,
  "Ġc": 313,
  "it": 314,
  "is": 315,
  "åŃ": 316,
  "æĹ": 317,
  "åĬ": 318,
  "ä¼": 319,
  "åĽ": 320,
  "äºº": 321,
  "æľī": 322,
  "Ġé": 323,
  "ä½ł": 324,
  "åį": 325,
  "ed": 326,
  "å¹": 327,
  "Ġf": 328,
  "ĥ½": 329,
  "al": 330,
  "Ġan": 331,
  "ãĢģ": 332,
  "ar": 333,
  "Ġp": 334,
  "æĸ": 335,
  "è¿Ļ": 336,
  "ing": 337,
  "ou": 338,
  "Ġb": 339,
  "åľ¨": 340,
  "..": 341,
  "æī": 342,
  "å¾": 343,
  "ä¸ª": 344,
  "ĠçļĦ": 345,
  "Ġof": 346,
  "Ġin": 347,
  "è®": 348,
  "å·": 349,
  "åĩ": 350,
  "å¥": 351,
  "éĩ": 352,
  "Ġand": 353,
  "Ġm": 354,
  "ic": 355,
  "å¼": 356,
  "åĨ": 357,
  "Ġto": 358,
  "åĵ": 359,
  "æĪĳ": 360,
  "èĢ": 361,
  "as": 362,
  "å¸": 363,
  "ĠæĪ": 364,
  "ion": 365,
  "Ġd": 366,
  "le": 367,
  "ĠäºĨ": 368,
  "å¤§": 369,
  "ĠæĪĳ": 370,
  "ä¸º": 371,
  "æĿ¥": 372,
  "åº": 373,
  "ä¸Ń": 374,
  "¦ģ": 375,
  "è§": 376,
  "æĢ": 377,
  "çľ": 378,
  "om": 379,
  "ä¸Ĭ": 380,
  "å¿": 381,
  "èµ": 382,
  "åİ": 383,
  "å¯": 384,
  "æł": 385,
  "æķ": 386,
  "ä»¥": 387,
  "Ġh": 388,
  "ä»ĸ": 389,
  "è¡": 390,
  "çĽ": 391,
  "æŃ": 392,
  "ç§": 393,
  "çİ": 394,
  "éĢ": 395,
  "ä¹Ł": 396,
  "éĹ": 397,
  "æ²": 398,
  "ä¹Ī": 399,
  "âĢľ": 400,
  "åĴ": 401,
  "âĢĿ": 402,
  "Ġä¸į": 403,
  "åĮ": 404,
  "çī": 405,
  "ä¼ļ": 406,
  "ĠT": 407,
  "å¹´": 408,
  "åĪ°": 409,
  "éģ": 410,
  "Ġä½ł": 411,
  "Ġ!": 412,
  "il": 413,
  "ĠS": 414,
  "ĠãĢĤ": 415,
  "è¦ģ": 416,
  "ent": 417,
  "æĥ": 418,
  "èĩ": 419,
  "æĬ": 420,
  "éĿ": 421,
  "å½": 422,
  "æĹ¶": 423,
  "æ°": 424,
  "åĴĮ": 425,
  "ĠC": 426,
  "ĠA": 427,
  "å±": 428,
  "ĠåĲ": 429,
  "åĳ": 430,
  "ro": 431,
  "å°±": 432,
  "çº": 433,
  "ä¸ĭ": 434,
  "è´": 435,
  "æŀ": 436,
  "èĥ½": 437,
  "è¿ĺ": 438,
  "el": 439,
  "Ĥ£": 440,
  "Ġth": 441,
  "ä»¬": 442,
  "æ³": 443,
  "Ġl": 444,
  "Ġ1": 445,
  "æĶ": 446,
  "åĩº": 447,
  "st": 448,
  "è¿ĩ": 449,
  "Ġre": 450,
  "åŃ¦": 451,
  "ĠI": 452,
  "éģĵ": 453,
  "åĽ½": 454,
  "éĻ": 455,
  "åŃĲ": 456,
  "åĲİ": 457,
  "Ġæĺ": 458,
  "ct": 459,
  "è¾": 460,
  "å¤©": 461,
  "Ġåı": 462,
  "et": 463,
  "ä¿": 464,
  "çĶŁ": 465,
  "Ġn": 466,
  "åı¯": 467,
  "æĭ": 468,
  "å¥½": 469,
  "åī": 470,
  "æİ": 471,
  "æµ": 472,
  "çĿ": 473,
  "æ¯": 474,
  "ä¹ĭ": 475,
  "Ġå°": 476,
  "Ġä¸Ģ": 477,
  "çĲ": 478,
  "ç«": 479,
  "æĦ": 480,
  "ol": 481,
  "åĵĪ": 482,
  "åľ°": 483,
  "Ġe": 484,
  "am": 485,
  "å¦": 486,
  "Ġæľ": 487,
  "çĤ": 488,
  "çĶ¨": 489,
  "å¤ļ": 490,
  "ĠM": 491,
  "å¾Ĺ": 492,
  "å®¶": 493,
  "éĺ": 494,
  "id": 495,
  "00": 496,
  "å¯¹": 497,
  "äºİ": 498,
  "æ¬": 499,
  "Ġ2": 500,
  "Ġ?": 501,
  "è½": 502,
  "Ġæĺ¯": 503,
  "çĦ": 504,
  "è¯´": 505,
  "Ġg": 506,
  "Ġå¤": 507,
  "ve": 508,
  "Ġå¥": 509,
  "Ġåķ": 510,
  "çŃ": 511,
  "èĩª": 512,
  "ä½ľ": 513,
  "é¢": 514,
  "åıĳ": 515,
  "æĪĲ": 516,
  "ur": 517,
  "ot": 518,
  "Ġfor": 519,
  "ut": 520,
  "çĦ¶": 521,
  "ad": 522,
  "ch": 523,
  "ĠB": 524,
  "çĿĢ": 525,
  "Ġis": 526,
  "Ġon": 527,
  "ĠP": 528,
  "ow": 529,
  "us": 530,
  "éĥ½": 531,
  "ation": 532,
  "éĤ£": 533,
  "ç®": 534,
  "ig": 535,
  "Ġ(": 536,
  "Ġy": 537,
  "æĮ": 538,
  "ay": 539,
  "çľĭ": 540,
  "im": 541,
  "è¡Į": 542,
  "ver": 543,
  "ce": 544,
  "å¿ĥ": 545,
  "æĸ¹": 546,
  "æ²¡": 547,
  "éĿ¢": 548,
  "ly": 549,
  "åŁ": 550,
  "éĩĮ": 551,
  "ä¾": 552,
  "un": 553,
  "ç¬": 554,
  "åĢ": 555,
  "çĤ¹": 556,
  "çŁ": 557,
  "è°": 558,
  "ç»ı": 559,
  "éķ": 560,
  "åĪĨ": 561,
  "Ġbe": 562,
  "æ¸": 563,
  "è·": 564,
  "ä¸ļ": 565,
  "äºĭ": 566,
  "èĤ": 567,
  "çİ°": 568,
  "èĢĮ": 569,
  "æ´": 570,
  "ĠThe": 571,
  "Ġå°±": 572,
  "åİ»": 573,
  "ĠH": 574,
  "ir": 575,
  "å°ı": 576,
  "Ġè¿Ļ": 577,
  "åĬĽ": 578,
  "æ³ķ": 579,
  "Ġçľ": 580,
  "éĥ": 581,
  "åĬ¨": 582,
  "çĲĨ": 583,
  "Ġå¥½": 584,
  "«ĺ": 585,
  "æ±": 586,
  "æľ¬": 587,
  "ith": 588,
  "å¼Ģ": 589,
  "Ġst": 590,
  "ä¸»": 591,
  "å®ļ": 592,
  "ter": 593,
  "ĠR": 594,
  "åģ": 595,
  "å®ŀ": 596,
  "æĽ": 597,
  "å§": 598,
  "åīį": 599,
  "ĠD": 600,
  "ä»Ģ": 601,
  "èī": 602,
  "èµ·": 603,
  "å¦Ĥ": 604,
  "ç½": 605,
  "ĠW": 606,
  "Ġyou": 607,
  "ĠåķĬ": 608,
  "ä»Ģä¹Ī": 609,
  "ä¸İ": 610,
  "éĹ´": 611,
  "éĽ": 612,
  "æĻ": 613,
  "Ġåĵ": 614,
  "åħ¶": 615,
  "Ġè¯": 616,
  "Ġwith": 617,
  "ra": 618,
  "ä¸ī": 619,
  "æł·": 620,
  "ĠF": 621,
  "æģ": 622,
  "é£": 623,
  "é«ĺ": 624,
  "ç¥": 625,
  "ä½Ĩ": 626,
  "Ġæ²": 627,
  "ul": 628,
  "ä½ĵ": 629,
  "Ġåľ": 630,
  "å£": 631,
  "Ġthat": 632,
  "å·±": 633,
  "æīĢ": 634,
  "ç§į": 635,
  "ĠL": 636,
  "ä¸Ģä¸ª": 637,
  "æĥ³": 638,
  "è¢": 639,
  "èĬ": 640,
  "ç¾": 641,
  "çŃī": 642,
  "ç©": 643,
  "è¿Ľ": 644,
  "æīĭ": 645,
  "Ġas": 646,
  "åħ¬": 647,
  "æľº": 648,
  "é¡": 649,
  "éĥ¨": 650,
  "....": 651,
  "äºĽ": 652,
  "çĻ": 653,
  "ĠâĢľ": 654,
  "å·¥": 655,
  "her": 656,
  "éļ": 657,
  "èº": 658,
  "éķ¿": 659,
  "è¶": 660,
  "åĿ": 661,
  "Ġæ²¡": 662,
  "Ġæī": 663,
  "åĲĮ": 664,
  "se": 665,
  "'s": 666,
  "ge": 667,
  "æĹ¥": 668,
  "Ġæľī": 669,
  "æĦı": 670,
  "æľĢ": 671,
  "Ġal": 672,
  "åķ": 673,
  "Ġè¿ĺ": 674,
  "ers": 675,
  "èĭ": 676,
  "åħ¨": 677,
  "æĸĩ": 678,
  "Ġéĥ½": 679,
  "æľĪ": 680,
  "...": 681,
  "åĵĪåĵĪ": 682,
  "ĠG": 683,
  "çķ": 684,
  "ĠN": 685,
  "ĠE": 686,
  "çĪ": 687,
  "Ġ~": 688,
  "æĥħ": 689,
  "Ġåĳ": 690,
  "Ġit": 691,
  "æĹł": 692,
  "if": 693,
  "ç¨": 694,
  "èº«": 695,
  "èĢħ": 696,
  "Ġwas": 697,
  "çģ": 698,
  "æ¬¡": 699,
  "Ġä¹Ł": 700,
  "éĶ": 701,
  "ist": 702,
  "est": 703,
  "ä¸¤": 704,
  "Ġpro": 705,
  "and": 706,
  "em": 707,
  "ç±": 708,
  "èĦ": 709,
  "Ġwh": 710,
  "ãĢĭ": 711,
  "æı": 712,
  "ãĢĬ": 713,
  "å¾Ī": 714,
  "èĪ": 715,
  "åıª": 716,
  "æĢ§": 717,
  "åĮĸ": 718,
  "ç³": 719,
  "äºĮ": 720,
  "ri": 721,
  "å¤´": 722,
  "Ġåľ¨": 723,
  "çł": 724,
  "åĨħ": 725,
  "åĲį": 726,
  "å½ĵ": 727,
  "um": 728,
  "th": 729,
  "æŀľ": 730,
  "è¢«": 731,
  "od": 732,
  "ac": 733,
  "ill": 734,
  "Ġcon": 735,
  "æ²¡æľī": 736,
  "åº¦": 737,
  "op": 738,
  "éĩį": 739,
  "ĠåĪ": 740,
  "åįģ": 741,
  "æĺİ": 742,
  "åĲĪ": 743,
  "Ġå¾": 744,
  "ä½į": 745,
  "èģ": 746,
  "¥¿": 747,
  "ä»İ": 748,
  "Ġor": 749,
  "æį": 750,
  "Ġåħ": 751,
  "å»": 752,
  "åĽł": 753,
  "åħ¥": 754,
  "èĥ": 755,
  "Ġ...": 756,
  "Ġåİ": 757,
  "Ġhe": 758,
  "çī©": 759,
  "åĬł": 760,
  "å¤ĸ": 761,
  "01": 762,
  "çĶµ": 763,
  "æĸ°": 764,
  "ab": 765,
  "çŁ¥": 766,
  "Ġçľĭ": 767,
  "æ°Ķ": 768,
  "ãĢĤâĢĿ": 769,
  "Ġ\"": 770,
  "éĩı": 771,
  "ç¤": 772,
  "ĠæĹ": 773,
  "æķ°": 774,
  "èĲ": 775,
  "rom": 776,
  "æ°´": 777,
  "oun": 778,
  "éľ": 779,
  "ate": 780,
  "äº§": 781,
  "èĩªå·±": 782,
  "Ġå®": 783,
  "æ¯Ķ": 784,
  "è¯Ŀ": 785,
  "åħ³": 786,
  "ĠåĽ": 787,
  "Ġat": 788,
  "å°Ĩ": 789,
  "Ġare": 790,
  "éĴ": 791,
  "Ġv": 792,
  "éĢļ": 793,
  "ĠO": 794,
  "Ġcom": 795,
  "åıĬ": 796,
  "ess": 797,
  "ak": 798,
  "pp": 799,
  "åĵģ": 800,
  "å¹¶": 801,
  "ç´": 802,
  "æķĻ": 803,
  "å·²": 804,
  "æŃ¤": 805,
  "è¥¿": 806,
  "çĥ": 807,
  "ore": 808,
  "åľº": 809,
  "âĢĶ": 810,
  "åĪ¶": 811,
  "ç¬¬": 812,
  "æŃ£": 813,
  "oc": 814,
  "ew": 815,
  "çľŁ": 816,
  "ä¸ľ": 817,
  "ĠçĶ": 818,
  "åı¯ä»¥": 819,
  "å¸Ĥ": 820,
  "æŁ": 821,
  "ity": 822,
  "Ġde": 823,
  "Ġby": 824,
  "ĠJ": 825,
  "åºĶ": 826,
  "Ġç¬": 827,
  "Ġç»": 828,
  "æ¶": 829,
  "èį": 830,
  "ç³»": 831,
  "å¢": 832,
  "æ·": 833,
  "çĽ¸": 834,
  "åĢĻ": 835,
  "éħ": 836,
  "èī²": 837,
  "os": 838,
  "åĸ": 839,
  "igh": 840,
  "res": 841,
  "ç¥ŀ": 842,
  "Ġè¯´": 843,
  "Ġåĩ": 844,
  "ä¿¡": 845,
  "ä»£": 846,
  "ç¼": 847,
  "å¸¸": 848,
  "ld": 849,
  "ç¾İ": 850,
  "åĮº": 851,
  "çī¹": 852,
  "é¦": 853,
  "qu": 854,
  "ort": 855,
  "ĠéĤ£": 856,
  ":âĢľ": 857,
  "Ġåı¯": 858,
  "çĽ´": 859,
  "åı£": 860,
  "é»": 861,
  "é©": 862,
  "ment": 863,
  "å¹³": 864,
  "ain": 865,
  "æİ¥": 866,
  "Ġse": 867,
  "èĢģ": 868,
  "ies": 869,
  "çĽ®": 870,
  "éĹ®": 871,
  "é¢ĺ": 872,
  "è®¾": 873,
  "Ġfrom": 874,
  "æľŁ": 875,
  "åĽŀ": 876,
  "ç²": 877,
  "èĻ": 878,
  "iv": 879,
  "å»º": 880,
  "Ġex": 881,
  "è®¡": 882,
  "Ġç¬¬": 883,
  "ĠIn": 884,
  "éª": 885,
  "art": 886,
  "å°ĳ": 887,
  "æĪĺ": 888,
  "åĪ«": 889,
  "å®ī": 890,
  "ç¦": 891,
  "ç®¡": 892,
  "çĹ": 893,
  "ant": 894,
  "åĳĺ": 895,
  "ĠåĲ§": 896,
  "è§ī": 897,
  "æĽ´": 898,
  "åĨĽ": 899,
  "ä»ĸä»¬": 900,
  "pe": 901,
  "Ġsu": 902,
  "çĸ": 903,
  "ä»»": 904,
  "å°±æĺ¯": 905,
  "éĹ¨": 906,
  "æĪĳä»¬": 907,
  "Ġäºº": 908,
  "ç»Ļ": 909,
  "è¡¨": 910,
  "æĦŁ": 911,
  "Ġha": 912,
  "ä¹¦": 913,
  "å¸Ī": 914,
  "ä¸įæĺ¯": 915,
  "Ġæĥ": 916,
  "è·¯": 917,
  "è§ģ": 918,
  "æ¡": 919,
  "éĩĳ": 920,
  "çĭ": 921,
  "è®©": 922,
  "éĵ": 923,
  "åĪ©": 924,
  "æıĲ": 925,
  "ç¡": 926,
  "Ġåİ»": 927,
  "ç¨ĭ": 928,
  "ä¸ĸ": 929,
  "ä¿Ŀ": 930,
  "æ°ĳ": 931,
  "åĬ¡": 932,
  "æµ·": 933,
  "İä¹Ī": 934,
  "Ħ¿": 935,
  "Ġr": 936,
  "ä½¿": 937,
  "åŁº": 938,
  "è½¦": 939,
  "è¿Ļä¸ª": 940,
  "all": 941,
  "èİ": 942,
  "æľ¯": 943,
  "Ġ3": 944,
  "å±±": 945,
  "ud": 946,
  "éŁ": 947,
  "ĠåĨ": 948,
  "ĠU": 949,
  "è£": 950,
  "åģļ": 951,
  "å¼ı": 952,
  "ĠèĢ": 953,
  "Ġå¾Ī": 954,
  "ive": 955,
  "åĲĳ": 956,
  "ard": 957,
  "æīĵ": 958,
  "ĠæĢ": 959,
  "Ġè¦ģ": 960,
  "è¯¥": 961,
  "ç§ĳ": 962,
  "åħī": 963,
  "å¤ª": 964,
  "end": 965,
  "è§£": 966,
  "æ»": 967,
  "ç»ĵ": 968,
  "ĠåĲĹ": 969,
  "çĶ±": 970,
  "Ġch": 971,
  "èĩ³": 972,
  "å¥¹": 973,
  "åŀ": 974,
  "èµĦ": 975,
  "æīį": 976,
  "é£İ": 977,
  "æĸ¯": 978,
  "åİŁ": 979,
  "å¥³": 980,
  "å½±": 981,
  "Ġå¿": 982,
  "æ®": 983,
  "ç«ĭ": 984,
  "å¼º": 985,
  "åĦ¿": 986,
  "å±ķ": 987,
  "çĻ½": 988,
  "æĪĸ": 989,
  "åĩł": 990,
  "ä»Ĭ": 991,
  "--": 992,
  "æ´»": 993,
  "ĠåĲĥ": 994,
  "Ġçİ": 995,
  "æĶ¿": 996,
  "å²": 997,
  "å£°": 998,
  "ust": 999,
  "ä¸ĩ": 1000,
  "åĽĽ": 1001,
  "our": 1002,
  "ag": 1003,
  "å¤Ħ": 1004,
  "æĬĬ": 1005,
  "ial": 1006,
  "ĥı": 1007,
  "ĠæĿ": 1008,
  "åıĪ": 1009,
  "Ġåį": 1010,
  "çľ¼": 1011,
  "åįĹ": 1012,
  "åıĺ": 1013,
  "åĨį": 1014,
  "ä»¶": 1015,
  "ear": 1016,
  "Ġsh": 1017,
  "åĶ": 1018,
  "Ġun": 1019,
  "çİĭ": 1020,
  "æ¼": 1021,
  "çº§": 1022,
  "ĠK": 1023,
  "ight": 1024,
  "ure": 1025,
  "ä½ķ": 1026,
  "Ġæĥ³": 1027,
  "åı¸": 1028,
  "ä¹Ĳ": 1029,
  "Ġcan": 1030,
  "),": 1031,
  "Ġhave": 1032,
  "è¾¹": 1033,
  "äºĶ": 1034,
  "ell": 1035,
  "ä¼ł": 1036,
  "og": 1037,
  "åıĹ": 1038,
  "out": 1039,
  "ç±»": 1040,
  "ine": 1041,
  "age": 1042,
  "Â·": 1043,
  "ĠåĴ": 1044,
  "ĠSt": 1045,
  "å®Į": 1046,
  "ç©º": 1047,
  "çķĮ": 1048,
  "åĺ": 1049,
  "Ġk": 1050,
  "åįķ": 1051,
  "å°Ķ": 1052,
  "æľį": 1053,
  "Ġå¼": 1054,
  "Ġus": 1055,
  "Ġpl": 1056,
  "ç®Ĺ": 1057,
  "ç»Ł": 1058,
  "up": 1059,
  "äº¤": 1060,
  "Ġè®": 1061,
  "ä¸ĵ": 1062,
  "çº¿": 1063,
  "è¯Ń": 1064,
  "ok": 1065,
  "æł¼": 1066,
  "è±": 1067,
  "Ġå¤§": 1068,
  "å¿«": 1069,
  "Ġnot": 1070,
  "æĶ¾": 1071,
  "åĻ": 1072,
  "ĠåĵĪ": 1073,
  "Ġèĩ": 1074,
  "åħĥ": 1075,
  "åħĪ": 1076,
  "ast": 1077,
  "Ġle": 1078,
  "æĬĢ": 1079,
  "ap": 1080,
  "å½¢": 1081,
  "ber": 1082,
  "ä¾¿": 1083,
  "æµģ": 1084,
  "åŁİ": 1085,
  "ich": 1086,
  "ide": 1087,
  "ome": 1088,
  "æº": 1089,
  "ction": 1090,
  "èĬĤ": 1091,
  "ä¸ŃåĽ½": 1092,
  "!âĢĿ": 1093,
  "ia": 1094,
  "åĮĹ": 1095,
  "æĹ¶åĢĻ": 1096,
  "æĶ¶": 1097,
  "å¨": 1098,
  "éĺŁ": 1099,
  "åĥı": 1100,
  "ost": 1101,
  "è´¨": 1102,
  "ip": 1103,
  "Ġæ¯": 1104,
  "æĮģ": 1105,
  "å§ĭ": 1106,
  "Ġèµ": 1107,
  "çĲĥ": 1108,
  "åŀĭ": 1109,
  "éĻ¢": 1110,
  "Ġwe": 1111,
  "æģ¯": 1112,
  "é©¬": 1113,
  "è¿Ĳ": 1114,
  "ç«ł": 1115,
  "é¥": 1116,
  "ĠçĿ": 1117,
  "å¸¦": 1118,
  "æĳ": 1119,
  "å¼ł": 1120,
  "çĪ±": 1121,
  "å®¹": 1122,
  "æĢĿ": 1123,
  "æ¬¢": 1124,
  "ä½Ĩæĺ¯": 1125,
  "é¾": 1126,
  "Ġåĸ": 1127,
  "......": 1128,
  "Ġthis": 1129,
  "è®º": 1130,
  "ä½ı": 1131,
  "çłĶ": 1132,
  "æĢ»": 1133,
  "Ġab": 1134,
  "gh": 1135,
  "èĢĥ": 1136,
  "æĤ": 1137,
  "çīĩ": 1138,
  "èĮ": 1139,
  "Ġå¹": 1140,
  "æ£": 1141,
  "99": 1142,
  "å·²ç»ı": 1143,
  "è§Ĩ": 1144,
  "æ¸ħ": 1145,
  "åĲĦ": 1146,
  "æł¡": 1147,
  "åħĭ": 1148,
  "ç¬ĳ": 1149,
  "Ġå¤ļ": 1150,
  "Ġè§": 1151,
  "Ġèĩª": 1152,
  "åı°": 1153,
  "ç»Ħ": 1154,
  "æŃ»": 1155,
  "éŁ³": 1156,
  "are": 1157,
  "Ġwor": 1158,
  "ä¹°": 1159,
  "ated": 1160,
  "éĢī": 1161,
  "éļ¾": 1162,
  "è¿ĳ": 1163,
  "ĠåĽŀ": 1164,
  "äºĨä¸Ģ": 1165,
  "æħ": 1166,
  "Ġ4": 1167,
  "for": 1168,
  "ry": 1169,
  "æĮĩ": 1170,
  "èµ°": 1171,
  "æĹ¶éĹ´": 1172,
  "å£«": 1173,
  "?âĢĿ": 1174,
  "ĠV": 1175,
  "éĿŀ": 1176,
  "ĠçľŁ": 1177,
  "ong": 1178,
  "ould": 1179,
  "å¾·": 1180,
  "å¤ĩ": 1181,
  "ian": 1182,
  "è¾¾": 1183,
  "ĠæĬ": 1184,
  "å¯¼": 1185,
  "èħ": 1186,
  "æ¢": 1187,
  "ç½ĳ": 1188,
  "Ġå¯": 1189,
  "ç¤¾": 1190,
  "der": 1191,
  "ire": 1192,
  "è®¤": 1193,
  "ä¸Ķ": 1194,
  "æĿ¡": 1195,
  "çİ°åľ¨": 1196,
  "ĠçŁ": 1197,
  "ie": 1198,
  "èĬ±": 1199,
  "Ġåģ": 1200,
  "åĻ¨": 1201,
  "éŃ": 1202,
  "åĽ¾": 1203,
  "ame": 1204,
  "æį®": 1205,
  "çı": 1206,
  "æŀĹ": 1207,
  "ack": 1208,
  "Ġå°ı": 1209,
  "æ±Ĥ": 1210,
  "Ġ-": 1211,
  "Ġåĳ¢": 1212,
  "åıį": 1213,
  "ĠTh": 1214,
  "è®°": 1215,
  "åĽłä¸º": 1216,
  "åį´": 1217,
  "cc": 1218,
  "ary": 1219,
  "pt": 1220,
  "çŁ¥éģĵ": 1221,
  "åıĭ": 1222,
  "çĮ": 1223,
  "ound": 1224,
  "Ġä»ĸ": 1225,
  "Ġhas": 1226,
  "Ġhis": 1227,
  "åķĨ": 1228,
  "éľĢ": 1229,
  "åĬŁ": 1230,
  "ä¿®": 1231,
  "è¿ŀ": 1232,
  "ä»·": 1233,
  "ice": 1234,
  "ff": 1235,
  "ub": 1236,
  "åŃĹ": 1237,
  "Ġä¸Ĭ": 1238,
  "çĬ": 1239,
  "æłĩ": 1240,
  "iz": 1241,
  "å·¥ä½ľ": 1242,
  "Ġå·": 1243,
  "åķĬ": 1244,
  "æļ": 1245,
  "ect": 1246,
  "ical": 1247,
  "per": 1248,
  "çĻ¾": 1249,
  "ç©¶": 1250,
  "Ġj": 1251,
  "æ¸¸": 1252,
  "æ¨": 1253,
  "åĲĥ": 1254,
  "ther": 1255,
  "Ġcomp": 1256,
  "Ġä»Ģä¹Ī": 1257,
  "ĠCh": 1258,
  "åı·": 1259,
  "çª": 1260,
  "so": 1261,
  "è¯ķ": 1262,
  "æ¯ı": 1263,
  "ç±³": 1264,
  "è°ĥ": 1265,
  "Ġad": 1266,
  "ere": 1267,
  "æĴ": 1268,
  "Ġyour": 1269,
  "Ġå¸": 1270,
  "èģĶ": 1271,
  "ľæ¬¢": 1272,
  "è§Ħ": 1273,
  "10": 1274,
  "æŃ¥": 1275,
  "ass": 1276,
  "è½¬": 1277,
  "åĮħ": 1278,
  "âĢĶâĢĶ": 1279,
  "çħ": 1280,
  "æ¥": 1281,
  "åĩĨ": 1282,
  "¨Ģ": 1283,
  "é¾Ļ": 1284,
  "çļĦäºº": 1285,
  "æĭī": 1286,
  "Ġ5": 1287,
  "åħ¬åı¸": 1288,
  "ough": 1289,
  "åħ·": 1290,
  "è¿ľ": 1291,
  "ĠæĹ¶": 1292,
  "å¤į": 1293,
  "cl": 1294,
  "ĠY": 1295,
  "è¾ĥ": 1296,
  "ue": 1297,
  "ç¦»": 1298,
  "av": 1299,
  "æķ´": 1300,
  "åĳ½": 1301,
  "fer": 1302,
  "éĽĨ": 1303,
  "è¯Ĩ": 1304,
  "éĢł": 1305,
  "è£ħ": 1306,
  "å®ĥ": 1307,
  "æľĽ": 1308,
  "ç²¾": 1309,
  "pl": 1310,
  "Ġar": 1311,
  "åĳ¨": 1312,
  "åĬŀ": 1313,
  "åĪĻ": 1314,
  "ik": 1315,
  "ä¹ī": 1316,
  "è¨Ģ": 1317,
  "åįİ": 1318,
  "æ²»": 1319,
  "è¶Ĭ": 1320,
  "ç«Ļ": 1321,
  "ous": 1322,
  "çģ«": 1323,
  "åĲ¬": 1324,
  "Ġwhe": 1325,
  "¦Ĥ": 1326,
  "ä¹ł": 1327,
  "âĢĵ": 1328,
  "Ġè¿ĩ": 1329,
  "Ġtheir": 1330,
  "Ġall": 1331,
  "Ġè·": 1332,
  "Ġä¼ļ": 1333,
  "æĺĵ": 1334,
  "Ġme": 1335,
  "å¸ĥ": 1336,
  "ind": 1337,
  "ĠåĬ": 1338,
  "Ġåĩº": 1339,
  "æĺŁ": 1340,
  "ç§°": 1341,
  "ran": 1342,
  "Ġen": 1343,
  "¥éģĵ": 1344,
  "èĭ±": 1345,
  "è¿ĺæĺ¯": 1346,
  "Ġcl": 1347,
  "Ġæĭ": 1348,
  "Ġwill": 1349,
  "ĠæĦ": 1350,
  "ĠåŃ": 1351,
  "çĹħ": 1352,
  "è§Ĥ": 1353,
  "ook": 1354,
  "è°¢": 1355,
  "Ġåı¯ä»¥": 1356,
  "èµĽ": 1357,
  "ions": 1358,
  "able": 1359,
  "å·ŀ": 1360,
  "Ġte": 1361,
  "Ġcont": 1362,
  "æĿĳ": 1363,
  "åĩ»": 1364,
  "ĠRe": 1365,
  "form": 1366,
  "ish": 1367,
  "ĠæľĢ": 1368,
  "Ġä¸Ģä¸ª": 1369,
  "Ġbut": 1370,
  "èĤ²": 1371,
  "Ġwhich": 1372,
  "åı¯èĥ½": 1373,
  "çľģ": 1374,
  "æĪ·": 1375,
  "åİĨ": 1376,
  "åħ±": 1377,
  "Ġåķ¦": 1378,
  "æĶ¹": 1379,
  "20": 1380,
  "æĢİä¹Ī": 1381,
  "åıĤ": 1382,
  "æł¹": 1383,
  "ks": 1384,
  "ĠæĿ¥": 1385,
  "ite": 1386,
  "Ġä¸ĭ": 1387,
  "ign": 1388,
  "åĽ¢": 1389,
  "é¢Ĩ": 1390,
  "å¤Ł": 1391,
  "Ġne": 1392,
  "å¦Ĥæŀľ": 1393,
  "å¹¿": 1394,
  "æºĲ": 1395,
  "Ġdo": 1396,
  "åĪ°äºĨ": 1397,
  "çīĪ": 1398,
  "éĹ®é¢ĺ": 1399,
  "åį³": 1400,
  "du": 1401,
  "ç®Ģ": 1402,
  "Ġç»Ļ": 1403,
  "ĠæŃ": 1404,
  "æ¹": 1405,
  "mer": 1406,
  "èı": 1407,
  "èĳ": 1408,
  "æķĪ": 1409,
  "æ·±": 1410,
  "ç¡®": 1411,
  "æĬ¥": 1412,
  "éĢŁ": 1413,
  "è¯ģ": 1414,
  "è¡Ģ": 1415,
  "ime": 1416,
  "Ĺ¯": 1417,
  "åĲ§": 1418,
  "éĶĻ": 1419,
  "åıĸ": 1420,
  "Ġå¼Ģ": 1421,
  "Ġim": 1422,
  "æĸĻ": 1423,
  "Ġåıª": 1424,
  "æĹı": 1425,
  "ult": 1426,
  "one": 1427,
  "ĠéĢ": 1428,
  "æ³¨": 1429,
  "Ġalso": 1430,
  "act": 1431,
  "è½»": 1432,
  "åŃĺ": 1433,
  "ĠçŁ¥éģĵ": 1434,
  "åĨ³": 1435,
  "äº²": 1436,
  "å¡": 1437,
  "è´¹": 1438,
  "å¢ĥ": 1439,
  "ĠæĶ": 1440,
  "åł": 1441,
  "å¿ħ": 1442,
  "çłĶç©¶": 1443,
  "ail": 1444,
  "å¹²": 1445,
  "Ġgo": 1446,
  "ence": 1447,
  "ake": 1448,
  "ĠIt": 1449,
  "é£ŀ": 1450,
  "çŁ³": 1451,
  "æĪı": 1452,
  "Ġå¯¹": 1453,
  "åĪĽ": 1454,
  "é¡¹": 1455,
  "ib": 1456,
  "ç®¡çĲĨ": 1457,
  "é¦ĸ": 1458,
  "ase": 1459,
  "æŀģ": 1460,
  "ç¢": 1461,
  "Ġmore": 1462,
  "Ġçİ°": 1463,
  "äºļ": 1464,
  "Ġèĩªå·±": 1465,
  "åıĳå±ķ": 1466,
  "Ġint": 1467,
  "Ġwere": 1468,
  "ä½İ": 1469,
  "éĺ³": 1470,
  "Ġå¤ª": 1471,
  "ations": 1472,
  "æĶ¯": 1473,
  "ĠåĪ°": 1474,
  "è¿Ļæł·": 1475,
  "ĠAn": 1476,
  "é»ĳ": 1477,
  "éĴ±": 1478,
  "æīĢä»¥": 1479,
  "è®¸": 1480,
  "çļĦä¸Ģ": 1481,
  "æŀĦ": 1482,
  "æ¼Ķ": 1483,
  "Ġå°±æĺ¯": 1484,
  "èĪ¬": 1485,
  "ç¿": 1486,
  "æĿİ": 1487,
  "åı¤": 1488,
  "éĥ½æĺ¯": 1489,
  "åºķ": 1490,
  "ount": 1491,
  "000": 1492,
  "Ġout": 1493,
  "Ġåĺ": 1494,
  "åĨµ": 1495,
  "Ġæ²¡æľī": 1496,
  "éļı": 1497,
  "åĪļ": 1498,
  "ä¸ĸçķĮ": 1499,
  "port": 1500,
  "ç¤º": 1501,
  "ä¹Łæĺ¯": 1502,
  "å¼Ģå§ĭ": 1503,
  "åĭ": 1504,
  "çº¢": 1505,
  "ach": 1506,
  "èµ·æĿ¥": 1507,
  "Ġæĸ": 1508,
  "æĹ©": 1509,
  "ĠçĽ": 1510,
  "åı²": 1511,
  "Ġup": 1512,
  "è¶³": 1513,
  "çº¦": 1514,
  "ally": 1515,
  "ç»Ń": 1516,
  "è±¡": 1517,
  "åĮ»": 1518,
  "æ®µ": 1519,
  "è¿ĻäºĽ": 1520,
  "æ¨¡": 1521,
  "å¾®": 1522,
  "æ²¹": 1523,
  "æĿĢ": 1524,
  "Ġä¸įæĺ¯": 1525,
  "ace": 1526,
  "è®®": 1527,
  "è¿Ľè¡Į": 1528,
  "ĠæĢİä¹Ī": 1529,
  "Ġres": 1530,
  "ä¼ĺ": 1531,
  "ov": 1532,
  "Ġ6": 1533,
  "çģµ": 1534,
  "own": 1535,
  "ĠåĴĮ": 1536,
  "ru": 1537,
  "æĿĥ": 1538,
  "æ¶Ī": 1539,
  "½çĦ¶": 1540,
  "ä¹ĭåĲİ": 1541,
  "éĿĴ": 1542,
  "å¤±": 1543,
  "ç½®": 1544,
  "äºĳ": 1545,
  "Ġéĩ": 1546,
  "éĤ": 1547,
  "åįĬ": 1548,
  "å®Ŀ": 1549,
  "ces": 1550,
  "èĲ¥": 1551,
  "ang": 1552,
  "ç½Ĺ": 1553,
  "Ġwho": 1554,
  "æ»¡": 1555,
  "éªĮ": 1556,
  "Ġå½": 1557,
  "ä¼ģ": 1558,
  "æĪ¿": 1559,
  "Ġè°": 1560,
  "ord": 1561,
  "å±ŀ": 1562,
  "äººçļĦ": 1563,
  "å¾Ģ": 1564,
  "ĠæĪĳä»¬": 1565,
  "çİĩ": 1566,
  "Ġone": 1567,
  "æĸŃ": 1568,
  "ä¸»è¦ģ": 1569,
  "æĺ¾": 1570,
  "Ġabout": 1571,
  "ä»ĸçļĦ": 1572,
  "éĻħ": 1573,
  "è·Ł": 1574,
  "ĠUn": 1575,
  "å®¢": 1576,
  "98": 1577,
  "ren": 1578,
  "æĢģ": 1579,
  "ä¼Ĺ": 1580,
  "åĩºæĿ¥": 1581,
  "Ġthey": 1582,
  "ile": 1583,
  "ä»ĭ": 1584,
  "Ġman": 1585,
  "erv": 1586,
  "ition": 1587,
  "å±Ģ": 1588,
  "Ġapp": 1589,
  "æī¾": 1590,
  "çİ¯": 1591,
  "æİ¨": 1592,
  "æŃ¦": 1593,
  "ĠçĪ": 1594,
  "ory": 1595,
  "Ġæķ": 1596,
  "vers": 1597,
  "ĠéĹ": 1598,
  "Ġèĥ½": 1599,
  "ç»´": 1600,
  "èİ·": 1601,
  "èĲ½": 1602,
  "çĥŃ": 1603,
  "æĬĢæľ¯": 1604,
  "çĶ»": 1605,
  "åĵį": 1606,
  "æĲ": 1607,
  "ark": 1608,
  "éľĢè¦ģ": 1609,
  "ater": 1610,
  "Ġper": 1611,
  "åºľ": 1612,
  "è§Ĵ": 1613,
  "ä¹ħ": 1614,
  "äº¬": 1615,
  "æĬ¤": 1616,
  "æ±Ł": 1617,
  "ens": 1618,
  "ents": 1619,
  "æĢķ": 1620,
  "åĪĹ": 1621,
  "te": 1622,
  "é£Ł": 1623,
  "ä¸ŃçļĦ": 1624,
  "æľª": 1625,
  "ç»Ī": 1626,
  "é¸": 1627,
  "åħŃ": 1628,
  "Ġè¿ĺæĺ¯": 1629,
  "Ġçİ°åľ¨": 1630,
  "èĦ¸": 1631,
  "ck": 1632,
  "ĠHe": 1633,
  "å©": 1634,
  "ĠæĻ": 1635,
  "ance": 1636,
  "Ġso": 1637,
  "åĬ¿": 1638,
  "åĪĴ": 1639,
  "çħ§": 1640,
  "å¤§åŃ¦": 1641,
  "åĨľ": 1642,
  "åħ«": 1643,
  "åħ»": 1644,
  "Ġä¹Ī": 1645,
  "æĻļ": 1646,
  "ric": 1647,
  "ä½¿çĶ¨": 1648,
  "è¶ħ": 1649,
  "ä¼¤": 1650,
  "12": 1651,
  "ll": 1652,
  "ç¬¬ä¸Ģ": 1653,
  "ree": 1654,
  "ç´ł": 1655,
  "æµİ": 1656,
  "Ġrec": 1657,
  "å¼ķ": 1658,
  "tern": 1659,
  "åĪĩ": 1660,
  "ĠåĳĢ": 1661,
  "åį¡": 1662,
  "å¤§çļĦ": 1663,
  "ä¸ĥ": 1664,
  "æĬķ": 1665,
  "èģĮ": 1666,
  "ä»Ĭå¤©": 1667,
  "Ġother": 1668,
  "ep": 1669,
  "Ġyear": 1670,
  "ĠçĿ¡": 1671,
  "åĳĬ": 1672,
  "èĩªå·±çļĦ": 1673,
  "Ġè¡": 1674,
  "åıĮ": 1675,
  "è¯·": 1676,
  "å§Ķ": 1677,
  "ä¼ģä¸ļ": 1678,
  "ä¹Ŀ": 1679,
  "æŁ¥": 1680,
  "Ġpart": 1681,
  "ä¾Ľ": 1682,
  "ä¼¼": 1683,
  "ond": 1684,
  "åįĥ": 1685,
  "ress": 1686,
  "çıŃ": 1687,
  "åĵ¥": 1688,
  "ç»Ĩ": 1689,
  "ely": 1690,
  "åŃ©": 1691,
  "Ġåĸľæ¬¢": 1692,
  "å±Ĥ": 1693,
  "Ġæīĵ": 1694,
  "'t": 1695,
  "åĨĻ": 1696,
  "åĢ¼": 1697,
  "ç»Ŀ": 1698,
  "ç§¯": 1699,
  "éĻ¤": 1700,
  "åħµ": 1701,
  "æ¡Ī": 1702,
  "ne": 1703,
  "éħį": 1704,
  "rit": 1705,
  "Ġåģļ": 1706,
  "èį¯": 1707,
  "åĪ»": 1708,
  "lic": 1709,
  "ĠåĵĪåĵĪåĵĪ": 1710,
  "Ġçī": 1711,
  "Ġsp": 1712,
  "ors": 1713,
  "very": 1714,
  "ĠæĦŁ": 1715,
  "Ġnew": 1716,
  "åĽ½å®¶": 1717,
  "åĵª": 1718,
  "Ġhad": 1719,
  "Ġits": 1720,
  "ä¸įè¿ĩ": 1721,
  "ĠåıĪ": 1722,
  "çİ©": 1723,
  "ĠÐ": 1724,
  "ä¹İ": 1725,
  "çļĦæĹ¶åĢĻ": 1726,
  "åİ¿": 1727,
  "åİĭ": 1728,
  "ph": 1729,
  "Ġåıĳ": 1730,
  "Ġåĵª": 1731,
  "ä¸įä¼ļ": 1732,
  "Ġprov": 1733,
  "éĺ²": 1734,
  "åĬ©": 1735,
  "æ²³": 1736,
  "è¿ĺæľī": 1737,
  "Ġä»¥": 1738,
  "å®¤": 1739,
  "å¢ŀ": 1740,
  "int": 1741,
  "xt": 1742,
  "èīº": 1743,
  "æĻ¯": 1744,
  "ä¸ľè¥¿": 1745,
  "Ġqu": 1746,
  "æİĴ": 1747,
  "reat": 1748,
  "å®³": 1749,
  "ç³»ç»Ł": 1750,
  "æŃĮ": 1751,
  "èĽ": 1752,
  "çĬ¶": 1753,
  "è¯Ħ": 1754,
  "å¿µ": 1755,
  "Ġdis": 1756,
  "æĺ¯ä¸Ģ": 1757,
  "ç¦ı": 1758,
  "é»Ħ": 1759,
  "å®ĺ": 1760,
  "irst": 1761,
  "Ġåº": 1762,
  "ob": 1763,
  "vel": 1764,
  "wn": 1765,
  "Ġsc": 1766,
  "åľŁ": 1767,
  "Ġè§ī": 1768,
  "è¯¾": 1769,
  "å·´": 1770,
  "Ġ7": 1771,
  "Ġè¿Ļä¸ª": 1772,
  "ä¸įèĥ½": 1773,
  "ãĢį": 1774,
  "ç«Ł": 1775,
  "æĸ½": 1776,
  "ãĢĮ": 1777,
  "ĠæĮ": 1778,
  "ose": 1779,
  "éħĴ": 1780,
  "Ġro": 1781,
  "çĶ·": 1782,
  "çĨ": 1783,
  "æİ§": 1784,
  "ings": 1785,
  "å·®": 1786,
  "é²": 1787,
  "åī§": 1788,
  "åĪĿ": 1789,
  "clud": 1790,
  "åĽ´": 1791,
  "è¿Ļç§į": 1792,
  "è´£": 1793,
  "çªģ": 1794,
  "ä¸¤ä¸ª": 1795,
  "ike": 1796,
  "ä½łä»¬": 1797,
  "Ġany": 1798,
  "11": 1799,
  "äºī": 1800,
  "æľĿ": 1801,
  "èĩ´": 1802,
  "é¦Ļ": 1803,
  "Ġsome": 1804,
  "ild": 1805,
  "Ġä¹°": 1806,
  "éĻĲ": 1807,
  "åĲĹ": 1808,
  "åħ°": 1809,
  "Ġev": 1810,
  "50": 1811,
  "è¿Ļä¹Ī": 1812,
  "è¯»": 1813,
  "----": 1814,
  "ove": 1815,
  "ä¸ºä»Ģä¹Ī": 1816,
  "äº§åĵģ": 1817,
  "å¥ĩ": 1818,
  "ĭåıĭ": 1819,
  "ays": 1820,
  "ĠçŃ": 1821,
  "ä¸ĬçļĦ": 1822,
  "Ġsa": 1823,
  "å±ħ": 1824,
  "æµĭ": 1825,
  "ĠåĨį": 1826,
  "Ġpe": 1827,
  "ä»½": 1828,
  "old": 1829,
  "çĵ": 1830,
  "éĢĤ": 1831,
  "Ġè§īå¾Ĺ": 1832,
  "å¸Ŀ": 1833,
  "ä¾ĭ": 1834,
  "åĹ¯": 1835,
  "ates": 1836,
  "Ġspe": 1837,
  "çł´": 1838,
  "åı¥": 1839,
  "Ġacc": 1840,
  "ä»ħ": 1841,
  ").": 1842,
  "Ġè¿Ļä¹Ī": 1843,
  "Ġpre": 1844,
  "ä¾Ŀ": 1845,
  "ä¸ºäºĨ": 1846,
  "ä¿¡æģ¯": 1847,
  "ool": 1848,
  "ĠèĢģ": 1849,
  "è®¾è®¡": 1850,
  "Ġher": 1851,
  "Ġover": 1852,
  "çļĦæĺ¯": 1853,
  "Ġä¸ª": 1854,
  "ĠâĢĵ": 1855,
  "éĥ¨åĪĨ": 1856,
  "å¤«": 1857,
  "Ġbeen": 1858,
  "oy": 1859,
  "åı¶": 1860,
  "å½ķ": 1861,
  "è¿Ļä¸Ģ": 1862,
  "ood": 1863,
  "åĤ": 1864,
  "Ġag": 1865,
  "éĺ¿": 1866,
  "æĿĲ": 1867,
  "Ġwork": 1868,
  "Ġç¾": 1869,
  "çļ®": 1870,
  "åįĩ": 1871,
  "åħ´": 1872,
  "èĴ": 1873,
  "æķħ": 1874,
  "hed": 1875,
  "è´Ł": 1876,
  "çķĻ": 1877,
  "Ġdes": 1878,
  "oll": 1879,
  "æĻ®": 1880,
  "Ġ'": 1881,
  "åŁŁ": 1882,
  "Ġéļ": 1883,
  "åīĳ": 1884,
  "æľįåĬ¡": 1885,
  "ç»ıæµİ": 1886,
  "åį«": 1887,
  "æľ¨": 1888,
  "äºĭæĥħ": 1889,
  "Ġæİ": 1890,
  "å¾ħ": 1891,
  "Ġ8": 1892,
  "éŃĶ": 1893,
  "30": 1894,
  "æĵ": 1895,
  "ç¼ĸ": 1896,
  "ç¾¤": 1897,
  "Ġtime": 1898,
  "éķĩ": 1899,
  "åĳ¢": 1900,
  "ĠèĢĮ": 1901,
  "Ġåī": 1902,
  "ĠSe": 1903,
  "ade": 1904,
  "æī¿": 1905,
  "fter": 1906,
  "Ġæ¯Ķ": 1907,
  "éĵģ": 1908,
  "éº": 1909,
  "æķĻèĤ²": 1910,
  "åĨ·": 1911,
  "å¾Īå¤ļ": 1912,
  "Ġgr": 1913,
  "æĽ¾": 1914,
  "ä¸¾": 1915,
  "ĠæĽ": 1916,
  "ç´§": 1917,
  "éĢļè¿ĩ": 1918,
  "ick": 1919,
  "ç¤¾ä¼ļ": 1920,
  "çļĩ": 1921,
  "ĠæĹ¶åĢĻ": 1922,
  "æĭ¿": 1923,
  "Ġinclud": 1924,
  "gr": 1925,
  "Ġthere": 1926,
  "Ġæīį": 1927,
  "ĠçĿĢ": 1928,
  "Ġkn": 1929,
  "èĤī": 1930,
  "Ġå¾Ĺ": 1931,
  "Ġè¢": 1932,
  "Ġmy": 1933,
  "ä»¤": 1934,
  "éĻ©": 1935,
  "97": 1936,
  "02": 1937,
  "å¯Ĩ": 1938,
  "ĠåĪ«": 1939,
  "åŃ¦çĶŁ": 1940,
  "ople": 1941,
  "èĭı": 1942,
  "Ġtw": 1943,
  "Ġthem": 1944,
  "çºª": 1945,
  "èĮĥ": 1946,
  "æĽ²": 1947,
  "åħ¶ä»ĸ": 1948,
  "ĠThis": 1949,
  "ä»¥åıĬ": 1950,
  "Ġoff": 1951,
  "ont": 1952,
  "ä¸ĵä¸ļ": 1953,
  "æĥħåĨµ": 1954,
  "Ġfirst": 1955,
  "åĲĮæĹ¶": 1956,
  "æ¤": 1957,
  "æĿ¿": 1958,
  "æ±ī": 1959,
  "Ġæ¸": 1960,
  "ĠåĮ": 1961,
  "les": 1962,
  "åĽŃ": 1963,
  ",âĢľ": 1964,
  "ç»ĥ": 1965,
  "ç»ĩ": 1966,
  "èĦĳ": 1967,
  "ĠéĻ": 1968,
  "åıªæĺ¯": 1969,
  "ans": 1970,
  "Ġåĩł": 1971,
  "å§Ĳ": 1972,
  "ons": 1973,
  "èĹ": 1974,
  "Ġçº": 1975,
  "é¥Ń": 1976,
  "ĠAs": 1977,
  "amp": 1978,
  "æ³¢": 1979,
  "æį¢": 1980,
  "åı«": 1981,
  "ational": 1982,
  "éĤ£ä¹Ī": 1983,
  "çīĮ": 1984,
  "å¿Ĺ": 1985,
  "çĭ¬": 1986,
  "é¡»": 1987,
  "Ġå¿ĥ": 1988,
  "Ġæī¾": 1989,
  "ft": 1990,
  "æĶ»": 1991,
  "èĻ½çĦ¶": 1992,
  "Ġå¤©": 1993,
  "ĠçĪ±": 1994,
  "å°¼": 1995,
  "Ġ=": 1996,
  "Ġ9": 1997,
  "ĠçĶŁ": 1998,
  "åıĳçİ°": 1999,
  "Ġå¿«": 2000,
  "Ġbec": 2001,
  "åĢĴ": 2002,
  "ç¾İåĽ½": 2003,
  "çŀ": 2004,
  "Ġif": 2005,
  "åĨ²": 2006,
  "å¸®": 2007,
  "å°½": 2008,
  "Ġcomm": 2009,
  "æĭ©": 2010,
  "ĠæīĢ": 2011,
  "æĪĲä¸º": 2012,
  "èĤ¡": 2013,
  "åħ¶ä¸Ń": 2014,
  "æ¸©": 2015,
  "å¥ĸ": 2016,
  "urn": 2017,
  "Ġfe": 2018,
  "Ġå½ĵ": 2019,
  "è¿ĻéĩĮ": 2020,
  "ä¸įåĲĮ": 2021,
  "Ġinto": 2022,
  "å¤ľ": 2023,
  "ä½ľä¸º": 2024,
  "éĨ": 2025,
  "ĠåĺĽ": 2026,
  "åĳ³": 2027,
  "ä¸ĢäºĽ": 2028,
  "we": 2029,
  "Ġè¢«": 2030,
  "ĠçľŁçļĦ": 2031,
  "ĠCan": 2032,
  "Ġå¥¹": 2033,
  "è¯į": 2034,
  "æīĢæľī": 2035,
  "Ġä¸ī": 2036,
  "Ġåĵ¦": 2037,
  "å¼Ł": 2038,
  "ath": 2039,
  "éĿŀå¸¸": 2040,
  "çŃĶ": 2041,
  "é¼": 2042,
  "ä¹Łä¸į": 2043,
  "çĶŁæ´»": 2044,
  "åģĩ": 2045,
  "å¼Ĥ": 2046,
  "ific": 2047,
  "çľŁçļĦ": 2048,
  "è¯´éģĵ": 2049,
  "Ġwhen": 2050,
  "Ġour": 2051,
  "éĩĩ": 2052,
  "Ð¾": 2053,
  "çĽ´æİ¥": 2054,
  "æķ¢": 2055,
  "Ġwould": 2056,
  "land": 2057,
  "æŃ¢": 2058,
  "æĥĬ": 2059,
  "ĠèĤ": 2060,
  "ä¹ĭåīį": 2061,
  "Ġ0": 2062,
  "åŁºæľ¬": 2063,
  "ĠçĤ": 2064,
  "Ġè¶": 2065,
  "æ¸¸æĪı": 2066,
  "ä¸ĢèĪ¬": 2067,
  "Ġå¦Ĥ": 2068,
  "åºĹ": 2069,
  "åĿĩ": 2070,
  "Ġè·Ł": 2071,
  "io": 2072,
  "ased": 2073,
  "als": 2074,
  "å®Ĺ": 2075,
  "rough": 2076,
  "ĠåĵĪåĵĪ": 2077,
  "çļĦè¯Ŀ": 2078,
  "Ġæĺİ": 2079,
  "ĠçŃī": 2080,
  "æ¥ļ": 2081,
  "éĩįè¦ģ": 2082,
  "æľīäºĽ": 2083,
  "åįı": 2084,
  "ts": 2085,
  "èĥ½å¤Ł": 2086,
  "éĻĪ": 2087,
  "ä¸¥": 2088,
  "Ġhow": 2089,
  "iss": 2090,
  "ä¸Ģæł·": 2091,
  "èĢĮä¸Ķ": 2092,
  "çĦ¶åĲİ": 2093,
  "éĺµ": 2094,
  "è¡£": 2095,
  "ĩĤ": 2096,
  "ĠåŃ¦": 2097,
  "Ġplay": 2098,
  "èĥĮ": 2099,
  "å¸Į": 2100,
  "åĩºçİ°": 2101,
  "å¨ģ": 2102,
  "man": 2103,
  "åħļ": 2104,
  "ĠCom": 2105,
  "ĠéĿ": 2106,
  "Ġ10": 2107,
  "è¯ī": 2108,
  "åºĶè¯¥": 2109,
  "ĠéĹ®": 2110,
  "aw": 2111,
  "ĠæĹ©": 2112,
  "Ð°": 2113,
  "è°ģ": 2114,
  "ĠæĬĬ": 2115,
  "æĸĹ": 2116,
  "use": 2117,
  "å¾ĭ": 2118,
  "åº§": 2119,
  "äº®": 2120,
  "åį°": 2121,
  "æ¯į": 2122,
  "ious": 2123,
  "Ġadd": 2124,
  "æ¥¼": 2125,
  "ä»Ļ": 2126,
  "è®²": 2127,
  "ited": 2128,
  "ä¸Ģå®ļ": 2129,
  "åĿĹ": 2130,
  "ĠEn": 2131,
  "æħ¢": 2132,
  "èĭ¦": 2133,
  "æ¯ķ": 2134,
  "ä¸Ŀ": 2135,
  "èŀ": 2136,
  "å¯Į": 2137,
  "96": 2138,
  "ä¸ªäºº": 2139,
  "èĥ½åĬĽ": 2140,
  "Ġ.": 2141,
  "æĸĩåĮĸ": 2142,
  "èĭ¥": 2143,
  "åŃ©åŃĲ": 2144,
  "è§īå¾Ĺ": 2145,
  "Ġam": 2146,
  "ĠAr": 2147,
  "Ġtra": 2148,
  "åįļ": 2149,
  "éĢģ": 2150,
  "åŃ¦ä¹ł": 2151,
  "Ġco": 2152,
  "éĽ·": 2153,
  "ĠDe": 2154,
  "ĠNew": 2155,
  "æĭħ": 2156,
  "Ġåħ¶": 2157,
  "çĶļ": 2158,
  "Ġæ°": 2159,
  "è¿Ļæĺ¯": 2160,
  "å³": 2161,
  "15": 2162,
  "Ġèĥ": 2163,
  "ç¯": 2164,
  "ä¸ĭæĿ¥": 2165,
  "çľĭåĪ°": 2166,
  "æĶ¿åºľ": 2167,
  "æĮī": 2168,
  "æ½": 2169,
  "Ġéĺ": 2170,
  "ink": 2171,
  "åľ£": 2172,
  "ĠWh": 2173,
  "æģ©": 2174,
  "çĸĹ": 2175,
  "æĦŁè§ī": 2176,
  "æĸ¹éĿ¢": 2177,
  "èĩªçĦ¶": 2178,
  "¿Ģ": 2179,
  "å¸Ĥåľº": 2180,
  "åħ¶å®ŀ": 2181,
  "Ġåľ°": 2182,
  "Ġfl": 2183,
  "ĠAl": 2184,
  "éĶĢ": 2185,
  "Ġlike": 2186,
  "red": 2187,
  "æĭ¬": 2188,
  "æ¦Ĥ": 2189,
  "Ġpeople": 2190,
  "Ġtwo": 2191,
  "ock": 2192,
  "é¢Ħ": 2193,
  "éĴŁ": 2194,
  "éĿĻ": 2195,
  "Ġè½": 2196,
  "ç»§": 2197,
  "ced": 2198,
  "å¥½çļĦ": 2199,
  "éĵ¶": 2200,
  "åĳµ": 2201,
  "formation": 2202,
  "å½±åĵį": 2203,
  "ĠæĹł": 2204,
  "åī¯": 2205,
  "çº³": 2206,
  "çŃĸ": 2207,
  "orn": 2208,
  "éĻĨ": 2209,
  "ä½Ļ": 2210,
  "åı¦": 2211,
  "åħħ": 2212,
  "æ¬¾": 2213,
  "Ġind": 2214,
  "æ´¾": 2215,
  "ĠWe": 2216,
  "Ġthan": 2217,
  "iew": 2218,
  "Ġåķ¥": 2219,
  "Ġè®©": 2220,
  "Ġé«ĺ": 2221,
  "è¿½": 2222,
  "çĳ": 2223,
  "åŃ¦æł¡": 2224,
  "å¦Ĥä½ķ": 2225,
  "bs": 2226,
  "è®Ń": 2227,
  ")ãĢĤ": 2228,
  "ä¸Ģä¸ĭ": 2229,
  "çĪ¶": 2230,
  "±¼": 2231,
  "Ġ$": 2232,
  "ĠçĶµ": 2233,
  "com": 2234,
  "å²ģ": 2235,
  "lect": 2236,
  "ĠåĿ": 2237,
  "éĽ¨": 2238,
  "æł¸": 2239,
  "Ġçĥ": 2240,
  "æŀĲ": 2241,
  "ä¸įè¦ģ": 2242,
  "hen": 2243,
  "åħ³ç³»": 2244,
  "å¯¹äºİ": 2245,
  "uring": 2246,
  "Ġè¿Ļæł·": 2247,
  "ities": 2248,
  "ç»Ħç»ĩ": 2249,
  "èĳĹ": 2250,
  "âĢĿ,": 2251,
  "meric": 2252,
  "å¤§å®¶": 2253,
  "Ġspec": 2254,
  "ĠçĶ¨": 2255,
  "çĽĺ": 2256,
  "Ġprodu": 2257,
  "æĴŃ": 2258,
  "Ġæµ": 2259,
  "åı³": 2260,
  "é¡¿": 2261,
  "Ġè´": 2262,
  "Ġä¸Ń": 2263,
  "Ġunder": 2264,
  "Ġmay": 2265,
  "Ġéķ": 2266,
  "åº·": 2267,
  "chool": 2268,
  "æĸ¹æ³ķ": 2269,
  "ics": 2270,
  "åĵĪåĵĪåĵĪ": 2271,
  "éĢīæĭ©": 2272,
  "ward": 2273,
  "æĢª": 2274,
  "åıªæľī": 2275,
  "ĠåĲİ": 2276,
  "Ġinter": 2277,
  "Ġä¸įè¦ģ": 2278,
  "Ġserv": 2279,
  "Ġç©": 2280,
  "éĻį": 2281,
  "Ġbl": 2282,
  "Ġç§": 2283,
  "ĠéĤ£ä¹Ī": 2284,
  "Ġçİ©": 2285,
  "Ġra": 2286,
  "æ£Ģ": 2287,
  "Ġget": 2288,
  "æĪĸèĢħ": 2289,
  "olog": 2290,
  "çİī": 2291,
  "ç¥¨": 2292,
  "åĲ¸": 2293,
  "ä¹¡": 2294,
  "è´¢": 2295,
  "å·¦": 2296,
  "èĨ": 2297,
  "æĭį": 2298,
  "Ġå®Į": 2299,
  "è¿°": 2300,
  "rans": 2301,
  "Ġä½łä»¬": 2302,
  "æľĢåĲİ": 2303,
  "Ġbet": 2304,
  "Ġwhat": 2305,
  "å°Ħ": 2306,
  "ual": 2307,
  "Ġshe": 2308,
  "åįł": 2309,
  "æ¸¯": 2310,
  "çķ¥": 2311,
  "æĪĳçļĦ": 2312,
  "Ġç¾İ": 2313,
  "Ġact": 2314,
  "åľ°æĸ¹": 2315,
  "Ġæł": 2316,
  "ä¼ĳ": 2317,
  "æİī": 2318,
  ".\"": 2319,
  "ject": 2320,
  "hip": 2321,
  "æıĲä¾Ľ": 2322,
  "ert": 2323,
  "çĽĳ": 2324,
  "get": 2325,
  "åĿĲ": 2326,
  "ĠæĽ´": 2327,
  "arch": 2328,
  "ä¹±": 2329,
  "ife": 2330,
  "æ¯Ľ": 2331,
  "Ġcol": 2332,
  "åĲ¦": 2333,
  "Ġmost": 2334,
  "Ġä½Ĩæĺ¯": 2335,
  "åģľ": 2336,
  ");": 2337,
  "ĠåĬł": 2338,
  "94": 2339,
  "Ġå±": 2340,
  "Ġä¸¤": 2341,
  "çĽĬ": 2342,
  "æķ°æį®": 2343,
  "Ġpr": 2344,
  "oth": 2345,
  "å·¨": 2346,
  "åħį": 2347,
  "æĢ¥": 2348,
  "èī¯": 2349,
  "ä¸´": 2350,
  "æĿ¾": 2351,
  "ener": 2352,
  "åĮħæĭ¬": 2353,
  "æľĭåıĭ": 2354,
  "Ġinformation": 2355,
  "é½": 2356,
  "Ġcons": 2357,
  "Ġèµ°": 2358,
  "çŁŃ": 2359,
  "ied": 2360,
  "æ¯Ķè¾ĥ": 2361,
  "æ¿Ģ": 2362,
  "å¥Ĺ": 2363,
  "ä¸ĢçĽ´": 2364,
  "Ġpo": 2365,
  "ĠæĻļ": 2366,
  "æĻº": 2367,
  "Ġafter": 2368,
  "Ġtr": 2369,
  "Ġå·²": 2370,
  "ork": 2371,
  "¯å®ļ": 2372,
  "Ġèµ·": 2373,
  "åĪĺ": 2374,
  "é±¼": 2375,
  "è®¤ä¸º": 2376,
  "ç«¯": 2377,
  "èıľ": 2378,
  "æĭĽ": 2379,
  "Ġloc": 2380,
  "ä½Ľ": 2381,
  "Ðµ": 2382,
  "Ġthrough": 2383,
  "é¡¹çĽ®": 2384,
  "ug": 2385,
  "Ġreg": 2386,
  "å¯Ł": 2387,
  "ĠAmeric": 2388,
  "äºĴ": 2389,
  "æĿ¥çļĦ": 2390,
  "ç§Ģ": 2391,
  "Ġno": 2392,
  "ç£": 2393,
  "éĢĢ": 2394,
  "16": 2395,
  "åĸĦ": 2396,
  "ĠèĦ": 2397,
  "è´§": 2398,
  "ĠLe": 2399,
  "Ġæ³": 2400,
  "åłĤ": 2401,
  "çłģ": 2402,
  "95": 2403,
  "ĠPro": 2404,
  "Ġé»": 2405,
  "ä¸Ńå¿ĥ": 2406,
  "Ġyears": 2407,
  "ps": 2408,
  "ç´¢": 2409,
  "ivers": 2410,
  "Ġä¸įè¿ĩ": 2411,
  "Ġonly": 2412,
  "å¥¥": 2413,
  "Ġem": 2414,
  "èĵ": 2415,
  "Ġæ´": 2416,
  "ular": 2417,
  "é¢ĳ": 2418,
  "Ġatt": 2419,
  "æĸ¹å¼ı": 2420,
  "ily": 2421,
  "Ġå¥³": 2422,
  "ä½łçļĦ": 2423,
  "æĦ¿": 2424,
  "Ġç®": 2425,
  "éĽª": 2426,
  "ful": 2427,
  "tt": 2428,
  "Ġæīĭ": 2429,
  "éĤ£ä¸ª": 2430,
  "èĹı": 2431,
  "ãģ": 2432,
  "åŁ¹": 2433,
  "å®«": 2434,
  "ĠåĲ¬": 2435,
  "èĦļ": 2436,
  "çĶļèĩ³": 2437,
  "æĺ¥": 2438,
  "rib": 2439,
  "æķ£": 2440,
  "ating": 2441,
  "Ġuse": 2442,
  "åĩºäºĨ": 2443,
  "Ġhel": 2444,
  "å²Ľ": 2445,
  "è´µ": 2446,
  "Ġbu": 2447,
  "ä¹ĭéĹ´": 2448,
  "ms": 2449,
  "Ġæľ¬": 2450,
  "Ġsy": 2451,
  "åĸľ": 2452,
  "ĠæĶ¾": 2453,
  "åıĳçĶŁ": 2454,
  "è¾ĵ": 2455,
  "ç¬¬äºĮ": 2456,
  "ĠçĤ¹": 2457,
  "ise": 2458,
  "Ð¸": 2459,
  "å®Įåħ¨": 2460,
  "å·¥ç¨ĭ": 2461,
  "äººæ°ĳ": 2462,
  "ç§ĳåŃ¦": 2463,
  "erson": 2464,
  "ments": 2465,
  "æ´²": 2466,
  "eth": 2467,
  "18": 2468,
  "Ġneed": 2469,
  "æ¹ĸ": 2470,
  "èĥľ": 2471,
  "Ġéķ¿": 2472,
  "gan": 2473,
  "Ġæ¯ı": 2474,
  "¬¼": 2475,
  "Ġpub": 2476,
  "åŃ£": 2477,
  "ict": 2478,
  "ç§»": 2479,
  "Ġæį": 2480,
  "åĽ½éĻħ": 2481,
  "Ã©": 2482,
  "åħ¸": 2483,
  "åĲ«": 2484,
  "å®Ī": 2485,
  "Ġé£": 2486,
  "æİĮ": 2487,
  "åı¯æĺ¯": 2488,
  "......âĢĿ": 2489,
  "æļĹ": 2490,
  "Ġwhere": 2491,
  "ä»»ä½ķ": 2492,
  "Ġä¸įä¼ļ": 2493,
  "æ¯Ĵ": 2494,
  "æ´»åĬ¨": 2495,
  "Ġjust": 2496,
  "éľ²": 2497,
  "å¦Ī": 2498,
  "æĬĹ": 2499,
  "éģĩ": 2500,
  "ä¸½": 2501,
  "Ġinc": 2502,
  "é¦Ĩ": 2503,
  "Ń¦": 2504,
  "ĠæĦŁè§ī": 2505,
  "Ġsuch": 2506,
  "ä¸Ģèµ·": 2507,
  "çĶ²": 2508,
  "ĠçĦ": 2509,
  "ĠSh": 2510,
  "Ġrel": 2511,
  "row": 2512,
  "Ġ|": 2513,
  "ever": 2514,
  "æłĳ": 2515,
  "çļĦå¤§": 2516,
  "ĠÂ·": 2517,
  "ning": 2518,
  "ix": 2519,
  "ä¸Ģæ¬¡": 2520,
  "ring": 2521,
  "åįĪ": 2522,
  "åģ¥": 2523,
  "è¡¥": 2524,
  "ç¡Ģ": 2525,
  "åĨħå®¹": 2526,
  "å¾ģ": 2527,
  "ident": 2528,
  "Ġph": 2529,
  "é¹": 2530,
  "çīĽ": 2531,
  "èįī": 2532,
  "èŀį": 2533,
  "è¦ģæ±Ĥ": 2534,
  "æĭ¥": 2535,
  "çŃĳ": 2536,
  "Ġmod": 2537,
  "ĠãĢģ": 2538,
  "çİ¯å¢ĥ": 2539,
  "ç»ľ": 2540,
  "è½½": 2541,
  "ĠçľĭåĪ°": 2542,
  "çĸĳ": 2543,
  "éĿł": 2544,
  "fore": 2545,
  "Ġwell": 2546,
  "ton": 2547,
  "åĪĢ": 2548,
  "é¡º": 2549,
  "éĹ»": 2550,
  "åİĨåı²": 2551,
  "éĤ£äºĽ": 2552,
  "14": 2553,
  "ĠFor": 2554,
  "Ġrem": 2555,
  "èİ·å¾Ĺ": 2556,
  "hes": 2557,
  "å¤ı": 2558,
  "ures": 2559,
  "æī¹": 2560,
  "èĸ": 2561,
  "Ġstud": 2562,
  "åĸľæ¬¢": 2563,
  "ences": 2564,
  "Ġ[": 2565,
  "Ġsaid": 2566,
  "Ġdif": 2567,
  "çĶŁäº§": 2568,
  "åĬŁèĥ½": 2569,
  "ĠåĽŀæĿ¥": 2570,
  "ouse": 2571,
  "æ²Ļ": 2572,
  "è¿Ľåħ¥": 2573,
  "åºı": 2574,
  "Ġmake": 2575,
  "Ġä»Ĭå¤©": 2576,
  "è½¯": 2577,
  "çīĻ": 2578,
  "Ġret": 2579,
  "å®īåħ¨": 2580,
  "å»ºè®¾": 2581,
  "å¦ĤæŃ¤": 2582,
  "az": 2583,
  "ower": 2584,
  "Ġä¸Ģèµ·": 2585,
  "è·ĳ": 2586,
  "è·Ŀ": 2587,
  "ale": 2588,
  "Ġè¾": 2589,
  "ĠçĶ·": 2590,
  "æ¢¦": 2591,
  "é¡¾": 2592,
  "çľĭçĿĢ": 2593,
  "åĶĲ": 2594,
  "æ²ī": 2595,
  "æ¬§": 2596,
  "ç©¿": 2597,
  "ĠèĬ": 2598,
  "day": 2599,
  "éĩĬ": 2600,
  "Ġå¹´": 2601,
  "æİ§åĪ¶": 2602,
  "é¡¶": 2603,
  "ä»£è¡¨": 2604,
  "åŃĺåľ¨": 2605,
  "Ġsupp": 2606,
  "Ġç¬¬äºĮ": 2607,
  "Ġå¸¦": 2608,
  "ting": 2609,
  "Ġå·²ç»ı": 2610,
  "åĪĨæŀĲ": 2611,
  "Ġ&": 2612,
  "æīĺ": 2613,
  "Ġimp": 2614,
  "é¢Ŀ": 2615,
  "æĿĤ": 2616,
  "13": 2617,
  "oss": 2618,
  "æĿ¨": 2619,
  "ä½ľåĵģ": 2620,
  "\",": 2621,
  "çĹĽ": 2622,
  "å¼¹": 2623,
  "å°ģ": 2624,
  "åľ°åĮº": 2625,
  "å¿ħé¡»": 2626,
  "Ġinv": 2627,
  "æĵį": 2628,
  "æĹ¥æľ¬": 2629,
  "ah": 2630,
  "ĠæīĢä»¥": 2631,
  "Ġä½Ĩ": 2632,
  "Ġä¸Ģä¸ĭ": 2633,
  "è´Ń": 2634,
  "any": 2635,
  "Ġèĭ": 2636,
  "âĢĿãĢĤ": 2637,
  "ç¤¼": 2638,
  "ys": 2639,
  "çĤ¼": 2640,
  "ars": 2641,
  "ative": 2642,
  "ä»ĺ": 2643,
  "ĠHow": 2644,
  "éª¨": 2645,
  "æĦıæĢĿ": 2646,
  "Ġass": 2647,
  "å©ļ": 2648,
  "æŁĲ": 2649,
  "å´": 2650,
  "åĳ¼": 2651,
  "å®£": 2652,
  "elf": 2653,
  "25": 2654,
  "ĠçĦ¶": 2655,
  "Ġthese": 2656,
  "åŁºç¡Ģ": 2657,
  "Ġsec": 2658,
  "Ġ/": 2659,
  "ĠãĢĬ": 2660,
  "Ġset": 2661,
  "ĠåºĶ": 2662,
  "è¸": 2663,
  "èŃ¦": 2664,
  "Ġèº": 2665,
  "åįĸ": 2666,
  "Ġback": 2667,
  "æ·¡": 2668,
  "Ġä»İ": 2669,
  "oh": 2670,
  "Ġè¿ĺæľī": 2671,
  "ins": 2672,
  "ash": 2673,
  "çĶ°": 2674,
  "ĠEx": 2675,
  "æŀ¶": 2676,
  "è´¥": 2677,
  "au": 2678,
  "è¿ĩç¨ĭ": 2679,
  "Ġä¸įèĥ½": 2680,
  "åĩı": 2681,
  "its": 2682,
  "è¾ĳ": 2683,
  "ĠåĽł": 2684,
  "Ġprovide": 2685,
  "éĺ¶": 2686,
  "Ġmany": 2687,
  "çĶµå½±": 2688,
  "èĻļ": 2689,
  "çĩ": 2690,
  "ç¬Ķ": 2691,
  "åĽłæŃ¤": 2692,
  "åĿļ": 2693,
  "å®ģ": 2694,
  "Ġèģ": 2695,
  "Ġfil": 2696,
  "æĹłæ³ķ": 2697,
  "ows": 2698,
  "ĠæŃ£": 2699,
  "Ġused": 2700,
  "Ġhelp": 2701,
  "ility": 2702,
  "ä¸ĢçĤ¹": 2703,
  "çĨŁ": 2704,
  "ä¼°": 2705,
  "Ġfam": 2706,
  "æ··": 2707,
  "æĿ¥è¯´": 2708,
  "ĠäºĮ": 2709,
  "Ġç¥": 2710,
  "Ġåħ³": 2711,
  ",\"": 2712,
  "æĤ¨": 2713,
  "Ġpol": 2714,
  "Ġè°ģ": 2715,
  "Ġéļ¾": 2716,
  "æĪĲäºĨ": 2717,
  "ç»į": 2718,
  "Ġart": 2719,
  "å¹´çļĦ": 2720,
  "è¯Ĺ": 2721,
  "ier": 2722,
  "Ġfin": 2723,
  "stem": 2724,
  "æī§": 2725,
  "ĠYou": 2726,
  "è¿ĲåĬ¨": 2727,
  "Ġæ±": 2728,
  "air": 2729,
  "Ġinst": 2730,
  "ä½ľçĶ¨": 2731,
  "cess": 2732,
  "å¿Ļ": 2733,
  "æİĪ": 2734,
  "The": 2735,
  "åĸĿ": 2736,
  "aking": 2737,
  "åĨ°": 2738,
  "ĠåĲĮ": 2739,
  "åĶ±": 2740,
  "ause": 2741,
  "iel": 2742,
  "Ġmed": 2743,
  "Ð½": 2744,
  "010": 2745,
  "æĮ¥": 2746,
  "Ġfun": 2747,
  "ä¸°": 2748,
  "Ġå®¶": 2749,
  "velop": 2750,
  "ĠçĻ": 2751,
  "17": 2752,
  "Ġéģ": 2753,
  "Ġ:": 2754,
  "èĽĭ": 2755,
  "æĶ¯æĮģ": 2756,
  "èľ": 2757,
  "ey": 2758,
  "è´Łè´£": 2759,
  "å°Ĭ": 2760,
  "ä¸įçŁ¥éģĵ": 2761,
  "èĪª": 2762,
  "åĲĦç§į": 2763,
  "çĿ¡": 2764,
  "ience": 2765,
  "è¿·": 2766,
  "é¬¼": 2767,
  "Ġac": 2768,
  "ĠAd": 2769,
  "ä¼Ļ": 2770,
  "å½Ĵ": 2771,
  "å³°": 2772,
  "==": 2773,
  "åĩºçīĪ": 2774,
  "Ġæĸ°": 2775,
  "ç®Ģä»ĭ": 2776,
  "ä¸įåĪ°": 2777,
  "¤Ĳ": 2778,
  "ä¸¹": 2779,
  "å½©": 2780,
  "ĠæĪĲ": 2781,
  "Ġent": 2782,
  "80": 2783,
  "ĠOn": 2784,
  "åŃ¦éĻ¢": 2785,
  "æķĳ": 2786,
  "åĬ³": 2787,
  "å®¡": 2788,
  "cy": 2789,
  "åĶ®": 2790,
  "Ġpres": 2791,
  "pect": 2792,
  "Ġcould": 2793,
  "Ġsm": 2794,
  "éĿ©": 2795,
  "åħ·æľī": 2796,
  "ĠéĴ": 2797,
  "ãĢģãĢĬ": 2798,
  "ĠCl": 2799,
  "æģĲ": 2800,
  "ty": 2801,
  "tle": 2802,
  "way": 2803,
  "Ġhim": 2804,
  "ç§ĺ": 2805,
  "çĥĪ": 2806,
  "æ¤į": 2807,
  "Ġmem": 2808,
  "ss": 2809,
  "å½ĵçĦ¶": 2810,
  "ç»ĵæŀĦ": 2811,
  "éĶ®": 2812,
  "Ġthen": 2813,
  "ible": 2814,
  "ax": 2815,
  "éĨĴ": 2816,
  "å¡Ķ": 2817,
  "ata": 2818,
  "ames": 2819,
  "ices": 2820,
  "oup": 2821,
  "40": 2822,
  "ÑĢ": 2823,
  "90": 2824,
  "äººåĳĺ": 2825,
  "ç»ĵæŀľ": 2826,
  "ãĢĲ": 2827,
  "irect": 2828,
  "ĠSc": 2829,
  "åĺ¿": 2830,
  "ten": 2831,
  "äº«": 2832,
  "ven": 2833,
  "è¡Ĺ": 2834,
  "ines": 2835,
  "Ġä¸Ģæł·": 2836,
  "ä¸įå¾Ĺ": 2837,
  "æĭ¥æľī": 2838,
  "ull": 2839,
  "çĪ·": 2840,
  "93": 2841,
  "ize": 2842,
  "Ġnum": 2843,
  "çĶ±äºİ": 2844,
  "ç²ī": 2845,
  "Ġç¬¬ä¸Ģ": 2846,
  "ä¹ĭä¸Ģ": 2847,
  "Ġ*": 2848,
  "å¸ĮæľĽ": 2849,
  "èĮ¶": 2850,
  "æĢĢ": 2851,
  "Ġçĭ": 2852,
  "å½ĵæĹ¶": 2853,
  "åĺ´": 2854,
  "è°Ī": 2855,
  "éŃĤ": 2856,
  "éĺ´": 2857,
  "Ġmade": 2858,
  "åª": 2859,
  "Ġå¦Ĥæŀľ": 2860,
  "å¦¹": 2861,
  "Ġser": 2862,
  "ãĢĳ": 2863,
  "èĪ¹": 2864,
  "Ġéĩį": 2865,
  "çĻ»": 2866,
  "ĠBe": 2867,
  "æ¯«": 2868,
  "çĪĨ": 2869,
  "éĩİ": 2870,
  "âĢĻ": 2871,
  "ç¯ĩ": 2872,
  "è¿ĩåİ»": 2873,
  "Ġcre": 2874,
  "åĩłä¸ª": 2875,
  "è¿ĩæĿ¥": 2876,
  "Ġexper": 2877,
  "ĠéĤ£ä¸ª": 2878,
  "ient": 2879,
  "çĺ": 2880,
  "Ġæ¬": 2881,
  "æķĮ": 2882,
  "Ġevery": 2883,
  "ä¸Ģç§į": 2884,
  "éľĩ": 2885,
  "ãĥ": 2886,
  "ason": 2887,
  "ä¿ĿæĬ¤": 2888,
  "åĩ¡": 2889,
  "åİĤ": 2890,
  "Ġhigh": 2891,
  "ç¼º": 2892,
  "ract": 2893,
  "ĠéĩĮ": 2894,
  "ç¿»": 2895,
  "Ġpop": 2896,
  "Ġmin": 2897,
  "èº«ä½ĵ": 2898,
  "åĩĨå¤ĩ": 2899,
  "ek": 2900,
  "Ġtrans": 2901,
  "æĹħ": 2902,
  "cial": 2903,
  "å¼Ģåıĳ": 2904,
  "Ġç»ĵ": 2905,
  "åŁİå¸Ĥ": 2906,
  "ç¨³": 2907,
  "ç¥ĸ": 2908,
  "æ°¸": 2909,
  "ä¹ĭä¸Ń": 2910,
  "çŁ¥è¯Ĩ": 2911,
  "ĠAnd": 2912,
  "Ġcall": 2913,
  "Ġend": 2914,
  "ange": 2915,
  "æłĩåĩĨ": 2916,
  "æĬķèµĦ": 2917,
  "arg": 2918,
  "èµµ": 2919,
  "Ġäºĭ": 2920,
  "éŁ³ä¹Ĳ": 2921,
  "Ġform": 2922,
  "Ġçī¹": 2923,
  "iet": 2924,
  "è¶£": 2925,
  "éº»": 2926,
  "éĿ¢ç§¯": 2927,
  "å¤ĦçĲĨ": 2928,
  "æĳĩ": 2929,
  "ĠçĮ": 2930,
  "Ġé¢": 2931,
  "ince": 2932,
  "æŀª": 2933,
  "èİ«": 2934,
  "åºĬ": 2935,
  "éķľ": 2936,
  "Ġ12": 2937,
  "60": 2938,
  "åĬĽéĩı": 2939,
  "ä¼Ĭ": 2940,
  "ĠåºĶè¯¥": 2941,
  "ĠåĪĨ": 2942,
  "æ¸Ĳ": 2943,
  "æľ«": 2944,
  "æĶ¶åħ¥": 2945,
  "iness": 2946,
  "Ġ20": 2947,
  "æģ¶": 2948,
  "ĠAmerican": 2949,
  "æİ¢": 2950,
  "iversity": 2951,
  "åºŃ": 2952,
  "pr": 2953,
  "èĪŀ": 2954,
  "ollow": 2955,
  "åįķä½į": 2956,
  "ĠåŁ": 2957,
  "å»ºçŃĳ": 2958,
  "èĻĳ": 2959,
  "ished": 2960,
  "ç§¦": 2961,
  "æ´Ľ": 2962,
  "ĠçĽ¸": 2963,
  "Ġä¸ĢçĽ´": 2964,
  "ĠåĩºæĿ¥": 2965,
  "Ġåı«": 2966,
  "ues": 2967,
  "ç¼ĵ": 2968,
  "Ġlook": 2969,
  "ween": 2970,
  "ĠZ": 2971,
  "ĠæĲ": 2972,
  "ĠåĶ": 2973,
  "Ġown": 2974,
  "æł¹æį®": 2975,
  "Ġsub": 2976,
  "uch": 2977,
  "ÑĤ": 2978,
  "ted": 2979,
  "ĠçĲ": 2980,
  "ists": 2981,
  "è½®": 2982,
  "ex": 2983,
  "çĽ®åīį": 2984,
  "èīºæľ¯": 2985,
  "Ġgu": 2986,
  "gram": 2987,
  "éĢı": 2988,
  "Ġknow": 2989,
  "Ġ<": 2990,
  "ĠéĽ": 2991,
  "å°ļ": 2992,
  "pen": 2993,
  "é½Ĳ": 2994,
  "Ġagain": 2995,
  "å·Ŀ": 2996,
  "çĶµè§Ĩ": 2997,
  "åħ¨åĽ½": 2998,
  "æĹ§": 2999,
  "åĿı": 3000,
  "åľĪ": 3001,
  "åĲĽ": 3002,
  "ision": 3003,
  "èį£": 3004,
  "ç¡¬": 3005,
  "other": 3006,
  "éĻĦ": 3007,
  "åħĦ": 3008,
  "Ġéľ": 3009,
  "çĽĸ": 3010,
  "usic": 3011,
  "åºĨ": 3012,
  "ĠåĽłä¸º": 3013,
  "æĹ¢": 3014,
  "æ£®": 3015,
  "Ġdiffer": 3016,
  "ä¸įæĸŃ": 3017,
  "éļĲ": 3018,
  "ctions": 3019,
  "Ġèº«": 3020,
  "Ġæģ": 3021,
  "ç»§ç»Ń": 3022,
  "è®¡åĪĴ": 3023,
  "åºĵ": 3024,
  "ä»¥åĲİ": 3025,
  "çĿĽ": 3026,
  "ature": 3027,
  "ĠåĸĿ": 3028,
  "co": 3029,
  "Ġå·¥": 3030,
  "åĮĹäº¬": 3031,
  "ĠQ": 3032,
  "æĪĲåĬŁ": 3033,
  "é²ľ": 3034,
  "oot": 3035,
  "æ¹¾": 3036,
  "åĽº": 3037,
  "åıªè¦ģ": 3038,
  "Ġche": 3039,
  "åĪ¤": 3040,
  "æķĻåŃ¦": 3041,
  "çģŃ": 3042,
  "éħ¸": 3043,
  "Ñģ": 3044,
  "ç¨İ": 3045,
  "çī¹åĪ«": 3046,
  "Ġear": 3047,
  "Ġåīį": 3048,
  "åıªèĥ½": 3049,
  "ĠæĢ»": 3050,
  "Ġav": 3051,
  "ä¼¦": 3052,
  "åŃĻ": 3053,
  "æ´ĭ": 3054,
  "åºĶçĶ¨": 3055,
  "éŁ©": 3056,
  "å¨ĺ": 3057,
  "ä½³": 3058,
  "Ġperson": 3059,
  "Ġå¥½çľĭ": 3060,
  "ĠåĹ¯": 3061,
  "Ġed": 3062,
  "çĽ¸åħ³": 3063,
  "éĿ¢çļĦ": 3064,
  "æł¹æľ¬": 3065,
  "ªåĬĽ": 3066,
  "Ġsur": 3067,
  "ä»ĭç»į": 3068,
  "ral": 3069,
  "éĽĦ": 3070,
  "å®ĩ": 3071,
  "Ġè¯·": 3072,
  "ä»į": 3073,
  "ĠæĹ¶éĹ´": 3074,
  "Ġdef": 3075,
  "åį·": 3076,
  "Ġéħ": 3077,
  "çĹĩ": 3078,
  "raph": 3079,
  "èģļ": 3080,
  "Ġdec": 3081,
  "ç©ºéĹ´": 3082,
  "å¹ķ": 3083,
  "19": 3084,
  "è´Ŀ": 3085,
  "æľīäºº": 3086,
  "åĲī": 3087,
  "åĢŁ": 3088,
  "æĬ±": 3089,
  "è¿Ļæł·çļĦ": 3090,
  "æļ´": 3091,
  "alth": 3092,
  "Ġbefore": 3093,
  "Ġwant": 3094,
  "Ġbeing": 3095,
  "Ġfind": 3096,
  "åĪº": 3097,
  "Ġ{": 3098,
  "é»ĺ": 3099,
  "Ġcount": 3100,
  "èĥ¡": 3101,
  "011": 3102,
  "Ġlong": 3103,
  "å¼ĥ": 3104,
  "Ġæ»": 3105,
  "çº¸": 3106,
  "åĵ¦": 3107,
  "æı¡": 3108,
  "ä¸ĭçļĦ": 3109,
  "ĠçĦ¶åĲİ": 3110,
  "Ġbetween": 3111,
  "lease": 3112,
  "æįŁ": 3113,
  "ved": 3114,
  "ather": 3115,
  "Ġvar": 3116,
  "åľĨ": 3117,
  "ĠBl": 3118,
  "è¡Įä¸ļ": 3119,
  "Ġcent": 3120,
  "ç½ĳç»ľ": 3121,
  "äº§çĶŁ": 3122,
  "æĳĦ": 3123,
  "å¼±": 3124,
  "èµĦæºĲ": 3125,
  "Ġshould": 3126,
  "èĤ¥": 3127,
  "æķ´ä¸ª": 3128,
  "Ġduring": 3129,
  "Ġåı¯èĥ½": 3130,
  "Ġæ¼": 3131,
  "çº¯": 3132,
  "Ġdet": 3133,
  "æĿŁ": 3134,
  "æŁĵ": 3135,
  "Ġçħ": 3136,
  "æ¾": 3137,
  "åį±": 3138,
  "ä¾§": 3139,
  "Ġç«": 3140,
  "ury": 3141,
  "line": 3142,
  "Ġæŀ": 3143,
  "ç»¿": 3144,
  "vern": 3145,
  "æĺ¯åľ¨": 3146,
  "ĠåĨħ": 3147,
  "ble": 3148,
  "24": 3149,
  "008": 3150,
  "ner": 3151,
  "èĴĻ": 3152,
  "åħ¬éĩĮ": 3153,
  "gg": 3154,
  "100": 3155,
  "çĭĤ": 3156,
  "ional": 3157,
  "ank": 3158,
  "Ġdon": 3159,
  "els": 3160,
  "éĴĪ": 3161,
  "å«": 3162,
  "ĠCol": 3163,
  "Ġåħ¬": 3164,
  "çªģçĦ¶": 3165,
  "Ġè§ģ": 3166,
  "ç´¯": 3167,
  "Ġdesign": 3168,
  "ç®Ģåįķ": 3169,
  "ĠåĢ": 3170,
  "Ġnow": 3171,
  "æ¶²": 3172,
  "Ġæ·": 3173,
  "Ġå§": 3174,
  "009": 3175,
  "è¿İ": 3176,
  "Ġaut": 3177,
  "--------": 3178,
  "Ġstart": 3179,
  "87": 3180,
  "Ġè®¤": 3181,
  "uc": 3182,
  "Ġeff": 3183,
  "æĺ¯ä¸Ģä¸ª": 3184,
  "æ´Ĺ": 3185,
  "ters": 3186,
  "å¾ĹåĪ°": 3187,
  "cept": 3188,
  "å§Ķåĳĺ": 3189,
  "éģį": 3190,
  "Ð¾Ð": 3191,
  "ä½įäºİ": 3192,
  "äº¦": 3193,
  "Ġdevelop": 3194,
  "ĠèĻ": 3195,
  "Ġbus": 3196,
  "Ġç²": 3197,
  "ĠInd": 3198,
  "æľºæŀĦ": 3199,
  "ãĤ": 3200,
  "Ġteam": 3201,
  "Ġbel": 3202,
  "å®ľ": 3203,
  "ĠIs": 3204,
  "outh": 3205,
  "orth": 3206,
  "å¡ŀ": 3207,
  "22": 3208,
  "chn": 3209,
  "Ġway": 3210,
  "ĠIf": 3211,
  "èĢģå¸Ī": 3212,
  "Ġcur": 3213,
  "Ġsee": 3214,
  "ä¸įå¥½": 3215,
  "Ġç½": 3216,
  "å®¹æĺĵ": 3217,
  "ç¬¦": 3218,
  "Ġ}": 3219,
  "å¤ļçļĦ": 3220,
  "èĢ³": 3221,
  "ä¼¯": 3222,
  "åĨł": 3223,
  "ives": 3224,
  "çĲĨè®º": 3225,
  "Ġé¦": 3226,
  "Ġworld": 3227,
  "view": 3228,
  "Ġç©¿": 3229,
  "åĨ³å®ļ": 3230,
  "ĠPl": 3231,
  "åķ¥": 3232,
  "ield": 3233,
  "èĤ¯å®ļ": 3234,
  "é¤Ĳ": 3235,
  "ĠæĮº": 3236,
  "ern": 3237,
  "Ġmon": 3238,
  "åħ½": 3239,
  "æĩĤ": 3240,
  "ave": 3241,
  "ĠSp": 3242,
  "Ġins": 3243,
  "ages": 3244,
  "èĦ±": 3245,
  "ãĢĭãĢģãĢĬ": 3246,
  "ĠéĶ": 3247,
  "ç¦ģ": 3248,
  "æĥ³è¦ģ": 3249,
  "Ġå®ī": 3250,
  "con": 3251,
  "Ġéª": 3252,
  "åıĤåĬł": 3253,
  "Ġdown": 3254,
  "äº¡": 3255,
  "çĽŁ": 3256,
  "min": 3257,
  "Ġeven": 3258,
  "Ġç´": 3259,
  "èµ¶": 3260,
  "Ġlead": 3261,
  "led": 3262,
  "Ġçģ": 3263,
  "ĠåİŁ": 3264,
  "è´¨éĩı": 3265,
  "å¹¸": 3266,
  "Ġcar": 3267,
  "ĠåĽĽ": 3268,
  "Ġwhile": 3269,
  "atch": 3270,
  "cent": 3271,
  "ç§ĳæĬĢ": 3272,
  "aj": 3273,
  "éĹª": 3274,
  "Ġè¶ħ": 3275,
  "åĺĽ": 3276,
  "Ġé¡": 3277,
  "ĠèĢĥ": 3278,
  "Ġä¸º": 3279,
  "Ġä¸įå¥½": 3280,
  "Ġdid": 3281,
  "ode": 3282,
  "Ġincluding": 3283,
  "åĹ": 3284,
  "äº¿": 3285,
  "æ´ŀ": 3286,
  "åĽ½åĨħ": 3287,
  "æĿ¯": 3288,
  "ĠGr": 3289,
  "å£°éŁ³": 3290,
  "Ġæĭį": 3291,
  "çĥŁ": 3292,
  "ene": 3293,
  "Ġå¹²": 3294,
  "å®ŀåĬĽ": 3295,
  "æ³¨æĦı": 3296,
  "arm": 3297,
  "è¯¯": 3298,
  "æľīä¸Ģ": 3299,
  "ç§ĭ": 3300,
  "ä½įç½®": 3301,
  "ets": 3302,
  "æıĲé«ĺ": 3303,
  "ãĢĭ,": 3304,
  "æĥ³åĪ°": 3305,
  "æ°ı": 3306,
  "Ġpass": 3307,
  "Ġè°¢": 3308,
  ")ãĢģ": 3309,
  "Ġâ": 3310,
  "Ġä»ĸä»¬": 3311,
  "Ġè®°": 3312,
  "èĶ": 3313,
  "Ġåıªæĺ¯": 3314,
  "Ġfollow": 3315,
  "è®¨": 3316,
  "Ġåħ¨": 3317,
  "012": 3318,
  "ä¸»ä¹ī": 3319,
  "Ġdoes": 3320,
  "å»¶": 3321,
  "007": 3322,
  "Ġlife": 3323,
  "çļĦå°ı": 3324,
  "çĭĹ": 3325,
  "Ġsim": 3326,
  "åİŁåĽł": 3327,
  "Ġrequ": 3328,
  "ç²¾ç¥ŀ": 3329,
  "ä¸įäºĨ": 3330,
  "è°ĵ": 3331,
  "Ġvery": 3332,
  "006": 3333,
  "çĿ£": 3334,
  "è¯º": 3335,
  "ĠEng": 3336,
  "ider": 3337,
  "ology": 3338,
  "ç´«": 3339,
  "çĶµè¯Ŀ": 3340,
  "åĲ¯": 3341,
  "ä¸ģ": 3342,
  "ĠUnited": 3343,
  "ĠThere": 3344,
  "Ġbest": 3345,
  "ution": 3346,
  "è§¦": 3347,
  "Ġclass": 3348,
  "Ġæı": 3349,
  "éģ¿": 3350,
  "Ġgood": 3351,
  "è·³": 3352,
  "ann": 3353,
  "æ¡¥": 3354,
  "é²ģ": 3355,
  "Ġå¤ĸ": 3356,
  "Ġest": 3357,
  "è®¸å¤ļ": 3358,
  "Ġfound": 3359,
  "éĢĲ": 3360,
  "èĵĿ": 3361,
  "éģĹ": 3362,
  "riv": 3363,
  "è§£åĨ³": 3364,
  "åĽ°": 3365,
  "çĽ®æłĩ": 3366,
  "Ġsystem": 3367,
  "Ġçľ¼": 3368,
  "éĻ¤äºĨ": 3369,
  "ĠPh": 3370,
  "ĠåĪļ": 3371,
  "Ġpublic": 3372,
  "23": 3373,
  "Ġæĺ¯ä¸įæĺ¯": 3374,
  "Ġåįģ": 3375,
  "Ġright": 3376,
  "Ġimport": 3377,
  "æĥľ": 3378,
  "å±Ĭ": 3379,
  "ä»·åĢ¼": 3380,
  "Ġsign": 3381,
  "ox": 3382,
  "Ġæľº": 3383,
  "ually": 3384,
  "Ġgener": 3385,
  "å®ĮæĪĲ": 3386,
  "Ġbr": 3387,
  "ç³»åĪĹ": 3388,
  "åĪĨéĴŁ": 3389,
  "ä¹Łæľī": 3390,
  "åİħ": 3391,
  "ley": 3392,
  "éĽħ": 3393,
  "ĠCon": 3394,
  "æľīåħ³": 3395,
  "Ġread": 3396,
  "rent": 3397,
  "Ġgreat": 3398,
  "çĥ¦": 3399,
  "Ġåĳ¨": 3400,
  "å¯Ĵ": 3401,
  "Ġbook": 3402,
  "Ġé»ĳ": 3403,
  "ĠæľĪ": 3404,
  "ĠæĩĤ": 3405,
  "Ġext": 3406,
  "åĲĪä½ľ": 3407,
  "è®¡ç®Ĺ": 3408,
  "imes": 3409,
  "å¸Ń": 3410,
  "ĠShe": 3411,
  "æĤ£": 3412,
  "lish": 3413,
  "å¤®": 3414,
  "åİļ": 3415,
  "Ġä¸ľè¥¿": 3416,
  "uss": 3417,
  "éĢŁåº¦": 3418,
  "ä¼´": 3419,
  "ĠUniversity": 3420,
  "Ġdist": 3421,
  "Ġå®ŀ": 3422,
  "ç«¥": 3423,
  "Ġ18": 3424,
  "æµª": 3425,
  "Ġcomple": 3426,
  "çĥ§": 3427,
  "æľĢç»Ī": 3428,
  "Ġrep": 3429,
  "èįĲ": 3430,
  "Ġschool": 3431,
  "Ġcommun": 3432,
  "//": 3433,
  "Ġeach": 3434,
  "æħķ": 3435,
  "Ġç¬¬ä¸ī": 3436,
  "æĹģ": 3437,
  "æĿ¥è¶Ĭ": 3438,
  "ä¸įåı¯": 3439,
  "å¥¶": 3440,
  "Ġvis": 3441,
  "bers": 3442,
  "äº§ä¸ļ": 3443,
  "Ġåıį": 3444,
  "å®ŀçİ°": 3445,
  "ç½ª": 3446,
  "åºĦ": 3447,
  "æľºä¼ļ": 3448,
  "Ġexp": 3449,
  "æĢĴ": 3450,
  "ute": 3451,
  "æĸ¹åĲĳ": 3452,
  "Ġty": 3453,
  "ural": 3454,
  "å¯»": 3455,
  "Ġprogram": 3456,
  "æ¼«": 3457,
  "å¹¶ä¸į": 3458,
  "è¡¨çİ°": 3459,
  "æľīéĻĲ": 3460,
  "èĻİ": 3461,
  "Ġwrit": 3462,
  "Ġå¦": 3463,
  "iving": 3464,
  "å·§": 3465,
  "ital": 3466,
  "Ġthree": 3467,
  "iver": 3468,
  "å½¢æĪĲ": 3469,
  "èĪį": 3470,
  "Ġ11": 3471,
  "èĦī": 3472,
  "å±ŀäºİ": 3473,
  "çĮ®": 3474,
  "å®ŀéĻħ": 3475,
  "ç±»åŀĭ": 3476,
  "çģ¯": 3477,
  "çľŁæŃ£": 3478,
  "Ġèµ·æĿ¥": 3479,
  "ç«ŁçĦ¶": 3480,
  "æī¬": 3481,
  "Ġsupport": 3482,
  "Ġchar": 3483,
  "è¯¸": 3484,
  "åĩºçļĦ": 3485,
  "Ġthose": 3486,
  "Ġç»ı": 3487,
  "å¿į": 3488,
  "ina": 3489,
  "21": 3490,
  "å»ºç«ĭ": 3491,
  "ohn": 3492,
  "ĠéĹ®é¢ĺ": 3493,
  "ç»©": 3494,
  "å¹¶ä¸Ķ": 3495,
  "Ġmark": 3496,
  "read": 3497,
  "Ġå¼Ģå¿ĥ": 3498,
  "ä¼¼ä¹İ": 3499,
  "ired": 3500,
  "vent": 3501,
  "ĠæľīçĤ¹": 3502,
  "ands": 3503,
  "å¿ĥä¸Ń": 3504,
  "èĢĮæĺ¯": 3505,
  "è®¾å¤ĩ": 3506,
  "èµŀ": 3507,
  "Ġter": 3508,
  "ç¼ĺ": 3509,
  "Ġcap": 3510,
  "ä¸Ĭæµ·": 3511,
  "ism": 3512,
  "ants": 3513,
  "å¤ļå°ĳ": 3514,
  "akes": 3515,
  "ĠçĽ´": 3516,
  "Ġprovid": 3517,
  "Ġi": 3518,
  "eng": 3519,
  "èĲ§": 3520,
  "Ġ16": 3521,
  "éĩĮçļĦ": 3522,
  "Ġdep": 3523,
  "ĠåħĪ": 3524,
  "Ġboth": 3525,
  "Ġdifferent": 3526,
  "é¢ľ": 3527,
  "æĢ§çļĦ": 3528,
  "èº«ä¸Ĭ": 3529,
  "Ġshow": 3530,
  "ized": 3531,
  "æ²»çĸĹ": 3532,
  "åĲ´": 3533,
  "å°±ä¼ļ": 3534,
  "éĥ¨éĹ¨": 3535,
  "iqu": 3536,
  "ĠMar": 3537,
  "Ġtext": 3538,
  "èĲ¨": 3539,
  "ç»¼": 3540,
  "Ġlist": 3541,
  "åĩºåİ»": 3542,
  "èĭ±è¯Ń": 3543,
  "Ġbecause": 3544,
  "ç«ŀ": 3545,
  "æķĪæŀľ": 3546,
  "æĶ¿æ²»": 3547,
  "åĭĴ": 3548,
  "è·Ŀç¦»": 3549,
  "éļľ": 3550,
  "ä»·æł¼": 3551,
  "005": 3552,
  "Ġchild": 3553,
  "è¾Ī": 3554,
  "istory": 3555,
  "è¿ª": 3556,
  "ä¹Į": 3557,
  "til": 3558,
  "īå®³": 3559,
  "æĬĵ": 3560,
  "æĿ°": 3561,
  "åĪ©çĶ¨": 3562,
  "Ġsk": 3563,
  "èģĬ": 3564,
  "ĠæĦı": 3565,
  "ĠçĻ½": 3566,
  "ç¬¬ä¸ī": 3567,
  "mber": 3568,
  "Ġname": 3569,
  "ness": 3570,
  "æ¨¡å¼ı": 3571,
  "Ġ15": 3572,
  "è¡¨ç¤º": 3573,
  "æ¯Ķå¦Ĥ": 3574,
  "æ±ł": 3575,
  "å¦ĸ": 3576,
  "Ġè¡¨": 3577,
  "ç³ĸ": 3578,
  "å®½": 3579,
  "angu": 3580,
  "Ġcare": 3581,
  "æ®¿": 3582,
  "Ġä¸": 3583,
  "åıĺåĮĸ": 3584,
  "æĿ¡ä»¶": 3585,
  "alk": 3586,
  "ĠThey": 3587,
  "oad": 3588,
  "è¡Įä¸º": 3589,
  "å¯¹æĸ¹": 3590,
  "çĶ³": 3591,
  "çĤİ": 3592,
  "ross": 3593,
  "é¦Ļæ¸¯": 3594,
  "Ġ#": 3595,
  "Ġå¥½å¥½": 3596,
  "è±Ĩ": 3597,
  "ron": 3598,
  "urch": 3599,
  "ç¦»å¼Ģ": 3600,
  "åħ¨éĥ¨": 3601,
  "èĪ°": 3602,
  "é¥°": 3603,
  "äºĨè§£": 3604,
  "äººåı£": 3605,
  "ä»ª": 3606,
  "ferences": 3607,
  "é¸¡": 3608,
  "Ġday": 3609,
  "ĠåĪ«äºº": 3610,
  "Ġéĺ¿": 3611,
  "åģı": 3612,
  "Ġmuch": 3613,
  "å¢ŀåĬł": 3614,
  "æĸ°çļĦ": 3615,
  "ä¼łç»Ł": 3616,
  "æĻ®éĢļ": 3617,
  "=\"": 3618,
  "åĩĢ": 3619,
  "æķħäºĭ": 3620,
  "è°·": 3621,
  "**": 3622,
  "ä¼°è®¡": 3623,
  "Ġä¸Ģå®ļ": 3624,
  "ĠTe": 3625,
  "Ġæľĭåıĭ": 3626,
  "Ġval": 3627,
  "åĩłä¹İ": 3628,
  "è°¢è°¢": 3629,
  "æĿ¥äºĨ": 3630,
  "ä»ĸä»¬çļĦ": 3631,
  "ery": 3632,
  "éĩĮéĿ¢": 3633,
  "ä¸įå¤ļ": 3634,
  "Ġhome": 3635,
  "å°ıæĹ¶": 3636,
  "åŃĲçļĦ": 3637,
  "Ġå¾Īå¤ļ": 3638,
  "å°¤": 3639,
  "ç§ģ": 3640,
  "æľīçļĦ": 3641,
  "éŀ": 3642,
  "Ġtake": 3643,
  "mm": 3644,
  "Ġdirect": 3645,
  "æĬĺ": 3646,
  "æ±ĩ": 3647,
  "Ġæĺİå¤©": 3648,
  "Ġlast": 3649,
  "èİ±": 3650,
  "ä¸ĸçºª": 3651,
  "ĠComm": 3652,
  "ording": 3653,
  "éĢĶ": 3654,
  "å¸ħ": 3655,
  "27": 3656,
  "çİ°ä»£": 3657,
  "è¾¾åĪ°": 3658,
  "çİĦ": 3659,
  "ĠæĴ": 3660,
  "çĽĽ": 3661,
  "éĢĥ": 3662,
  "Ġnumber": 3663,
  "å®ĭ": 3664,
  "æ¸ħæ¥ļ": 3665,
  "ä¸ĭåİ»": 3666,
  "çļĦäºĭæĥħ": 3667,
  "Ġè¿Ļç§į": 3668,
  "Ġhere": 3669,
  "æĿĲæĸĻ": 3670,
  "Ġä¸ĢçĤ¹": 3671,
  "26": 3672,
  "ä½ľèĢħ": 3673,
  "éªĳ": 3674,
  "ically": 3675,
  "iam": 3676,
  "Ġmain": 3677,
  "æĹ¶ä»£": 3678,
  "æ³°": 3679,
  "Ġusing": 3680,
  "Ġå¤´": 3681,
  "28": 3682,
  "Ġé¥": 3683,
  "Ġaround": 3684,
  "ality": 3685,
  "äºĮåįģ": 3686,
  "ĠèĪ": 3687,
  "Ġreturn": 3688,
  "ĠBut": 3689,
  "ĠAll": 3690,
  "Ġæĳ": 3691,
  "the": 3692,
  "enn": 3693,
  "å¸®åĬ©": 3694,
  "018": 3695,
  "Ġsl": 3696,
  "èī²çļĦ": 3697,
  "åªĴ": 3698,
  "å°±ç®Ĺ": 3699,
  "éĩĩçĶ¨": 3700,
  "de": 3701,
  "ĠäºĶ": 3702,
  "019": 3703,
  "æ¯ĶèµĽ": 3704,
  "ä»¥ä¸Ĭ": 3705,
  "çĶ¨æĪ·": 3706,
  "'m": 3707,
  "éĥ½æľī": 3708,
  "å¸ģ": 3709,
  "!!": 3710,
  "Ġå¼Ģå§ĭ": 3711,
  "è¡ĮæĶ¿": 3712,
  "åĵİ": 3713,
  "æīįèĥ½": 3714,
  "Ġwebs": 3715,
  "Ġplace": 3716,
  "åĵģçīĮ": 3717,
  "éĶħ": 3718,
  "é¢Ĩå¯¼": 3719,
  "éĥ½ä¸į": 3720,
  "æ¯ķä¸ļ": 3721,
  "åĬŀæ³ķ": 3722,
  "éĴ¢": 3723,
  "ĠHowever": 3724,
  "son": 3725,
  "åīĤ": 3726,
  "æ°´å¹³": 3727,
  "ĠçĥŃ": 3728,
  "è¾°": 3729,
  "be": 3730,
  "äº©": 3731,
  "æĭľ": 3732,
  "æ¢ħ": 3733,
  "äºİæĺ¯": 3734,
  "åĩĮ": 3735,
  "ä¸įä½ı": 3736,
  "ç¢İ": 3737,
  "ç»Ŀå¯¹": 3738,
  "Ġæ°´": 3739,
  "Ġbusiness": 3740,
  "inal": 3741,
  "ä»»åĬ¡": 3742,
  "æĶ»åĩ»": 3743,
  "çĴ": 3744,
  "çĤ¸": 3745,
  "to": 3746,
  "è§Ħå®ļ": 3747,
  "Ġåıĺ": 3748,
  "Ġrun": 3749,
  "Ġaccess": 3750,
  "Ġsame": 3751,
  "æĵįä½ľ": 3752,
  "ograph": 3753,
  "Ġåħ¶å®ŀ": 3754,
  "Ġåĥı": 3755,
  "å¥¹çļĦ": 3756,
  "rist": 3757,
  "In": 3758,
  "çľī": 3759,
  "æĽ¼": 3760,
  "çľ¼çĿĽ": 3761,
  "å¯¼èĩ´": 3762,
  "å¹³æĸ¹": 3763,
  "çº·": 3764,
  "èĮĥåĽ´": 3765,
  "çĸ¼": 3766,
  "ĠéĴ±": 3767,
  "å¿Ĩ": 3768,
  "ium": 3769,
  "Ġç¡": 3770,
  "Ġè£": 3771,
  "å±ĭ": 3772,
  "å§ĵ": 3773,
  "æ¦": 3774,
  "åıĹåĪ°": 3775,
  "¨å¤©": 3776,
  "ĠæŃ»": 3777,
  "Ġperform": 3778,
  "Ġæ¸¸": 3779,
  "ĠWor": 3780,
  "æĮĳ": 3781,
  "Ġä¸ºä»Ģä¹Ī": 3782,
  "å·¥ä¸ļ": 3783,
  "ç¾½": 3784,
  "Ġçľĭçľĭ": 3785,
  "åĪ¶ä½ľ": 3786,
  "004": 3787,
  "ĠâĢĶ": 3788,
  "ĠåĬłæ²¹": 3789,
  "ä»¿": 3790,
  "çŃ¾": 3791,
  "åĶ¯": 3792,
  "æ±½": 3793,
  "å°¾": 3794,
  "è¿¹": 3795,
  "Ġæ¢": 3796,
  "å¯¸": 3797,
  "Ġopen": 3798,
  "fl": 3799,
  "Ġæį¢": 3800,
  "Ġdel": 3801,
  "ä¸įå°ĳ": 3802,
  "Ġla": 3803,
  "Ġå¥½åĲĥ": 3804,
  "ĠJohn": 3805,
  "ĠæĤ": 3806,
  "ds": 3807,
  "ember": 3808,
  "Ġä¸»": 3809,
  "Ġè°¢è°¢": 3810,
  "æĪĲç«ĭ": 3811,
  "äººç±»": 3812,
  "ĠCount": 3813,
  "çĤ¹å¤´": 3814,
  "Ġè¡Į": 3815,
  "Ġbro": 3816,
  "Ġproduct": 3817,
  "ball": 3818,
  "æģĭ": 3819,
  "å¾Ħ": 3820,
  "ä¸ĢæŃ¥": 3821,
  "æĺİçĻ½": 3822,
  "èª": 3823,
  "Ġgl": 3824,
  "çĶµåŃĲ": 3825,
  "åĳĢ": 3826,
  "è¯Ńè¨Ģ": 3827,
  "éĽ¶": 3828,
  "Ġsecond": 3829,
  "Ġå®ĥ": 3830,
  "è£Ĥ": 3831,
  "Ġfamily": 3832,
  "reen": 3833,
  "ĠOr": 3834,
  "Ġmusic": 3835,
  "éĵ¶è¡Į": 3836,
  "ared": 3837,
  "ç¼©": 3838,
  "Ġtop": 3839,
  "Ġarea": 3840,
  "Ġsom": 3841,
  "Ġå·¥ä½ľ": 3842,
  "Ġcour": 3843,
  "Ġavail": 3844,
  "æľ±": 3845,
  "å·¦åı³": 3846,
  "Ġuntil": 3847,
  "å¦ĩ": 3848,
  "Ġé©": 3849,
  "ales": 3850,
  "ç»ıéªĮ": 3851,
  "æıı": 3852,
  "020": 3853,
  "ä»¥ä¸º": 3854,
  "ä¼ĳæģ¯": 3855,
  "äºĪ": 3856,
  "çĵ¦": 3857,
  "Ġæļ": 3858,
  "åįģåĪĨ": 3859,
  "å¢Ļ": 3860,
  "åĲİæĿ¥": 3861,
  "Ġæİ¥": 3862,
  "lished": 3863,
  "ä¼ĺç§Ģ": 3864,
  "ĠCar": 3865,
  "ĠéĿ¢": 3866,
  "Ġæīĭæľº": 3867,
  "ĠåĽ½": 3868,
  "Ġè¯Ŀ": 3869,
  "ä¿©": 3870,
  "Ġæĭ¿": 3871,
  "æĹ¶æľŁ": 3872,
  "é¥®": 3873,
  "ĠåĵªéĩĮ": 3874,
  "ä¿ĥ": 3875,
  "Ġå¹³": 3876,
  "æĶ¿çŃĸ": 3877,
  "eb": 3878,
  "çľĭçľĭ": 3879,
  "Ġele": 3880,
  "ris": 3881,
  "Ġorgan": 3882,
  "hor": 3883,
  "æĽ´åĬł": 3884,
  "åį´æĺ¯": 3885,
  "çŀ¬": 3886,
  "ä¸Ńå¤®": 3887,
  "Ġéļı": 3888,
  "Ġsoc": 3889,
  "ĠæĻļä¸Ĭ": 3890,
  "Ġlit": 3891,
  "âĢĶâĢĶâĢĶâĢĶ": 3892,
  "ä¸īä¸ª": 3893,
  "ĠåĽŀå®¶": 3894,
  "Ġcontin": 3895,
  "çĸ¾": 3896,
  "éĹŃ": 3897,
  "æ¨ª": 3898,
  "ä¸Ģå£°": 3899,
  "app": 3900,
  "çıł": 3901,
  "è±ª": 3902,
  "åŃĶ": 3903,
  "Ġçħ§": 3904,
  "ä¸ļåĬ¡": 3905,
  "Ġgame": 3906,
  "æĲŀ": 3907,
  "ĠMan": 3908,
  "ww": 3909,
  "Ġoper": 3910,
  "ober": 3911,
  "å¿ĺ": 3912,
  "éĽĨåĽ¢": 3913,
  "æī©": 3914,
  "æĺİæĺ¾": 3915,
  "è¹": 3916,
  "ined": 3917,
  "çĲĨè§£": 3918,
  "Ġä»¥åĲİ": 3919,
  "çĮĽ": 3920,
  "å¹³åı°": 3921,
  "'re": 3922,
  "Ġprof": 3923,
  "åģ¥åº·": 3924,
  "ĠAt": 3925,
  "çĬ¯": 3926,
  "èĿ": 3927,
  "Ġstill": 3928,
  "ĠStates": 3929,
  "åĨĴ": 3930,
  "ER": 3931,
  "uro": 3932,
  "017": 3933,
  "Ġx": 3934,
  "å½»": 3935,
  "å¿«ä¹Ĳ": 3936,
  "Ġbuild": 3937,
  "ĠäºĨæĪĳ": 3938,
  "æ³ķå¾ĭ": 3939,
  "Ġ13": 3940,
  "åĮ»éĻ¢": 3941,
  "ĠåĴĭ": 3942,
  "riend": 3943,
  "500": 3944,
  "iven": 3945,
  "Ġmov": 3946,
  "Ġob": 3947,
  "Ġresult": 3948,
  "é¢Ĺ": 3949,
  "gy": 3950,
  "ccess": 3951,
  "è´´": 3952,
  "Ġpoint": 3953,
  "Ġpost": 3954,
  "Ġsmall": 3955,
  "å§Ĩ": 3956,
  "éĺ»": 3957,
  "Ġä¸įéĶĻ": 3958,
  "Ġel": 3959,
  "é¢ĨåŁŁ": 3960,
  "ä¸įä»ħ": 3961,
  "ç®±": 3962,
  "å¸¦çĿĢ": 3963,
  "æĪĺæĸĹ": 3964,
  "Ġpar": 3965,
  "Ġreport": 3966,
  "äº¤éĢļ": 3967,
  "è¯ĳ": 3968,
  "èĻ«": 3969,
  "Ġèĥĸ": 3970,
  "åĵĪåĵĪåĵĪåĵĪ": 3971,
  "å±ı": 3972,
  "ç»ıè¿ĩ": 3973,
  "è¯´çļĦ": 3974,
  "æĥ¯": 3975,
  "ä»ģ": 3976,
  "Ġstr": 3977,
  "æĺ¯åĲ¦": 3978,
  "Ġknown": 3979,
  "ĠåĳĬ": 3980,
  "ç»¼åĲĪ": 3981,
  "åĳĬè¯ī": 3982,
  "anguage": 3983,
  "oard": 3984,
  "Ġke": 3985,
  "äººä»¬": 3986,
  "ä¸įéĶĻ": 3987,
  "001": 3988,
  "ĠçĲĨ": 3989,
  "åĩĿ": 3990,
  "ä¿ĿæĮģ": 3991,
  "Ġwater": 3992,
  "è§ĦåĪĴ": 3993,
  "ä¸ĩåħĥ": 3994,
  "åĵĩ": 3995,
  "me": 3996,
  "æķĻå¸Ī": 3997,
  "èļ": 3998,
  "ulation": 3999,
  "Ġthink": 4000,
  "åĲİçļĦ": 4001,
  "èµĦæĸĻ": 4002,
  "çĬ¶æĢģ": 4003,
  "Ġcompany": 4004,
  "ator": 4005,
  "Ġç¼": 4006,
  "Ġsing": 4007,
  "å¤§éĩı": 4008,
  "Ġåįķ": 4009,
  "äºĨä¸Ģä¸ª": 4010,
  "èħ¿": 4011,
  "ä¸įçĶ¨": 4012,
  "åıĤä¸İ": 4013,
  "ately": 4014,
  "åıįåºĶ": 4015,
  "ĠSchool": 4016,
  "æ¯ķç«Ł": 4017,
  "ody": 4018,
  "å¥ı": 4019,
  "çĽ¸ä¿¡": 4020,
  "è¯¢": 4021,
  "å®¢æĪ·": 4022,
  "èģĮä¸ļ": 4023,
  "ister": 4024,
  "å»ºè®®": 4025,
  "æ±¤": 4026,
  "è¯ļ": 4027,
  "ruct": 4028,
  "èĥŀ": 4029,
  "016": 4030,
  "ä¼¸": 4031,
  "é¡µ": 4032,
  "Ġspecific": 4033,
  "Ġpartic": 4034,
  "æīĭæľº": 4035,
  "æľīæķĪ": 4036,
  "çĤ®": 4037,
  "por": 4038,
  "ĠMay": 4039,
  "ai": 4040,
  "ĠCent": 4041,
  "und": 4042,
  "çĶŁçī©": 4043,
  "ĠæŁ": 4044,
  "Ġrest": 4045,
  "æŃ¤æĹ¶": 4046,
  "arn": 4047,
  "ä¸įèµ·": 4048,
  "70": 4049,
  "æİ¥åıĹ": 4050,
  "åĢį": 4051,
  "ĠåĨ·": 4052,
  "Ġæĸ¹": 4053,
  "åĨĮ": 4054,
  "Ġappro": 4055,
  "è®¿": 4056,
  "æĺ¯ä¸įæĺ¯": 4057,
  "æ®ĭ": 4058,
  "Ġå·®": 4059,
  "æĳ¸": 4060,
  "Ġresp": 4061,
  "003": 4062,
  "æ£Ĵ": 4063,
  "å¾Ĳ": 4064,
  "Ġsol": 4065,
  "ĠFran": 4066,
  "æľīçĤ¹": 4067,
  "åĩºçīĪç¤¾": 4068,
  "ä¸¥éĩį": 4069,
  "Ġ14": 4070,
  "ĠéĢģ": 4071,
  "ĠãĢĲ": 4072,
  "éļĨ": 4073,
  "bum": 4074,
  "Ġ30": 4075,
  "éĶĭ": 4076,
  "Ġconst": 4077,
  "ç»Īäºİ": 4078,
  "è¶ħè¿ĩ": 4079,
  "Ġæĥħ": 4080,
  "å¥½åĥı": 4081,
  "rid": 4082,
  "éĺħ": 4083,
  "æł·çļĦ": 4084,
  "åħĪçĶŁ": 4085,
  "Ġtechn": 4086,
  "Ġprocess": 4087,
  "æĳĨ": 4088,
  "æ³½": 4089,
  "Ġavailable": 4090,
  "çĮ«": 4091,
  "å®ŀéªĮ": 4092,
  "åĺ»": 4093,
  "å¥½äºĨ": 4094,
  "åĪ·": 4095,
  "æĭ³": 4096,
  "Ġçĺ": 4097,
  "èĤ¤": 4098,
  "Ġhouse": 4099,
  "ĠUS": 4100,
  "let": 4101,
  "inks": 4102,
  "åľ¨è¿Ļ": 4103,
  "ĠçĹ": 4104,
  "ĠåĨĻ": 4105,
  "ĠX": 4106,
  "ats": 4107,
  "å¿ĥçĲĨ": 4108,
  "ke": 4109,
  "che": 4110,
  "éº¦": 4111,
  "Ð»": 4112,
  "èĩ£": 4113,
  "ling": 4114,
  "ram": 4115,
  "Ġå¸Į": 4116,
  "è¢ĭ": 4117,
  "çľŁæĺ¯": 4118,
  "vernment": 4119,
  "Ġfilm": 4120,
  "èħ¾": 4121,
  "ĠçļĦè¯Ŀ": 4122,
  "ä¿Ħ": 4123,
  "aterial": 4124,
  "åĪ¶åº¦": 4125,
  "ways": 4126,
  "èĭ±åĽ½": 4127,
  "Ġæĸĩ": 4128,
  "åıĶ": 4129,
  "ĠéľĢ": 4130,
  "çĳŀ": 4131,
  "Ġè¶Ĭ": 4132,
  "://": 4133,
  "Ġæ¸ħ": 4134,
  "ĠæľĢè¿ĳ": 4135,
  "è¡¡": 4136,
  "ç»ıèĲ¥": 4137,
  "ission": 4138,
  "ĠçĭĹ": 4139,
  "æ¬²": 4140,
  "åĽŀæĿ¥": 4141,
  "ĠèĲ": 4142,
  "æĻ¨": 4143,
  "åĪ°åºķ": 4144,
  "èĢħçļĦ": 4145,
  "æĺ¯ä»Ģä¹Ī": 4146,
  "ving": 4147,
  "åı°æ¹¾": 4148,
  "Ġwebsite": 4149,
  "çļĦä¸Ģä¸ª": 4150,
  "Ġopt": 4151,
  "åĳµåĳµ": 4152,
  "ĠCo": 4153,
  "éĹ®éģĵ": 4154,
  "åĬłåħ¥": 4155,
  "å°º": 4156,
  "ĠæĿİ": 4157,
  "):": 4158,
  "æĹĹ": 4159,
  "åįģäºĮ": 4160,
  "ott": 4161,
  "å§Ķåĳĺä¼ļ": 4162,
  "Ġconf": 4163,
  "ustom": 4164,
  "IN": 4165,
  "Ġann": 4166,
  "éĩįçĤ¹": 4167,
  "ĠåĮĹ": 4168,
  "çĶŁåĳ½": 4169,
  "æŃ£åľ¨": 4170,
  "Ġå¸®": 4171,
  "Ġthough": 4172,
  "Ġä¸įæĥ³": 4173,
  "ains": 4174,
  "æŃ£å¸¸": 4175,
  "Ġç¤": 4176,
  "Ġæ¯Ķè¾ĥ": 4177,
  "ĠæıĲ": 4178,
  "å¾¡": 4179,
  "ĠéŁ": 4180,
  "ç¡®å®ŀ": 4181,
  "åı¦å¤ĸ": 4182,
  "Ġç½ĳ": 4183,
  "Ġcity": 4184,
  "Ġrece": 4185,
  "Ġsever": 4186,
  "æĳ©": 4187,
  "çľĭæĿ¥": 4188,
  "æĹ¦": 4189,
  "aut": 4190,
  "Ġçķ": 4191,
  "une": 4192,
  "æĮº": 4193,
  "æķı": 4194,
  "Ġwon": 4195,
  "oint": 4196,
  "äº¤æĺĵ": 4197,
  "æľŁéĹ´": 4198,
  "è¿Ļæ¬¡": 4199,
  "ternational": 4200,
  "ried": 4201,
  "015": 4202,
  "yn": 4203,
  "éĥ½ä¼ļ": 4204,
  "ger": 4205,
  "Ġfew": 4206,
  "åºŁ": 4207,
  "äººçī©": 4208,
  "Ġè·¯": 4209,
  "è½¯ä»¶": 4210,
  "åħ³äºİ": 4211,
  "ĠèĬ±": 4212,
  "æıĲåįĩ": 4213,
  "åĿ¦": 4214,
  "ĠTo": 4215,
  "²Į": 4216,
  "Ġadv": 4217,
  "Ġcle": 4218,
  "åĤ¨": 4219,
  "æĭĶ": 4220,
  "Ġexpl": 4221,
  "±ä¹Ĳ": 4222,
  "ä¸¤äºº": 4223,
  "omm": 4224,
  "ternal": 4225,
  "ĠGo": 4226,
  "å¿ĥéĩĮ": 4227,
  "èĢĥèĻĳ": 4228,
  "ĠåĩĨ": 4229,
  "Ġä»¥ä¸º": 4230,
  "çļĦæĥħåĨµ": 4231,
  "Ġcurrent": 4232,
  "Ġçĺ¦": 4233,
  "Ġold": 4234,
  "Ġè¯¥": 4235,
  "sh": 4236,
  "Ġfour": 4237,
  "åĨįæ¬¡": 4238,
  "ĠRes": 4239,
  "Ġeng": 4240,
  "Ġdata": 4241,
  "ĠJan": 4242,
  "Ġç®Ģ": 4243,
  "çļĦåľ°æĸ¹": 4244,
  "æĪĺäºī": 4245,
  "ä»¥åīį": 4246,
  "Ġoffer": 4247,
  "åİ»äºĨ": 4248,
  "St": 4249,
  "ived": 4250,
  "å¹´ä»£": 4251,
  "å¹¶æ²¡æľī": 4252,
  "åĿĢ": 4253,
  "èı²": 4254,
  "æĽ¿": 4255,
  "æ¡£": 4256,
  "ä½ĵçļĦ": 4257,
  "éļıçĿĢ": 4258,
  "\".": 4259,
  "illion": 4260,
  "æ¢ģ": 4261,
  "ĠåŃ¦æł¡": 4262,
  "éĢłæĪĲ": 4263,
  "Ġorig": 4264,
  "Ġeas": 4265,
  "æĺł": 4266,
  "Ġåıĳçİ°": 4267,
  "ining": 4268,
  "ä¸Ńåįİ": 4269,
  "å¹´è½»": 4270,
  "ĠPr": 4271,
  "by": 4272,
  "33": 4273,
  "002": 4274,
  "ior": 4275,
  "ivid": 4276,
  "éļĶ": 4277,
  "èĥĸ": 4278,
  "æľīä»Ģä¹Ī": 4279,
  "åĪĨåĪ«": 4280,
  "é¼ĵ": 4281,
  "çļĦé«ĺ": 4282,
  "Ġagainst": 4283,
  "Ġå¥½åĥı": 4284,
  "æķ¬": 4285,
  "ĠWorld": 4286,
  "è¿ħ": 4287,
  "æĬµ": 4288,
  "é¸Ł": 4289,
  "ention": 4290,
  "äººå®¶": 4291,
  "AT": 4292,
  "æ®Ĭ": 4293,
  "013": 4294,
  "çĽ®çļĦ": 4295,
  "æĹĭ": 4296,
  "cer": 4297,
  "oci": 4298,
  "Ġçł": 4299,
  "ĠGe": 4300,
  "å°¸": 4301,
  "Ġstate": 4302,
  "ĠèĢĮä¸Ķ": 4303,
  "ript": 4304,
  "Ġposs": 4305,
  "âĢĺ": 4306,
  "Ġå¸ĮæľĽ": 4307,
  "Ġè½¦": 4308,
  "èµı": 4309,
  "ret": 4310,
  "æľĢè¿ĳ": 4311,
  "Ġhand": 4312,
  "è¾Ĩ": 4313,
  "Ġage": 4314,
  "Ġhead": 4315,
  "Ġå¹¸": 4316,
  "ä¸ºä¸»": 4317,
  "ĠåĲį": 4318,
  "Ġ)": 4319,
  "æŁĶ": 4320,
  "åĬĽçļĦ": 4321,
  "åĩŃ": 4322,
  "è®Ńç»ĥ": 4323,
  "åģ·": 4324,
  "Ġinterest": 4325,
  "ec": 4326,
  "Ġå¼ł": 4327,
  "ĠæľĢåĲİ": 4328,
  "æĻ¶": 4329,
  "Ġiss": 4330,
  "omen": 4331,
  "ĠåįĬ": 4332,
  "åĵªéĩĮ": 4333,
  "ĠåĽŀåİ»": 4334,
  "ãĢĤãĢĤ": 4335,
  "ĠReferences": 4336,
  "ä¸°å¯Į": 4337,
  "æĮīçħ§": 4338,
  "æ³ī": 4339,
  "æĢĿæĥ³": 4340,
  "Ġè·ĳ": 4341,
  "¹ģ": 4342,
  "ç¨ĭåº¦": 4343,
  "çĶ¨äºİ": 4344,
  "ç»ĵåĲĪ": 4345,
  "Ġdisc": 4346,
  "Ġwin": 4347,
  "åĬªåĬĽ": 4348,
  "æĭŁ": 4349,
  "ĠNational": 4350,
  "........": 4351,
  "åĽŀçŃĶ": 4352,
  "çĮª": 4353,
  "Ġrecord": 4354,
  "Ġsince": 4355,
  "èķ": 4356,
  "ĠéľĢè¦ģ": 4357,
  "rum": 4358,
  "çģ°": 4359,
  "ç±į": 4360,
  "æ½ľ": 4361,
  "ĠComp": 4362,
  "æĦıä¹ī": 4363,
  "ç§°ä¸º": 4364,
  "ĠAm": 4365,
  "Ġçī¹åĪ«": 4366,
  "Ġç¦": 4367,
  "ä¹ĥ": 4368,
  "ĠFl": 4369,
  "Ġä¸Ģå¤©": 4370,
  "Ġbased": 4371,
  "ä¹Łæ²¡æľī": 4372,
  "Ġpos": 4373,
  "çļĦäºĭ": 4374,
  "ĠåĳĬè¯ī": 4375,
  "å¦Ļ": 4376,
  "35": 4377,
  "Ġåı¯çĪ±": 4378,
  "self": 4379,
  "åĩºä¸Ģ": 4380,
  "çļĦæĹ¶éĹ´": 4381,
  "å£ģ": 4382,
  "æĮĩå¯¼": 4383,
  "åĪ«äºº": 4384,
  "å¹»": 4385,
  "ä¿Ĺ": 4386,
  "ä½ĵç³»": 4387,
  "åĴ±": 4388,
  "ĠæĶ¶": 4389,
  "çŁ¿": 4390,
  "ertain": 4391,
  "Ġå°ĳ": 4392,
  "æĿľ": 4393,
  "Ġproject": 4394,
  "Ġmar": 4395,
  "åħ¼": 4396,
  "Ġmaterial": 4397,
  "45": 4398,
  "Ġåı¯æĺ¯": 4399,
  "çŀ¬éĹ´": 4400,
  "å¤º": 4401,
  "ç»ĦæĪĲ": 4402,
  "014": 4403,
  "ç£¨": 4404,
  "Ġhealth": 4405,
  "äºĨèµ·æĿ¥": 4406,
  "Ġref": 4407,
  "Ġstat": 4408,
  "è¶ĬæĿ¥è¶Ĭ": 4409,
  "ĠSo": 4410,
  "å°ĺ": 4411,
  "Ġtry": 4412,
  "ä¹ĺ": 4413,
  "æľĹ": 4414,
  "Ġair": 4415,
  "èıĮ": 4416,
  "ãĢĤ[": 4417,
  "200": 4418,
  "é¾Ħ": 4419,
  "Ðº": 4420,
  "ense": 4421,
  "Ġæ³¨": 4422,
  "æĦıè¯Ĩ": 4423,
  "åı¹": 4424,
  "ãĢĭ(": 4425,
  "éľĢæ±Ĥ": 4426,
  "Ġseason": 4427,
  "Ġæ¶": 4428,
  "æ¶¦": 4429,
  "iety": 4430,
  "å²©": 4431,
  "æľīéĻĲåħ¬åı¸": 4432,
  "Ġlocal": 4433,
  "å½¢å¼ı": 4434,
  "çĭł": 4435,
  "çļĦéĹ®é¢ĺ": 4436,
  "éģŃ": 4437,
  "è®¢": 4438,
  "Ġreal": 4439,
  "Ġè¿Ľ": 4440,
  "Ġlater": 4441,
  "å¨ľ": 4442,
  "åħ³éĶ®": 4443,
  "è¯´æĺİ": 4444,
  "ĠåŁº": 4445,
  "æĬ½": 4446,
  "èĩªçĶ±": 4447,
  "Ġlanguage": 4448,
  "ries": 4449,
  "Ġrele": 4450,
  "è¿«": 4451,
  "gin": 4452,
  "åĨľä¸ļ": 4453,
  "ĠWhat": 4454,
  "88": 4455,
  "ĠCounty": 4456,
  "ĠçĿ¡è§ī": 4457,
  "Ġmet": 4458,
  "å¾Ĵ": 4459,
  "Ġoffic": 4460,
  "çĽ¸å½ĵ": 4461,
  "çĦ¶èĢĮ": 4462,
  "å©Ĩ": 4463,
  "¢å¤į": 4464,
  "Ġä¸Ģæ¬¡": 4465,
  "æĸĩåŃ¦": 4466,
  "å®ŀæĸ½": 4467,
  "ote": 4468,
  "ä¼Ł": 4469,
  "Ġmodel": 4470,
  "èĥ¸": 4471,
  "af": 4472,
  "èĪĴ": 4473,
  "è¢Ń": 4474,
  "ä¾¿æĺ¯": 4475,
  "æķĻæİĪ": 4476,
  "æ¶Īè´¹": 4477,
  "ves": 4478,
  "Ġå¤§å®¶": 4479,
  "aren": 4480,
  "ä¿Ŀè¯ģ": 4481,
  "éĿ¢åīį": 4482,
  "ĠAust": 4483,
  "åĨ¬": 4484,
  "ä»Ķ": 4485,
  "Ġèħ": 4486,
  "æľĢé«ĺ": 4487,
  "è¯¾ç¨ĭ": 4488,
  "å®ĥä»¬": 4489,
  "Ġleg": 4490,
  "Ġprom": 4491,
  "æī¾åĪ°": 4492,
  "çī¹çĤ¹": 4493,
  "Ġtown": 4494,
  "Ġ25": 4495,
  "Ġseries": 4496,
  "Ġpat": 4497,
  "æĿ¥èĩª": 4498,
  "Ġæ¯ķ": 4499,
  "æĶ¹åıĺ": 4500,
  "ĠYork": 4501,
  "è½°": 4502,
  "åĬ±": 4503,
  "èĢĥè¯ķ": 4504,
  "Ġ17": 4505,
  "ĠåĿĲ": 4506,
  "åĺī": 4507,
  "ĠçĽ®": 4508,
  "æļĸ": 4509,
  "orm": 4510,
  "å±ħçĦ¶": 4511,
  "mp": 4512,
  "ĠèĦ¸": 4513,
  "æīİ": 4514,
  "åĭĩ": 4515,
  "æ³ķåĽ½": 4516,
  "æĺ¯ä¸į": 4517,
  "osed": 4518,
  "æıĴ": 4519,
  "èªī": 4520,
  "æŃ£å¼ı": 4521,
  "æĪĳä»¬çļĦ": 4522,
  "ope": 4523,
  "éļ¾éģĵ": 4524,
  "Â°": 4525,
  "Ġrese": 4526,
  "åķĨä¸ļ": 4527,
  "ç¡®å®ļ": 4528,
  "rol": 4529,
  "åĮºåŁŁ": 4530,
  "éĻ·": 4531,
  "Ġä»Ĭ": 4532,
  "ĠPol": 4533,
  "æī§è¡Į": 4534,
  "è´¸": 4535,
  "Ġfact": 4536,
  "å¼Ħ": 4537,
  "å°ĸ": 4538,
  "çĶ¨çļĦ": 4539,
  "Ġz": 4540,
  "å¹¼": 4541,
  "itional": 4542,
  "åĬ²": 4543,
  "è®¯": 4544,
  "è§£éĩĬ": 4545,
  "ĠWar": 4546,
  "ential": 4547,
  "èī¾": 4548,
  "æ§": 4549,
  "ä¸ĢåĪĩ": 4550,
  "ä¸ĬäºĨ": 4551,
  "29": 4552,
  "Ġpower": 4553,
  "arge": 4554,
  "Ġåľ°æĸ¹": 4555,
  "æĮĤ": 4556,
  "Ġalbum": 4557,
  "ç»ª": 4558,
  "çĲ´": 4559,
  "çĵľ": 4560,
  "less": 4561,
  "ency": 4562,
  "éĹ²": 4563,
  "ney": 4564,
  "Ġinclude": 4565,
  "æ»ĳ": 4566,
  "Ġmarket": 4567,
  "è¯´è¯Ŀ": 4568,
  "èĨľ": 4569,
  "éĺ¶æ®µ": 4570,
  "Ġopp": 4571,
  "ajor": 4572,
  "åĨħçļĦ": 4573,
  "æĻĵ": 4574,
  "Ġç¬¬åĽĽ": 4575,
  "è¿ĺè¦ģ": 4576,
  "æ»´": 4577,
  "Ġcor": 4578,
  "å¢¨": 4579,
  "å²¸": 4580,
  "èĤĮ": 4581,
  "Ġimportant": 4582,
  "sp": 4583,
  "éĶĢåĶ®": 4584,
  "å®ŀåľ¨": 4585,
  "çķª": 4586,
  "aster": 4587,
  "Ġmonth": 4588,
  "Ġsong": 4589,
  "åŁ¹è®Ń": 4590,
  "ĠEd": 4591,
  "Ġæ´Ĺ": 4592,
  "æł¸å¿ĥ": 4593,
  "ases": 4594,
  "¡æħķ": 4595,
  "ream": 4596,
  "åķĬåķĬ": 4597,
  "Ġ+": 4598,
  "èĩªåĬ¨": 4599,
  "è®¤è¯Ĩ": 4600,
  "ç¬ĳéģĵ": 4601,
  "ĠåĵĪåĵĪåĵĪåĵĪ": 4602,
  "å¥ĭ": 4603,
  "Ġ100": 4604,
  "è¿Ł": 4605,
  "ç¹ģ": 4606,
  "éĩĳèŀį": 4607,
  "å¦Ĥä»Ĭ": 4608,
  "æ´¥": 4609,
  "æİ¨èįĲ": 4610,
  "Ġeffect": 4611,
  "ird": 4612,
  "åħ³æ³¨": 4613,
  "çĭ¬ç«ĭ": 4614,
  "Ġpresent": 4615,
  "ush": 4616,
  "ĠæĹ¥": 4617,
  "èĢĹ": 4618,
  "çŃīçŃī": 4619,
  "ĠæķĻ": 4620,
  "æĺ¾ç¤º": 4621,
  "ĠBrit": 4622,
  "ä¸Ģè¾¹": 4623,
  "å¤ļæķ°": 4624,
  "ĠWhen": 4625,
  "Ġcalled": 4626,
  "Ġcharact": 4627,
  "rict": 4628,
  "å¥Ī": 4629,
  "yle": 4630,
  "ä¼ĺåĬ¿": 4631,
  "Ġçª": 4632,
  "éĥİ": 4633,
  "éķ¿çļĦ": 4634,
  "å°±ä¸į": 4635,
  "å¯º": 4636,
  "è¯Ħä»·": 4637,
  "è®©äºº": 4638,
  "éĥĳ": 4639,
  "ç½ĳç«Ļ": 4640,
  "äº¤æµģ": 4641,
  "Ġide": 4642,
  "Ġæ´»": 4643,
  "%,": 4644,
  "Ġçĸ": 4645,
  "Ġåĩłå¤©": 4646,
  "å®¶çļĦ": 4647,
  "Ġæ£": 4648,
  "æµĵ": 4649,
  "æ°ĳæĹı": 4650,
  "tain": 4651,
  "ipp": 4652,
  "ĠåĴ¯": 4653,
  "ĠChrist": 4654,
  "ĠNo": 4655,
  "ä¸»ä»»": 4656,
  "æ¯ıå¤©": 4657,
  "Ġfree": 4658,
  "å¹ħ": 4659,
  "æµ®": 4660,
  "Ġplan": 4661,
  "Ġç¬ĳ": 4662,
  "åŁ¹åħ»": 4663,
  "Ġè¥¿": 4664,
  "æ¯ģ": 4665,
  "åİŁæĿ¥": 4666,
  "åį«çĶŁ": 4667,
  "ĠWith": 4668,
  "Ġline": 4669,
  "Ġquest": 4670,
  ".,": 4671,
  "çº¹": 4672,
  "ä¼ļè®®": 4673,
  "ĠåĮħ": 4674,
  "Ġé£İ": 4675,
  "ems": 4676,
  "Ġæ¸¸æĪı": 4677,
  "Ġvers": 4678,
  "çĽĲ": 4679,
  "ng": 4680,
  "yl": 4681,
  "è¾Ľ": 4682,
  "æ½®": 4683,
  "ä¹Łä¼ļ": 4684,
  "Ġincre": 4685,
  "çĬ¹": 4686,
  "Ġå¿ħ": 4687,
  "åľ¨äºĨ": 4688,
  "Ġseveral": 4689,
  "æ³Ľ": 4690,
  "ĠåĲĥé¥Ń": 4691,
  "ç»Ĩèĥŀ": 4692,
  "ended": 4693,
  "æ¢°": 4694,
  "ĠåĵĴ": 4695,
  "Ġé©¬": 4696,
  "å°±åı¯ä»¥": 4697,
  "åĥ": 4698,
  "ĠPe": 4699,
  "æ´ª": 4700,
  "æ¶Īæģ¯": 4701,
  "ĠAfter": 4702,
  "ories": 4703,
  "Ġåı·": 4704,
  "éĹ¹": 4705,
  "åŁºéĩĳ": 4706,
  "ploy": 4707,
  "Ġservice": 4708,
  "Ġnear": 4709,
  "ĠåĩĨå¤ĩ": 4710,
  "Ġanother": 4711,
  "æ±½è½¦": 4712,
  "åŁĥ": 4713,
  "çĭ¼": 4714,
  "åĪĽæĸ°": 4715,
  "Ġlaw": 4716,
  "æµ©": 4717,
  "ĠåĬ¨": 4718,
  "Ġå¥½å¤ļ": 4719,
  "ÃĹ": 4720,
  "çĪ¸": 4721,
  "éĶģ": 4722,
  "åĽ½çļĦ": 4723,
  "æ¯ıä¸ª": 4724,
  "86": 4725,
  "Ġgroup": 4726,
  "åł¡": 4727,
  "åĲĮæł·": 4728,
  "Ġlove": 4729,
  "Ġhum": 4730,
  "ration": 4731,
  "ised": 4732,
  "æļĤ": 4733,
  "ç»ıåİĨ": 4734,
  "ĠèĤ¯å®ļ": 4735,
  "åĬŀåħ¬": 4736,
  "Ġèī": 4737,
  "Ġorder": 4738,
  "Ġstand": 4739,
  "åĩ¤": 4740,
  "éĢĤåĲĪ": 4741,
  "æ²¿": 4742,
  "æīĢè°ĵ": 4743,
  "éľ¸": 4744,
  "å°¤åħ¶": 4745,
  "021": 4746,
  "Ġlinks": 4747,
  "Ġsuccess": 4748,
  "AR": 4749,
  "Ġä¸įåĪ°": 4750,
  "Ġcustom": 4751,
  "Ġelect": 4752,
  "Ġçİĭ": 4753,
  "è´£ä»»": 4754,
  "Ġåıªæľī": 4755,
  "Ġdesc": 4756,
  "åĿļæĮģ": 4757,
  "èĢĲ": 4758,
  "erman": 4759,
  "ĠèĻ½çĦ¶": 4760,
  "æ¶ī": 4761,
  "itions": 4762,
  "æĽ¾ç»ı": 4763,
  "Ġä¸¤ä¸ª": 4764,
  "wards": 4765,
  "ians": 4766,
  "åĩºæĿ¥çļĦ": 4767,
  "Ġconsider": 4768,
  "ç¨į": 4769,
  "åĪĬ": 4770,
  "ĠçĶŁæ´»": 4771,
  "Ġreally": 4772,
  "ĠæĪĸ": 4773,
  "Ĥäº®": 4774,
  "ĠThat": 4775,
  "par": 4776,
  "åĩ¯": 4777,
  "Ġwithout": 4778,
  "è°ĭ": 4779,
  "èº«è¾¹": 4780,
  "med": 4781,
  "åģ¶": 4782,
  "æ³¡": 4783,
  "æĺ¯ä¸ª": 4784,
  "ĠæĢķ": 4785,
  "åĲĮåŃ¦": 4786,
  "åįģä¸Ģ": 4787,
  "rop": 4788,
  "ample": 4789,
  "ç§Ĵ": 4790,
  "ony": 4791,
  "urs": 4792,
  "Ġhapp": 4793,
  "æĩ": 4794,
  "Ġsum": 4795,
  "æĻļä¸Ĭ": 4796,
  "æģ¢å¤į": 4797,
  "ä¸įçŁ¥": 4798,
  "ç»ĵæĿŁ": 4799,
  "çĶĺ": 4800,
  "Ġweek": 4801,
  "äºĨä¸Ģä¸ĭ": 4802,
  "Ġtell": 4803,
  "Ġevent": 4804,
  "Ġçº¦": 4805,
  "ĠCity": 4806,
  "ĠGu": 4807,
  "eter": 4808,
  "éĩįæĸ°": 4809,
  "æľ¬æĿ¥": 4810,
  "è§Ħæ¨¡": 4811,
  "éĵ¾": 4812,
  "cing": 4813,
  "æ»ļ": 4814,
  "æĭħä»»": 4815,
  "ä¹ĭå¤ĸ": 4816,
  "Ġæķ°": 4817,
  "====": 4818,
  "ĠSouth": 4819,
  "Ġve": 4820,
  "ung": 4821,
  "èº«ä»½": 4822,
  "ĠPar": 4823,
  "Ġnext": 4824,
  "åĽ¾ä¹¦": 4825,
  "ä¼į": 4826,
  "çĸ«": 4827,
  "åĬ¨çī©": 4828,
  "'ve": 4829,
  "Ġequ": 4830,
  "Ġbre": 4831,
  "Ñĥ": 4832,
  "çļĨ": 4833,
  "ization": 4834,
  "åħĦå¼Ł": 4835,
  "ãĢģâĢľ": 4836,
  "stand": 4837,
  "èģĶåĲĪ": 4838,
  "Ġfac": 4839,
  "ĠDo": 4840,
  "ients": 4841,
  "ee": 4842,
  "ĠèĽ": 4843,
  "æĲŃ": 4844,
  "ĠåĬŀ": 4845,
  "Ġfeel": 4846,
  "ä¾µ": 4847,
  "ON": 4848,
  "Ġ24": 4849,
  "Ġsit": 4850,
  "ç¨³å®ļ": 4851,
  "ĠWill": 4852,
  "åı¥è¯Ŀ": 4853,
  "è¿Ķ": 4854,
  "æ²Ł": 4855,
  "Ġcolle": 4856,
  "æĹłè®º": 4857,
  "Ġdem": 4858,
  "ç¨ĭåºı": 4859,
  "åĵ¼": 4860,
  "æ¹¿": 4861,
  "æľīçĿĢ": 4862,
  "ä¹Łå°±æĺ¯": 4863,
  "å°±åľ¨": 4864,
  "çľĭäºĨ": 4865,
  "Ġä¸ĬçıŃ": 4866,
  "ç¿¼": 4867,
  "è¾ħ": 4868,
  "Ġçº¢": 4869,
  "åªĴä½ĵ": 4870,
  "ĠMed": 4871,
  "åĩī": 4872,
  "Ġalong": 4873,
  "ware": 4874,
  "èĥĨ": 4875,
  "éĢ¼": 4876,
  "éĢĴ": 4877,
  "å¿«éĢŁ": 4878,
  "Ġdetail": 4879,
  "Ġå¤±": 4880,
  "çĶŁçļĦ": 4881,
  "åįıä¼ļ": 4882,
  "ĠâĢĿ": 4883,
  "æ´ģ": 4884,
  "æī«": 4885,
  "åĮĸçļĦ": 4886,
  "åĪ¶éĢł": 4887,
  "Ġchildren": 4888,
  "æ£ĢæŁ¥": 4889,
  "work": 4890,
  "Ġlevel": 4891,
  "èĩ³å°ĳ": 4892,
  "ĠMin": 4893,
  "ĠBro": 4894,
  "Ġä½ĵ": 4895,
  "æĪª": 4896,
  "Ġåħ¶ä»ĸ": 4897,
  "å¥³äºº": 4898,
  "ified": 4899,
  "åĪļåĪļ": 4900,
  "çĩĥ": 4901,
  "ç¾Ĭ": 4902,
  "ours": 4903,
  "ä¹łæĥ¯": 4904,
  "ĠçĨ": 4905,
  "ple": 4906,
  "å¼ķèµ·": 4907,
  "éĥ½æ²¡æľī": 4908,
  "ask": 4909,
  "Ġè®°å¾Ĺ": 4910,
  "ĠEuro": 4911,
  "ĠæŃ¤": 4912,
  "ä¸Ģä¸ªäºº": 4913,
  "éĿ¢å¯¹": 4914,
  "åī©": 4915,
  "ights": 4916,
  "å§ĳ": 4917,
  "åıĺå¾Ĺ": 4918,
  "èĩ³äºİ": 4919,
  "ĠMe": 4920,
  "ä¸įæķ¢": 4921,
  "æĤŁ": 4922,
  "Ġpolit": 4923,
  "ĠNorth": 4924,
  "ĠåĻ": 4925,
  "conom": 4926,
  "å¿ł": 4927,
  "å®¶åºŃ": 4928,
  "ä¸įåĲĮçļĦ": 4929,
  "æĽ´æĺ¯": 4930,
  "ster": 4931,
  "æĢİ": 4932,
  "æĪĲæľ¬": 4933,
  "resent": 4934,
  "Ġmil": 4935,
  "85": 4936,
  "æģ¨": 4937,
  "å°±èĥ½": 4938,
  "sc": 4939,
  "æľīäºĨ": 4940,
  "åıĸå¾Ĺ": 4941,
  "äºĭä»¶": 4942,
  "Ġsay": 4943,
  "ä¸ĵå®¶": 4944,
  "ĠBy": 4945,
  "Ġtoo": 4946,
  "è®©ä»ĸ": 4947,
  "å¾Īå¿«": 4948,
  "è²Į": 4949,
  "Ġwithin": 4950,
  "çĦ¦": 4951,
  "ĠCal": 4952,
  "åĵŃ": 4953,
  "èįĴ": 4954,
  "augh": 4955,
  "999": 4956,
  "æĸ¤": 4957,
  "é¡¿æĹ¶": 4958,
  "IS": 4959,
  "çĪ¶äº²": 4960,
  "Ġç¡®": 4961,
  "Ġç³": 4962,
  "å®¶ä¼Ļ": 4963,
  "æĭ¼": 4964,
  "Ġlet": 4965,
  "èĥ¶": 4966,
  "æĪ´": 4967,
  "èµ¢": 4968,
  "iron": 4969,
  "éĤ¦": 4970,
  "æĻĭ": 4971,
  "ique": 4972,
  "å®¾": 4973,
  "Ġmust": 4974,
  "ently": 4975,
  "æľªæĿ¥": 4976,
  "ively": 4977,
  "ç»ıå¸¸": 4978,
  "AS": 4979,
  "uck": 4980,
  "Ġinvest": 4981,
  "æĲľ": 4982,
  "Ġexperience": 4983,
  "ī´": 4984,
  "æĮ¯": 4985,
  "inc": 4986,
  "Ġbecame": 4987,
  "Ġä¸įäºĨ": 4988,
  "æĴŀ": 4989,
  "æķ°éĩı": 4990,
  "'ll": 4991,
  "ä¸Ĭåİ»": 4992,
  "çĽ®åħī": 4993,
  "Ġestab": 4994,
  "çļĦéĤ£": 4995,
  "è¯¦": 4996,
  "Ġæ¼Ķ": 4997,
  "Ã¡": 4998,
  "ĠæĶ¹": 4999,
  "è¯Ĭ": 5000,
  "æĸ°éĹ»": 5001,
  "çļĦåľ°": 5002,
  "ged": 5003,
  "ç§Ł": 5004,
  "æĪĳè¦ģ": 5005,
  "Ġç®Ĺ": 5006,
  "åķ¦": 5007,
  "åłĨ": 5008,
  "è¿ģ": 5009,
  "ĠAb": 5010,
  "ä½©": 5011,
  "Ġalways": 5012,
  "Ġkeep": 5013,
  "Ġä¹ĭåīį": 5014,
  "æľ¬èº«": 5015,
  "ĠNe": 5016,
  "åħ¨çĲĥ": 5017,
  "èĦı": 5018,
  "åıĤæķ°": 5019,
  "ä¿ĿéĻ©": 5020,
  "æł·åŃĲ": 5021,
  "amed": 5022,
  "é£İéĻ©": 5023,
  "Ġfollowing": 5024,
  "Ġsugg": 5025,
  "çļĦæīĭ": 5026,
  "icle": 5027,
  "ideo": 5028,
  "ĠCanad": 5029,
  "Ġsuggest": 5030,
  "ç»ķ": 5031,
  "æĬ¢": 5032,
  "ortun": 5033,
  "æĹħæ¸¸": 5034,
  "æĮ¡": 5035,
  "Ġes": 5036,
  "Ġturn": 5037,
  "utes": 5038,
  "mb": 5039,
  "36": 5040,
  "è·µ": 5041,
  "æ¡Į": 5042,
  "æĺ¯ä¸Ģç§į": 5043,
  "åĳĪ": 5044,
  "Ġvisit": 5045,
  "åĪĳ": 5046,
  "ublic": 5047,
  "èİ²": 5048,
  "åħ·ä½ĵ": 5049,
  "åľ°çļĦ": 5050,
  "å£®": 5051,
  "çĽ¸å¯¹": 5052,
  "å¹½": 5053,
  "åĲįçļĦ": 5054,
  "Ġæķ´": 5055,
  "åĲĲ": 5056,
  "Ġ19": 5057,
  "ĠåĵŃ": 5058,
  "Ġgrow": 5059,
  "Ġgoing": 5060,
  "è¿ĩç¨ĭä¸Ń": 5061,
  "å»·": 5062,
  "Ġtrad": 5063,
  "èĸĦ": 5064,
  "Ġçģ«": 5065,
  "ç«¹": 5066,
  "çĵ¶": 5067,
  "æĪĲåĳĺ": 5068,
  "ä¸įç®¡": 5069,
  "è°ĥæŁ¥": 5070,
  "Ġå«": 5071,
  "é£İæł¼": 5072,
  "ĠéĢī": 5073,
  "è®¾æĸ½": 5074,
  "Ġtest": 5075,
  "è¡ĮåĬ¨": 5076,
  "å®ĥçļĦ": 5077,
  "Ġéĵ": 5078,
  "Ġmat": 5079,
  "èħ°": 5080,
  "atic": 5081,
  "ES": 5082,
  "Ġoften": 5083,
  "Ġpersonal": 5084,
  "Ġspecial": 5085,
  "èħ¹": 5086,
  "Ġfriend": 5087,
  "ĠOne": 5088,
  "ĠåĽ¾": 5089,
  "Ġä¸įçĶ¨": 5090,
  "çıį": 5091,
  "çºµ": 5092,
  "Ġè¯ķ": 5093,
  "æĢĸ": 5094,
  "Ġview": 5095,
  "of": 5096,
  "Ġèĭ±": 5097,
  "Ġearly": 5098,
  "ĠåĲĦ": 5099,
  "å¥Ķ": 5100,
  "èµ°äºĨ": 5101,
  "Ġmembers": 5102,
  "æ°§": 5103,
  "ĠHis": 5104,
  "åĬ³åĬ¨": 5105,
  "åĲįåŃĹ": 5106,
  "ourn": 5107,
  "ille": 5108,
  "Ġè§£": 5109,
  "Ġproper": 5110,
  "Ġnon": 5111,
  "éĤ£éĩĮ": 5112,
  "å°Ŀ": 5113,
  "uary": 5114,
  "Ġocc": 5115,
  "éĥ½åľ¨": 5116,
  "å°±è¦ģ": 5117,
  "Ġå¹¸ç¦ı": 5118,
  "Ġæ¯ıå¤©": 5119,
  "åĬ¨ä½ľ": 5120,
  "ç®Ń": 5121,
  "å¤ªå¤ļ": 5122,
  "ĠJu": 5123,
  "æĸĩä»¶": 5124,
  "å¯¿": 5125,
  "Ġgovernment": 5126,
  "ä¹Łåı¯ä»¥": 5127,
  "Ġcome": 5128,
  "ĠçľŁæĺ¯": 5129,
  "çİĽ": 5130,
  "æĸĩç«ł": 5131,
  "ead": 5132,
  "oman": 5133,
  "è¿Ŀ": 5134,
  "æĸ¹æ¡Ī": 5135,
  "çĸ¯": 5136,
  "ä¼Ĺäºº": 5137,
  "Ġå½ĵçĦ¶": 5138,
  "Ġcr": 5139,
  "éķ¿æľŁ": 5140,
  "ĠéĢļ": 5141,
  "æĺĮ": 5142,
  "è§Ĩé¢ĳ": 5143,
  "çľł": 5144,
  "åĸĬ": 5145,
  "Ġåģĩ": 5146,
  "vious": 5147,
  "åĪĽéĢł": 5148,
  "ç«ĭåĪ»": 5149,
  "Ġcontact": 5150,
  "ards": 5151,
  "ĠÂ": 5152,
  "åħ´è¶£": 5153,
  "åħ±åĲĮ": 5154,
  "Ġgiven": 5155,
  "amb": 5156,
  "rodu": 5157,
  "Ġchang": 5158,
  "ä»¥ä¸ĭ": 5159,
  "Ġæ¢¦": 5160,
  "ç»ĻæĪĳ": 5161,
  "å¹¿åĳĬ": 5162,
  "ĠMy": 5163,
  "Ġmaking": 5164,
  "ĠæĲŀ": 5165,
  "Ġgive": 5166,
  "Ġä¸İ": 5167,
  "Ġè¿ŀ": 5168,
  "åĲ¬åĪ°": 5169,
  "AN": 5170,
  "å¦»": 5171,
  "ford": 5172,
  "ino": 5173,
  "æĤī": 5174,
  "ä¹ĭä¸ĭ": 5175,
  "æĥł": 5176,
  "Ġåĩºåİ»": 5177,
  "å¾·åĽ½": 5178,
  "è§Ī": 5179,
  "ability": 5180,
  "é¼ł": 5181,
  "è¦ģæĺ¯": 5182,
  "çī¹æ®Ĭ": 5183,
  "gether": 5184,
  "Ġtogether": 5185,
  "æŁ±": 5186,
  "Ġlarge": 5187,
  "Ġcheck": 5188,
  "æıĲåĩº": 5189,
  "Ġ......": 5190,
  "åĨľæĿĳ": 5191,
  "æı´": 5192,
  "åĲįç§°": 5193,
  "ify": 5194,
  "æĬ¬": 5195,
  "Ġéĥ": 5196,
  "æľĢå¤§": 5197,
  "äºķ": 5198,
  "è£ģ": 5199,
  "Ġç©º": 5200,
  "åľ¨è¿ĻéĩĮ": 5201,
  "Ġå¤ļå°ĳ": 5202,
  "ement": 5203,
  "æĬ¥åĳĬ": 5204,
  "æĥ¨": 5205,
  "æ²Ī": 5206,
  "32": 5207,
  "Ġæĭī": 5208,
  "thing": 5209,
  "åĵ²": 5210,
  "ä¾¯": 5211,
  "ä¹Łæ²¡": 5212,
  "é«ĺçļĦ": 5213,
  "Ġfull": 5214,
  "ĠSy": 5215,
  "Ġauthor": 5216,
  "åı¬": 5217,
  "æĶ¹éĿ©": 5218,
  "Ġindust": 5219,
  "Ġæħ": 5220,
  "éĢ¸": 5221,
  "Ġäº²": 5222,
  "ĠçķĻ": 5223,
  "åİĮ": 5224,
  "ç¬¬ä¸Ģæ¬¡": 5225,
  "Ġplease": 5226,
  "Ġæµ·": 5227,
  "èį·": 5228,
  "æĮģç»Ń": 5229,
  "é©¾": 5230,
  "ĠAss": 5231,
  "ane": 5232,
  "Ġlot": 5233,
  "Ġstudents": 5234,
  "ĠHar": 5235,
  "ilt": 5236,
  "idd": 5237,
  "ĠBr": 5238,
  "çªĹ": 5239,
  "æĹ¢çĦ¶": 5240,
  "ĠPart": 5241,
  "åĬłä¸Ĭ": 5242,
  "ending": 5243,
  "èĬĴ": 5244,
  "Ġè½¬": 5245,
  "ĠâĢ": 5246,
  "Ġæ¯Ľ": 5247,
  "mit": 5248,
  "verage": 5249,
  "Ġå¹¿": 5250,
  "Ġservices": 5251,
  "åĳĨ": 5252,
  "çļĦä¸»": 5253,
  "ething": 5254,
  "å¤§éĥ¨åĪĨ": 5255,
  "èģĶç³»": 5256,
  "Ġer": 5257,
  "èĦ¸ä¸Ĭ": 5258,
  "çĶ³è¯·": 5259,
  "æ±¡": 5260,
  "ä»¥æĿ¥": 5261,
  "Ġçı": 5262,
  "éĻµ": 5263,
  "ĠThese": 5264,
  "oney": 5265,
  "åĢº": 5266,
  "èĴĤ": 5267,
  "æĪĳåĽ½": 5268,
  "oid": 5269,
  "ese": 5270,
  "æ¤įçī©": 5271,
  "urther": 5272,
  "Ġleft": 5273,
  "æĦ¿æĦı": 5274,
  "åı£æ°Ķ": 5275,
  "Ġprot": 5276,
  "Ġè¿ĻäºĽ": 5277,
  "Ġæ¡": 5278,
  "Ġæ·±": 5279,
  "Ġäººå®¶": 5280,
  "Ġbetter": 5281,
  "å°ĨåĨĽ": 5282,
  "Ġfr": 5283,
  "ĨĴ": 5284,
  "Ġfeat": 5285,
  "att": 5286,
  "ç¥Ŀ": 5287,
  "å·¥åħ·": 5288,
  "éī´": 5289,
  "æ³ª": 5290,
  "æĺİå¤©": 5291,
  "Ġactiv": 5292,
  "çļĦåıĳå±ķ": 5293,
  "å®¿": 5294,
  "æģĴ": 5295,
  "èį¡": 5296,
  "Ġcho": 5297,
  "æ±Ĺ": 5298,
  "oon": 5299,
  "Ġprofess": 5300,
  "Ġmajor": 5301,
  "Ġcommunity": 5302,
  "ä¼ı": 5303,
  "æ¦Ĥå¿µ": 5304,
  "ä¾ĿçĦ¶": 5305,
  "sw": 5306,
  "Ġå»": 5307,
  "istor": 5308,
  "ze": 5309,
  "äººæīį": 5310,
  "Ġsocial": 5311,
  "Ġç¥Ŀ": 5312,
  "my": 5313,
  "æĪĲç»©": 5314,
  "ĠBar": 5315,
  "ç«ŀäºī": 5316,
  "ĠAf": 5317,
  "Ġdeath": 5318,
  "èĭĹ": 5319,
  "èĥ½éĩı": 5320,
  "æĽ´å¤ļ": 5321,
  "æŃ£æĺ¯": 5322,
  "ĠEl": 5323,
  "raft": 5324,
  "ID": 5325,
  "ĠState": 5326,
  "ç»Ļä½ł": 5327,
  "Ġå¿ĺ": 5328,
  "Ġonline": 5329,
  "åľ¨åľ°": 5330,
  "ä½ıäºĨ": 5331,
  "Ġæ³¨æĦı": 5332,
  "è¿ħéĢŁ": 5333,
  "åĪļæīį": 5334,
  "åİĭåĬĽ": 5335,
  "ĠHigh": 5336,
  "here": 5337,
  "ĠOct": 5338,
  "æ®ĸ": 5339,
  "Ġå¨": 5340,
  "è¡ĮçļĦ": 5341,
  "side": 5342,
  "èĦĤ": 5343,
  "èµ«": 5344,
  "ç»ĺ": 5345,
  "æ³¥": 5346,
  "é©±": 5347,
  "Ġé£ŀ": 5348,
  "Ġnever": 5349,
  "ĠèĤī": 5350,
  "æ¬§æ´²": 5351,
  "åĶ¯ä¸Ģ": 5352,
  "Ġcamp": 5353,
  "aim": 5354,
  "è¾£": 5355,
  "ored": 5356,
  "ĠåįĹ": 5357,
  "åįģä¸ī": 5358,
  "çļĦä¸ľè¥¿": 5359,
  "Ġcase": 5360,
  "Ġ....": 5361,
  "åĢ¾": 5362,
  "ä¼ļæľī": 5363,
  "Ġ21": 5364,
  "ĠåĲĪ": 5365,
  "åĲ¹": 5366,
  "èµĦéĩĳ": 5367,
  "èĢĮå·²": 5368,
  "ä¸Ģå¹´": 5369,
  "ç§»åĬ¨": 5370,
  "Ġpopulation": 5371,
  "Ġhowever": 5372,
  "Ġèµ¶": 5373,
  "Ġä¼ĳæģ¯": 5374,
  "Ġç±": 5375,
  "Ġbelie": 5376,
  "Ġable": 5377,
  "éĶ¦": 5378,
  "55": 5379,
  "æĤ²": 5380,
  "ĠApr": 5381,
  "ä¸Ńæĸĩ": 5382,
  "æİĮæı¡": 5383,
  "ä¸įè§ģ": 5384,
  "ĠäºĨä½ł": 5385,
  "Ġpot": 5386,
  "ä¸ĭäºĨ": 5387,
  "ĠInst": 5388,
  "Ġput": 5389,
  "ç¡ķ": 5390,
  "ĠæĪĳè¦ģ": 5391,
  "éĿĴå¹´": 5392,
  "ĠColle": 5393,
  "ĠAug": 5394,
  "Ġé¸": 5395,
  "é©»": 5396,
  "ä¹ĸ": 5397,
  "ĠEurope": 5398,
  "æ²¡äºĭ": 5399,
  "éĵº": 5400,
  "å¤ļå¹´": 5401,
  "reet": 5402,
  "Ġallow": 5403,
  "Ġhistory": 5404,
  "Ð²": 5405,
  "ä¹Ķ": 5406,
  "Ġcreat": 5407,
  "äºĭä¸ļ": 5408,
  "åĳ¨åĽ´": 5409,
  "çĩķ": 5410,
  "è°±": 5411,
  "Ġä¸ĢèĪ¬": 5412,
  "ä¾ĭå¦Ĥ": 5413,
  "Ġshort": 5414,
  "ĠAustral": 5415,
  "ĠæĦıæĢĿ": 5416,
  "Ġbeh": 5417,
  "Ġåĩı": 5418,
  "ä¹ĭéĹ´çļĦ": 5419,
  "ĠéĢĤ": 5420,
  "çĶľ": 5421,
  "Ġstory": 5422,
  "æµĭè¯ķ": 5423,
  "osp": 5424,
  "æŁ³": 5425,
  "Ġpast": 5426,
  "Ġå¤©å¤©": 5427,
  "æĢ§èĥ½": 5428,
  "ä¸įæĥ³": 5429,
  "Ġtem": 5430,
  "ĠMc": 5431,
  "ĠéĿĴ": 5432,
  "æ¡ĥ": 5433,
  "åĸ·": 5434,
  "åĽłç´ł": 5435,
  "Ġindivid": 5436,
  "åįģäºĶ": 5437,
  "put": 5438,
  "é¼»": 5439,
  "å¥½å¥½": 5440,
  "play": 5441,
  "çģ¾": 5442,
  "åĪĽä½ľ": 5443,
  "Ġèį": 5444,
  "Ġbig": 5445,
  "å¡ĳ": 5446,
  "å¾®å¾®": 5447,
  "å®īæİĴ": 5448,
  "::": 5449,
  "31": 5450,
  "ç§¯æŀģ": 5451,
  "åħĪè¿Ľ": 5452,
  "ĠEnglish": 5453,
  "ĠExternal": 5454,
  "åĽ¢éĺŁ": 5455,
  "Ġæ°Ķ": 5456,
  "lev": 5457,
  "åĴ±ä»¬": 5458,
  "ä»İäºĭ": 5459,
  "åĺ¿åĺ¿": 5460,
  "èĤł": 5461,
  "aces": 5462,
  "ä¸ĬéĿ¢": 5463,
  "æ¾³": 5464,
  "__": 5465,
  "æĥĳ": 5466,
  "å¤ªéĺ³": 5467,
  "Ġresearch": 5468,
  "å°ıçļĦ": 5469,
  "æľĢå¤§çļĦ": 5470,
  "å¤§åĪ©": 5471,
  "ç®Ĺæĺ¯": 5472,
  "Ġè®¤è¯Ĩ": 5473,
  "åĿĽ": 5474,
  "è°ĥæķ´": 5475,
  "è´¯": 5476,
  "II": 5477,
  "Ġä¸ºäºĨ": 5478,
  "éĤ®": 5479,
  "ills": 5480,
  "éĥ¨éĺŁ": 5481,
  "è¾ī": 5482,
  "Ġéº": 5483,
  "æĽ¹": 5484,
  "joy": 5485,
  "ç²®": 5486,
  "éĢļå¸¸": 5487,
  "ape": 5488,
  "åĤ²": 5489,
  "è®©æĪĳ": 5490,
  "éŀĭ": 5491,
  "ä¹¦è®°": 5492,
  "è¯´äºĨ": 5493,
  "éĺħè¯»": 5494,
  "ä¹Łå°±": 5495,
  "ĠæĶ¯": 5496,
  "è§Ĵèī²": 5497,
  "åıĳå¸ĥ": 5498,
  "AC": 5499,
  "ç²Ĺ": 5500,
  "âĢĿãĢģâĢľ": 5501,
  "ä»ĸåľ¨": 5502,
  "aper": 5503,
  "Ġcountry": 5504,
  "åĨħéĥ¨": 5505,
  "Ġä»¥åīį": 5506,
  "hern": 5507,
  "è®¾ç½®": 5508,
  "éĩįè¦ģçļĦ": 5509,
  "OS": 5510,
  "ä¸ŃåŃ¦": 5511,
  "ĠMarch": 5512,
  "å¤©ä¸ĭ": 5513,
  "è½¨": 5514,
  "å¼Ĺ": 5515,
  "Ġtyp": 5516,
  "å°±åĥı": 5517,
  "Ġcult": 5518,
  "è¦": 5519,
  "rew": 5520,
  "èĤ©": 5521,
  "Ġpopular": 5522,
  "()": 5523,
  "Ġtit": 5524,
  "èĤ¿": 5525,
  "Ġeduc": 5526,
  "è¯ģæĺİ": 5527,
  "çļĩå¸Ŀ": 5528,
  "Ġcost": 5529,
  "åı¦ä¸Ģ": 5530,
  "Ġæł¹": 5531,
  "æĤ£èĢħ": 5532,
  "ä¸ĵè¾ĳ": 5533,
  "èµ·äºĨ": 5534,
  "ç©·": 5535,
  "Ġpract": 5536,
  "çĸ¾çĹħ": 5537,
  "çĨĬ": 5538,
  "å¤§éĻĨ": 5539,
  "ç¢°": 5540,
  "ague": 5541,
  "ĠéĿŀ": 5542,
  "å¹¶ä¸įæĺ¯": 5543,
  "ĠçĶµå½±": 5544,
  "Ġproble": 5545,
  "åĮ»çĸĹ": 5546,
  "ä¹³": 5547,
  "Ġless": 5548,
  "åĪĨä¸º": 5549,
  "ĠPre": 5550,
  "ued": 5551,
  "åįļå£«": 5552,
  "75": 5553,
  "ocus": 5554,
  "Ġlight": 5555,
  "Ġworks": 5556,
  "Ġä¸ĭæ¬¡": 5557,
  "åħ¨éĿ¢": 5558,
  "æĬĢèĥ½": 5559,
  "Ġç¢": 5560,
  "ĠHer": 5561,
  "é½¿": 5562,
  "å°ıè¯´": 5563,
  "åŃ¦ä¼ļ": 5564,
  "Ġå®¹": 5565,
  "éªĤ": 5566,
  "äº«åıĹ": 5567,
  "è½´": 5568,
  "çŃīäºº": 5569,
  "ç½Ĺæĸ¯": 5570,
  "æĨ": 5571,
  "æħ¢æħ¢": 5572,
  "æī°": 5573,
  "æĸĩæĺİ": 5574,
  "isc": 5575,
  "æİª": 5576,
  "èĬĤçĽ®": 5577,
  "éĺģ": 5578,
  "Ġcreate": 5579,
  "æħ§": 5580,
  "Ġmight": 5581,
  "ource": 5582,
  "rap": 5583,
  "Ġå²": 5584,
  "ĠéĶĻ": 5585,
  "Ġåı¦": 5586,
  "çĽĳçĿ£": 5587,
  "åĿ¡": 5588,
  "Ġlittle": 5589,
  "not": 5590,
  "alt": 5591,
  "ĠWest": 5592,
  "èµ¤": 5593,
  "ç½¢": 5594,
  "Ġet": 5595,
  "çī§": 5596,
  "å¿ĥçļĦ": 5597,
  "aus": 5598,
  "åħ±åĴĮ": 5599,
  "ĠApp": 5600,
  "Ġfoot": 5601,
  "ä¸įä¸Ĭ": 5602,
  "ĠåŃ©": 5603,
  "alf": 5604,
  "Ġworking": 5605,
  "ĠKing": 5606,
  "åĽŀåİ»": 5607,
  "Ġè¿ĻéĩĮ": 5608,
  "è·ĥ": 5609,
  ":ãĢĬ": 5610,
  "å¹³åĿĩ": 5611,
  "Ġsw": 5612,
  "ĠæŃĮ": 5613,
  "åŃ¤": 5614,
  "Ġå§Ĳ": 5615,
  "Ġsomething": 5616,
  "ç«Ļåľ¨": 5617,
  "org": 5618,
  "çļ®èĤ¤": 5619,
  "æľºåħ³": 5620,
  "Ġhtt": 5621,
  "agement": 5622,
  "ula": 5623,
  "æ¶Īå¤±": 5624,
  "å¯¹æīĭ": 5625,
  "å®ŀè·µ": 5626,
  "ones": 5627,
  "ĠTr": 5628,
  "Ġæľīäºº": 5629,
  "éĥģ": 5630,
  "å¤§æ¦Ĥ": 5631,
  "ides": 5632,
  "å¼Ģå±ķ": 5633,
  "Ġformer": 5634,
  "å¤įæĿĤ": 5635,
  "Ġrefer": 5636,
  "Ġfood": 5637,
  "å²Ĺ": 5638,
  "ches": 5639,
  "Ġè¡£": 5640,
  "ãĢĤâĢľ": 5641,
  "ä¸Ģå¤©": 5642,
  "ĠGerman": 5643,
  "å½»åºķ": 5644,
  "æĢľ": 5645,
  "ffic": 5646,
  "ĠSept": 5647,
  "Ġhard": 5648,
  "å½¹": 5649,
  "èĥİ": 5650,
  "ç³Ĭ": 5651,
  "çĻĮ": 5652,
  "Ġä¼¤": 5653,
  "ĠJanuary": 5654,
  "ä»¿ä½Ľ": 5655,
  "éĥŃ": 5656,
  "åıĬåħ¶": 5657,
  "æ®µæĹ¶éĹ´": 5658,
  "å®£ä¼ł": 5659,
  "avor": 5660,
  "ports": 5661,
  "Ġsite": 5662,
  "èħĲ": 5663,
  "Ġç¿": 5664,
  "èĩªèº«": 5665,
  "Ġappear": 5666,
  "ĠåĤ": 5667,
  "è®°å½ķ": 5668,
  "ĠApril": 5669,
  "ĠSw": 5670,
  "ĠQu": 5671,
  "Ġmillion": 5672,
  "998": 5673,
  "æĸ¹ä¾¿": 5674,
  "ham": 5675,
  "Ġç¥ŀ": 5676,
  "æ¬£": 5677,
  "ĠNot": 5678,
  "é»İ": 5679,
  "Ġæĺ¨å¤©": 5680,
  "èĽĩ": 5681,
  "Ġè£ħ": 5682,
  "èĢĢ": 5683,
  "ror": 5684,
  "ising": 5685,
  "Ġæİ¨": 5686,
  "Ġsure": 5687,
  "Ġpay": 5688,
  "éªĹ": 5689,
  "æīįæĺ¯": 5690,
  "è·¨": 5691,
  "ĠPark": 5692,
  "ĠGl": 5693,
  "Ġdays": 5694,
  "ruction": 5695,
  "åĿĳ": 5696,
  "åİīå®³": 5697,
  "Ġthings": 5698,
  "è¾ŀ": 5699,
  "ç²Ĵ": 5700,
  "artment": 5701,
  "è¾ĸ": 5702,
  "ĠTra": 5703,
  "Ġmove": 5704,
  "éĵľ": 5705,
  "å¥ī": 5706,
  "ä»İèĢĮ": 5707,
  "çļĦç¥ŀ": 5708,
  "Ġside": 5709,
  "ç½ļ": 5710,
  "Ġland": 5711,
  "çİ©å®¶": 5712,
  "Ġåıªèĥ½": 5713,
  "aff": 5714,
  "Ġrecomm": 5715,
  "ele": 5716,
  "Ġask": 5717,
  "çļ±": 5718,
  "åľŁåľ°": 5719,
  "300": 5720,
  "Ġren": 5721,
  "èĻ½": 5722,
  "åįģå¹´": 5723,
  "åĮĸåŃ¦": 5724,
  "ĠJune": 5725,
  "viron": 5726,
  "Ġè¿ĺè¦ģ": 5727,
  "æİ¥åı£": 5728,
  "è¦Ĩ": 5729,
  "è®ºæĸĩ": 5730,
  "ray": 5731,
  "çİ°å®ŀ": 5732,
  "éģĩåĪ°": 5733,
  "Ġphot": 5734,
  "èµĦäº§": 5735,
  "æĶ¾åľ¨": 5736,
  "æĺ¯åĽłä¸º": 5737,
  "Ġmeet": 5738,
  "Ġä¿Ŀ": 5739,
  "èĳ£": 5740,
  "ering": 5741,
  "ĠæĤ¨": 5742,
  "Ġåı£": 5743,
  "ources": 5744,
  "Ġèĩ³": 5745,
  "Ġpain": 5746,
  "çĮľ": 5747,
  "èİī": 5748,
  "ä¸ªæľĪ": 5749,
  "é³": 5750,
  "Ġéĩĳ": 5751,
  "ĠDes": 5752,
  "åıĳè¡¨": 5753,
  "åĩıå°ĳ": 5754,
  "ĠBritish": 5755,
  "çī©è´¨": 5756,
  "raw": 5757,
  "åĪ¸": 5758,
  "Ġä¸įè¡Į": 5759,
  "äººéĥ½": 5760,
  "ips": 5761,
  "å°ĳå¹´": 5762,
  "Ġcond": 5763,
  "å¼ĢäºĨ": 5764,
  "ography": 5765,
  "ination": 5766,
  "éĢĲæ¸Ĳ": 5767,
  "ĠçĶŁæĹ¥": 5768,
  "Ġchange": 5769,
  "éŃı": 5770,
  "é¸£": 5771,
  "ĠæľŁ": 5772,
  "ĠéĻ¤": 5773,
  "ĠçĽ´æİ¥": 5774,
  "ĠèĬĤ": 5775,
  "è´¦": 5776,
  "ances": 5777,
  "çĲĥéĺŁ": 5778,
  "æĪĺçķ¥": 5779,
  "åĬ«": 5780,
  "Ġimpro": 5781,
  "å®¶æĹı": 5782,
  "åĨłåĨĽ": 5783,
  "çļĦå¿ĥ": 5784,
  "æŃ»äº¡": 5785,
  "è´¡": 5786,
  "ĠPer": 5787,
  "ĠéĻª": 5788,
  "æĭĴ": 5789,
  "æľºæ¢°": 5790,
  "hold": 5791,
  "æĪĳå°±": 5792,
  "pecial": 5793,
  "Ġsound": 5794,
  "aur": 5795,
  "å¿ħè¦ģ": 5796,
  "åį³ä½¿": 5797,
  "Ġinf": 5798,
  "SB": 5799,
  "ethod": 5800,
  "éĵģè·¯": 5801,
  "è¿ĺåľ¨": 5802,
  "Ġbecome": 5803,
  "Ġå£": 5804,
  "Ġåħ«": 5805,
  "iod": 5806,
  "ole": 5807,
  "Ġå¿«ä¹Ĳ": 5808,
  "Ġç¦»": 5809,
  "Ġbir": 5810,
  "Ġåħ»": 5811,
  "itive": 5812,
  "éħĴåºĹ": 5813,
  "ĠPres": 5814,
  "ä¿®çĤ¼": 5815,
  "ä¸ľåĮĹ": 5816,
  "æŀ«": 5817,
  "Ġexample": 5818,
  "æ»¡è¶³": 5819,
  "Ġfore": 5820,
  "ĠåĬªåĬĽ": 5821,
  "çī¹å¾ģ": 5822,
  "åį±éĻ©": 5823,
  "34": 5824,
  "uture": 5825,
  "ĠãĢ": 5826,
  "éĿ©åĳ½": 5827,
  "Ġfunction": 5828,
  "çªģçł´": 5829,
  "tal": 5830,
  "çĽ¾": 5831,
  "Ġ\\": 5832,
  "br": 5833,
  "ä»ĩ": 5834,
  "Ġtri": 5835,
  "çĺ¦": 5836,
  "Ġtimes": 5837,
  "back": 5838,
  "ĠAugust": 5839,
  "ondon": 5840,
  "Ġç²¾": 5841,
  "irl": 5842,
  "Ġ..": 5843,
  "èµĸ": 5844,
  "ĠSee": 5845,
  "åıĤèĢĥ": 5846,
  "å¾ª": 5847,
  "èĦ¸èī²": 5848,
  "åĵªäºĽ": 5849,
  "çĪ¶æ¯į": 5850,
  "éģĵè·¯": 5851,
  "æį·": 5852,
  "Ġåĭ": 5853,
  "OR": 5854,
  "éĽķ": 5855,
  "Ġmult": 5856,
  "åĨĽéĺŁ": 5857,
  "åį¢": 5858,
  "è½¦ç«Ļ": 5859,
  "ĠSec": 5860,
  "Ġlarg": 5861,
  "å¼ºèĢħ": 5862,
  "æĹ¶çļĦ": 5863,
  "Ġaccording": 5864,
  "åĦ¿ç«¥": 5865,
  "Ġplayers": 5866,
  "ument": 5867,
  "æĳĩå¤´": 5868,
  "åİŁåĪĻ": 5869,
  "Ġèİ": 5870,
  "å®ļçļĦ": 5871,
  "Ġ50": 5872,
  "æľµ": 5873,
  "nect": 5874,
  "ĠJuly": 5875,
  "èĤĿ": 5876,
  "ĠChe": 5877,
  "è¿ĩäºĨ": 5878,
  "66": 5879,
  "ival": 5880,
  "åıĺæĪĲ": 5881,
  "ä¸įå¦Ĥ": 5882,
  "éļ¾ä»¥": 5883,
  "ED": 5884,
  "ĠDav": 5885,
  "cil": 5886,
  "cle": 5887,
  "Ġport": 5888,
  "val": 5889,
  "ĠåĪĺ": 5890,
  "çĭ±": 5891,
  "ained": 5892,
  "åŃ¦æľ¯": 5893,
  "Ġæ¥": 5894,
  "éĤ£ç§į": 5895,
  "åĲĵ": 5896,
  "å®ħ": 5897,
  "å½ĵåľ°": 5898,
  "ĠèĢģå¸Ī": 5899,
  "å¥³æĢ§": 5900,
  "ç±»ä¼¼": 5901,
  "è¯´æĺ¯": 5902,
  "ä¸Ģçľ¼": 5903,
  "ĠAI": 5904,
  "990": 5905,
  "Ġå®Ŀ": 5906,
  "åĲįä¸º": 5907,
  "Ġæĺ¾": 5908,
  "ĠæĺŁ": 5909,
  "Ġåİīå®³": 5910,
  "37": 5911,
  "ä¸Ģå®ļè¦ģ": 5912,
  "Ġå¹¶": 5913,
  "uf": 5914,
  "å¥¹ä»¬": 5915,
  "å¥³åŃĲ": 5916,
  "ana": 5917,
  "Ġsearch": 5918,
  "èĭį": 5919,
  "ateg": 5920,
  "·åŃĲ": 5921,
  "Ġåįĸ": 5922,
  "æķ°åŃĹ": 5923,
  "è¿Ļä½į": 5924,
  "æľ¬ä¹¦": 5925,
  "ä¼ļåĳĺ": 5926,
  "Ġåĵİ": 5927,
  "ä¸Ģéģĵ": 5928,
  "Ġ@": 5929,
  "çĶµèĦĳ": 5930,
  "é¦ĸåħĪ": 5931,
  "ãĢĭãĢĤ": 5932,
  "uk": 5933,
  "Ġé¦ĸ": 5934,
  "Ġæ»´": 5935,
  "åĲķ": 5936,
  "çī¹èī²": 5937,
  "nd": 5938,
  "ä½ĵèĤ²": 5939,
  "Ġä½ľ": 5940,
  "ĠAdd": 5941,
  "Ġé»Ħ": 5942,
  "åĦ¿åŃĲ": 5943,
  "å¢ĵ": 5944,
  "ovember": 5945,
  "ĠReg": 5946,
  "ĠOctober": 5947,
  "ef": 5948,
  "ä½ĵéªĮ": 5949,
  "éĤĢ": 5950,
  "aly": 5951,
  "Ġlocated": 5952,
  "IT": 5953,
  "ĠåĨħå®¹": 5954,
  "ĠåıĮ": 5955,
  "å¿½çĦ¶": 5956,
  "oor": 5957,
  "----------------": 5958,
  "IC": 5959,
  "cember": 5960,
  "æııè¿°": 5961,
  "çľŁå®ŀ": 5962,
  "ä»ĵ": 5963,
  "åİŁæľ¬": 5964,
  "Ġinvol": 5965,
  "å°¿": 5966,
  "ler": 5967,
  "Ġdevelopment": 5968,
  "Ġpriv": 5969,
  "ä»°": 5970,
  "Ġgames": 5971,
  "ĠåĳĹ": 5972,
  "Ġåĵ¥": 5973,
  "Ġfield": 5974,
  "Ġabove": 5975,
  "ĠSeptember": 5976,
  "åľ¨ä¸Ģèµ·": 5977,
  "Ġå¼º": 5978,
  "æĹłæķ°": 5979,
  "åīįçļĦ": 5980,
  "éĤª": 5981,
  "å¸ĿåĽ½": 5982,
  "Ġåĵĩ": 5983,
  "æľīæ²¡æľī": 5984,
  "éĽ¾": 5985,
  "lex": 5986,
  "Ġwar": 5987,
  "çļĦå£°éŁ³": 5988,
  "å¾Īéļ¾": 5989,
  "ĠæĬ±": 5990,
  "ç»Łä¸Ģ": 5991,
  "Ġç»§": 5992,
  "787": 5993,
  "åķ¡": 5994,
  "ĠSer": 5995,
  "997": 5996,
  "Ch": 5997,
  "Ġofficial": 5998,
  "Ġè¿Ļæĺ¯": 5999,
  "ĠåıĤ": 6000,
  "æ¶Ĥ": 6001,
  "pro": 6002,
  "Ġdue": 6003,
  "Ġcomb": 6004,
  "Ġaff": 6005,
  "ĠåŃ©åŃĲ": 6006,
  "æĭħå¿ĥ": 6007,
  "èģĶçĽŁ": 6008,
  "ĠChar": 6009,
  "èĥĮæĻ¯": 6010,
  "ä¸įåĩº": 6011,
  "åĪĻæĺ¯": 6012,
  "ç¬ĳçĿĢ": 6013,
  "ĠåĢĴ": 6014,
  "ilar": 6015,
  "åįģåħŃ": 6016,
  "ä¸įè¶³": 6017,
  "Ġæµģ": 6018,
  "ured": 6019,
  "ä¿ĥè¿Ľ": 6020,
  "äºı": 6021,
  "æľĢä½³": 6022,
  "Ġä¸»è¦ģ": 6023,
  "å®Ļ": 6024,
  "uff": 6025,
  "Ġäºĭæĥħ": 6026,
  "éģ¥": 6027,
  "èĩĤ": 6028,
  "Ġlim": 6029,
  "Ġexc": 6030,
  "Ã³": 6031,
  "022": 6032,
  "ĠArt": 6033,
  "Ġæ»¡": 6034,
  "éĴĪå¯¹": 6035,
  "æĮĩæĮ¥": 6036,
  "ä¸ĢæĿ¡": 6037,
  "ä¼ļåĦ¿": 6038,
  "Ġreleased": 6039,
  "ched": 6040,
  "æĪĳæĺ¯": 6041,
  "ãĢį,": 6042,
  "go": 6043,
  "èµĭ": 6044,
  "Ġemploy": 6045,
  "ĠåħŃ": 6046,
  "åĩ¶": 6047,
  "çĴĥ": 6048,
  "ĠAcc": 6049,
  "Ġpossible": 6050,
  "ĠCont": 6051,
  "è·ŁçĿĢ": 6052,
  "Ġsize": 6053,
  "åĪĨå¸ĥ": 6054,
  "çĶ·äºº": 6055,
  "Ġæľºä¼ļ": 6056,
  "éĥ¡": 6057,
  "å§ľ": 6058,
  "Ġdev": 6059,
  "84": 6060,
  "Ġè®²": 6061,
  "ctor": 6062,
  "åĳĺå·¥": 6063,
  "Ġçŀ": 6064,
  "èµļ": 6065,
  "è®¡ç®Ĺæľº": 6066,
  "Ġä½ı": 6067,
  "ĠRep": 6068,
  "Ġkey": 6069,
  "acy": 6070,
  "Ġcover": 6071,
  "é©¬ä¸Ĭ": 6072,
  "%ãĢĤ": 6073,
  "Ġconc": 6074,
  "na": 6075,
  "Ġä¸ŃåĽ½": 6076,
  "ĠåŃĹ": 6077,
  "è¡¨è¾¾": 6078,
  "ä¸įåı¯èĥ½": 6079,
  "å°ıåŃ¦": 6080,
  "ĠåĶ±": 6081,
  "æİ¥è§¦": 6082,
  "æ¸¡": 6083,
  "Ġsingle": 6084,
  "Ġliving": 6085,
  "Ġwomen": 6086,
  "è¿ĺèĥ½": 6087,
  "ental": 6088,
  "ĠTw": 6089,
  "è¸ı": 6090,
  "éģ¿åħį": 6091,
  "åįģåĽĽ": 6092,
  "è§Ĵåº¦": 6093,
  "åºĶå½ĵ": 6094,
  "Ġtook": 6095,
  "ably": 6096,
  "å¿½": 6097,
  "Ġmen": 6098,
  "eder": 6099,
  "åıĳåĩº": 6100,
  "åĤ»": 6101,
  "å¤§äºº": 6102,
  "è¡£æľį": 6103,
  "apan": 6104,
  "æĭĸ": 6105,
  "Ġcompet": 6106,
  "ĠçľĭçĿĢ": 6107,
  "éĻĦè¿ĳ": 6108,
  "éĢĨ": 6109,
  "ÃŃ": 6110,
  "ĠæĶ¯æĮģ": 6111,
  "ĠSoc": 6112,
  "åĽŀåĪ°": 6113,
  "ĸåķ¡": 6114,
  "åĨľæ°ĳ": 6115,
  "æĿ¥åĪ°": 6116,
  "ĠFeb": 6117,
  "å¿§": 6118,
  "èĢĮè¨Ģ": 6119,
  "Ġç¬¬äºĶ": 6120,
  ",ãĢĬ": 6121,
  "ots": 6122,
  "æľīä¸Ģä¸ª": 6123,
  "ä¸ĢæĹ¦": 6124,
  "Ġtype": 6125,
  "åĲ¼": 6126,
  "Ġcook": 6127,
  "Ġç¤¾": 6128,
  "Ġreview": 6129,
  "ç»Łè®¡": 6130,
  "ĠLondon": 6131,
  "åĭ¤": 6132,
  "è¿ŀç»Ń": 6133,
  "æĢĿèĢĥ": 6134,
  "Ġè¡£æľį": 6135,
  "çļĦæĸ°": 6136,
  "æµħ": 6137,
  "æŃ¦åĻ¨": 6138,
  "Ġç´¯": 6139,
  "vironment": 6140,
  "æŀĿ": 6141,
  "æ©": 6142,
  "abor": 6143,
  "æĿ¥æºĲ": 6144,
  "å¿Į": 6145,
  "åįģåħ«": 6146,
  "æĺ¾çĦ¶": 6147,
  "Ġçªģ": 6148,
  "ç¾İåħĥ": 6149,
  "æ¡ĳ": 6150,
  "éĻ¶": 6151,
  "Ġè¿ĩæĿ¥": 6152,
  "Ġcommon": 6153,
  "ĠNovember": 6154,
  "å®ı": 6155,
  "roll": 6156,
  "Ġaway": 6157,
  "Ġdri": 6158,
  "æĴ¤": 6159,
  "è¿Ľä¸ĢæŃ¥": 6160,
  "Ġéģĩ": 6161,
  "ĠèĥĮ": 6162,
  "å¼ŁåŃĲ": 6163,
  "Ġfocus": 6164,
  "Ġåħī": 6165,
  "çĲĨå¿µ": 6166,
  "èĢ¶": 6167,
  "Ġæ±Ĥ": 6168,
  "Ġå®ļ": 6169,
  "aul": 6170,
  "Ġä¹¦": 6171,
  "996": 6172,
  "å½ĵå¹´": 6173,
  "ĠåĿļ": 6174,
  "Ġapplic": 6175,
  "åĩłå¹´": 6176,
  "Ġband": 6177,
  "åĬłæ²¹": 6178,
  "ĠDecember": 6179,
  "ä¾¿å®ľ": 6180,
  "éĻįä½İ": 6181,
  "ĠCor": 6182,
  "æĴĳ": 6183,
  "ç½²": 6184,
  "æ¶¨": 6185,
  "å®īè£ħ": 6186,
  "lin": 6187,
  "Ġvol": 6188,
  "è¶³å¤Ł": 6189,
  "fect": 6190,
  "å½ĵä¸Ń": 6191,
  "éľį": 6192,
  "urg": 6193,
  "ĠåĮ»": 6194,
  "ä¸ĵéĹ¨": 6195,
  "ĠAfric": 6196,
  "Ġexpect": 6197,
  "æĸ©": 6198,
  "åĢĴæĺ¯": 6199,
  "icy": 6200,
  "Ġvarious": 6201,
  "Ġå¥½ä¹ħ": 6202,
  "Ġjo": 6203,
  "AM": 6204,
  "Ġhaving": 6205,
  "itor": 6206,
  "è¿Ľåİ»": 6207,
  "æĸ¹çļĦ": 6208,
  "åģ¿": 6209,
  "ald": 6210,
  "æľĢå¥½": 6211,
  "Ġsaf": 6212,
  "åĴ¬": 6213,
  "AL": 6214,
  "Ġacross": 6215,
  "Ġtoday": 6216,
  "Ġä¸įæķ¢": 6217,
  "çŃ¹": 6218,
  "ç§įæ¤į": 6219,
  "Ġbas": 6220,
  "ç£ģ": 6221,
  "å¯¹è±¡": 6222,
  "ĠçŁŃ": 6223,
  "ä¿Ĭ": 6224,
  "Ġnet": 6225,
  "load": 6226,
  "EN": 6227,
  "38": 6228,
  "æģĲæĢĸ": 6229,
  "Ġéģĵ": 6230,
  "ĠSm": 6231,
  "Ġ22": 6232,
  "Ġident": 6233,
  "åĩºæīĭ": 6234,
  "Ġå»º": 6235,
  "èģĶç½ĳ": 6236,
  "Ġcharacter": 6237,
  "è¸ª": 6238,
  "åĪ°çļĦ": 6239,
  "Ġothers": 6240,
  "Ġgot": 6241,
  "å·¨å¤§çļĦ": 6242,
  "64": 6243,
  "Ġåĳµ": 6244,
  "ä¹ı": 6245,
  "æįķ": 6246,
  "ä¸įçĦ¶": 6247,
  "é£ĺ": 6248,
  "Ġä¸ĸçķĮ": 6249,
  "å¢ŀéķ¿": 6250,
  "åĲİéĿ¢": 6251,
  "è®©ä½ł": 6252,
  "èµĦæł¼": 6253,
  "Ġç¨": 6254,
  "ĠéªĤ": 6255,
  "é«ĺçº§": 6256,
  "Ġä¹ĭ": 6257,
  "ĠçĶ»": 6258,
  "åŁºåľ°": 6259,
  "ä»įçĦ¶": 6260,
  "Ġè¯´è¯Ŀ": 6261,
  "ĠAg": 6262,
  "è´·": 6263,
  "ãĢĤ(": 6264,
  "èĥĥ": 6265,
  "iting": 6266,
  "Ġlive": 6267,
  "è§Ĥå¯Ł": 6268,
  "ä¸¢": 6269,
  "Ġç»ĵæŀľ": 6270,
  "åľ³": 6271,
  "Ġç»§ç»Ń": 6272,
  "èĤ¯": 6273,
  "Ġmedia": 6274,
  "åĪ«çļĦ": 6275,
  "æĦŁåĪ°": 6276,
  "Ġcrit": 6277,
  "æĤĶ": 6278,
  "ä¸Ī": 6279,
  "ĠåĮĹäº¬": 6280,
  "å·¡": 6281,
  "å·¥èīº": 6282,
  "ien": 6283,
  "ä¾ĿæĹ§": 6284,
  "æķ°åŃ¦": 6285,
  "åĲŀ": 6286,
  "Ġå®¢": 6287,
  "Ġfive": 6288,
  "æ¶Į": 6289,
  "å¼ºå¤§": 6290,
  "æºª": 6291,
  "ä½¿å¾Ĺ": 6292,
  "æĥ³æ³ķ": 6293,
  "æ¬¢è¿İ": 6294,
  "ĠAir": 6295,
  "éļıåĲİ": 6296,
  "AP": 6297,
  "æĿ¥çľĭ": 6298,
  "è¿ĩçļĦ": 6299,
  "åī²": 6300,
  "ibr": 6301,
  "æĪĴ": 6302,
  "Ġè¿ĩåİ»": 6303,
  "çļĦå·¥ä½ľ": 6304,
  "ĠHouse": 6305,
  "è¿½æ±Ĥ": 6306,
  "</": 6307,
  "çī©çĲĨ": 6308,
  "ground": 6309,
  "åĪĨç±»": 6310,
  "ĠéĻĪ": 6311,
  "åĲĪåĲĮ": 6312,
  "ç¬¬åĽĽ": 6313,
  "åºĻ": 6314,
  "å´ĩ": 6315,
  "Ġjob": 6316,
  "ļåŃĲ": 6317,
  "æħ°": 6318,
  "ä¹Ļ": 6319,
  "ĠåĴ±": 6320,
  "ergy": 6321,
  "Ġæ²¡äºĭ": 6322,
  "Ġunderstand": 6323,
  "time": 6324,
  "Ġä¸ĩ": 6325,
  "æīĢæľīçļĦ": 6326,
  "atural": 6327,
  "è§ĦåĪĻ": 6328,
  "now": 6329,
  "çİ°è±¡": 6330,
  "Ġ23": 6331,
  "äºĭå®ŀ": 6332,
  "umn": 6333,
  "illed": 6334,
  "ners": 6335,
  "éĻª": 6336,
  "æ¼Ķåĳĺ": 6337,
  "adem": 6338,
  "é©¶": 6339,
  "ĠéĤ": 6340,
  "ux": 6341,
  "å¥´": 6342,
  "Ġamong": 6343,
  "æĸĩåŃĹ": 6344,
  "Ġsays": 6345,
  "Ġå®¹æĺĵ": 6346,
  "Ġfre": 6347,
  "anies": 6348,
  "å½¼": 6349,
  "px": 6350,
  "å½¢è±¡": 6351,
  "ä¸įçĿĢ": 6352,
  "è´Ńä¹°": 6353,
  "Ġcareer": 6354,
  "æĿĨ": 6355,
  "èĢģæĿ¿": 6356,
  "ples": 6357,
  "Ġenjoy": 6358,
  "Ġpie": 6359,
  "ids": 6360,
  "ĠéĤ£ç§į": 6361,
  "åħħæ»¡": 6362,
  "though": 6363,
  "Ġmag": 6364,
  "ãĢĤ\"": 6365,
  "åıĳæĮ¥": 6366,
  "èľľ": 6367,
  "æī£": 6368,
  "ops": 6369,
  "æĪĸè®¸": 6370,
  "Ġcourse": 6371,
  "ä¸Ģä½į": 6372,
  "åıĳè¡Į": 6373,
  "ĠèģĬ": 6374,
  "éħ·": 6375,
  "ington": 6376,
  "åĬłå¼º": 6377,
  "åĲĪçĲĨ": 6378,
  "åħ±åĴĮåĽ½": 6379,
  "ç¢į": 6380,
  "æĥ§": 6381,
  "å¦Ĩ": 6382,
  "çĦ°": 6383,
  "åĩºçĶŁ": 6384,
  "çľĭè§ģ": 6385,
  "Ġprovided": 6386,
  "åľ°åĽ¾": 6387,
  "å±Ī": 6388,
  "Ġå¹²åĺĽ": 6389,
  "æĤł": 6390,
  "æĬĳ": 6391,
  "umb": 6392,
  "åĮ»çĶŁ": 6393,
  "éĽĨä¸Ń": 6394,
  "Th": 6395,
  "lement": 6396,
  "05": 6397,
  "å¤§å¤ļæķ°": 6398,
  "Ġé¡º": 6399,
  "åĽ°éļ¾": 6400,
  "ç¥Ń": 6401,
  "urity": 6402,
  "Ġæ¸©": 6403,
  "é£Łåĵģ": 6404,
  "èĭ¥æĺ¯": 6405,
  "ç§ĳçłĶ": 6406,
  "æĪĲæŀľ": 6407,
  "Ġrole": 6408,
  "Ġvideo": 6409,
  "Ġevents": 6410,
  "çĥĤ": 6411,
  "imate": 6412,
  "çŃĶæ¡Ī": 6413,
  "ĠDep": 6414,
  "çļĦä¸»è¦ģ": 6415,
  "Ġeconom": 6416,
  "Ġparticular": 6417,
  "book": 6418,
  "rench": 6419,
  "04": 6420,
  "ç¬¦åĲĪ": 6421,
  "ä¸Ģç¬ĳ": 6422,
  "ä¸įåĨį": 6423,
  "å¾Ģå¾Ģ": 6424,
  "åħģ": 6425,
  "¨è¯¢": 6426,
  "Ñı": 6427,
  "èĲ¥éĶĢ": 6428,
  "çĽ´åĪ°": 6429,
  "æĭįæĳĦ": 6430,
  "iber": 6431,
  "æİ¥çĿĢ": 6432,
  "opp": 6433,
  "æµĻ": 6434,
  "æ¢¯": 6435,
  "ĠEar": 6436,
  "Ġstyle": 6437,
  "Ġplayed": 6438,
  "Ġæ¨": 6439,
  "Ġhig": 6440,
  "è¶ĭ": 6441,
  "æ¶¯": 6442,
  "Ġå¿Ļ": 6443,
  "çļĦå½±åĵį": 6444,
  "ä½łæĺ¯": 6445,
  "Ġbo": 6446,
  "æģĲæĢķ": 6447,
  "Ġmention": 6448,
  "éĥ½è¦ģ": 6449,
  "åģļçļĦ": 6450,
  "å¤§å°ı": 6451,
  "çĶ·åŃĲ": 6452,
  "Ġheld": 6453,
  "Ġoriginal": 6454,
  "Ġbody": 6455,
  "Ġdetails": 6456,
  "65": 6457,
  "ĠçīĪ": 6458,
  "æ¸©åº¦": 6459,
  "Ġperiod": 6460,
  "Ġmean": 6461,
  "ae": 6462,
  "Ġcame": 6463,
  "ĠInternational": 6464,
  "over": 6465,
  "ĠWilliam": 6466,
  "Ġä¼°è®¡": 6467,
  "Ġproducts": 6468,
  "ĠåıįæŃ£": 6469,
  "è´«": 6470,
  "æģŃ": 6471,
  "çĽĹ": 6472,
  "ĠStud": 6473,
  "åıįæŃ£": 6474,
  "å¼ĢæĶ¾": 6475,
  "ĠåıĹ": 6476,
  "åıĳåĬ¨": 6477,
  "å¾Īå¤§": 6478,
  "Ġfeatures": 6479,
  "oph": 6480,
  "ison": 6481,
  "Ġcontrol": 6482,
  "ĠJapan": 6483,
  "åĩºçİ°åľ¨": 6484,
  "Ġlik": 6485,
  "è¿ĺæ²¡": 6486,
  "Ġæľ¬æĿ¥": 6487,
  "æľīæīĢ": 6488,
  "ĠéħĴ": 6489,
  "æ°Ķæģ¯": 6490,
  "è¿ĲèĲ¥": 6491,
  "Ġminutes": 6492,
  "07": 6493,
  "åĲ¦åĪĻ": 6494,
  "ĠRec": 6495,
  "ĠæĻļå®ī": 6496,
  "Ġrepresent": 6497,
  "Ġç»Ī": 6498,
  "æī¶": 6499,
  "åħ¬åħ±": 6500,
  "Ġå±ħ": 6501,
  "Ġhold": 6502,
  "ç³ķ": 6503,
  "åħ¬å¼Ģ": 6504,
  "è®°å¿Ĩ": 6505,
  "Ġbuilding": 6506,
  "Ġvalue": 6507,
  "Ġversion": 6508,
  "éĩĳå±ŀ": 6509,
  "rag": 6510,
  "å°ıå¿ĥ": 6511,
  "Ġç»Ŀ": 6512,
  "Ġå°ıæĹ¶": 6513,
  "ĠæŀĹ": 6514,
  "Ð¼": 6515,
  "ä¹ĭä¸Ĭ": 6516,
  "Ġep": 6517,
  "oe": 6518,
  "~~": 6519,
  "Ġåĩłä¸ª": 6520,
  "Ġfuture": 6521,
  "èģĺ": 6522,
  "Ġä¸ĥ": 6523,
  "éĹ·": 6524,
  "ĠHistory": 6525,
  "ites": 6526,
  "ä¾ł": 6527,
  "ä¸įæĩĤ": 6528,
  "èµĦæľ¬": 6529,
  "æĪĳä¹Ł": 6530,
  "æ¯įäº²": 6531,
  "Ġdeb": 6532,
  "ruary": 6533,
  "ĠCollege": 6534,
  "ĠÃ": 6535,
  "Ġlearn": 6536,
  "Ġé¥¿": 6537,
  "BC": 6538,
  "çļĦå¤©": 6539,
  "Ġfurther": 6540,
  "Ġç»ĵå©ļ": 6541,
  "è¶³çĲĥ": 6542,
  "Ġannoun": 6543,
  "è®¨è®º": 6544,
  "Ġredu": 6545,
  "995": 6546,
  "è§ĦèĮĥ": 6547,
  "Ľèĭ¦": 6548,
  "Ġnamed": 6549,
  "è®°å¾Ĺ": 6550,
  "æ¦ľ": 6551,
  "¡èĲ": 6552,
  "åĮ¹": 6553,
  "ĠLa": 6554,
  "çİ°åľº": 6555,
  "Ð´": 6556,
  "éĤ£å°±": 6557,
  "æĪĳæĥ³": 6558,
  "Ġmember": 6559,
  "æŃ»äºĨ": 6560,
  "Ġrange": 6561,
  "Ġfinal": 6562,
  "æīĳ": 6563,
  "Ġçħ§çīĩ": 6564,
  "æŃ£ç¡®": 6565,
  "ç¯®": 6566,
  "ĠèģĶ": 6567,
  "ç¤¾åĮº": 6568,
  "ift": 6569,
  "ĠHere": 6570,
  "åĪ©çĽĬ": 6571,
  "åļ": 6572,
  "ĠåĩºçīĪ": 6573,
  "æĭĵ": 6574,
  "ç»ıçĲĨ": 6575,
  "çİ°åľ¨çļĦ": 6576,
  "åĤħ": 6577,
  "çĶŁæĢģ": 6578,
  "å¤©çļĦ": 6579,
  "è¿Ī": 6580,
  "aken": 6581,
  "pos": 6582,
  "ä»¤äºº": 6583,
  "ä¿Ŀéļľ": 6584,
  "çĥ¤": 6585,
  "åį°åº¦": 6586,
  "ĠåĹ": 6587,
  "ĠMich": 6588,
  "Ġæ¶Ī": 6589,
  "æĻºèĥ½": 6590,
  "ä¸ĳ": 6591,
  "utions": 6592,
  "èĲĮ": 6593,
  "æ¶µ": 6594,
  "è¡¨æĥħ": 6595,
  "Ġrepl": 6596,
  "åºŀ": 6597,
  "Ġéº»": 6598,
  "Ġbene": 6599,
  "å¼Ģå¿ĥ": 6600,
  "Ġdi": 6601,
  "èĭ±éĽĦ": 6602,
  "ç«ĭåį³": 6603,
  "ma": 6604,
  "ç©ºæ°Ķ": 6605,
  "Ġè°ĥ": 6606,
  "åĢ¼å¾Ĺ": 6607,
  "æĢ¨": 6608,
  "æķ´ä½ĵ": 6609,
  "æĪĲéķ¿": 6610,
  "ç¨Ģ": 6611,
  "æĸ¯çī¹": 6612,
  "mar": 6613,
  "Ġfem": 6614,
  "æŀļ": 6615,
  "Ġæħ¢": 6616,
  "ĠèĢĮå·²": 6617,
  "Ġåħ³æ³¨": 6618,
  "isk": 6619,
  "ĠMark": 6620,
  "åĬłå·¥": 6621,
  "åłª": 6622,
  "Ġspace": 6623,
  "è§ģåĪ°": 6624,
  "è¿Ĳè¡Į": 6625,
  "ogn": 6626,
  "å£³": 6627,
  "æīĭæ®µ": 6628,
  "è½©": 6629,
  "æĹłæ¯Ķ": 6630,
  "æīĵå¼Ģ": 6631,
  "ĠAct": 6632,
  "æ¨¡åŀĭ": 6633,
  "aps": 6634,
  "é£Łçī©": 6635,
  "Ġå±±": 6636,
  "Ġä¿¡": 6637,
  "çĪµ": 6638,
  "é¥±": 6639,
  "è¶ħçº§": 6640,
  "æ°¸è¿ľ": 6641,
  "Ġsoft": 6642,
  "åħħåĪĨ": 6643,
  "Ġpage": 6644,
  "å®£å¸ĥ": 6645,
  "èº²": 6646,
  "æ·»": 6647,
  "å°¤åħ¶æĺ¯": 6648,
  "vert": 6649,
  "Ġstrong": 6650,
  "çĤī": 6651,
  "Ġroom": 6652,
  "Ġfar": 6653,
  "ĠAng": 6654,
  "Ġ//": 6655,
  "ä¸ĢåĲį": 6656,
  "ouncil": 6657,
  "Ġtreat": 6658,
  "rain": 6659,
  "çĮİ": 6660,
  "ĠSome": 6661,
  "å¼ºçļĦ": 6662,
  "åĲ¬è¯´": 6663,
  "Ġdescrib": 6664,
  "ä¸Ģçīĩ": 6665,
  "ief": 6666,
  "ĠGener": 6667,
  "Ġens": 6668,
  "ered": 6669,
  "ĠMon": 6670,
  "Ġbuilt": 6671,
  "ä»ħä»ħ": 6672,
  "è¢ĸ": 6673,
  "ç¿°": 6674,
  "æĹ©å°±": 6675,
  "è¡¨éĿ¢": 6676,
  "Ġaverage": 6677,
  "Ġpublished": 6678,
  "¹æŀľ": 6679,
  "ç¢ĳ": 6680,
  "hers": 6681,
  "Ġè¿ĺå¥½": 6682,
  "Ġnews": 6683,
  "ĠçĬ": 6684,
  "reg": 6685,
  "ĠSch": 6686,
  "ĠåŁºæľ¬": 6687,
  "ĠSun": 6688,
  "æ§½": 6689,
  "ä¸»åĬ¨": 6690,
  "ä¹Łè®¸": 6691,
  "é£ŀæľº": 6692,
  "ä¸įè¡Į": 6693,
  "ica": 6694,
  "éĥ½èĥ½": 6695,
  "Ġbeaut": 6696,
  "Ġhuman": 6697,
  "æĥħç»ª": 6698,
  "bor": 6699,
  "right": 6700,
  "éĻĲåĪ¶": 6701,
  "æĬĸ": 6702,
  "æĢģåº¦": 6703,
  "upp": 6704,
  "å¹¿æ³Ľ": 6705,
  "æīĭä¸Ń": 6706,
  "åįĵ": 6707,
  "Ġnight": 6708,
  "å¤§ä¼ļ": 6709,
  "æĦ£": 6710,
  "994": 6711,
  "è´¤": 6712,
  "ä¸įåľ¨": 6713,
  "Ġfeature": 6714,
  "Ġåħ¬åı¸": 6715,
  "Ġbirth": 6716,
  "Ġé¥Ń": 6717,
  "åĨĽäºĭ": 6718,
  "èŁ": 6719,
  "Ġinit": 6720,
  "è¿ĺæ²¡æľī": 6721,
  "ĠFebruary": 6722,
  "Ġlow": 6723,
  "éº»çĥ¦": 6724,
  "Ġä¹ĭåĲİ": 6725,
  "æĬķåħ¥": 6726,
  "ither": 6727,
  "Ġaccount": 6728,
  "éĶĲ": 6729,
  "å¼Ģåı£": 6730,
  "åľ°çĲĥ": 6731,
  "ä¸»æĮģ": 6732,
  "ä¸Ģéĺµ": 6733,
  "980": 6734,
  "å¤ļä¸ª": 6735,
  "Ġèı": 6736,
  "çļĦå¥½": 6737,
  "è½»è½»": 6738,
  "Ġclear": 6739,
  "»è¾ĳ": 6740,
  "400": 6741,
  ":\"": 6742,
  "ĠServ": 6743,
  "å±±ä¸ľ": 6744,
  "cast": 6745,
  "800": 6746,
  "åĬŀåħ¬å®¤": 6747,
  "åŃŁ": 6748,
  "Ġwhy": 6749,
  "li": 6750,
  "éħįåĲĪ": 6751,
  "ml": 6752,
  "æŃĮæĽ²": 6753,
  "å§¿": 6754,
  "è¾ĪåŃĲ": 6755,
  "æĶ¾å¼ĥ": 6756,
  "Ġbelow": 6757,
  "å²³": 6758,
  "ĠèĮ": 6759,
  "Ġgeneral": 6760,
  "ä»¶äºĭ": 6761,
  "æĤ¬": 6762,
  "Ġindustry": 6763,
  "åĨľæĪ·": 6764,
  "è¾¨": 6765,
  "levision": 6766,
  "æ£Ģæµĭ": 6767,
  "åŃķ": 6768,
  "Ġçľĭè§ģ": 6769,
  "æłı": 6770,
  "IP": 6771,
  "ä¸ľæĸ¹": 6772,
  "Ġæ°¸": 6773,
  "Ġant": 6774,
  "äººåľ¨": 6775,
  "åħ¬è·¯": 6776,
  "Ġincluded": 6777,
  "ables": 6778,
  "åĴ¨è¯¢": 6779,
  "å¹³æĸ¹ç±³": 6780,
  "Ġever": 6781,
  "æīĵç®Ĺ": 6782,
  "è¯ŀ": 6783,
  "å¤Ħäºİ": 6784,
  "åĮ»åŃ¦": 6785,
  "åħĪåĲİ": 6786,
  "ilities": 6787,
  "æĪĲçļĦ": 6788,
  "',": 6789,
  "Ġéĩįè¦ģ": 6790,
  "Ġsignific": 6791,
  "èĢķ": 6792,
  "ç»ĻäºĨ": 6793,
  "indows": 6794,
  "cont": 6795,
  "ç¢Ĺ": 6796,
  "æ¤Ĵ": 6797,
  "ump": 6798,
  "ä¿Ħç½Ĺæĸ¯": 6799,
  "Ġexam": 6800,
  "Ġpurch": 6801,
  "ĠçīĽ": 6802,
  "æ¯ıæ¬¡": 6803,
  "åľ°ä½į": 6804,
  "è¢ģ": 6805,
  "ĠSan": 6806,
  "æĺ¯æľī": 6807,
  "ĠDon": 6808,
  "è±«": 6809,
  "elt": 6810,
  "æ²ĥ": 6811,
  "æ¯ıå¹´": 6812,
  "çĤĴ": 6813,
  "irm": 6814,
  "æĦıè§ģ": 6815,
  "Ġä¸ªäºº": 6816,
  "ready": 6817,
  "å¹¿ä¸ľ": 6818,
  "å¼ºå¤§çļĦ": 6819,
  "åķĨåĵģ": 6820,
  "çĽ¸åĲĮ": 6821,
  "èħĶ": 6822,
  "åħĥç´ł": 6823,
  "Ġ26": 6824,
  "Ġself": 6825,
  "uation": 6826,
  "åį³åı¯": 6827,
  "å®ĩå®Ļ": 6828,
  "fic": 6829,
  "çļĦçłĶç©¶": 6830,
  "åĽ½æ°ĳ": 6831,
  "Ġæľ¨": 6832,
  "çīĪæľ¬": 6833,
  "Ġå¿ħé¡»": 6834,
  "ators": 6835,
  "Ġnational": 6836,
  "ĠFil": 6837,
  "åĲ¸å¼ķ": 6838,
  "ç¥ŀç»ı": 6839,
  "å¤ĸçļĦ": 6840,
  "åľ¾": 6841,
  "æ²¡æĥ³åĪ°": 6842,
  "ĠåĵŁ": 6843,
  "çĽ¸æ¯Ķ": 6844,
  "Ġbegan": 6845,
  "Ġå¸ħ": 6846,
  "æīŃ": 6847,
  "ĥåľ¾": 6848,
  "åİĺ": 6849,
  "å¼¯": 6850,
  "ĠII": 6851,
  "Ġrad": 6852,
  "Ġ28": 6853,
  "å°ºå¯¸": 6854,
  "èĤĥ": 6855,
  "Ġlooking": 6856,
  "åŃ¦ç§ĳ": 6857,
  "06": 6858,
  "æĹ¨": 6859,
  "Ġreceived": 6860,
  "most": 6861,
  "è¾¹çļĦ": 6862,
  "Ġåī§": 6863,
  "ç©ºä¸Ń": 6864,
  "å¨ĥ": 6865,
  "æŃ¤åĪ»": 6866,
  "å¡«": 6867,
  "¡èĲĦ": 6868,
  "èĩªæĪĳ": 6869,
  "icro": 6870,
  "çº½": 6871,
  "eal": 6872,
  "Ġdoc": 6873,
  "å¦ĤåĲĮ": 6874,
  "Ġsix": 6875,
  "æľºåĻ¨": 6876,
  "å·®ä¸įå¤ļ": 6877,
  "ĠFrom": 6878,
  "çĽĨ": 6879,
  "ä¸»å¸Ń": 6880,
  "æĦĪ": 6881,
  "è°Ĳ": 6882,
  "ä¹Łä¸įæĺ¯": 6883,
  "ĠAc": 6884,
  "Ġprevious": 6885,
  "å¤ļäºĨ": 6886,
  "çĿĢä¸Ģ": 6887,
  "éĤ»": 6888,
  "å¹¸ç¦ı": 6889,
  "Ġengine": 6890,
  "Ġèº«ä½ĵ": 6891,
  "Ġpri": 6892,
  "Ġstudy": 6893,
  "èĤº": 6894,
  "å¤¹": 6895,
  "Ġè¦ģæĺ¯": 6896,
  "Ġmakes": 6897,
  "Ġsqu": 6898,
  "çĤ¹äºĨ": 6899,
  "è¯¥æĿĳ": 6900,
  "æµĳ": 6901,
  "çķħ": 6902,
  "ä»ĸæĺ¯": 6903,
  "ä¸²": 6904,
  "Ġyoung": 6905,
  "useum": 6906,
  "ç»ĥä¹ł": 6907,
  "èĲ¥åħ»": 6908,
  "å¾Īå¥½": 6909,
  "ding": 6910,
  "Ġmanag": 6911,
  "å¤©åľ°": 6912,
  "æĦ¤": 6913,
  "rick": 6914,
  "ĠåİĨ": 6915,
  "Ġæķħ": 6916,
  "å°½ç®¡": 6917,
  "off": 6918,
  "åģļåĪ°": 6919,
  "ipe": 6920,
  "ĠæĪĸèĢħ": 6921,
  "ç½©": 6922,
  "é¢ľèī²": 6923,
  "åħįè´¹": 6924,
  "Ġenc": 6925,
  "Ġå¦¹": 6926,
  "Ġsent": 6927,
  "èĬ¯": 6928,
  "ĠVal": 6929,
  "è¿ŀæİ¥": 6930,
  "Ġæľīæ²¡æľī": 6931,
  "Ġ>": 6932,
  "Ġåīª": 6933,
  "ä¸įå®ļ": 6934,
  "çĪĨåıĳ": 6935,
  "ara": 6936,
  "åıĳå±ķçļĦ": 6937,
  "ç®ĢçĽ´": 6938,
  "ĠRuss": 6939,
  "ä¸ĭéĿ¢": 6940,
  "åīįå¾Ģ": 6941,
  "Ġ27": 6942,
  "Ġstarted": 6943,
  "Ġmeans": 6944,
  "æĺĤ": 6945,
  "é¸¿": 6946,
  "å¸ķ": 6947,
  "åĬ¨çĶ»": 6948,
  "éĴ»": 6949,
  "ä¸ŃéĹ´": 6950,
  "ournal": 6951,
  "Ġaud": 6952,
  "ç¬¬ä¸Ģä¸ª": 6953,
  "Ġonce": 6954,
  "ett": 6955,
  "Ġä½İ": 6956,
  "ä¸īå¹´": 6957,
  "èĽĭçĻ½": 6958,
  "Ġlat": 6959,
  "æĢĿç»´": 6960,
  "ĠFin": 6961,
  "itch": 6962,
  "é¼İ": 6963,
  "æĦıçļĦ": 6964,
  "Ġsuper": 6965,
  "æī¿æĭħ": 6966,
  "çĬ¶åĨµ": 6967,
  "Ġleast": 6968,
  "å¾Īæľī": 6969,
  "å¤§åŀĭ": 6970,
  "Ġå¿ĥæĥħ": 6971,
  "duct": 6972,
  "éĥ¨çļĦ": 6973,
  "ĠFrench": 6974,
  "itary": 6975,
  "å¹¿å·ŀ": 6976,
  "ĠYes": 6977,
  "é¥¼": 6978,
  "èĩ³ä»Ĭ": 6979,
  "æĦŁåıĹ": 6980,
  "Ġsimilar": 6981,
  "Ġç¾¡æħķ": 6982,
  "å¥³åĦ¿": 6983,
  "å¸¸è§ģ": 6984,
  "æĪ¿éĹ´": 6985,
  "å¤§å¸Ī": 6986,
  "Ġcompanies": 6987,
  "ä¹Łè¦ģ": 6988,
  "åŃĿ": 6989,
  "aced": 6990,
  "è¯Ħè®º": 6991,
  "è¿Ĳè¾ĵ": 6992,
  "Ġhot": 6993,
  "æĪĳä¼ļ": 6994,
  "Ñĸ": 6995,
  "åħ¬åĽŃ": 6996,
  "hel": 6997,
  "Ġé¦Ļ": 6998,
  "Ġmethod": 6999,
  "åıĬæĹ¶": 7000,
  "æīĢåľ¨": 7001,
  "å¤ļç§į": 7002,
  "ĠæĮĩ": 7003,
  "ference": 7004,
  "Ġtotal": 7005,
  "æĴĴ": 7006,
  "ãĢįãĢĤ": 7007,
  "Ġopportun": 7008,
  "ä¸´åºĬ": 7009,
  "(\"": 7010,
  "æº¶": 7011,
  "å¯¼æ¼Ķ": 7012,
  "Ġrequire": 7013,
  "attle": 7014,
  "Ġcreated": 7015,
  "çºł": 7016,
  "Ġwent": 7017,
  "Ġupd": 7018,
  "600": 7019,
  "Ġphys": 7020,
  "Ġhost": 7021,
  "Ġkind": 7022,
  "iforn": 7023,
  "äººçĶŁ": 7024,
  "èµ¶ç´§": 7025,
  "ĠãĢľ": 7026,
  "çļĦä¸į": 7027,
  "åįģä¸ĥ": 7028,
  "è¿ĽäºĨ": 7029,
  "ule": 7030,
  "ĠæĹħ": 7031,
  "ç©Ĩ": 7032,
  "è¡ĮäºĨ": 7033,
  "ĠçĽ¸ä¿¡": 7034,
  "åĲ¸æĶ¶": 7035,
  "\")": 7036,
  "993": 7037,
  "ords": 7038,
  "æĺİç¡®": 7039,
  "ä¹Łä¸įä¼ļ": 7040,
  "Ġinfl": 7041,
  "sel": 7042,
  "å®¶éĩĮ": 7043,
  "Ġvill": 7044,
  "æĬ¹": 7045,
  "Ġcertain": 7046,
  "Ġareas": 7047,
  "ä¸¤ç§į": 7048,
  "èį¯çī©": 7049,
  "æķĻæĿĲ": 7050,
  "Ġcal": 7051,
  "idence": 7052,
  "Ġ40": 7053,
  "çļĦæĦŁè§ī": 7054,
  "Ġrelations": 7055,
  "992": 7056,
  "Ġstore": 7057,
  "çļĦåīį": 7058,
  "ama": 7059,
  "åķĨåĬ¡": 7060,
  "è£¤": 7061,
  "å®ŀéĻħä¸Ĭ": 7062,
  "ĠRiver": 7063,
  "äºĴèģĶç½ĳ": 7064,
  "ªæĺİ": 7065,
  "room": 7066,
  "æĥ³è±¡": 7067,
  "erm": 7068,
  "ç¥¥": 7069,
  "ĠSte": 7070,
  "åİŁçĲĨ": 7071,
  "æĺĨ": 7072,
  "EC": 7073,
  "é¢ĩ": 7074,
  "Ġassist": 7075,
  "ä¸ĭä¸Ģ": 7076,
  "Ġmot": 7077,
  "åħ¹": 7078,
  "obal": 7079,
  "æĺĬ": 7080,
  "Ġbegin": 7081,
  "Ġç¿»": 7082,
  "orge": 7083,
  "Ġthird": 7084,
  "ĠéŃ": 7085,
  "ä»Ķç»Ĩ": 7086,
  "Ġè¯»": 7087,
  "unic": 7088,
  "éĨī": 7089,
  "åĨ¥": 7090,
  "Ġneeds": 7091,
  "Ġåľ¨å®¶": 7092,
  "ĠDem": 7093,
  "ĠDist": 7094,
  "unch": 7095,
  "ĠSup": 7096,
  "Ġä¸ĭåįĪ": 7097,
  "çģĮ": 7098,
  "ĠæĦ¿": 7099,
  "ĠçªģçĦ¶": 7100,
  "Ġè¿½": 7101,
  "Ġcut": 7102,
  "å¢ĥçķĮ": 7103,
  "è¿ĲçĶ¨": 7104,
  "ĠAmerica": 7105,
  "dom": 7106,
  "åħ¬åı¸çļĦ": 7107,
  "çĸĨ": 7108,
  "Ġ--": 7109,
  "Ġclaim": 7110,
  "ĠçĮ«": 7111,
  "Ġlo": 7112,
  "ades": 7113,
  "face": 7114,
  "ĠPhil": 7115,
  "è¾½": 7116,
  "åįĥä¸ĩ": 7117,
  "epend": 7118,
  "Ġåı¶": 7119,
  "è¡°": 7120,
  "irt": 7121,
  "Ġstation": 7122,
  "ĠåĽŀå¤į": 7123,
  "éĩįå¤§": 7124,
  "åŀĤ": 7125,
  "Ġåģ¶": 7126,
  "Ġå¼Ħ": 7127,
  "olution": 7128,
  "ĠPresident": 7129,
  "Ġcoll": 7130,
  "Ġson": 7131,
  "\"ãĢĤ": 7132,
  "ĠæĬ¥": 7133,
  "Ġæł·åŃĲ": 7134,
  "ĠåĩıèĤ¥": 7135,
  "wh": 7136,
  "Ġwr": 7137,
  "è´¸æĺĵ": 7138,
  "çľŁæŃ£çļĦ": 7139,
  "Ġchall": 7140,
  "aker": 7141,
  "Ġè¿ľ": 7142,
  "ifornia": 7143,
  "çīµ": 7144,
  "è¿ĽæŃ¥": 7145,
  "iction": 7146,
  "æ¡Ĩ": 7147,
  "è´¼": 7148,
  "Ġç¬¬ä¸ĢèĬĤ": 7149,
  "Ġseen": 7150,
  "æ¼ı": 7151,
  "Ġfamil": 7152,
  "ç¾İçļĦ": 7153,
  "äºĨä¸ª": 7154,
  "ville": 7155,
  "Ġç¬¬äºĮèĬĤ": 7156,
  "Ġalready": 7157,
  "å¥³åŃ©": 7158,
  "Ġå¤´åıĳ": 7159,
  "iol": 7160,
  "ĠæĪĳå®¶": 7161,
  "ä¸§": 7162,
  "44": 7163,
  "é«ĺåº¦": 7164,
  "\">": 7165,
  "å¤±è´¥": 7166,
  "å®ĮåĸĦ": 7167,
  "çĲĥåĳĺ": 7168,
  "ĠBlack": 7169,
  "Ġblack": 7170,
  "çľĭèµ·æĿ¥": 7171,
  "PS": 7172,
  "ume": 7173,
  "æĮĸ": 7174,
  "æŁı": 7175,
  "å§Ĳå§Ĳ": 7176,
  "ĠéĩĮéĿ¢": 7177,
  "chie": 7178,
  "çĹķ": 7179,
  "www": 7180,
  "çĨŁæĤī": 7181,
  "éĤ£æł·": 7182,
  "çļĦæĸ¹å¼ı": 7183,
  "åĩºåı£": 7184,
  "iences": 7185,
  "æľīä¸ª": 7186,
  "åĽĽä¸ª": 7187,
  "ä¼łæĴŃ": 7188,
  "èĦĨ": 7189,
  "çº¤": 7190,
  "ael": 7191,
  "éķ¿èĢģ": 7192,
  "ĠæĪĳä¼ļ": 7193,
  "åľ¨è¿Ļä¸ª": 7194,
  "Ġå±ħçĦ¶": 7195,
  "ĠéŁ³": 7196,
  "ç¨¿": 7197,
  "è¿ĽæĶ»": 7198,
  "Ġåįĥ": 7199,
  "åĦ": 7200,
  "æľºåĪ¶": 7201,
  "æĸ¹éĿ¢çļĦ": 7202,
  "Ġåĳµåĳµ": 7203,
  "æĵ¦": 7204,
  "ç»ĦåĲĪ": 7205,
  "å®ļä¹ī": 7206,
  "ä¸įçĶ±": 7207,
  "Ġstep": 7208,
  "æİªæĸ½": 7209,
  "æľŁçļĦ": 7210,
  "Ġred": 7211,
  "æĢ»æĺ¯": 7212,
  "ä¸įåıĬ": 7213,
  "ship": 7214,
  "ĠçĮľ": 7215,
  "Ġè¶ħçº§": 7216,
  "å±ħä½ı": 7217,
  "æĻķ": 7218,
  "irc": 7219,
  "çļĦåĬĽéĩı": 7220,
  "æ¯ħ": 7221,
  "ç¾İæľ¯": 7222,
  "Ġmoney": 7223,
  "è§Ĥä¼Ĺ": 7224,
  "æĽ´å¤ļçļĦ": 7225,
  "ĠWhile": 7226,
  "ĠOur": 7227,
  "æĺ¯æĪĳ": 7228,
  "ãĢĤãĢĬ": 7229,
  "Ġæ¯ıæ¬¡": 7230,
  "åĳ½ä»¤": 7231,
  "çģµéŃĤ": 7232,
  "Ġquality": 7233,
  "æķĮäºº": 7234,
  "ges": 7235,
  "Ġbar": 7236,
  "å¹´åº¦": 7237,
  "é«": 7238,
  "Ġå½±": 7239,
  "ç»ıåħ¸": 7240,
  "è½»æĿ¾": 7241,
  "985": 7242,
  "å¾½": 7243,
  "08": 7244,
  "éļ¶": 7245,
  "avy": 7246,
  "ancial": 7247,
  "empt": 7248,
  "å¼¥": 7249,
  "Ġç¡®å®ŀ": 7250,
  "oo": 7251,
  "æĺ¨å¤©": 7252,
  "ender": 7253,
  "ä¼Ĳ": 7254,
  "anks": 7255,
  "çĽĪ": 7256,
  "åı¯æĥľ": 7257,
  "Ġaddress": 7258,
  "çĻ¾å§ĵ": 7259,
  "ĠTV": 7260,
  "Ġå¯¹äºİ": 7261,
  "Ġèµŀ": 7262,
  "Ġpress": 7263,
  "æģ°": 7264,
  "Ġaddition": 7265,
  "çĽ¯": 7266,
  "è´¢åĬ¡": 7267,
  "aid": 7268,
  "Ġrespons": 7269,
  "Ġåĳ³": 7270,
  "ĠæĢİä¹ĪåĬŀ": 7271,
  "æĹ¥å¸¸": 7272,
  "çħ§çīĩ": 7273,
  "æĭĨ": 7274,
  "å¨±ä¹Ĳ": 7275,
  "å°ıåŃĲ": 7276,
  "åħ¬ä¸»": 7277,
  "Ġmeas": 7278,
  "Ġenough": 7279,
  "äºĨä¸ĭæĿ¥": 7280,
  "Ġhy": 7281,
  "Ġcentury": 7282,
  "ĠDr": 7283,
  "é»ĳèī²": 7284,
  "çľ¼ç¥ŀ": 7285,
  "ĠéĤ£äºĽ": 7286,
  "ij": 7287,
  "77": 7288,
  "æ°ĳä¸»": 7289,
  "æĢİæł·": 7290,
  "ĠæİĴ": 7291,
  "Ġquestion": 7292,
  "estern": 7293,
  "åľ¨æŃ¤": 7294,
  "asing": 7295,
  "ĠUK": 7296,
  "ä¼łè¯´": 7297,
  "ä¸įå¤Ł": 7298,
  "æ»ĭ": 7299,
  "åıįèĢĮ": 7300,
  "onse": 7301,
  "Ġæĥ³è¦ģ": 7302,
  "è¿Ļå°±æĺ¯": 7303,
  "head": 7304,
  "å¸¦æĿ¥": 7305,
  "Ġhalf": 7306,
  "å°¼äºļ": 7307,
  "Ġperformance": 7308,
  "Ġå¤ı": 7309,
  "çĳŁ": 7310,
  "å£«åħµ": 7311,
  "Ġprint": 7312,
  "ĠCalifornia": 7313,
  "ET": 7314,
  "39": 7315,
  "æĶ¾å¿ĥ": 7316,
  "å¦Īå¦Ī": 7317,
  "æ³¨åĨĮ": 7318,
  "æķĪçİĩ": 7319,
  "Ġmess": 7320,
  "Ġoil": 7321,
  "æ±ģ": 7322,
  "Ġenvironment": 7323,
  "å¦Ĥæŀľä½ł": 7324,
  "Ġæī¾åĪ°": 7325,
  "åºĶè¯¥æĺ¯": 7326,
  "Ġè®¨": 7327,
  "èĥģ": 7328,
  "ĠTrans": 7329,
  "çĽĴ": 7330,
  "éŁ©åĽ½": 7331,
  "Ġcomes": 7332,
  "åĬ¨åĬĽ": 7333,
  "oud": 7334,
  "Ġå¢": 7335,
  "çŃīçº§": 7336,
  "åħ¶å®ĥ": 7337,
  "æĭĴç»Ŀ": 7338,
  "å°¬": 7339,
  "åĪ¤æĸŃ": 7340,
  "ociation": 7341,
  "Ġmonths": 7342,
  "Ġstruct": 7343,
  "çł´åĿı": 7344,
  "ĠRed": 7345,
  "Ġcontent": 7346,
  "èĬ³": 7347,
  "iff": 7348,
  "éģĵçĲĨ": 7349,
  "ari": 7350,
  "ä»Ĭå¹´": 7351,
  "åľ¨ä¸Ģ": 7352,
  "Ġbreak": 7353,
  "åįģä¹Ŀ": 7354,
  "anc": 7355,
  "æĢİä¹Īæł·": 7356,
  "åĲĦä¸ª": 7357,
  "ä¹Łèĥ½": 7358,
  "Ġheart": 7359,
  "Ġè±": 7360,
  "èģĶèµĽ": 7361,
  "ä¿¡åı·": 7362,
  "æī®": 7363,
  "Ġserved": 7364,
  "Ġbring": 7365,
  "å§ĳå¨ĺ": 7366,
  "çļĦéĩįè¦ģ": 7367,
  "éĺŁä¼į": 7368,
  "å¯»æī¾": 7369,
  "åĽŀå®¶": 7370,
  "cript": 7371,
  "èĴ¸": 7372,
  "ĠçļĦæĪĳ": 7373,
  "æĽ´æĸ°": 7374,
  "ĠåĨħå®¹ç®Ģä»ĭ": 7375,
  "Ġæİī": 7376,
  "Ġhousehold": 7377,
  "æ£ĭ": 7378,
  "ç¼Ŀ": 7379,
  "ato": 7380,
  "æĮĳæĪĺ": 7381,
  "çļĦæĸ¹æ³ķ": 7382,
  "æŀľçĦ¶": 7383,
  "ĠçĶ±": 7384,
  "Ġarch": 7385,
  "Ġç§ĳ": 7386,
  "ĠCenter": 7387,
  "å¤ļæ¬¡": 7388,
  "å´©": 7389,
  "Wh": 7390,
  "ĠPeople": 7391,
  "»çĴĥ": 7392,
  "Ġ`": 7393,
  "bl": 7394,
  "åįıè°ĥ": 7395,
  "ĠåŁİ": 7396,
  "Ġtour": 7397,
  "Ġéļ¾éģĵ": 7398,
  "å·¥èµĦ": 7399,
  "çľ¼åīį": 7400,
  "å±ħæ°ĳ": 7401,
  "Ġestablished": 7402,
  "æİĴåĲį": 7403,
  "ä¸¥æł¼": 7404,
  "Ġ_": 7405,
  "æĤĦ": 7406,
  "æĺ¾å¾Ĺ": 7407,
  "Ġimpact": 7408,
  "ä¾į": 7409,
  "ĠæĢĿ": 7410,
  "çĻ¾åº¦": 7411,
  "æĬĢå·§": 7412,
  "çļĦåŁºç¡Ģ": 7413,
  "æĦŁæŁĵ": 7414,
  "è£ħå¤ĩ": 7415,
  "Ġä½ķ": 7416,
  "è¡¨æ¼Ķ": 7417,
  "åĮºåĪ«": 7418,
  "èĳĹåĲį": 7419,
  "æįŁå¤±": 7420,
  "Ġå®¶éĩĮ": 7421,
  "Ġoffice": 7422,
  "åŃĲéĩĮ": 7423,
  "äºĨåĩł": 7424,
  "Ġrecommend": 7425,
  "æŁľ": 7426,
  "ĠIsland": 7427,
  "å®Įæķ´": 7428,
  "ĠJust": 7429,
  "ext": 7430,
  "ç´łè´¨": 7431,
  "Ġä¸¤å¤©": 7432,
  "Ġåį´": 7433,
  "ĠæĹ©ä¸Ĭ": 7434,
  "éĺĶ": 7435,
  "åĬ¿åĬĽ": 7436,
  "ĠæĪ¿": 7437,
  "Ġpur": 7438,
  "uel": 7439,
  "ä¸¾åĬŀ": 7440,
  "Ġshare": 7441,
  "åĽºå®ļ": 7442,
  "ĠGod": 7443,
  "resh": 7444,
  "åŃ¦å®¶": 7445,
  "äºĨåĲ§": 7446,
  "æİ¨å¹¿": 7447,
  "åľ¨ä»ĸ": 7448,
  "çĺ¤": 7449,
  "Ġdone": 7450,
  "GB": 7451,
  "ufact": 7452,
  "ä¹ĭåĬĽ": 7453,
  "ification": 7454,
  "å§¨": 7455,
  "Ġcannot": 7456,
  "èħº": 7457,
  "minist": 7458,
  "ened": 7459,
  "æĸĳ": 7460,
  "Ġå¤ľ": 7461,
  "ä»İæĿ¥": 7462,
  "Ġhistor": 7463,
  "è¿Ļæīį": 7464,
  "å§¬": 7465,
  "ĠæĬ¢": 7466,
  "å®Ŀå®Ŀ": 7467,
  "rest": 7468,
  "Ġanim": 7469,
  "èĽ®": 7470,
  "Ġess": 7471,
  "äºĨä¸ĢäºĽ": 7472,
  "Ġlink": 7473,
  "ĠHol": 7474,
  "åĩ½": 7475,
  "iddle": 7476,
  "å§Ķä¼ļ": 7477,
  "Ġposition": 7478,
  "Ġgen": 7479,
  "Ġæľª": 7480,
  "ä¼ª": 7481,
  "ĠPat": 7482,
  "åıĪæĺ¯": 7483,
  "å¤ĸéĿ¢": 7484,
  "Ġåĵªä¸ª": 7485,
  "é¢¤": 7486,
  "æīĭæľ¯": 7487,
  "Ġunique": 7488,
  "ĠéĻĦ": 7489,
  "ĠCanada": 7490,
  "year": 7491,
  "å°±æľī": 7492,
  "åĵªä¸ª": 7493,
  "Ġdiscuss": 7494,
  "ä¼¤å®³": 7495,
  "çľ¼ä¸Ń": 7496,
  "Ġåį¡": 7497,
  "èĪªç©º": 7498,
  "ĠåİŁæĿ¥": 7499,
  "å½ĵåĪĿ": 7500,
  "ky": 7501,
  "Ġoffers": 7502,
  "field": 7503,
  "Ġproduction": 7504,
  "æĿĤå¿Ĺ": 7505,
  "Ġç¬¬åħŃ": 7506,
  "Ġincludes": 7507,
  "æľĿçĿĢ": 7508,
  "çĽ¸äºĴ": 7509,
  "æĢ»ç»Ł": 7510,
  "gress": 7511,
  "Ġè®¾": 7512,
  "ĠæĮī": 7513,
  "æ¯Ķä¾ĭ": 7514,
  "åĳ¼åĲ¸": 7515,
  "æ·±åħ¥": 7516,
  "ä¸įåĬ¨": 7517,
  "Ġhours": 7518,
  "ĠçĲĥ": 7519,
  "Ġprivate": 7520,
  "å»ī": 7521,
  "ĠåĻ¢": 7522,
  "åĽ¾çīĩ": 7523,
  "æİ¥è¿ĳ": 7524,
  "wood": 7525,
  "çŁĽ": 7526,
  "Ġap": 7527,
  "Ġå¤¸": 7528,
  "Ġlate": 7529,
  "åģļå¥½": 7530,
  "è´¾": 7531,
  "å¦®": 7532,
  "ĠMr": 7533,
  "Ġæ£Ĵ": 7534,
  "æ¸Ĭ": 7535,
  "ç»´æĬ¤": 7536,
  "Ġè¡¥": 7537,
  "Ġcolor": 7538,
  "Ã¼": 7539,
  "Ġtravel": 7540,
  "Ġä¸Ģå¹´": 7541,
  "ä¸ĭåįĪ": 7542,
  "Ġå°½": 7543,
  "ä¸įåİ»": 7544,
  "¨æĻļ": 7545,
  "elling": 7546,
  "Ġste": 7547,
  "åĪ©äºļ": 7548,
  "ä¸Ĭä¸Ģ": 7549,
  "ä¹Łåľ¨": 7550,
  "æ»¨": 7551,
  "ç¬ĳäºĨ": 7552,
  "çĶ¨æĿ¥": 7553,
  "ny": 7554,
  "æĻ°": 7555,
  "Ġåģ¥": 7556,
  "ä¼Ļä¼´": 7557,
  "ampions": 7558,
  "é«ĺæīĭ": 7559,
  "åĴĸåķ¡": 7560,
  "ĠæĿ¨": 7561,
  "æŃ¤å¤ĸ": 7562,
  "çº·çº·": 7563,
  "Ġä¸¢": 7564,
  "Ġæ¯ķä¸ļ": 7565,
  "ĠDavid": 7566,
  "åı¯èĥ½ä¼ļ": 7567,
  "Ġå¤į": 7568,
  "çļĦä¸Ģç§į": 7569,
  "ä¿®å£«": 7570,
  "æĩĴ": 7571,
  "Ġoptions": 7572,
  "ä¸įå¤ª": 7573,
  "æºĥ": 7574,
  "çĹĩçĬ¶": 7575,
  "ĠæĴĴ": 7576,
  "éŁ¦": 7577,
  "åįĹäº¬": 7578,
  "ç±»çļĦ": 7579,
  "ogle": 7580,
  "æ³ķéĻ¢": 7581,
  "ĠStreet": 7582,
  "å¹´æĿ¥": 7583,
  "ĠåĦ¿": 7584,
  "éĶĻè¯¯": 7585,
  "991": 7586,
  "Ġcontrib": 7587,
  "èİİ": 7588,
  "çĹħæ¯Ĵ": 7589,
  "ä¼ļè®¡": 7590,
  "éĢĤåºĶ": 7591,
  "nes": 7592,
  "äººæķ°": 7593,
  "åĽŀäºĭ": 7594,
  "è¾©": 7595,
  "åĪ¶å®ļ": 7596,
  "ĠéĹ¨": 7597,
  "ä½Ĳ": 7598,
  "ĠçĻ¾": 7599,
  "Ġéħį": 7600,
  "Ġexist": 7601,
  "Ġä¸Ģåı¥": 7602,
  "æµĻæ±Ł": 7603,
  "åĪĨåŃĲ": 7604,
  "è¯ķéªĮ": 7605,
  "èĨĢ": 7606,
  "Ġmind": 7607,
  "åĮħåĲ«": 7608,
  "Ġå¿ĥéĩĮ": 7609,
  "è´¡çĮ®": 7610,
  "Ġè¯ķè¯ķ": 7611,
  "urb": 7612,
  "æĪĳè§īå¾Ĺ": 7613,
  "éĩıçļĦ": 7614,
  "ç¡ķå£«": 7615,
  "è·Į": 7616,
  "Ġdeal": 7617,
  "åĶī": 7618,
  "æ¯«ç±³": 7619,
  "Ġquick": 7620,
  "Ġparticip": 7621,
  "å±ģ": 7622,
  "ibility": 7623,
  "aring": 7624,
  "opy": 7625,
  "èī³": 7626,
  "Ġeasy": 7627,
  "ided": 7628,
  "ĠåĲİæĿ¥": 7629,
  "æľºåľº": 7630,
  "Ġèħ¿": 7631,
  "å²Ń": 7632,
  "Ġder": 7633,
  "æľ¬ç§ĳ": 7634,
  "igital": 7635,
  "è´¹çĶ¨": 7636,
  "ä¸ºä½ķ": 7637,
  "BA": 7638,
  "çļĦç¡®": 7639,
  "ĠèĦĳ": 7640,
  "å¹³è¡¡": 7641,
  "ĠéĻ¤äºĨ": 7642,
  "å¯¹çĿĢ": 7643,
  "èĳĽ": 7644,
  "Ġæŀľ": 7645,
  "å¨ĩ": 7646,
  "ÑĮ": 7647,
  "ĠæľŁå¾ħ": 7648,
  "hib": 7649,
  "Ġåŀ": 7650,
  "åŁºæľ¬ä¿¡æģ¯": 7651,
  "åĮĢ": 7652,
  "ĠåĪĿ": 7653,
  "Ġpack": 7654,
  "earch": 7655,
  "Ġnov": 7656,
  "atform": 7657,
  "çļĦèĢģ": 7658,
  "itute": 7659,
  "ä¿±ä¹Ĳ": 7660,
  "çĲ³": 7661,
  "çĲĨäºĭ": 7662,
  "æķ¦": 7663,
  "ĠEast": 7664,
  "Ġmom": 7665,
  "Ġey": 7666,
  "åīª": 7667,
  "Ġtechnology": 7668,
  "åıĮæĸ¹": 7669,
  "èµĶ": 7670,
  "Ġfall": 7671,
  "åĨĽçļĦ": 7672,
  "ĠCour": 7673,
  "Ġissues": 7674,
  "é¢Ī": 7675,
  "æ¸ł": 7676,
  "oups": 7677,
  "ĠPort": 7678,
  "åĵªæĢķ": 7679,
  "ÑģÑĤ": 7680,
  "ĠåĬŀæ³ķ": 7681,
  "ãĢĭãĢĬ": 7682,
  "Ġroad": 7683,
  "æ°Ľ": 7684,
  "Ġtitle": 7685,
  "Ġwhite": 7686,
  "Ġlog": 7687,
  "Ġæµª": 7688,
  "åĤ¬": 7689,
  "ĠEngland": 7690,
  "Ġpotential": 7691,
  "åĿĲåľ¨": 7692,
  "éĤ£ä¸Ģ": 7693,
  "Ġparty": 7694,
  "ude": 7695,
  "Ġsignificant": 7696,
  "Ġæ¼Ĥäº®": 7697,
  "éŃĶæ³ķ": 7698,
  "æ¶īåıĬ": 7699,
  "Ġperfect": 7700,
  "Ġmiss": 7701,
  "åľ¨äºİ": 7702,
  "Ġplayer": 7703,
  "48": 7704,
  "è¯¦ç»Ĩ": 7705,
  "åİĺç±³": 7706,
  "çĪ½": 7707,
  "åįıè®®": 7708,
  "çĸı": 7709,
  "Ġprim": 7710,
  "We": 7711,
  "åİī": 7712,
  "çŃĸçķ¥": 7713,
  "æ¯«æĹł": 7714,
  "æĪĲå°±": 7715,
  "Ġç«Ļ": 7716,
  "çĪ¬": 7717,
  "Ġpolitical": 7718,
  "åıįå¯¹": 7719,
  "Ġfootball": 7720,
  "æĳĦå½±": 7721,
  "ĠInter": 7722,
  "Ġåıªè¦ģ": 7723,
  "æľīå¤ļ": 7724,
  "Ġborn": 7725,
  "Ġæ¯ķç«Ł": 7726,
  "è®¤çľŁ": 7727,
  "Ġè¾£": 7728,
  "ming": 7729,
  "Ġæ®": 7730,
  "TV": 7731,
  "åīįéĿ¢": 7732,
  "istic": 7733,
  "çļĦåİŁåĽł": 7734,
  "æİ©": 7735,
  "åįµ": 7736,
  "cover": 7737,
  "Ġé£Ł": 7738,
  "è§ĤçĤ¹": 7739,
  "ä»²": 7740,
  "US": 7741,
  "ava": 7742,
  "çĥĪçļĦ": 7743,
  "Ġhope": 7744,
  "ĠEm": 7745,
  "OM": 7746,
  "çº¢èī²": 7747,
  "Ġdidn": 7748,
  "éĿ¢ä¸Ĭ": 7749,
  "åĽĬ": 7750,
  "ĠåľŁ": 7751,
  "çļĦæĥħåĨµä¸ĭ": 7752,
  "Ġtool": 7753,
  "ends": 7754,
  "éĢ»è¾ĳ": 7755,
  "Ġmix": 7756,
  "ules": 7757,
  "å±ķç¤º": 7758,
  "Ġbenef": 7759,
  "é«ĺéĢŁ": 7760,
  "ensus": 7761,
  "æĭ¾": 7762,
  "47": 7763,
  "æĦıåĳ³": 7764,
  "adu": 7765,
  "å¯Ħ": 7766,
  "ĠåĲįåŃĹ": 7767,
  "ç¬¼": 7768,
  "Ġintrodu": 7769,
  "Ġåĺ¿": 7770,
  "åı¯èĥ½æĺ¯": 7771,
  "Ġè¯Ń": 7772,
  "ĠæĢİä¹Īæł·": 7773,
  "lected": 7774,
  "Ġä¸įçĦ¶": 7775,
  "´å°¬": 7776,
  "Ġthought": 7777,
  "è´¢æĶ¿": 7778,
  "Ġprotect": 7779,
  "çļĦåŁºæľ¬": 7780,
  "Ġæ¬¡": 7781,
  "Ġadded": 7782,
  "Ġcaus": 7783,
  "Ġwritten": 7784,
  "èĳ¡èĲĦ": 7785,
  "Ġop": 7786,
  "è¡¥åħħ": 7787,
  "ĠList": 7788,
  "Ġåģľ": 7789,
  "iful": 7790,
  "èĭ±æĸĩ": 7791,
  "éĥ½æ²¡": 7792,
  "ĠNews": 7793,
  "Ġsomeone": 7794,
  "èĸª": 7795,
  "Ġcommit": 7796,
  "Ġthing": 7797,
  "é«ĺä¸Ń": 7798,
  "ä¼¼çļĦ": 7799,
  "Ã¶": 7800,
  "âĢĭ": 7801,
  "Ġç®¡": 7802,
  "Ġå·¦": 7803,
  "Ġdest": 7804,
  "ĠåİĨåı²": 7805,
  "çº²": 7806,
  "âĢĶâĢĶâĢĶâĢĶâĢĶâĢĶâĢĶâĢĶ": 7807,
  "Ġnatural": 7808,
  "æ²³åįĹ": 7809,
  "åŃ¦ä½į": 7810,
  "mon": 7811,
  "ĠÐ¿": 7812,
  "ĠAut": 7813,
  "æĹ¥åŃĲ": 7814,
  "å¹¶åľ¨": 7815,
  "çļĦèº«": 7816,
  "åŁºäºİ": 7817,
  "Ġpassage": 7818,
  "å©´": 7819,
  "çłĸ": 7820,
  "Ġinternational": 7821,
  "ĠMore": 7822,
  "åĶ¤": 7823,
  "ĠFirst": 7824,
  "éĩįè§Ĩ": 7825,
  "ä¸Ģçľĭ": 7826,
  "åģļåĩº": 7827,
  "ĠåĲĵ": 7828,
  "Ġshows": 7829,
  "aching": 7830,
  "åĪĨäº«": 7831,
  "ĠKe": 7832,
  "æľŁå¾ħ": 7833,
  "ĠçĲĨè§£": 7834,
  "éĥ½åı¯ä»¥": 7835,
  "å§ĭç»Ī": 7836,
  "åĵģè´¨": 7837,
  "ä¸Ľ": 7838,
  "ĠDay": 7839,
  "Ġclub": 7840,
  "ç»Ļä»ĸ": 7841,
  "åħ¥äºĨ": 7842,
  "å¥ĩæĢª": 7843,
  "ĠMusic": 7844,
  "AD": 7845,
  "ç¢³": 7846,
  "Ġachie": 7847,
  "Ġä¹Ŀ": 7848,
  "ĠåĨ°": 7849,
  "ç»¿èī²": 7850,
  "Ġèĳ": 7851,
  "ecut": 7852,
  "Ġconnect": 7853,
  "å¤¸": 7854,
  "Ġidea": 7855,
  "æ·ĺ": 7856,
  "éŁµ": 7857,
  "å¤ķ": 7858,
  "ait": 7859,
  "æ£®æŀĹ": 7860,
  "åĮºçļĦ": 7861,
  "æĺ¯çĶ±": 7862,
  "ridge": 7863,
  "ault": 7864,
  "æĪĲçĨŁ": 7865,
  "Ġfail": 7866,
  "ç¿»è¯ĳ": 7867,
  "çħ¤": 7868,
  "pecially": 7869,
  "å¹´é¾Ħ": 7870,
  "omin": 7871,
  "åħ¨æĿĳ": 7872,
  "æĲ¬": 7873,
  "æ¼Ĥäº®": 7874,
  "Ġtax": 7875,
  "è¥¿åĮĹ": 7876,
  "Ġé¾": 7877,
  "ĠAccording": 7878,
  "ĠåķĬåķĬåķĬ": 7879,
  "ĠJames": 7880,
  "æ°ĶçļĦ": 7881,
  "09": 7882,
  "ä½łè¯´": 7883,
  "Ġä½łå¥½": 7884,
  "born": 7885,
  "Ġå¦Ĥä½ķ": 7886,
  "ci": 7887,
  "æĤ¦": 7888,
  "æ¬º": 7889,
  "Ġtrack": 7890,
  "apt": 7891,
  "Ġsold": 7892,
  "èĢĮä¸įæĺ¯": 7893,
  "988": 7894,
  "Ġprofessional": 7895,
  "Ġeducation": 7896,
  "Ġé¼": 7897,
  "Ġäº¤": 7898,
  "Ġobject": 7899,
  "è¿Ľè¡ĮäºĨ": 7900,
  "Ġfire": 7901,
  "ĠBu": 7902,
  "èĤ¾": 7903,
  "ivil": 7904,
  "å¥ĳ": 7905,
  "éħ±": 7906,
  "ä¸ľåįĹ": 7907,
  "sy": 7908,
  "Ġèĭı": 7909,
  "set": 7910,
  "é£ŀè¡Į": 7911,
  "åŃ¦èĢħ": 7912,
  "Ġground": 7913,
  "æī¯": 7914,
  "Ġtre": 7915,
  "å£¤": 7916,
  "ç´§å¼ł": 7917,
  "éĢĬ": 7918,
  "åİ¨": 7919,
  "aining": 7920,
  "ĠæĶ¾åģĩ": 7921,
  "cks": 7922,
  "ĠOther": 7923,
  "Ġled": 7924,
  "ç³»ç»ŁçļĦ": 7925,
  "ĠOff": 7926,
  "æŀģä¸º": 7927,
  "è¿Ļä¸¤": 7928,
  "Ġtalk": 7929,
  "ĠåķĬæĪĳ": 7930,
  "çī¹åĪ«æĺ¯": 7931,
  "ological": 7932,
  "Ġä¸ĢäºĽ": 7933,
  "åģļäºĨ": 7934,
  "ä¿®ä¸º": 7935,
  "æ¶Ľ": 7936,
  "æ·¡æ·¡": 7937,
  "ĠBook": 7938,
  "ç¾ŀ": 7939,
  "989": 7940,
  "aign": 7941,
  "äºĴçĽ¸": 7942,
  "åıĽ": 7943,
  "Ġdesigned": 7944,
  "æ·ĭ": 7945,
  "ä¸ĭæ¬¡": 7946,
  "å¾ĹäºĨ": 7947,
  "970": 7948,
  "æĬļ": 7949,
  "ä¸ĺ": 7950,
  "ä¸ĬæĿ¥": 7951,
  "Ġfront": 7952,
  "çĶŁæĹ¥": 7953,
  "arget": 7954,
  "Ġè·³": 7955,
  "Ġäº§åĵģ": 7956,
  "æ¼ł": 7957,
  "gar": 7958,
  "é¦ĸæ¬¡": 7959,
  "çĻ½èī²": 7960,
  "åĲĮæĦı": 7961,
  "ç¼ĸè¾ĳ": 7962,
  "Ġåİĭ": 7963,
  "Ġé¢ľ": 7964,
  "ĠæĿ¡": 7965,
  "aint": 7966,
  "éľ²åĩº": 7967,
  "æĢ»ç»ĵ": 7968,
  "æŁĦ": 7969,
  "Ġhom": 7970,
  "ä¸Ģå®¶": 7971,
  "uals": 7972,
  "çĭĲ": 7973,
  "å£°éģĵ": 7974,
  "é»Ħéĩĳ": 7975,
  "è®¾ç«ĭ": 7976,
  "aving": 7977,
  "æŁĲäºĽ": 7978,
  "å®¹éĩı": 7979,
  "çºªå¿µ": 7980,
  "æīĩ": 7981,
  "å¹¶éĿŀ": 7982,
  "Ġwhether": 7983,
  "åĨ»": 7984,
  "æĿĢäºĨ": 7985,
  "Ġè¶ĬæĿ¥è¶Ĭ": 7986,
  "å¤§åĵ¥": 7987,
  "çŃīå¥ĸ": 7988,
  "Ġarticle": 7989,
  "Ġcode": 7990,
  "aves": 7991,
  "ĠNet": 7992,
  "ĠCons": 7993,
  "åĳľ": 7994,
  "Ġå·®ä¸įå¤ļ": 7995,
  "æĽ°": 7996,
  "ä½ĵåĨħ": 7997,
  "Ġdr": 7998,
  "å°ĳå¥³": 7999,
  "ĠLaw": 8000,
  "éĩĩåıĸ": 8001,
  "Ġtaken": 8002,
  "æħĪ": 8003,
  "è¿ĽæĿ¥": 8004,
  "'d": 8005,
  "itar": 8006,
  "Ġprovides": 8007,
  "ĠLeague": 8008,
  "ä½ĵçİ°": 8009,
  "çī¢": 8010,
  "çĤ¹åĩ»": 8011,
  "èĬ¬": 8012,
  "å¤§äºĨ": 8013,
  "ĠâĹ": 8014,
  "æĻĥ": 8015,
  "ĠåŃĺ": 8016,
  "å¿ħçĦ¶": 8017,
  "èŃ¦å¯Ł": 8018,
  "Ġresults": 8019,
  "è¡į": 8020,
  "ception": 8021,
  "Ġ29": 8022,
  "æŃī": 8023,
  "Ġå¹´è½»": 8024,
  "Ġå£°": 8025,
  "ç¼ĵç¼ĵ": 8026,
  "çĲĨæĥ³": 8027,
  "str": 8028,
  "ĠRober": 8029,
  "æ³Ħ": 8030,
  "ä¸ĢèĦ¸": 8031,
  "äººå£«": 8032,
  "ĠæĢİ": 8033,
  "çĻ¾ä¸ĩ": 8034,
  "ĠåĪ¶": 8035,
  "RE": 8036,
  "åĬ¨çļĦ": 8037,
  "Ġamount": 8038,
  "Ġhon": 8039,
  "è·¯ä¸Ĭ": 8040,
  "Ĵæľį": 8041,
  "æĺ¯æĮĩ": 8042,
  "Ġèĵ": 8043,
  "æĪĪ": 8044,
  "ensive": 8045,
  "éģĵçļĦ": 8046,
  "äººåĿĩ": 8047,
  "Ġstay": 8048,
  "åĽĽå·Ŀ": 8049,
  "PC": 8050,
  "éĤ£è¾¹": 8051,
  "å¼Ĥå¸¸": 8052,
  "ĠæľĢå¥½": 8053,
  "ĠYour": 8054,
  "Ġenergy": 8055,
  "åĵŁ": 8056,
  "oyal": 8057,
  "htt": 8058,
  "ĠSim": 8059,
  "éģµ": 8060,
  "Ġansw": 8061,
  "Ġbit": 8062,
  "ico": 8063,
  "Ġparen": 8064,
  "text": 8065,
  "Ġpercent": 8066,
  "å°±ä¸ļ": 8067,
  "åĥıæĺ¯": 8068,
  "åĲĦç±»": 8069,
  "çłĶåıĳ": 8070,
  "Ġregard": 8071,
  "è¿ĺå¥½": 8072,
  "èĴĻåı¤": 8073,
  "ĠæľīäºĽ": 8074,
  "åĲ¨": 8075,
  "uter": 8076,
  "æĦŁæĥħ": 8077,
  "å¹¿åľº": 8078,
  "ĠIndia": 8079,
  "ĠAustralia": 8080,
  "Ġwriting": 8081,
  "åĩºçİ°äºĨ": 8082,
  "ä¸Ĭä¸ĭ": 8083,
  "ĠåĲĮåŃ¦": 8084,
  "ä¸Ģäºº": 8085,
  "çªĿ": 8086,
  "icles": 8087,
  "Ġç³»": 8088,
  "æĦıå¤ĸ": 8089,
  "ĠçĪĨ": 8090,
  "ires": 8091,
  "hips": 8092,
  "å·¨å¤§": 8093,
  "Ġå°Ĩ": 8094,
  "åľ°ä¸ĭ": 8095,
  "åı¯è§ģ": 8096,
  "çĪ±æĥħ": 8097,
  "åı¤ä»£": 8098,
  "è®°èĢħ": 8099,
  "Ġbuy": 8100,
  "æ²¡ä»Ģä¹Ī": 8101,
  "Ġimprove": 8102,
  "ouble": 8103,
  "Ġattack": 8104,
  "Ġtraining": 8105,
  "Ġnorth": 8106,
  "æľĢå¥½çļĦ": 8107,
  "ĠâĢ¢": 8108,
  "æĶ¯ä»ĺ": 8109,
  "ĠIndian": 8110,
  "ĠåķĨ": 8111,
  "ĠäººçĶŁ": 8112,
  "åº¦çļĦ": 8113,
  "æĮ¤": 8114,
  "ä¿±ä¹Ĳéĥ¨": 8115,
  "åľ°äº§": 8116,
  "ĠInc": 8117,
  "ĠTown": 8118,
  "çıŃçīĻ": 8119,
  "ength": 8120,
  "Ġç¼ĸ": 8121,
  "å¼¦": 8122,
  "Ġadditional": 8123,
  "ĠIm": 8124,
  "Ġfavor": 8125,
  "ĠBer": 8126,
  "åħĭæĸ¯": 8127,
  "Ã¤": 8128,
  "çĸ¯çĭĤ": 8129,
  "éª¤": 8130,
  "æĸľ": 8131,
  "ä¸įè¯´": 8132,
  "çĤ¹äºĨçĤ¹å¤´": 8133,
  "å¤´åıĳ": 8134,
  "æĪĺåľº": 8135,
  "çĭ¬çī¹": 8136,
  "Ġåģ·": 8137,
  "ç¢§": 8138,
  "ĠæŃ£å¸¸": 8139,
  "èĹ¤": 8140,
  "Ġaction": 8141,
  "ä¸Ńåħ±": 8142,
  "century": 8143,
  "èĤĸ": 8144,
  "ĠéŁ©": 8145,
  "Ġworked": 8146,
  "åįľ": 8147,
  "éĹ¨åı£": 8148,
  "æ³³": 8149,
  "ç§ĺå¯Ĩ": 8150,
  "ached": 8151,
  "Ġtaking": 8152,
  "ä¸Ģåıª": 8153,
  "Ġbase": 8154,
  "åħ·å¤ĩ": 8155,
  "Ġrecogn": 8156,
  "Ġclos": 8157,
  "ç¾¡æħķ": 8158,
  "åŁºæľ¬ä¸Ĭ": 8159,
  "ĠOf": 8160,
  "çļĦæł·åŃĲ": 8161,
  "åľ¨ä¸ŃåĽ½": 8162,
  "eds": 8163,
  "iple": 8164,
  "çĵ·": 8165,
  "æĶ¹åĸĦ": 8166,
  "æµ¦": 8167,
  "Ńå·ŀ": 8168,
  "atory": 8169,
  "ĠRich": 8170,
  "ĠChina": 8171,
  "Ġmodern": 8172,
  "ĠæĬĢ": 8173,
  "ĠçĶľ": 8174,
  "ĠéĢĤåĲĪ": 8175,
  "å°Ĩåħ¶": 8176,
  "56": 8177,
  "ä½łå¥½": 8178,
  "ä¸īäºº": 8179,
  "ternet": 8180,
  "Ġentire": 8181,
  "ĠMag": 8182,
  "Ġelse": 8183,
  "ises": 8184,
  "Ġpoints": 8185,
  "è¯±": 8186,
  "èĳ¬": 8187,
  "Ġeffort": 8188,
  "Ġæİ¨èįĲ": 8189,
  "Ġclose": 8190,
  "éĩįçļĦ": 8191,
  "å¢ŀå¼º": 8192,
  "ä¹Łå¾Ī": 8193,
  "ĠWhite": 8194,
  "ĠçĦ¶èĢĮ": 8195,
  "å®ļä½į": 8196,
  "Ġçľ¼çĿĽ": 8197,
  "ĠPaul": 8198,
  "çº§çļĦ": 8199,
  "è®¾æľī": 8200,
  "Ġproblem": 8201,
  "æīĵéĢł": 8202,
  "åĩĨç¡®": 8203,
  "åıĮæīĭ": 8204,
  "ä½ıæĪ¿": 8205,
  "Ġface": 8206,
  "Ġdate": 8207,
  "æĢ»æĶ¶åħ¥": 8208,
  "Ġmentioned": 8209,
  "atur": 8210,
  "æĸĩçĮ®": 8211,
  "è¯»èĢħ": 8212,
  "å¦ĥ": 8213,
  "çĶŁéķ¿": 8214,
  "æľºçļĦ": 8215,
  "é¹¿": 8216,
  "Ġä¸Ĭæµ·": 8217,
  "åĬĿ": 8218,
  "Ġæĺ¥": 8219,
  "ĸåŃĲ": 8220,
  "æĥħåĨµä¸ĭ": 8221,
  "Ġrelease": 8222,
  "ĠOver": 8223,
  "æħİ": 8224,
  "æĺı": 8225,
  "æ¤ħ": 8226,
  "çĶ»éĿ¢": 8227,
  "Ġåħĥ": 8228,
  "Ġtrue": 8229,
  "46": 8230,
  "ç©´": 8231,
  "board": 8232,
  "orry": 8233,
  "ius": 8234,
  "den": 8235,
  "Ġsuccessful": 8236,
  "äººæ°ĳåħ±åĴĮåĽ½": 8237,
  "ä¸»é¢ĺ": 8238,
  "ĠéĤ£éĩĮ": 8239,
  "ä¸¾è¡Į": 8240,
  "ouch": 8241,
  "å®ª": 8242,
  "åŁĭ": 8243,
  "ä½ľæĪĺ": 8244,
  "çļĦè¯´": 8245,
  "Ġmanufact": 8246,
  "å¨ģèĥģ": 8247,
  "Ġstar": 8248,
  "Ġtelevision": 8249,
  "ĠçĮª": 8250,
  "Ġdoesn": 8251,
  "åĲĮå¹´": 8252,
  "ä¸ĭéĻį": 8253,
  "Ġboard": 8254,
  "æĬĽ": 8255,
  "ĠDuring": 8256,
  "äºĳåįĹ": 8257,
  "çĶŁæ¶¯": 8258,
  "Ġç¬¬ä¸īèĬĤ": 8259,
  "Ġeither": 8260,
  "å¤«äºº": 8261,
  "Ġdied": 8262,
  "çħ®": 8263,
  "ĠåĲĦç§į": 8264,
  "å¿įä¸įä½ı": 8265,
  "Ġdoing": 8266,
  "è´º": 8267,
  "ç¾İä¸½": 8268,
  "å±Ĥæ¬¡": 8269,
  "è¿ĺä¼ļ": 8270,
  "è¾ĵåħ¥": 8271,
  "äºŃ": 8272,
  "ficult": 8273,
  "éļıåį³": 8274,
  "76": 8275,
  "é»ĳæļĹ": 8276,
  "Ġdeg": 8277,
  "Ġçĸ¯": 8278,
  "ç¬¬äºĶ": 8279,
  "æ·±åľ³": 8280,
  "ä¸ĢæĬĬ": 8281,
  "ä¹ĭå¤Ħ": 8282,
  "amer": 8283,
  "åıī": 8284,
  "äº²èĩª": 8285,
  "Ġä»Ĭå¹´": 8286,
  "Ġfather": 8287,
  "oul": 8288,
  "æ°ĳåĽ½": 8289,
  "éĤ£æĺ¯": 8290,
  "03": 8291,
  "è¢«äºº": 8292,
  "ledge": 8293,
  "å°ıç»Ħ": 8294,
  "Ġ||": 8295,
  "Ġå¥ĩ": 8296,
  "Ġorigin": 8297,
  "clus": 8298,
  "Ġthroughout": 8299,
  "Ġè¿ĳ": 8300,
  "é¹°": 8301,
  "çŁ©": 8302,
  "åŃ¦çļĦ": 8303,
  "Ġdam": 8304,
  "oved": 8305,
  "ĠISB": 8306,
  "æµ·åĨĽ": 8307,
  "åŀĭçļĦ": 8308,
  "æĻ´": 8309,
  "erc": 8310,
  "åŁºåĽł": 8311,
  "van": 8312,
  "æ¸ħæĻ°": 8313,
  "åºĶçļĦ": 8314,
  "ĠMor": 8315,
  "½åŃĲ": 8316,
  "ĠçŁ¥": 8317,
  "ha": 8318,
  "ĠMil": 8319,
  "ĠISBN": 8320,
  "Ġç¤¼": 8321,
  "Ġri": 8322,
  "Ġincome": 8323,
  "èħĬ": 8324,
  "Ġæ°¸è¿ľ": 8325,
  "ĠDis": 8326,
  "è¥¿æĸ¹": 8327,
  "Ġå¤§åŃ¦": 8328,
  "è®°è½½": 8329,
  "ä¼ļçļĦ": 8330,
  "Ġå®¿": 8331,
  "è§ģè¿ĩ": 8332,
  "984": 8333,
  "ado": 8334,
  "æł¼åħ°": 8335,
  "ĠæĬĵ": 8336,
  "ĠChurch": 8337,
  "éĺ²å¾¡": 8338,
  "PU": 8339,
  "Ġè°Ī": 8340,
  "Ġaward": 8341,
  "ĠDirect": 8342,
  "çĲĨçĶ±": 8343,
  "Ġemail": 8344,
  "960": 8345,
  "å±ķå¼Ģ": 8346,
  "Ġbooks": 8347,
  "æħĮ": 8348,
  "Ġregion": 8349,
  "Ġcele": 8350,
  "æĢ§è´¨": 8351,
  "ees": 8352,
  "æ±¡æŁĵ": 8353,
  "è¿Ļè¾¹": 8354,
  "é«ĺçŃī": 8355,
  "ç²ĺ": 8356,
  "å¹³æĹ¶": 8357,
  "é¹ı": 8358,
  "ĠéģĩåĪ°": 8359,
  "oke": 8360,
  "èĦĳè¢ĭ": 8361,
  "æ¡Ĥ": 8362,
  "çķĻä¸ĭ": 8363,
  "Ġè´µ": 8364,
  "Ġcell": 8365,
  "ĠJe": 8366,
  "æģ¼": 8367,
  "èµĽåŃ£": 8368,
  "äºĨåĩºæĿ¥": 8369,
  "Ġyet": 8370,
  "atter": 8371,
  "Ġill": 8372,
  "987": 8373,
  "Ġcred": 8374,
  "æĸ½å·¥": 8375,
  "çľĭåĲĳ": 8376,
  "ĠGreat": 8377,
  "ĠæĹ©çĤ¹": 8378,
  "ĠDan": 8379,
  "Ġexpress": 8380,
  "ety": 8381,
  "å¹´åºķ": 8382,
  "å¯¨": 8383,
  "ĠThom": 8384,
  "ĠMem": 8385,
  "èĮ«": 8386,
  "Ġwind": 8387,
  "åľ°è¯´éģĵ": 8388,
  "Ġä¸įå¤Ł": 8389,
  "åĺ»åĺ»": 8390,
  "åİ¦": 8391,
  "ĠåĿļæĮģ": 8392,
  "Ph": 8393,
  "Ġrecent": 8394,
  "åĪ©çļĦ": 8395,
  "å®¶éķ¿": 8396,
  "ĠåĨ¬": 8397,
  "Ġç»ıå¸¸": 8398,
  "äºĨä¸Ģå£°": 8399,
  "Ġdifficult": 8400,
  "Ġå°±è¦ģ": 8401,
  "æķ°çļĦ": 8402,
  "ä¸įå¯¹": 8403,
  "ĠWash": 8404,
  "ĠçĶ·äºº": 8405,
  "Ġgroups": 8406,
  "Ġå©": 8407,
  "å¦¥": 8408,
  "ĠCouncil": 8409,
  "è°¨": 8410,
  "Ġreason": 8411,
  "Ġå¤Ł": 8412,
  "Ġç»Īäºİ": 8413,
  "Ġæ±Ł": 8414,
  "Ġçī©": 8415,
  "imately": 8416,
  "å¤ĦçļĦ": 8417,
  "èĭıèģĶ": 8418,
  "Ġä¿®": 8419,
  "Ġclean": 8420,
  "åĴ³": 8421,
  ".)": 8422,
  "èīĺ": 8423,
  "çł¸": 8424,
  "æĦıå¤§åĪ©": 8425,
  "ä¸īåįģ": 8426,
  "èĪŁ": 8427,
  "æĢİä¹ĪåĬŀ": 8428,
  "æıĲåīį": 8429,
  "ĠåĤ»": 8430,
  "æİ¨åĬ¨": 8431,
  "Ġæľį": 8432,
  "Ġespecially": 8433,
  "æĪĳè¯´": 8434,
  "éĥ½è¢«": 8435,
  "ĠJack": 8436,
  "Ġé¢Ħ": 8437,
  "Ġinsp": 8438,
  "ä½łè¦ģ": 8439,
  "Ġinflu": 8440,
  "çļĦä¸ĢäºĽ": 8441,
  "Ġå®Įåħ¨": 8442,
  "Ġsouth": 8443,
  "è¿Ļä¸ĢçĤ¹": 8444,
  "æ´Ĵ": 8445,
  "net": 8446,
  "Ġinstall": 8447,
  "æī¿è®¤": 8448,
  "Ġbrand": 8449,
  "986": 8450,
  "Ġdiv": 8451,
  "æĢĢçĸĳ": 8452,
  "åĩłå¤©": 8453,
  "æĬ¥éģĵ": 8454,
  "ĠPost": 8455,
  "Ġlocation": 8456,
  "CD": 8457,
  "ibrary": 8458,
  "åı¯çĪ±": 8459,
  "Ġgetting": 8460,
  "è®©ä»ĸä»¬": 8461,
  "ander": 8462,
  "çľĭåĪ°äºĨ": 8463,
  "ä¸ŃåĮ»": 8464,
  "Ġå®³": 8465,
  "Ġcurrently": 8466,
  "éļıä¾¿": 8467,
  "å¾ªçİ¯": 8468,
  "It": 8469,
  "Ġfile": 8470,
  "åį§": 8471,
  "based": 8472,
  "å·«": 8473,
  "Ġhous": 8474,
  "Ġhttps": 8475,
  "æĶ¶çĽĬ": 8476,
  "æ°§åĮĸ": 8477,
  "ä¸»è§Ĵ": 8478,
  "Ġprop": 8479,
  "æ²¡æľīä»»ä½ķ": 8480,
  "Ġrequired": 8481,
  "éĹ®é¢ĺçļĦ": 8482,
  "éħįç½®": 8483,
  "æĹ¶åĪ»": 8484,
  "ĠUs": 8485,
  "Ġquestions": 8486,
  "åħģè®¸": 8487,
  "èŀº": 8488,
  "éĶ¡": 8489,
  "ST": 8490,
  "Ġå²ģ": 8491,
  "æµĨ": 8492,
  "->": 8493,
  "Ġrespect": 8494,
  "alys": 8495,
  "fort": 8496,
  "åľºæĻ¯": 8497,
  "ĠRoad": 8498,
  "åĪĽä¸ļ": 8499,
  "ĠåĿı": 8500,
  "Ġmanagement": 8501,
  "ä¸Ģæł·çļĦ": 8502,
  "MP": 8503,
  "ÑĢÐ°": 8504,
  "Ġplatform": 8505,
  "ĠåĢ¼": 8506,
  "Ġæ³ķ": 8507,
  "åı¯æĢķ": 8508,
  "çŀª": 8509,
  "ĠSen": 8510,
  "Hz": 8511,
  "åľ°ä¸Ĭ": 8512,
  "Ġwalk": 8513,
  "duc": 8514,
  "ests": 8515,
  "å¼ĵ": 8516,
  "Ġrock": 8517,
  "atives": 8518,
  "rem": 8519,
  "»çĤ¼": 8520,
  "Ġconsidered": 8521,
  "ĠHall": 8522,
  "çİ»çĴĥ": 8523,
  "èº«åĲİ": 8524,
  "åĭ¾": 8525,
  "å¹¼åĦ¿": 8526,
  "Ġinj": 8527,
  "éĢĿ": 8528,
  "ä¸»è¦ģæĺ¯": 8529,
  "è§£æĶ¾": 8530,
  "ä¼Ĺå¤ļ": 8531,
  "ĠPal": 8532,
  "ĠéĢīæĭ©": 8533,
  "æĭ¨": 8534,
  "Ġgra": 8535,
  "è·¯çº¿": 8536,
  "ĠSure": 8537,
  "Ġbehind": 8538,
  "å¸Ĥéķĩ": 8539,
  "ĠÐ²": 8540,
  "å¾Īå¤ļäºº": 8541,
  "ĠæĽ¾": 8542,
  "å°Ŀè¯ķ": 8543,
  "æ¼Ķåĩº": 8544,
  "ĠEuropean": 8545,
  "Ġå¸¸": 8546,
  "Ġpresident": 8547,
  "Ñĭ": 8548,
  "rug": 8549,
  "īå¿«": 8550,
  "Ġä¸ĳ": 8551,
  "ĠSl": 8552,
  "ĠBel": 8553,
  "æŃ»çļĦ": 8554,
  "Ġsystems": 8555,
  "ĠéĨĴ": 8556,
  "çłĶç©¶çĶŁ": 8557,
  "Ñĩ": 8558,
  "æľ´": 8559,
  "èĲĿ": 8560,
  "ĠéĿŀå¸¸": 8561,
  "order": 8562,
  "æİ¨è¿Ľ": 8563,
  "band": 8564,
  "Ġregular": 8565,
  "çĶŁåŃĺ": 8566,
  "æµģç¨ĭ": 8567,
  "Ġprice": 8568,
  "rel": 8569,
  "å®¶äºº": 8570,
  "ç¾¤ä¼Ĺ": 8571,
  "Ġsubject": 8572,
  "åĪºæ¿Ģ": 8573,
  "Ġæħ¢æħ¢": 8574,
  "etimes": 8575,
  "ĠçĶµè§Ĩ": 8576,
  "è¥¿åįĹ": 8577,
  "ĠAre": 8578,
  "ĠNow": 8579,
  "æ²ŁéĢļ": 8580,
  "åĲĪéĢĤ": 8581,
  "âĢĿ(": 8582,
  "åħ¬åŃĲ": 8583,
  "èĻ¾": 8584,
  "Ġwatch": 8585,
  "========": 8586,
  "å¤§æĪĺ": 8587,
  "ĠRepublic": 8588,
  "Ġchanges": 8589,
  "Ġproperty": 8590,
  "æ¯ıä¸Ģ": 8591,
  "æĪĳåľ¨": 8592,
  "ä»£çĲĨ": 8593,
  "Ġåı¦å¤ĸ": 8594,
  "cm": 8595,
  "Ġæļĸ": 8596,
  "Ġåı°": 8597,
  "add": 8598,
  "éĺŁçļĦ": 8599,
  "Ġactually": 8600,
  "æ¶Īè´¹èĢħ": 8601,
  "éĤĢè¯·": 8602,
  "EL": 8603,
  "è®¶": 8604,
  "ä¸«": 8605,
  "ago": 8606,
  "çī©çļĦ": 8607,
  "ç½ĳä¸Ĭ": 8608,
  "å½¢æĢģ": 8609,
  "Ġfilms": 8610,
  "æļĤæĹ¶": 8611,
  "ç¬ĳå®¹": 8612,
  "èĪĮ": 8613,
  "ĠæĻº": 8614,
  "è¦ĨçĽĸ": 8615,
  "æĲº": 8616,
  "Ġusually": 8617,
  "023": 8618,
  "Ġcontinue": 8619,
  "åį±æľº": 8620,
  "éģĵå¾·": 8621,
  "ä¼ĺè´¨": 8622,
  "Ġlab": 8623,
  "ä½łå°±": 8624,
  "Ġhit": 8625,
  "æĺŃ": 8626,
  "æµģè¡Į": 8627,
  "è¯·éĹ®": 8628,
  "que": 8629,
  "Ġmus": 8630,
  "èĶ¡": 8631,
  "äºĭåĬ¡": 8632,
  "è½¬ç§»": 8633,
  "ĠGroup": 8634,
  "Ġä½ľèĢħ": 8635,
  "Ġnetwork": 8636,
  "åĵ¥åĵ¥": 8637,
  "Ġensure": 8638,
  "omb": 8639,
  "Ġæ¥¼": 8640,
  "ĠDepartment": 8641,
  "çĶµæ±ł": 8642,
  "çļĦåħ³ç³»": 8643,
  "æĢ§æł¼": 8644,
  "å®ĺæĸ¹": 8645,
  "ç¼ł": 8646,
  "Ġbi": 8647,
  "Ġfit": 8648,
  "æĮĩæłĩ": 8649,
  "è¿ĺåı¯ä»¥": 8650,
  "Ġannounced": 8651,
  "Ġåį°": 8652,
  "ĠæĥħåĨµ": 8653,
  "ĠGeorge": 8654,
  "ĠæĪĺ": 8655,
  "Ġç«Ł": 8656,
  "Ġä¹Ĳ": 8657,
  "åįļçī©": 8658,
  "ederal": 8659,
  "ĠçĶ·æľĭåıĭ": 8660,
  "æĪĳä¸į": 8661,
  "ellow": 8662,
  "oice": 8663,
  "Ġå§Ĳå§Ĳ": 8664,
  "Ġsepar": 8665,
  "äºļæ´²": 8666,
  "è¾ĵåĩº": 8667,
  "Ġepis": 8668,
  "Ġä¸įç®¡": 8669,
  "Ġfriends": 8670,
  "çļĦæ°´": 8671,
  "ening": 8672,
  "çŃĶåºĶ": 8673,
  "Ġstaff": 8674,
  "éĵĥ": 8675,
  "èĬĿ": 8676,
  "å¾ĹåĪ°äºĨ": 8677,
  "Ġnecess": 8678,
  "Ġissue": 8679,
  "ĠçŃĶ": 8680,
  "rote": 8681,
  "action": 8682,
  "ä½ľå®¶": 8683,
  "89": 8684,
  "rown": 8685,
  "range": 8686,
  "ĠBest": 8687,
  "idents": 8688,
  "æ³ķçļĦ": 8689,
  "Ġtold": 8690,
  "å¸Ĳ": 8691,
  "ç©¶ç«Ł": 8692,
  "Ġæ¬¢": 8693,
  "çĹĽèĭ¦": 8694,
  "Ġprob": 8695,
  "è¶ĭåĬ¿": 8696,
  "Ġpaper": 8697,
  "çŃīå¾ħ": 8698,
  "Ġwhole": 8699,
  "ĠQue": 8700,
  "Ġalmost": 8701,
  "Ġé¾Ļ": 8702,
  "æĪĺå£«": 8703,
  "Ġfinancial": 8704,
  "Ġä¸ľ": 8705,
  "Ġuser": 8706,
  "Ġrev": 8707,
  "ĠåĪ·": 8708,
  "æĲľç´¢": 8709,
  "ayer": 8710,
  "èŀįåĲĪ": 8711,
  "ä¾ĽåºĶ": 8712,
  "Ġè¾Ľèĭ¦": 8713,
  "åĨ¯": 8714,
  "åħ¨èº«": 8715,
  "ĠHealth": 8716,
  "Cl": 8717,
  "ĠéĽª": 8718,
  "Ġå®¿èĪį": 8719,
  "æĹģè¾¹": 8720,
  "ĠSam": 8721,
  "Ġå¡": 8722,
  "roid": 8723,
  "ston": 8724,
  "Ġfamilies": 8725,
  "vey": 8726,
  "astic": 8727,
  "å¾Īå°ĳ": 8728,
  "selves": 8729,
  "è¯Ħä¼°": 8730,
  "ĠèĽĭ": 8731,
  "ospital": 8732,
  "Re": 8733,
  "Ġrout": 8734,
  "ĠçĶµè¯Ŀ": 8735,
  "OT": 8736,
  "ä¸Ŀæ¯«": 8737,
  "ä¸įä¹ħ": 8738,
  "uted": 8739,
  "ĠæĢª": 8740,
  "åħ±äº§": 8741,
  "å¹¿æĴŃ": 8742,
  "èī²å½©": 8743,
  "è´§å¸ģ": 8744,
  "åħ±æľī": 8745,
  "ç»´æĮģ": 8746,
  "éŃħ": 8747,
  "Ġlikely": 8748,
  "è°¦": 8749,
  "æĻºæħ§": 8750,
  "ĠUp": 8751,
  "çĪ¹": 8752,
  "Ġmer": 8753,
  "éľľ": 8754,
  "èĥ½æºĲ": 8755,
  "ĠæŃ¦": 8756,
  "ĠBus": 8757,
  "å¼ºè°ĥ": 8758,
  "Ġfig": 8759,
  "Ġä¿©": 8760,
  "hood": 8761,
  "Ġbroad": 8762,
  "å¹²éĥ¨": 8763,
  "æĦŁè°¢": 8764,
  "å¤§çº¦": 8765,
  "è¿Ļä¸ªæĹ¶åĢĻ": 8766,
  "rup": 8767,
  "Ġtakes": 8768,
  "Ġresponse": 8769,
  "æ¯ıä¸Ģä¸ª": 8770,
  "èº¯": 8771,
  "ç»ĻäºĪ": 8772,
  "ida": 8773,
  "èī¯å¥½çļĦ": 8774,
  "çĿģ": 8775,
  "unk": 8776,
  "bert": 8777,
  "Ġbecom": 8778,
  "Ġæ¨¡": 8779,
  "éĢļçŁ¥": 8780,
  "Ġplaying": 8781,
  "ĠèµĦ": 8782,
  "åĵ²åŃ¦": 8783,
  "èµ´": 8784,
  "éĢīä¸¾": 8785,
  "ĠåĲĳ": 8786,
  "é¥¿": 8787,
  "å¤´çļĦ": 8788,
  "Ġcomplete": 8789,
  "æ»¤": 8790,
  "col": 8791,
  "åĿĬ": 8792,
  "èľĤ": 8793,
  "ĠåĨ³": 8794,
  "æ¸Ĳæ¸Ĳ": 8795,
  "äºĮäºº": 8796,
  "æī¹åĩĨ": 8797,
  "çĽ¯çĿĢ": 8798,
  "é«ĺåħ´": 8799,
  "itect": 8800,
  "æĹłå¥Ī": 8801,
  "Ġdefin": 8802,
  "èĤ¡ç¥¨": 8803,
  "ĠåºĹ": 8804,
  "Ġåĺ´": 8805,
  "æĹº": 8806,
  "çļĦä½ľçĶ¨": 8807,
  "ä¸ºä¸Ģ": 8808,
  "æłª": 8809,
  "aries": 8810,
  "Ġå¤Ħ": 8811,
  "éĵŃ": 8812,
  "ĠåĮĸ": 8813,
  "ç»ĨèĬĤ": 8814,
  "light": 8815,
  "å¦Ĥä¸ĭ": 8816,
  "åĭĥ": 8817,
  "Ġcountries": 8818,
  "ging": 8819,
  "airs": 8820,
  "ĠèĵĿ": 8821,
  "æĢ§åĴĮ": 8822,
  "****": 8823,
  "Ġstri": 8824,
  "æĭ¦": 8825,
  "Ġleaders": 8826,
  "ä»ĬæĹ¥": 8827,
  "Ġåħ¥": 8828,
  "èħ»": 8829,
  "å¹³æĸ¹åħ¬éĩĮ": 8830,
  "Ġrather": 8831,
  "åĲİæľŁ": 8832,
  "Ġsal": 8833,
  "èĩªæ²»": 8834,
  "Ġæīįèĥ½": 8835,
  "ka": 8836,
  "åħĶ": 8837,
  "Ġåı¤": 8838,
  "æ¼«çĶ»": 8839,
  "Ġcollection": 8840,
  "Ġpict": 8841,
  "åĵĢ": 8842,
  "èĢĮæĿ¥": 8843,
  "çĮ´": 8844,
  "ç¼ºä¹ı": 8845,
  "Ġlost": 8846,
  "Ġç±³": 8847,
  "é¢ģ": 8848,
  "ĠYear": 8849,
  "åĪ°è¾¾": 8850,
  "Ġä¹ħ": 8851,
  "ç½Ĺé©¬": 8852,
  "æĿĥåĪ©": 8853,
  "å®ł": 8854,
  "ĠAward": 8855,
  "ply": 8856,
  "Ġinte": 8857,
  "estival": 8858,
  "è¿Ļä¹Īå¤ļ": 8859,
  "ki": 8860,
  "ç§ĺä¹¦": 8861,
  "Ġå±ı": 8862,
  "èµĮ": 8863,
  "æ¹ĸåįĹ": 8864,
  "è¥¿çıŃçīĻ": 8865,
  "å±ł": 8866,
  "ä¸Ģè·¯": 8867,
  "ocal": 8868,
  "äººä½ĵ": 8869,
  "æľĢä¸º": 8870,
  "Ġç¬¬ä¸ĥ": 8871,
  "??": 8872,
  "çĨĻ": 8873,
  "åĨ²åĩ»": 8874,
  "Ġè¸": 8875,
  "Ġrelated": 8876,
  "Ġassoci": 8877,
  "è®¤è¯ģ": 8878,
  "Ġæīĵç®Ĺ": 8879,
  "Ġwords": 8880,
  "ä¸¤å¹´": 8881,
  "çļĦèĥ½åĬĽ": 8882,
  "æİ¢ç´¢": 8883,
  "ĠAssociation": 8884,
  "vin": 8885,
  "éĦ": 8886,
  "Ġindividual": 8887,
  "MA": 8888,
  "ocr": 8889,
  "åĶĩ": 8890,
  "978": 8891,
  "Ġcampaign": 8892,
  "zz": 8893,
  "çļĦæľºä¼ļ": 8894,
  "Ġä¸ĵä¸ļ": 8895,
  "çĭ®": 8896,
  "Ġpark": 8897,
  "éļıæĹ¶": 8898,
  "ä¸Ģåľº": 8899,
  "èĩªä¸»": 8900,
  "Ġcourt": 8901,
  "å·ħ": 8902,
  "åıł": 8903,
  "æŃĮæīĭ": 8904,
  "ĠOut": 8905,
  "alls": 8906,
  "çļĦåĲĮæĹ¶": 8907,
  "Ġneg": 8908,
  "æł¼å¼ı": 8909,
  "æ°ĳéĹ´": 8910,
  "æ³ķè§Ħ": 8911,
  "ç¿Ķ": 8912,
  "Ġactivities": 8913,
  "æŀĦæĪĲ": 8914,
  "Ġæ½": 8915,
  "è¿ĺä¸į": 8916,
  "Ġvillage": 8917,
  "æ±Łèĭı": 8918,
  "å½±çīĩ": 8919,
  "ç»Łæ²»": 8920,
  "èĢĮåĩº": 8921,
  "Ġneeded": 8922,
  "ĠéªĹ": 8923,
  "åį°è±¡": 8924,
  "ĠParty": 8925,
  "æİ¥ä¸ĭæĿ¥": 8926,
  "ĠMod": 8927,
  "ĠGeneral": 8928,
  "å¯¹æ¯Ķ": 8929,
  "ĠGold": 8930,
  "Ġcand": 8931,
  "åħ¬ä¼Ĺ": 8932,
  "é¡ºåĪ©": 8933,
  "æķ²": 8934,
  "Ð½Ð¸": 8935,
  "éĥ¨éķ¿": 8936,
  "ĠæīĢæľī": 8937,
  "ĠLou": 8938,
  "Ġé¬¼": 8939,
  "Ġèµ¶ç´§": 8940,
  "çŃĭ": 8941,
  "çķľ": 8942,
  "æİĺ": 8943,
  "ĠTer": 8944,
  "çľīå¤´": 8945,
  "Ġsimple": 8946,
  "ĠMac": 8947,
  "ĠJer": 8948,
  "èµł": 8949,
  "Ġprote": 8950,
  "åĪĹè½¦": 8951,
  "42": 8952,
  "ĠDistrict": 8953,
  "bit": 8954,
  "CC": 8955,
  "Ġsil": 8956,
  "Ġå¸Ī": 8957,
  "ĠMart": 8958,
  "ä¹ĭåľ°": 8959,
  "è¿ĻæĹ¶": 8960,
  "Ġåĺ¿åĺ¿": 8961,
  "éľī": 8962,
  "åıĻ": 8963,
  "çĤ¹çļĦ": 8964,
  "åĴĭ": 8965,
  "Ġåĵģ": 8966,
  "Ġrights": 8967,
  "éĤĵ": 8968,
  "Ġtable": 8969,
  "å°±ç®Ĺæĺ¯": 8970,
  "éĩįåºĨ": 8971,
  "Ġoutside": 8972,
  "Ġæĩ": 8973,
  "å·®å¼Ĥ": 8974,
  "round": 8975,
  "æ¡Īä¾ĭ": 8976,
  "åıªä¸įè¿ĩ": 8977,
  "Ġaf": 8978,
  "åįģä¸ĩ": 8979,
  "åħ´å¥ĭ": 8980,
  "Ġå¾®": 8981,
  "Ġbeautiful": 8982,
  "æľĽçĿĢ": 8983,
  "Ġaccept": 8984,
  "Ġmarried": 8985,
  "Ġ;": 8986,
  "Ġå¿į": 8987,
  "izing": 8988,
  "éĩįéĩı": 8989,
  "ĠåĲ¬åĪ°": 8990,
  "Ġability": 8991,
  "Ġå¤©æ°Ķ": 8992,
  "Ġsoon": 8993,
  "ĠCap": 8994,
  "Ġobs": 8995,
  "ĠCourt": 8996,
  "hem": 8997,
  "åģľæŃ¢": 8998,
  "inn": 8999,
  "äº¿åħĥ": 9000,
  "çº¿çļĦ": 9001,
  "åįĥç±³": 9002,
  "Ð¾Ð²": 9003,
  "lier": 9004,
  "ĠGreen": 9005,
  "åıĳçļĦ": 9006,
  "ĠåĪļåĪļ": 9007,
  "ĠæĹłèģĬ": 9008,
  "obile": 9009,
  "ĠæĢ»æĺ¯": 9010,
  "å¯Ĥ": 9011,
  "Ġä¸Ģç§į": 9012,
  "ĠWashington": 9013,
  "ä¸Ĭå¸Ĥ": 9014,
  "Ġswe": 9015,
  "åĲĥé¥Ń": 9016,
  "Ġproduced": 9017,
  "ĠTH": 9018,
  "åĵģç§į": 9019,
  "çī¹æĢ§": 9020,
  "aughter": 9021,
  "Ġarg": 9022,
  "ä½Ĩåľ¨": 9023,
  "ä¼ĺåĮĸ": 9024,
  "Ġ31": 9025,
  "Ġmoved": 9026,
  "Ġä¸ĢåĪĩ": 9027,
  "ĠVol": 9028,
  "Ġåĺ»": 9029,
  "Ġmother": 9030,
  "èĥľåĪ©": 9031,
  "åĨĻä½ľ": 9032,
  "è¯»ä¹¦": 9033,
  "Ġmatch": 9034,
  "Ġcenter": 9035,
  "Ġvia": 9036,
  "hing": 9037,
  "æĮ£": 9038,
  "ĠNor": 9039,
  "æŁ¯": 9040,
  "mercial": 9041,
  "æľĢå¤ļ": 9042,
  "æľīæĹ¶": 9043,
  "ç¥ŀç§ĺ": 9044,
  "å°Ĩä¼ļ": 9045,
  "çĪĨçĤ¸": 9046,
  "Ġterm": 9047,
  "olic": 9048,
  "ĠåĩºéĹ¨": 9049,
  "ĠMet": 9050,
  "ĠMary": 9051,
  "åı¦ä¸Ģä¸ª": 9052,
  "Ġ</": 9053,
  "982": 9054,
  "å¤§éĩıçļĦ": 9055,
  "æĽ´å¥½": 9056,
  "å«ģ": 9057,
  "æĺ¯è°ģ": 9058,
  "sequ": 9059,
  "Ġcup": 9060,
  "ension": 9061,
  "çĬ¹è±«": 9062,
  "ype": 9063,
  "ĠEduc": 9064,
  "Ġå¯¼": 9065,
  "éĢļéģĵ": 9066,
  "Ġinstead": 9067,
  "èĥĢ": 9068,
  "ä¿®æĶ¹": 9069,
  "ĠSystem": 9070,
  "?\"": 9071,
  "reek": 9072,
  "æĬ¼": 9073,
  "ĠæĢİæł·": 9074,
  "Ġdocument": 9075,
  "æĮĩåĩº": 9076,
  "è¢į": 9077,
  "Ġround": 9078,
  "ĠæĢĢ": 9079,
  "983": 9080,
  "çģ«çĦ°": 9081,
  "tee": 9082,
  "Ġè¿Ļè¾¹": 9083,
  "è½¬èº«": 9084,
  "æ¶ĪèĢĹ": 9085,
  "Ġabs": 9086,
  "åħīèĬĴ": 9087,
  "Ġå½ĵæĹ¶": 9088,
  "Ġç»ĥ": 9089,
  "ĠäºĨè§£": 9090,
  "åıįæĺł": 9091,
  "çļĦçĶŁæ´»": 9092,
  "Ġsat": 9093,
  "çŀ§": 9094,
  "åĦĴ": 9095,
  "éĩĬæĶ¾": 9096,
  "aily": 9097,
  "åľ°åĿĢ": 9098,
  "950": 9099,
  "æ¼ĶåĶ±": 9100,
  "Ġ90": 9101,
  "æ¡Īä»¶": 9102,
  "ä¸ĵåĪ©": 9103,
  "Ġæ¹": 9104,
  "ä¼łæĿ¥": 9105,
  "Ġç»Ħ": 9106,
  "Ġè¯¾": 9107,
  "Ġattempt": 9108,
  "Ġincrease": 9109,
  "Ġä¹±": 9110,
  "è°ħ": 9111,
  "æ²¡éĶĻ": 9112,
  "Ġbox": 9113,
  "æķ´çĲĨ": 9114,
  "Ġcontract": 9115,
  "åĪĽå»º": 9116,
  "OL": 9117,
  "åľ°éĿ¢": 9118,
  "ĠæĺİçĻ½": 9119,
  "åĻ¨çļĦ": 9120,
  "çłĶç©¶æīĢ": 9121,
  "aging": 9122,
  "Ġèµµ": 9123,
  "come": 9124,
  "orthern": 9125,
  "èĳ±": 9126,
  "æīįä¼ļ": 9127,
  "Ġå¥³äºº": 9128,
  "asc": 9129,
  "iment": 9130,
  "éĺ²æŃ¢": 9131,
  "Ġpan": 9132,
  "ĠMichael": 9133,
  "ĠåĪ°åºķ": 9134,
  "ĠBra": 9135,
  "èį£èªī": 9136,
  "åľ¨å¤§": 9137,
  "æĻ®éģį": 9138,
  "Ar": 9139,
  "èī°": 9140,
  "ili": 9141,
  "ĠTechn": 9142,
  "ication": 9143,
  "Ġrace": 9144,
  "ä¸Ģå®ļçļĦ": 9145,
  "Ġschools": 9146,
  "è¯´çĿĢ": 9147,
  "çŁ¥åĲį": 9148,
  "olf": 9149,
  "å®ŀè¡Į": 9150,
  "æĪĸæĺ¯": 9151,
  "å®Įç¾İ": 9152,
  "Ġcard": 9153,
  "ä¸ŃåĽ½çļĦ": 9154,
  "ĠTex": 9155,
  "åĪ¶çļĦ": 9156,
  "ä¸įéľĢè¦ģ": 9157,
  "ĠCompany": 9158,
  "éĤ£å°±æĺ¯": 9159,
  "æĪĲä¸ºäºĨ": 9160,
  "ç¥¸": 9161,
  "åĳ³éģĵ": 9162,
  "Ġ60": 9163,
  "ä¾Ŀæį®": 9164,
  "åĥ§": 9165,
  "åį¿": 9166,
  "Ġå¥³çĶŁ": 9167,
  "æ¨¡æĭŁ": 9168,
  "Ġè¹": 9169,
  "Ġleading": 9170,
  "Ġç¬¬ä¸Ģæ¬¡": 9171,
  "Ġeverything": 9172,
  "Ġsense": 9173,
  "å¡ĺ": 9174,
  "éļ¾åº¦": 9175,
  "ĠéĢĢ": 9176,
  "Ġèıľ": 9177,
  "åĲĦèĩª": 9178,
  "inter": 9179,
  "ĠæĻ®": 9180,
  "ç»§æī¿": 9181,
  "150": 9182,
  "åĴĴ": 9183,
  "çĶµè§Ĩåı°": 9184,
  "çĻ»è®°": 9185,
  "outhern": 9186,
  "Ġcirc": 9187,
  "ä¾ĭåŃĲ": 9188,
  "ĠProf": 9189,
  "MS": 9190,
  "ä¸»ç®¡": 9191,
  "ç»µ": 9192,
  "ĠåĲİéĿ¢": 9193,
  "å°ĳæķ°": 9194,
  "Con": 9195,
  "sec": 9196,
  "å·²ç»ıæĺ¯": 9197,
  "Ġgold": 9198,
  "ä¸įå¾Ĺä¸į": 9199,
  "aches": 9200,
  "Ġveh": 9201,
  "Ġgrowth": 9202,
  "Ġçĥ¦": 9203,
  "ä»Ĺ": 9204,
  "äºĨåĲĹ": 9205,
  "èµ°åĪ°": 9206,
  "Ġvariety": 9207,
  "ä¸ĢèĤ¡": 9208,
  "ĠLit": 9209,
  "gen": 9210,
  "Ġåĳ¨æľ«": 9211,
  "Ex": 9212,
  "åľ¨æĪĳ": 9213,
  "èīĩ": 9214,
  "Ġä½ľä¸º": 9215,
  "æĻĴ": 9216,
  "å«Į": 9217,
  "Ġç®Ģåįķ": 9218,
  "Ġç±»": 9219,
  "medi": 9220,
  "Ġinn": 9221,
  "å¤©æ´¥": 9222,
  "è§Ħå¾ĭ": 9223,
  "oring": 9224,
  "pite": 9225,
  "çĻ¾å¹´": 9226,
  "éĺ¿å°Ķ": 9227,
  "Ġé¸¡": 9228,
  "Pro": 9229,
  "Ġæ¬§": 9230,
  "éĻķ": 9231,
  "Ġèİ«": 9232,
  "åĪĨéħį": 9233,
  "Ġç»¿": 9234,
  "Ġä¼ł": 9235,
  "è¶ģ": 9236,
  "åĲĦåľ°": 9237,
  "ĠåĳĲ": 9238,
  "æł¡åĽŃ": 9239,
  "Ġterms": 9240,
  "Ġdirectly": 9241,
  "æ»¡æĦı": 9242,
  "alysis": 9243,
  "å®ŀéªĮå®¤": 9244,
  "();": 9245,
  "åĨ³èµĽ": 9246,
  "å¿ĥæĥħ": 9247,
  "æĹıçļĦ": 9248,
  "å®ŀè¯Ŀ": 9249,
  "eared": 9250,
  "ç¿ħ": 9251,
  "Ġreported": 9252,
  "å·¥ä½ľçļĦ": 9253,
  "Ġè¾ĵ": 9254,
  "çħĮ": 9255,
  "ç¿ł": 9256,
  "Ġreading": 9257,
  "Ġpers": 9258,
  "å²Ĥ": 9259,
  "Ġviol": 9260,
  "han": 9261,
  "ĠèĽ®": 9262,
  "ä¸¸": 9263,
  "Ġè®¡": 9264,
  "uit": 9265,
  "æıŃ": 9266,
  "ĠèĦļ": 9267,
  "Ġver": 9268,
  "Ġways": 9269,
  "è½¦è¾Ĩ": 9270,
  "................": 9271,
  "arter": 9272,
  "ä¸Ģåı¥": 9273,
  "äºĨä»ĸ": 9274,
  "åķ¸": 9275,
  "Ġword": 9276,
  "å¤±åİ»": 9277,
  "Ð¹": 9278,
  "ä¸Ńåįİäººæ°ĳåħ±åĴĮåĽ½": 9279,
  "è¿Ļä¸Ģæ¬¡": 9280,
  "Ġagre": 9281,
  "BS": 9282,
  "ĠåĸĶ": 9283,
  "Ġinvolved": 9284,
  "Ġtraditional": 9285,
  "åıĺæĪĲäºĨ": 9286,
  "Ġindividuals": 9287,
  "èķ´": 9288,
  "Ġåı¯æĥľ": 9289,
  "Ġ65": 9290,
  "èĿ¶": 9291,
  "ĠçĽ®å½ķ": 9292,
  "ä¸Ģå¼ł": 9293,
  "èĬ¯çīĩ": 9294,
  "åī§æĥħ": 9295,
  "Ġestablish": 9296,
  "ĠèĢĥè¯ķ": 9297,
  "Ġçľĭè¿ĩ": 9298,
  "Ġcross": 9299,
  "ession": 9300,
  "èĭ¹æŀľ": 9301,
  "æĬĬæı¡": 9302,
  "å°ıå§Ĳ": 9303,
  "Ġtrying": 9304,
  "Ġdeveloped": 9305,
  "Ġsongs": 9306,
  "Ġcy": 9307,
  "æĵħ": 9308,
  "ç®ĢåįķçļĦ": 9309,
  "çİ©ç¬ĳ": 9310,
  "æĦŁè§īåĪ°": 9311,
  "æĺİçļĦ": 9312,
  "ĠèģĮ": 9313,
  "Ġvari": 9314,
  "Ġprevent": 9315,
  "èĻ¹": 9316,
  "èĢĮä¸į": 9317,
  "Ġpromot": 9318,
  "odes": 9319,
  "ä»ĸä¹Ł": 9320,
  "ĠäºĨéĤ£": 9321,
  "æĸ¥": 9322,
  "æīĵåĩ»": 9323,
  "è¥¿äºļ": 9324,
  "oom": 9325,
  "Ġgre": 9326,
  "Ġliter": 9327,
  "æĥ¹": 9328,
  "Ġä½łå®¶": 9329,
  "Ġæł¹æį®": 9330,
  "æŁ´": 9331,
  "('": 9332,
  "ä¸°å¯ĮçļĦ": 9333,
  "ä¼ģä¸ļçļĦ": 9334,
  "Ġplaces": 9335,
  "åĨħå¿ĥ": 9336,
  "äºĨä¸Ģçľ¼": 9337,
  "Ġrate": 9338,
  "å¯¹ä»ĺ": 9339,
  "Ġtypes": 9340,
  "ĠçĨ¬": 9341,
  "ĠArch": 9342,
  "Ġmach": 9343,
  "å°±è¢«": 9344,
  "Ġæĥ³åĪ°": 9345,
  "å®ĹæķĻ": 9346,
  "å¸Ĩ": 9347,
  "çªģåĩº": 9348,
  "æĦıåĳ³çĿĢ": 9349,
  "Ġè½¯": 9350,
  "ĠPress": 9351,
  "ĠèģĶç³»": 9352,
  "å°½éĩı": 9353,
  "ä¸īå¤§": 9354,
  "æ¼Ĩ": 9355,
  "Ġhigher": 9356,
  "çĳ¶": 9357,
  "EE": 9358,
  "æĹ©æľŁ": 9359,
  "åĽ¢ä½ĵ": 9360,
  "èĴĭ": 9361,
  "ĠåĨľ": 9362,
  "æıĲéĨĴ": 9363,
  "é©¾é©¶": 9364,
  "å°±æ²¡æľī": 9365,
  "etry": 9366,
  "é¾Ł": 9367,
  "Ġlatest": 9368,
  "Ġå¾Ģ": 9369,
  "çĬ¯ç½ª": 9370,
  "çŁĽçĽ¾": 9371,
  "ĠâĢĶâĢĶ": 9372,
  "itz": 9373,
  "Ġåį³": 9374,
  "Ġrecipe": 9375,
  "èºº": 9376,
  "èĩªè¡Į": 9377,
  "Ġstates": 9378,
  "åĽŀå¤´": 9379,
  "æķĻç»ĥ": 9380,
  "ĠæĬķ": 9381,
  "æĶ¶èĹı": 9382,
  "è¿ľè¿ľ": 9383,
  "åĲŁ": 9384,
  "Ġsorry": 9385,
  "èĥĮåĲİ": 9386,
  "ament": 9387,
  "Ġä¸ĭéĽ¨": 9388,
  "éĻ¢æł¡": 9389,
  "Ġmilitary": 9390,
  "äººæ°ĳæĶ¿åºľ": 9391,
  "ç¼´": 9392,
  "åĨĻçļĦ": 9393,
  "æĢĿè·¯": 9394,
  "Ġweb": 9395,
  "å¼ĺ": 9396,
  "ĠPublic": 9397,
  "Ġä»¬": 9398,
  "ĠMount": 9399,
  "æĹ¥æľŁ": 9400,
  "ivity": 9401,
  "çļĦæ°Ķ": 9402,
  "è¾±": 9403,
  "çĪª": 9404,
  "Ġimm": 9405,
  "å¤ªå¹³": 9406,
  "èĩŃ": 9407,
  "Ġmid": 9408,
  "ada": 9409,
  "uge": 9410,
  "è¿ĻäºĽäºº": 9411,
  "èĦ¾": 9412,
  "ĠAngel": 9413,
  "åıĳçĶŁäºĨ": 9414,
  "ä¹ĭäºº": 9415,
  "ym": 9416,
  "ĠæĥĬ": 9417,
  "Ġtarget": 9418,
  "åįļçī©é¦Ĩ": 9419,
  "Ġwrote": 9420,
  "erve": 9421,
  "Ġè®¨åİĮ": 9422,
  "Ġä»Ļ": 9423,
  "Ġsource": 9424,
  "ĠSing": 9425,
  "Ġpick": 9426,
  "ĠFrance": 9427,
  "ĠçıŃ": 9428,
  "Ġmovie": 9429,
  "ĠãĢĭ": 9430,
  "è°ĥèĬĤ": 9431,
  "æłĩå¿Ĺ": 9432,
  "Ġmass": 9433,
  "ĠåĲĲ": 9434,
  "Ġè¿Ļæ¬¡": 9435,
  "åħ¶ä»ĸçļĦ": 9436,
  "å¦Ĵ": 9437,
  "ä¸įä½Ĩ": 9438,
  "Ã¨": 9439,
  "Ġå¤ĸéĿ¢": 9440,
  "Ġåĵ¼": 9441,
  "Ġund": 9442,
  "æĨ¾": 9443,
  "ä¸ĵä¸ļçļĦ": 9444,
  "æĪĲåĪĨ": 9445,
  "éĢļä¿¡": 9446,
  "Ġplant": 9447,
  "éĽĢ": 9448,
  "ä½ľä¸ļ": 9449,
  "é¢Ħéĺ²": 9450,
  "çİ²": 9451,
  "craft": 9452,
  "ĠRobert": 9453,
  "Ġdecl": 9454,
  "Ġing": 9455,
  "å¸ĪèĮĥ": 9456,
  "ht": 9457,
  "Ġhol": 9458,
  "Ġæ¯Ķå¦Ĥ": 9459,
  "ä»£çłģ": 9460,
  "æĬ«": 9461,
  "Ġsecurity": 9462,
  "pper": 9463,
  "è£ħç½®": 9464,
  "ä¸Ģä¸ªä¸ª": 9465,
  "éĽĨä½ĵ": 9466,
  "è´·æ¬¾": 9467,
  "Ġculture": 9468,
  "Ġç«ŁçĦ¶": 9469,
  "Ġconcern": 9470,
  "å¤©å¤©": 9471,
  "Ġmount": 9472,
  "çĶ¨äºĨ": 9473,
  "ç²¹": 9474,
  "ĠåĶĲ": 9475,
  "à¤": 9476,
  "ç°": 9477,
  "Ġè´Ł": 9478,
  "Ġpiece": 9479,
  "ĠåĢŁ": 9480,
  "ä¹ĭåĨħ": 9481,
  "ä¸ĸçķĮä¸Ĭ": 9482,
  "Ġrunning": 9483,
  "ĠLife": 9484,
  "Ġforward": 9485,
  "Ġago": 9486,
  "ios": 9487,
  "çļĦåĨħå®¹": 9488,
  "ĠæĢ§": 9489,
  "SS": 9490,
  "Ġæ¯ıä¸ª": 9491,
  "Ġè¿ĲåĬ¨": 9492,
  "åŀĥåľ¾": 9493,
  "çļĦæĦıæĢĿ": 9494,
  "Ġæ¿Ģ": 9495,
  "Ġprograms": 9496,
  "ĠClass": 9497,
  "Ġ**": 9498,
  "æľīå¾Īå¤ļ": 9499,
  "çľ¸": 9500,
  "ube": 9501,
  "Ġsummer": 9502,
  "unt": 9503,
  "ä¿ĿçķĻ": 9504,
  "åµ": 9505,
  "Ġåħħ": 9506,
  "Ġwife": 9507,
  "ĠÑģ": 9508,
  "çŃĴ": 9509,
  "Ġpolicy": 9510,
  "asons": 9511,
  "Ġgirl": 9512,
  "Ġè§Ĥ": 9513,
  "Ġpolice": 9514,
  "æľĢåĪĿ": 9515,
  "æĥ³çĿĢ": 9516,
  "èł": 9517,
  "è¯ģæį®": 9518,
  "ç¬Ķè®°": 9519,
  "ĠCup": 9520,
  "Ġvot": 9521,
  "åĪ°æĹ¶åĢĻ": 9522,
  "ĠåĲ¹": 9523,
  "Ġè½»": 9524,
  "ĠæŁĲ": 9525,
  "enc": 9526,
  "Ġæ³¡": 9527,
  "Ġsoftware": 9528,
  "ä¸ºåķ¥": 9529,
  "èĮ¨": 9530,
  "Ġspecies": 9531,
  "Ġtemper": 9532,
  "rian": 9533,
  "å·ŀå¸Ĥ": 9534,
  "Ġå½¢": 9535,
  "ä¸įå¼Ģ": 9536,
  "æĥħæĦŁ": 9537,
  "åĬ¨æīĭ": 9538,
  "Ġanything": 9539,
  "æĺ¯è¦ģ": 9540,
  "åĵİåĳĢ": 9541,
  "æĹ¶å°ļ": 9542,
  "ĠRock": 9543,
  "åįĳ": 9544,
  "æŃ£å¥½": 9545,
  "çļĦå¤ĸ": 9546,
  "57": 9547,
  "ç»ĵå©ļ": 9548,
  "Ġcapt": 9549,
  "erous": 9550,
  "Ġæłĩ": 9551,
  "è¡¨æĺİ": 9552,
  "å±ŀæĢ§": 9553,
  "åľ°éĿ¢ç§¯": 9554,
  "ä¸¤ä½į": 9555,
  "Ġbelieve": 9556,
  "ä¹ĭæĹ¶": 9557,
  "ams": 9558,
  "åīĬ": 9559,
  "è¿ŀå¿Ļ": 9560,
  "ota": 9561,
  "ores": 9562,
  "è¿Ļä¹Łæĺ¯": 9563,
  "æµ´": 9564,
  "Ġsaw": 9565,
  "ä¸ĩäºº": 9566,
  "900": 9567,
  "è¿Ļè¯Ŀ": 9568,
  "å®µ": 9569,
  "åĲ¾": 9570,
  "ĠåºĬ": 9571,
  "Ġçıį": 9572,
  "è£ħé¥°": 9573,
  "%;": 9574,
  "è¯ĬæĸŃ": 9575,
  "å¹¿å¤§": 9576,
  "å±ıå¹ķ": 9577,
  "å®°": 9578,
  "lands": 9579,
  "Ġè¯¶": 9580,
  "ĠCanadian": 9581,
  "mark": 9582,
  "Ġdeep": 9583,
  "Ġitself": 9584,
  "Ġcomplex": 9585,
  "æľ¬äºº": 9586,
  "æİ¨åĩº": 9587,
  "sey": 9588,
  "å¹´äºº": 9589,
  "ä¸»äºº": 9590,
  "æ»©": 9591,
  "ä¸įæĪĲ": 9592,
  "è¿Ļä¸ªéĹ®é¢ĺ": 9593,
  "AA": 9594,
  "Ġemb": 9595,
  "ĠèĢ³": 9596,
  "ĠLet": 9597,
  "çĬ¬": 9598,
  "Ġsection": 9599,
  "Ġupon": 9600,
  "Ġdistrib": 9601,
  "Ġrestaur": 9602,
  "Ġæ²¡äºº": 9603,
  "illing": 9604,
  "ĠèĴ": 9605,
  "ĠèĪĴæľį": 9606,
  "Ġæķħäºĭ": 9607,
  "ä¸´æĹ¶": 9608,
  "oub": 9609,
  "ceed": 9610,
  "Ġhimself": 9611,
  "å¤§éģĵ": 9612,
  "urt": 9613,
  ":(": 9614,
  "åįĩçº§": 9615,
  "icated": 9616,
  "Ġseem": 9617,
  "uth": 9618,
  "åĪ¹": 9619,
  "Ġchalleng": 9620,
  "éĿ¢è¯ķ": 9621,
  "éĿĸ": 9622,
  "å°±å·²ç»ı": 9623,
  "Ġimage": 9624,
  "Ġlonger": 9625,
  "å¯¹ä»ĸ": 9626,
  "çłĤ": 9627,
  "éĨĩ": 9628,
  "é¸Ń": 9629,
  "Ġconsum": 9630,
  "ç²¾çģµ": 9631,
  "arning": 9632,
  "æī©å¤§": 9633,
  "è¿Ĳæ°Ķ": 9634,
  "è¯´ä»Ģä¹Ī": 9635,
  "Ġden": 9636,
  "ç³Ł": 9637,
  "èĢĮåİ»": 9638,
  "çļĦå°±æĺ¯": 9639,
  "æĪ¿åŃĲ": 9640,
  "åĽĽåĳ¨": 9641,
  "Ġvict": 9642,
  "Ġextra": 9643,
  "cel": 9644,
  "æ¡¶": 9645,
  "è¯ģåĪ¸": 9646,
  "ä¸įåģľ": 9647,
  "Ġdirector": 9648,
  "Ġappoint": 9649,
  "æľ¬è´¨": 9650,
  "ĠMat": 9651,
  "Ġaffect": 9652,
  "æµ¸": 9653,
  "Ġstandard": 9654,
  "Ġparts": 9655,
  "åĽ½å¤ĸ": 9656,
  "lection": 9657,
  "NA": 9658,
  "EO": 9659,
  "é«ĺæł¡": 9660,
  "åĩĳ": 9661,
  "ĠBay": 9662,
  "éļľç¢į": 9663,
  "Ġfresh": 9664,
  "Ġprior": 9665,
  "éªĳå£«": 9666,
  "Ġlower": 9667,
  "å¤©çĦ¶": 9668,
  "lying": 9669,
  "berg": 9670,
  "iding": 9671,
  "ĠRoyal": 9672,
  "è¯´å®Į": 9673,
  "æ²Ĳ": 9674,
  "inary": 9675,
  "ä¼ļåľ¨": 9676,
  "Ġèĸ": 9677,
  "æĺ¯ä»¥": 9678,
  "Ġinvestig": 9679,
  "Ġæī¿": 9680,
  "åĩºåľº": 9681,
  "ç§¯ç´¯": 9682,
  "ĠMal": 9683,
  "cis": 9684,
  "Ġlargest": 9685,
  "ĠåĪĨæīĭ": 9686,
  "ĠåĪ«çļĦ": 9687,
  "Ð·": 9688,
  "pan": 9689,
  "èĪ¬çļĦ": 9690,
  "Ġå¥¶": 9691,
  "ä¸ºäºº": 9692,
  "Ġwood": 9693,
  "æĪĳå®¶": 9694,
  "ä¸Ńæľī": 9695,
  "Ġç¡¬": 9696,
  "Ġåħ³ç³»": 9697,
  "Ġlives": 9698,
  "Ġindepend": 9699,
  "å³¡": 9700,
  "åĭĭ": 9701,
  "Ġä¸įåĲĮ": 9702,
  "Ġcustomers": 9703,
  "éĺ³åħī": 9704,
  "Ġcases": 9705,
  "å¹´è½»äºº": 9706,
  "ĠçĿ¡ä¸įçĿĢ": 9707,
  "Ġdecision": 9708,
  "ä¸Ģä¸Ŀ": 9709,
  "æ£ī": 9710,
  "èĳĹä½ľ": 9711,
  "å¯Ĩåº¦": 9712,
  "åĩ°": 9713,
  "çĶŁç´ł": 9714,
  "Ġrisk": 9715,
  "å¾Īå¤§çļĦ": 9716,
  "æĦ§": 9717,
  "IL": 9718,
  "ĠPlease": 9719,
  "Ġèĩ³äºİ": 9720,
  "å¯¹å¤ĸ": 9721,
  "æĦģ": 9722,
  "åħ¬åħĥ": 9723,
  "Ġhor": 9724,
  "Ġnovel": 9725,
  "ĠClub": 9726,
  "çĩ¥": 9727,
  "Ġpractice": 9728,
  "Ġå¾ħ": 9729,
  "Ġdraw": 9730,
  "Ġloss": 9731,
  "èĢĮåľ¨": 9732,
  "æĴķ": 9733,
  "Ġåıĸ": 9734,
  "ĠAfrican": 9735,
  "ĠåĨįè¯´": 9736,
  "eks": 9737,
  "ĠMost": 9738,
  "Ġmale": 9739,
  "ĠçĹħ": 9740,
  "Ġåº¦": 9741,
  "ils": 9742,
  "äºĭæķħ": 9743,
  "ĠRem": 9744,
  "åĩºåıĳ": 9745,
  "å¼ķå¯¼": 9746,
  "å²Ĺä½į": 9747,
  "ĠOh": 9748,
  "Ġ45": 9749,
  "Ġful": 9750,
  "ĠçłĶ": 9751,
  "ĠTexas": 9752,
  "Ġdisplay": 9753,
  "Ġwanted": 9754,
  "ä¸įå¤§": 9755,
  "Ġsun": 9756,
  "çķı": 9757,
  "éĹ¨çļĦ": 9758,
  "ĠAcadem": 9759,
  "Ġolder": 9760,
  "Ġten": 9761,
  "ç¦ħ": 9762,
  "æĹłäºº": 9763,
  "ĠåĪĽ": 9764,
  "ares": 9765,
  "oura": 9766,
  "æľĢæĹ©": 9767,
  "Ġscreen": 9768,
  "tra": 9769,
  "åľ°çĲĨ": 9770,
  "æĥĬè®¶": 9771,
  "Ġcharacters": 9772,
  "ĠMuseum": 9773,
  "è¿ĶåĽŀ": 9774,
  "979": 9775,
  "ĠRoman": 9776,
  "rie": 9777,
  "åħ¬å¸ĥ": 9778,
  "Ġelection": 9779,
  "çĸ²": 9780,
  "åĸĤ": 9781,
  "Ġ32": 9782,
  "ĠçľĭæĿ¥": 9783,
  "Ġinitial": 9784,
  "æĶ¹éĢł": 9785,
  "ä¸ĸçķĮçļĦ": 9786,
  "åıĳå°Ħ": 9787,
  "Ġæł¹æľ¬": 9788,
  "ĠLat": 9789,
  "èĸĩ": 9790,
  "éĹ´çļĦ": 9791,
  "éķ¿æĹ¶éĹ´": 9792,
  "æµ·æ´ĭ": 9793,
  "Ġç´ł": 9794,
  "å®ļäºĨ": 9795,
  "ĠæĻĴ": 9796,
  "ĠScott": 9797,
  "43": 9798,
  "æ¸Ķ": 9799,
  "ä½łåı¯ä»¥": 9800,
  "pose": 9801,
  "èµ°åĲĳ": 9802,
  "imum": 9803,
  "å§»": 9804,
  "ĠScience": 9805,
  "ĠçĽ®åīį": 9806,
  "Ġwide": 9807,
  "ĠSal": 9808,
  "æµĭéĩı": 9809,
  "æĳĺ": 9810,
  "ĠèĢĥèĻĳ": 9811,
  "å®ĺåĳĺ": 9812,
  "ĠLeg": 9813,
  "åĭī": 9814,
  "èµĲ": 9815,
  "ä¸įæ¸ħ": 9816,
  "Ġå®Ŀå®Ŀ": 9817,
  "è¡Ģç®¡": 9818,
  "Ġcoming": 9819,
  "å²ģçļĦ": 9820,
  "æīĶ": 9821,
  "æ¾¡": 9822,
  "pped": 9823,
  "åĴĮå¹³": 9824,
  "åħįçĸ«": 9825,
  "lymp": 9826,
  "isl": 9827,
  "äººç¾¤": 9828,
  "å®´": 9829,
  "åĽ¾ä¹¦ä¿¡æģ¯": 9830,
  "Ġconsist": 9831,
  "aste": 9832,
  "åį¦": 9833,
  "mission": 9834,
  "æĹ©ä¸Ĭ": 9835,
  "æĴŃæĶ¾": 9836,
  "éģ®": 9837,
  "åĴĮè°Ĳ": 9838,
  "ĠResearch": 9839,
  "ä¸Ģèĩ´": 9840,
  "Ġéĺ²": 9841,
  "äººå·¥": 9842,
  "åķ§": 9843,
  "çľŁçļĦæĺ¯": 9844,
  "ç¨»": 9845,
  "ĠVir": 9846,
  "Ġmedical": 9847,
  "çĽ®å½ķ": 9848,
  "Ġ35": 9849,
  "åĮħè£ħ": 9850,
  "æĸ¯åĿ¦": 9851,
  "inese": 9852,
  "Ġcomplet": 9853,
  "éķľå¤´": 9854,
  "Ġsn": 9855,
  "Ġwid": 9856,
  "aged": 9857,
  "Ġåĵ¥åĵ¥": 9858,
  "ĠéĤ£è¾¹": 9859,
  "èĢģåŃĲ": 9860,
  "Ġæķ¢": 9861,
  "Ġè¿·": 9862,
  "Ġæ²¹": 9863,
  "orning": 9864,
  "981": 9865,
  "è¿Ļå°±": 9866,
  "ĠRead": 9867,
  "Ġtransl": 9868,
  "èģªæĺİ": 9869,
  "èĸĽ": 9870,
  "å·¥åİĤ": 9871,
  "å¼ºåº¦": 9872,
  "æĪĲéĥ½": 9873,
  "ĠUnion": 9874,
  "ĠAlex": 9875,
  "åĲ¯åĬ¨": 9876,
  "Ġpric": 9877,
  "Ġé¦ĸåħĪ": 9878,
  "å¤ļä¹ħ": 9879,
  "æª": 9880,
  "å«©": 9881,
  "éľŀ": 9882,
  "ĠAnn": 9883,
  "Ġhttp": 9884,
  "ĠSpe": 9885,
  "æĶ¶éĽĨ": 9886,
  "ros": 9887,
  "åĲĳçĿĢ": 9888,
  "Ġsens": 9889,
  "å¾ĭå¸Ī": 9890,
  "Ġè´´": 9891,
  "Ġåĳ³éģĵ": 9892,
  "tr": 9893,
  "åĬ£": 9894,
  "æ··åĲĪ": 9895,
  "Ġä»ĬæĻļ": 9896,
  "å®ŀçĶ¨": 9897,
  "leg": 9898,
  "æĶ¯æĴĳ": 9899,
  "ĠMiss": 9900,
  "Ġstudent": 9901,
  "Ġapplication": 9902,
  "itation": 9903,
  "unicip": 9904,
  "åŃ¦çĶŁçļĦ": 9905,
  "æıĲä¾ĽäºĨ": 9906,
  "ĠInstitute": 9907,
  "Ġaltern": 9908,
  "å¸¦æĿ¥çļĦ": 9909,
  "éĢ¢": 9910,
  "ought": 9911,
  "41": 9912,
  "æĺİæĺŁ": 9913,
  "è¯¾é¢ĺ": 9914,
  "åĥµ": 9915,
  "ĠFe": 9916,
  "Ġpath": 9917,
  "ĠLake": 9918,
  "Ġball": 9919,
  "æ¬ł": 9920,
  "ager": 9921,
  "ita": 9922,
  "ĠèĢħ": 9923,
  "itter": 9924,
  "ĠHome": 9925,
  "èĤĮèĤī": 9926,
  "Ġéļıä¾¿": 9927,
  "ĠæĩĴ": 9928,
  "izes": 9929,
  "Ġå°±ç®Ĺ": 9930,
  "Ġadj": 9931,
  "è¯ģä¹¦": 9932,
  "è´Ŀå°Ķ": 9933,
  "Ġçĥ§": 9934,
  "åĻ¬": 9935,
  "å¹²åĩĢ": 9936,
  "åĲĬ": 9937,
  "ä¾¦": 9938,
  "æĬĦ": 9939,
  "annel": 9940,
  "Sh": 9941,
  "Ġlegal": 9942,
  "UT": 9943,
  "ä½¿çĶ¨çļĦ": 9944,
  "istry": 9945,
  "ĠèĲ§": 9946,
  "vis": 9947,
  "Ġç¬¬ä¸ĢçĻ¾": 9948,
  "Ġä¸įå¦Ĥ": 9949,
  "æİīäºĨ": 9950,
  "Ġmaintain": 9951,
  "äºīåıĸ": 9952,
  "Ġç¾İå¥½": 9953,
  "Ġç´§": 9954,
  "å½Ń": 9955,
  "Ġwonder": 9956,
  "åĬŀçĲĨ": 9957,
  "ĠWil": 9958,
  "æ²³åĮĹ": 9959,
  "åĮĸä¸º": 9960,
  "owers": 9961,
  "Ġçĸ¼": 9962,
  "æĿĳæ°ĳ": 9963,
  "Ġsus": 9964,
  "ĠæĻĵ": 9965,
  "ĠSub": 9966,
  "å·ħå³°": 9967,
  "çļĦéĢŁåº¦": 9968,
  "Ġcoup": 9969,
  "äººåĴĮ": 9970,
  "Ġut": 9971,
  "çĪ±çļĦ": 9972,
  "ç»³": 9973,
  "Ġæĺ¯åĽłä¸º": 9974,
  "ounter": 9975,
  "åĽ½çİĭ": 9976,
  "men": 9977,
  "ĠHen": 9978,
  "è·ª": 9979,
  "å°¸ä½ĵ": 9980,
  "æĵİ": 9981,
  "å±¥": 9982,
  "åĲĪå¹¶": 9983,
  "Ġåķ¥æĹ¶åĢĻ": 9984,
  "æĽ´ä¸º": 9985,
  "çŃĸåĪĴ": 9986,
  "Ġçºł": 9987,
  "è´ª": 9988,
  "Ġ200": 9989,
  "æĦıå¿Ĺ": 9990,
  "ĠGrand": 9991,
  "ä¹īåĬ¡": 9992,
  "ĠCong": 9993,
  "49": 9994,
  "owl": 9995,
  "ç½¢äºĨ": 9996,
  "çļĦä¸Ń": 9997,
  "å¯¼å¸Ī": 9998,
  "ç»´ä¿®": 9999,
  "éĻĽ": 10000,
  "Ġrequest": 10001,
  "å±Ģéķ¿": 10002,
  "Ð¿": 10003,
  "ona": 10004,
  "åįĬå¹´": 10005,
  "åįıåĬ©": 10006,
  "æľĪä»½": 10007,
  "ĠCommun": 10008,
  "120": 10009,
  "ĠMont": 10010,
  "æł½": 10011,
  "å®ŀåľ¨æĺ¯": 10012,
  "Ġbad": 10013,
  "åĨ³çŃĸ": 10014,
  "oper": 10015,
  "å·¾": 10016,
  "ĠFore": 10017,
  "ä¹Łè¢«": 10018,
  "aby": 10019,
  "ĠèĤ¥": 10020,
  "ĠæģĲ": 10021,
  "Ġdistrict": 10022,
  "down": 10023,
  "åį³ä¾¿": 10024,
  "è¿Ļä¸¤ä¸ª": 10025,
  "Ġconditions": 10026,
  "ĠPri": 10027,
  "æĹłçº¿": 10028,
  "iles": 10029,
  "ä¿º": 10030,
  "å¤ªåŃĲ": 10031,
  "å¢ĥåĨħ": 10032,
  "za": 10033,
  "ç¡®ä¿Ŀ": 10034,
  "ä»¥ä¸ĬçļĦ": 10035,
  "mas": 10036,
  "ĠDel": 10037,
  "ĠSociety": 10038,
  "Ġexamples": 10039,
  "çĭłçĭł": 10040,
  "èĤ¡ä»½": 10041,
  "rought": 10042,
  "æµ·æĭĶ": 10043,
  "åĮĨ": 10044,
  "é¢ĸ": 10045,
  "éģĤ": 10046,
  "ĠåķĬä½ł": 10047,
  "ä¿±": 10048,
  "åĳ½è¿Ĳ": 10049,
  "ĠFre": 10050,
  "ĠåĨ²": 10051,
  "Ġopened": 10052,
  "Ġadminist": 10053,
  "å¦¹å¦¹": 10054,
  "Ġuses": 10055,
  "azine": 10056,
  "Ġinside": 10057,
  "Ġä¸ĭåİ»": 10058,
  "èĵĦ": 10059,
  "ç¡®è®¤": 10060,
  "Ġteams": 10061,
  "Ġé©¬ä¸Ĭ": 10062,
  "roy": 10063,
  "ç¦ıå»º": 10064,
  "UR": 10065,
  "éħįå¥Ĺ": 10066,
  "è¸¢": 10067,
  "ĠChristian": 10068,
  "ä¹¦æ³ķ": 10069,
  "çłį": 10070,
  "çļĦæķħäºĭ": 10071,
  "Ġtowards": 10072,
  "å®³æĢķ": 10073,
  "ĠRad": 10074,
  "Ġemer": 10075,
  "Ġprojects": 10076,
  "Ġautom": 10077,
  "æ¨¡æł·": 10078,
  "Ġknowledge": 10079,
  "Ġcause": 10080,
  "é¢ĳçİĩ": 10081,
  "çļĦçľĭçĿĢ": 10082,
  "Ġquite": 10083,
  "èĮĤ": 10084,
  "æ²Į": 10085,
  "Ġusers": 10086,
  "Ġç¥¨": 10087,
  "å¤§å¤ļ": 10088,
  "ĠèĪį": 10089,
  "Ġsports": 10090,
  "Ġä¸ŃåįĪ": 10091,
  "Ġgreen": 10092,
  "Ġéĺ³": 10093,
  "ishing": 10094,
  "Ġproblems": 10095,
  "Ġasked": 10096,
  "ĠSum": 10097,
  "Ġ80": 10098,
  "osh": 10099,
  "Ġfund": 10100,
  "åĳĪçİ°": 10101,
  "Ġtal": 10102,
  "æľ¨æľī": 10103,
  "Ġä¸ĭæĿ¥": 10104,
  "ĠCO": 10105,
  "Ġç¼º": 10106,
  "éģ£": 10107,
  "å¨ģåĬĽ": 10108,
  "ĠFlor": 10109,
  "reng": 10110,
  "æłĭ": 10111,
  "ĠGood": 10112,
  "åĪĥ": 10113,
  "Ġå·´": 10114,
  "Ġglobal": 10115,
  "irit": 10116,
  "åĨ²çªģ": 10117,
  "yth": 10118,
  "æĳĬ": 10119,
  "hest": 10120,
  "åįĴ": 10121,
  "åį³å°Ĩ": 10122,
  "Ġä¸ºåķ¥": 10123,
  "Ġå°ıå¿ĥ": 10124,
  "ĠæķĪ": 10125,
  "67": 10126,
  "èºģ": 10127,
  "Ġnature": 10128,
  "å¼ıçļĦ": 10129,
  "Ġnames": 10130,
  "å¥½çľĭ": 10131,
  "åħļåĳĺ": 10132,
  "ĠçŁ³": 10133,
  "Ġæĭħ": 10134,
  "æŃ¦æ±ī": 10135,
  "æĸĩçī©": 10136,
  "èĩªä¿¡": 10137,
  "æ¹ĺ": 10138,
  "æľĿå»·": 10139,
  "Ġge": 10140,
  "Ġsubs": 10141,
  "Ġä¸įåĲĥ": 10142,
  "è¯Ħä¸º": 10143,
  "Ġblog": 10144,
  "çļĦä½įç½®": 10145,
  "çĤ¹çĤ¹å¤´": 10146,
  "īå¦Ĵ": 10147,
  "gl": 10148,
  "æĿ¥æĿ¥": 10149,
  "Ġmultiple": 10150,
  "ĠInt": 10151,
  "ä¹Łä¸įçŁ¥éģĵ": 10152,
  "content": 10153,
  "Ġrecently": 10154,
  "åĳ¨è¾¹": 10155,
  "ä¸ĢèĪ¬çļĦ": 10156,
  "éĩĮæĸ¯": 10157,
  "used": 10158,
  "å¤·": 10159,
  "ä¸¤æ¬¡": 10160,
  "èİ·å¾ĹäºĨ": 10161,
  "ĠTom": 10162,
  "çºªå½ķ": 10163,
  "Ġç¬¬åħ«": 10164,
  "Ġtru": 10165,
  "Ġå¥½çİ©": 10166,
  "å®ĮäºĨ": 10167,
  "Ġcast": 10168,
  "ä¿ĿåŃĺ": 10169,
  "äº§åĵģçļĦ": 10170,
  "èĤª": 10171,
  "Ġå¥³æľĭåıĭ": 10172,
  "ĠFrank": 10173,
  "Un": 10174,
  "ste": 10175,
  "å¥¥è¿Ĳ": 10176,
  "ini": 10177,
  "ĠOlymp": 10178,
  "éªĳåħµ": 10179,
  "Ġstage": 10180,
  "Ġsubst": 10181,
  "èĤļåŃĲ": 10182,
  "Ġé²": 10183,
  "hol": 10184,
  "åıĳçİ°äºĨ": 10185,
  "))": 10186,
  "æľīåĵªäºĽ": 10187,
  "arc": 10188,
  "key": 10189,
  "é¥®é£Ł": 10190,
  "ä¾ĿéĿł": 10191,
  "Ġbrother": 10192,
  "å©ī": 10193,
  "èĢį": 10194,
  "æ²īé»ĺ": 10195,
  "åĪ©æ¶¦": 10196,
  "Ġcat": 10197,
  "æīĭä¸ŃçļĦ": 10198,
  "wor": 10199,
  "æĺİæĺİ": 10200,
  "éĿ¢ä¸´": 10201,
  "Ġæ±ī": 10202,
  "edy": 10203,
  "Ġorganiz": 10204,
  "æīĭéĩĮ": 10205,
  "Ġæ²¡ä»Ģä¹Ī": 10206,
  "Ġlearning": 10207,
  "rab": 10208,
  "éĺŁéķ¿": 10209,
  "Ġconduct": 10210,
  "éĵ¸": 10211,
  "Ġdise": 10212,
  "ĠéĽ¨": 10213,
  "ĠRob": 10214,
  "çĶ·æĢ§": 10215,
  "ĠæĺŁæľŁ": 10216,
  "çİ¯ä¿Ŀ": 10217,
  "rect": 10218,
  "æįĲ": 10219,
  "æĺŁæľŁ": 10220,
  "ç½ķ": 10221,
  "ĠMer": 10222,
  "Ġorganization": 10223,
  "Ġscience": 10224,
  "Ġçļ®": 10225,
  "å¯ĵ": 10226,
  "Ġåįİ": 10227,
  "istics": 10228,
  "æīĢè°ĵçļĦ": 10229,
  "æĺ¯æľĢ": 10230,
  "Ġcelebr": 10231,
  "Ġfight": 10232,
  "Ġsimply": 10233,
  "Ġåįķèº«": 10234,
  "Al": 10235,
  "ĠæĦ¿æĦı": 10236,
  "äºĶå¹´": 10237,
  "Ġcool": 10238,
  "ä»ĸå°±": 10239,
  "urance": 10240,
  "æįī": 10241,
  "ĠCr": 10242,
  "ĠåĶī": 10243,
  "Ġmessage": 10244,
  "chan": 10245,
  "Ġacqu": 10246,
  "èĦĬ": 10247,
  "æºľ": 10248,
  "arden": 10249,
  "name": 10250,
  "tic": 10251,
  "Ġå¤§æ¦Ĥ": 10252,
  "orpor": 10253,
  "è¡Ģæ¶²": 10254,
  "åįģåĩł": 10255,
  "Ġresources": 10256,
  "ĠThomas": 10257,
  "Ġæĥ³æĥ³": 10258,
  "èµ·èº«": 10259,
  "Ġartists": 10260,
  "ĠæĽ´å¥½": 10261,
  "ä¸Ĭåįĩ": 10262,
  "Ġgave": 10263,
  "Ġeveryone": 10264,
  "ç§°åı·": 10265,
  "åıĪæľī": 10266,
  "æħ¨": 10267,
  "Ġdu": 10268,
  "èĢģäºº": 10269,
  "èĳ£äºĭ": 10270,
  "Ġåħ³äºİ": 10271,
  "Ġjud": 10272,
  "ĠéĽĨ": 10273,
  "åħ¨åĬĽ": 10274,
  "Ġçİ¯": 10275,
  "ĠèĢį": 10276,
  "è¿Ļä»¶äºĭ": 10277,
  "Ġèĥ¡": 10278,
  "ocol": 10279,
  "æī¹è¯Ħ": 10280,
  "Ġmoment": 10281,
  "åĪ©äºİ": 10282,
  "iers": 10283,
  "ĠAustralian": 10284,
  "ä¸Ģä»¶": 10285,
  "é©³": 10286,
  "çļĦåİĨåı²": 10287,
  "Ġseems": 10288,
  "å¹³éĿĻ": 10289,
  "è¶³ä»¥": 10290,
  "æ³Ĭ": 10291,
  "fully": 10292,
  "ero": 10293,
  "Ġcontinued": 10294,
  "æĥ³æĥ³": 10295,
  "æ¦Ĥè¿°": 10296,
  "ĠEducation": 10297,
  "like": 10298,
  "ĠMex": 10299,
  "Ġleave": 10300,
  "æľīæĹ¶åĢĻ": 10301,
  "é©°": 10302,
  "è¯Ģ": 10303,
  "çŁ¥éģĵäºĨ": 10304,
  "ä¸įå®¹æĺĵ": 10305,
  "Ġç¤¾ä¼ļ": 10306,
  "part": 10307,
  "çĹ´": 10308,
  "Ġcommercial": 10309,
  "ĠStar": 10310,
  "åĮĹæĸ¹": 10311,
  "çļĦä¸ĢåĪĩ": 10312,
  "ĠRail": 10313,
  "åłµ": 10314,
  ")(": 10315,
  "ĠCamp": 10316,
  "æīĭæĮĩ": 10317,
  "ä¼ļéķ¿": 10318,
  "ä¼ŀ": 10319,
  "Ġworth": 10320,
  "Ġintegr": 10321,
  "è¾ħåĬ©": 10322,
  "Ġheat": 10323,
  "Ġavoid": 10324,
  "ĳåģĩ": 10325,
  "åįĹæĸ¹": 10326,
  "ĠSol": 10327,
  "å¤ĸåĽ½": 10328,
  "é¢Ħæµĭ": 10329,
  "ĠFound": 10330,
  "ä¸ĢåĿĹ": 10331,
  "åĴ¸": 10332,
  "Ġapproach": 10333,
  "ĠChampions": 10334,
  "ĠçļĦä½ł": 10335,
  "å»ºéĢł": 10336,
  "ä¿¡çĶ¨": 10337,
  "åı¯ä»¥åľ¨": 10338,
  "äºĨè¿ĩæĿ¥": 10339,
  "ĠEv": 10340,
  "Ġexact": 10341,
  "ĠLove": 10342,
  "kn": 10343,
  "çľĭåĩº": 10344,
  "rial": 10345,
  "æĤį": 10346,
  "å¹´éĹ´": 10347,
  "æľīåı¯èĥ½": 10348,
  "çº±": 10349,
  "æĺ¯æĢİä¹Ī": 10350,
  "è¡Ĺéģĵ": 10351,
  "æĹłéĻĲ": 10352,
  "ĠSince": 10353,
  "orial": 10354,
  "Ġimplement": 10355,
  "çľĭå¾Ĺ": 10356,
  "åĪł": 10357,
  "ä¹ĭæīĢä»¥": 10358,
  "ĠSur": 10359,
  "èģĶéĤ¦": 10360,
  "Ġbank": 10361,
  "ĠåĽ¢": 10362,
  "Ġsales": 10363,
  "zh": 10364,
  "An": 10365,
  "Ġwear": 10366,
  "Ġä¸īä¸ª": 10367,
  "ala": 10368,
  "Ġæ´»åĬ¨": 10369,
  "ä¸įåĩºæĿ¥": 10370,
  "æģĭçĪ±": 10371,
  "Ġreceive": 10372,
  "zy": 10373,
  "Ġè¿ĩå¹´": 10374,
  "venue": 10375,
  "ĠSmith": 10376,
  "bon": 10377,
  "ties": 10378,
  "VD": 10379,
  "lor": 10380,
  "ãĢĤãĢį": 10381,
  "Ġè´¨": 10382,
  "èĢģçĪ·": 10383,
  "ĠTop": 10384,
  "Ġinterview": 10385,
  "åŁİçļĦ": 10386,
  "åıĹä¼¤": 10387,
  "Ġdigital": 10388,
  "Ġthemselves": 10389,
  "¬èıľ": 10390,
  "Ġappeared": 10391,
  "æ½ĺ": 10392,
  "çĶµè·¯": 10393,
  "Ġconstruction": 10394,
  "ĠæĪĲåĬŁ": 10395,
  "ranch": 10396,
  "Ġpurchase": 10397,
  "ulated": 10398,
  "åĳ¨æľŁ": 10399,
  "çĨ¬": 10400,
  "redients": 10401,
  "ç²®é£Ł": 10402,
  "Ġanswer": 10403,
  "Ġmaterials": 10404,
  "iance": 10405,
  "å¾Īæĺ¯": 10406,
  "igned": 10407,
  "æĹ©å·²": 10408,
  "Ġdiscover": 10409,
  "oto": 10410,
  "æĶ¾åħ¥": 10411,
  "ipment": 10412,
  "arent": 10413,
  "ĠåĵªåĦ¿": 10414,
  "æł¡éķ¿": 10415,
  "Ġåľº": 10416,
  "éĹ¯": 10417,
  "æĺ¯ä¸ºäºĨ": 10418,
  "çĽ¸åħ³çļĦ": 10419,
  "Ġchoose": 10420,
  "æ±ª": 10421,
  "æĴ°": 10422,
  "Ġbal": 10423,
  "ĠæĮĳ": 10424,
  "Ġneigh": 10425,
  "Ġrelig": 10426,
  "Ġæľīç©º": 10427,
  "ä¾Ŀæ³ķ": 10428,
  "itionally": 10429,
  "èĤ¢": 10430,
  "ĠæĲľ": 10431,
  "Ġemot": 10432,
  "Ġmatter": 10433,
  "!\"": 10434,
  "å¥½å¥ĩ": 10435,
  "rast": 10436,
  "åħ¶ä½Ļ": 10437,
  "é¼ĵåĬ±": 10438,
  "Ġmeeting": 10439,
  "rief": 10440,
  "ĠCD": 10441,
  "çķĮçļĦ": 10442,
  "58": 10443,
  "ç¤¾ä¼ļä¸»ä¹ī": 10444,
  "ĠSuper": 10445,
  "é¹ħ": 10446,
  "åĮĻ": 10447,
  ":ãĢĮ": 10448,
  "Ġprep": 10449,
  "ä¸ĢçĻ¾": 10450,
  "ĠPo": 10451,
  "ecutive": 10452,
  "èĪŀåı°": 10453,
  "ä¹¾": 10454,
  "Ġchurch": 10455,
  "åĿ¤": 10456,
  "å¤ļäºº": 10457,
  "æŁĲç§į": 10458,
  "uce": 10459,
  "çī©æµģ": 10460,
  "åĩ»è´¥": 10461,
  "Ġé¢Ĩ": 10462,
  "ĠéĢĽ": 10463,
  "la": 10464,
  "Ġç¦ı": 10465,
  "Ġpoem": 10466,
  "Ġcomfort": 10467,
  "Ġrail": 10468,
  "azing": 10469,
  "æ¢¦æĥ³": 10470,
  "ya": 10471,
  "ĠåĴ¬": 10472,
  "ĠæľīéĴ±": 10473,
  "osing": 10474,
  "sych": 10475,
  "Ġstop": 10476,
  "Ġstories": 10477,
  "itc": 10478,
  "çī²": 10479,
  "ä¸įæĸŃçļĦ": 10480,
  "Ġæľ¨æľī": 10481,
  "å¤©æ°Ķ": 10482,
  "Ġmedian": 10483,
  "ĠPlay": 10484,
  "Ġç®ĢçĽ´": 10485,
  "æĶ¹ä¸º": 10486,
  "Ġæĵ": 10487,
  "æĪĳåİ»": 10488,
  "Ġgar": 10489,
  "ĠDef": 10490,
  "Ġstru": 10491,
  "ĠJew": 10492,
  "Ġopportunity": 10493,
  "ĠMad": 10494,
  "è¹Ī": 10495,
  "èĥ½ä¸įèĥ½": 10496,
  "coming": 10497,
  "æ²¡äºº": 10498,
  "ĠBusiness": 10499,
  "åħ³å¿ĥ": 10500,
  "æ¸łéģĵ": 10501,
  "IV": 10502,
  "çļĦåĲİ": 10503,
  "çİ°æľī": 10504,
  "Ġsle": 10505,
  "å¹´åīį": 10506,
  "Ġfrequ": 10507,
  "Ġfast": 10508,
  "ĠèĩªçĦ¶": 10509,
  "å½ĵä»£": 10510,
  "erved": 10511,
  "ĠMany": 10512,
  "ä½Ĩä»ĸ": 10513,
  "Ñħ": 10514,
  "Ġè§ģåĪ°": 10515,
  "ĠçľŁå¿ĥ": 10516,
  "ĠæĹģ": 10517,
  "ixt": 10518,
  "æĿĥåĬĽ": 10519,
  "åŃ©åŃĲçļĦ": 10520,
  "åŀ«": 10521,
  "å½¢æĪĲäºĨ": 10522,
  "åı¸ä»¤": 10523,
  "Ġdescribed": 10524,
  "Ġdeliver": 10525,
  "ĠåŃ¦çĶŁ": 10526,
  "äºĭé¡¹": 10527,
  "éŃĦ": 10528,
  "å®¤åĨħ": 10529,
  "é«ĺèĢĥ": 10530,
  "see": 10531,
  "è¶Ł": 10532,
  "å·®è·Ŀ": 10533,
  "Ġwoman": 10534,
  "Ġç»Ĩ": 10535,
  "å»Ĭ": 10536,
  "çĪ±å¥½": 10537,
  "èº«ä¸ĬçļĦ": 10538,
  "æĪ¿åľ°äº§": 10539,
  "ĠService": 10540,
  "ä½łåİ»": 10541,
  "æ·®": 10542,
  "çŁ®": 10543,
  "ä¸Ģä¸ªæľĪ": 10544,
  "Ġreach": 10545,
  "ims": 10546,
  "iring": 10547,
  "ä½łåľ¨": 10548,
  "Ġtransport": 10549,
  "Ġè®¤çľŁ": 10550,
  "æĬĵä½ı": 10551,
  "Ġweeks": 10552,
  "èĢķåľ°": 10553,
  "å·¢": 10554,
  "æĶĢ": 10555,
  "OP": 10556,
  "æ¸£": 10557,
  "çĶµåĬĽ": 10558,
  "ä¸ĢæĹ¶": 10559,
  "æĭĮ": 10560,
  "Ġgoal": 10561,
  "çķĻåľ¨": 10562,
  "Ġåįļ": 10563,
  "å¿ĺè®°": 10564,
  "Ġéŀ": 10565,
  "æĥ³èµ·": 10566,
  "çļĦè®¾è®¡": 10567,
  "ç¬¬åħŃ": 10568,
  "Ġéļ¾è¿ĩ": 10569,
  "åģļä»Ģä¹Ī": 10570,
  "åĬŁå¤«": 10571,
  "Ġå¦Ī": 10572,
  "ĠDiv": 10573,
  "çļĦå®ŀåĬĽ": 10574,
  "æĸĩèīº": 10575,
  "ĠMus": 10576,
  "ä¸īè§Ĵ": 10577,
  "å¤§å¤§": 10578,
  "æ··æ²Į": 10579,
  "å¥³çĶŁ": 10580,
  "çĶµæºĲ": 10581,
  "Ġå«Į": 10582,
  "Ġbirths": 10583,
  "ING": 10584,
  "ĠWell": 10585,
  "Ġfamous": 10586,
  "burg": 10587,
  "é£İæĻ¯": 10588,
  "iger": 10589,
  "Ġåĸľ": 10590,
  "Ġæģĭ": 10591,
  "Ġåĳ¦": 10592,
  "æĮĩæķ°": 10593,
  "è¯¡": 10594,
  "Ġçŀİ": 10595,
  "ĠHam": 10596,
  "ND": 10597,
  "Ġsometimes": 10598,
  "æµģéĩı": 10599,
  "ä¸¤å¤©": 10600,
  "èĬĤå¥ı": 10601,
  "ĠAfrica": 10602,
  "hr": 10603,
  "æĭīæĸ¯": 10604,
  "IM": 10605,
  "Ġplans": 10606,
  "ãĢı": 10607,
  "èĪ°éĺŁ": 10608,
  "Ġpositive": 10609,
  "ĠçĶ±äºİ": 10610,
  "å°±è¿ŀ": 10611,
  "æĥħæĬ¥": 10612,
  "kg": 10613,
  "çº¤ç»´": 10614,
  "ĠAv": 10615,
  "æĺ¯å¯¹": 10616,
  "æ·±åĪ»": 10617,
  "ĠHill": 10618,
  "å¦»åŃĲ": 10619,
  "ĠThen": 10620,
  "ĠåİŁåĽł": 10621,
  "ĠBur": 10622,
  "Ġded": 10623,
  "å¹´åľ¨": 10624,
  "Ġallows": 10625,
  "ĠçĪ±æĥħ": 10626,
  "ĠãĢĮ": 10627,
  "Ġcharg": 10628,
  "Ġå´": 10629,
  "åĨįè¯´": 10630,
  "çİĭæľĿ": 10631,
  "è®¿éĹ®": 10632,
  "ĠGermany": 10633,
  "ĠæĹħæ¸¸": 10634,
  "ano": 10635,
  "è¿ĻæĹ¶åĢĻ": 10636,
  "éĩįå¤į": 10637,
  "Ġmeaning": 10638,
  "åı«åģļ": 10639,
  "ĠVict": 10640,
  "Ġphone": 10641,
  "!!!": 10642,
  "æŀģåħ¶": 10643,
  "ä»¬çļĦ": 10644,
  "æŀ¯": 10645,
  "Ġnorm": 10646,
  "SP": 10647,
  "Ġfavorite": 10648,
  "Ġå¸Ĥ": 10649,
  "æ£į": 10650,
  "ĠBased": 10651,
  "ĠChinese": 10652,
  "ĠBill": 10653,
  "Ġç¥Ŀç¦ı": 10654,
  "Ġéļ¾åıĹ": 10655,
  "Ġsell": 10656,
  "éºŁ": 10657,
  "æĳĶ": 10658,
  "Ġdog": 10659,
  "æķħæĦı": 10660,
  "éĥ½å¾Ī": 10661,
  "æ·Ģ": 10662,
  "ä¹Łåı¯": 10663,
  "Ġä¸ĵ": 10664,
  "akers": 10665,
  "å¤©ç©º": 10666,
  "æĦ¤æĢĴ": 10667,
  "ä¸Ģä¸ĭåŃĲ": 10668,
  "åĬ¨æĢģ": 10669,
  "Ġå®ŀåľ¨": 10670,
  "ection": 10671,
  "Ġalthough": 10672,
  "éļĲèĹı": 10673,
  "Ġå¼Ģæľ¬": 10674,
  "Ġèµ¢": 10675,
  "èģĮå·¥": 10676,
  "ensity": 10677,
  "æ£ĢéªĮ": 10678,
  "Ġcm": 10679,
  "Ġtreatment": 10680,
  "ç²īä¸Ŀ": 10681,
  "ĠMo": 10682,
  "è®¤åı¯": 10683,
  "æľĿé²ľ": 10684,
  "ĠçłĶç©¶": 10685,
  "ä¼ĳéĹ²": 10686,
  "èĬ½": 10687,
  "IA": 10688,
  "ĠJapanese": 10689,
  "åĬłéĢŁ": 10690,
  "Ġè·¯ä¸Ĭ": 10691,
  "Ġprobably": 10692,
  "èĤ¿çĺ¤": 10693,
  "TM": 10694,
  "æ¿ĢåĬ¨": 10695,
  "Ġsafety": 10696,
  "ĠBi": 10697,
  "è¶ħè¶Ĭ": 10698,
  "icon": 10699,
  "Ġqual": 10700,
  "åħ¬å®ī": 10701,
  "ĠBen": 10702,
  "Ġcustomer": 10703,
  "ä½ķåĨµ": 10704,
  "åĽ½å®¶çļĦ": 10705,
  "Ġç½Ĺ": 10706,
  "Ġexpected": 10707,
  "Ġæ··": 10708,
  "ä¸Ģå¤§": 10709,
  "çľĭå¾ħ": 10710,
  "çº½çº¦": 10711,
  "ĠLouis": 10712,
  "ä¼łæī¿": 10713,
  "ĠæĤ²": 10714,
  "ĠKn": 10715,
  "Ġè®¸": 10716,
  "Ġnecessary": 10717,
  "æ°ĶåĢĻ": 10718,
  "Ġfemale": 10719,
  "700": 10720,
  "ç»ıæµİåŃ¦": 10721,
  "ĠRel": 10722,
  "Ġeight": 10723,
  "Ġcomment": 10724,
  "åıªè§ģ": 10725,
  "Ġåħ´": 10726,
  "umber": 10727,
  "èĳĹåĲįçļĦ": 10728,
  "Ġproviding": 10729,
  "å¤§åĨĽ": 10730,
  "ĠCarol": 10731,
  "Ġscient": 10732,
  "ĠåĮº": 10733,
  "éĻĽä¸ĭ": 10734,
  "Ġoption": 10735,
  "æ²¡æľīä»Ģä¹Ī": 10736,
  "ä¸Ĭè¿°": 10737,
  "åıįå¤į": 10738,
  "Ġimmedi": 10739,
  "çļĦéķ¿": 10740,
  "ĠGet": 10741,
  "ĠIr": 10742,
  "Ġlevels": 10743,
  "çļĦç¬¬ä¸Ģ": 10744,
  "Ġsex": 10745,
  "å¸¦é¢Ĩ": 10746,
  "æĹłçĸĳ": 10747,
  "ĠPeter": 10748,
  "æľĢæĸ°": 10749,
  "çļĦäº§åĵģ": 10750,
  "è½¬æį¢": 10751,
  "ĠçĶµèĦĳ": 10752,
  "åĲĮä¸Ģ": 10753,
  "div": 10754,
  "è½»æĺĵ": 10755,
  "Ġnumbers": 10756,
  "Ġsurround": 10757,
  "Ġsquare": 10758,
  "çĢ": 10759,
  "èıĩ": 10760,
  "è¡Ķ": 10761,
  "è¤": 10762,
  "åĩºæĿ¥äºĨ": 10763,
  "çĸĳæĥĳ": 10764,
  "è£¹": 10765,
  "æľīæľº": 10766,
  "äº¤æį¢": 10767,
  "ags": 10768,
  "Ġsurv": 10769,
  "ĠæĹ¥åŃĲ": 10770,
  "æŃĩ": 10771,
  "è¾¹ç¼ĺ": 10772,
  "IF": 10773,
  "ĠåĬŁ": 10774,
  "Ġå½±åĵį": 10775,
  "arr": 10776,
  "ĠäºĨå¥½": 10777,
  "éĻĮ": 10778,
  "Ġphysical": 10779,
  "ĠTor": 10780,
  "ĠPet": 10781,
  "å±ķçİ°": 10782,
  "Ġlength": 10783,
  "ä¸ĭè½½": 10784,
  "ç®Ģç§°": 10785,
  "æ³¨éĩį": 10786,
  "åĲ«éĩı": 10787,
  "ĠChic": 10788,
  "024": 10789,
  "Ġideas": 10790,
  "Ġdark": 10791,
  "Ġoverall": 10792,
  "å½¼æŃ¤": 10793,
  "Ġcapital": 10794,
  "æĪļ": 10795,
  "åıĮçľ¼": 10796,
  "ä¸Ģå®ļä¼ļ": 10797,
  "rows": 10798,
  "éĺĢ": 10799,
  "ĠæĻĵå¾Ĺ": 10800,
  "æĪĳåĴĮ": 10801,
  "Ġoccur": 10802,
  "çŀİ": 10803,
  "ĠæĪ´": 10804,
  "åľºçļĦ": 10805,
  "apter": 10806,
  "Ġdom": 10807,
  "æ³¢åĬ¨": 10808,
  "Ġinstit": 10809,
  "Ġparents": 10810,
  "illa": 10811,
  "Ġä¸Ĭè¯¾": 10812,
  "bour": 10813,
  "liam": 10814,
  "æĹŃ": 10815,
  "Ġhouseholds": 10816,
  "å°Ķæĸ¯": 10817,
  "ĠCentral": 10818,
  "å¤ªè¿ĩ": 10819,
  "æ·»åĬł": 10820,
  "Ġeconomic": 10821,
  "Ġlines": 10822,
  "è¯ĨåĪ«": 10823,
  "ottom": 10824,
  "Ġskin": 10825,
  "éĢļè®¯": 10826,
  "ä¼¸æīĭ": 10827,
  "éĿłè¿ĳ": 10828,
  "ä¹ĥæĺ¯": 10829,
  "âĨĴ": 10830,
  "Ġquickly": 10831,
  "ĠUnder": 10832,
  "åħ¶ä»ĸäºº": 10833,
  "çº¿è·¯": 10834,
  "house": 10835,
  "ĠÐ½": 10836,
  "vest": 10837,
  "945": 10838,
  "è¦ģä¹Ī": 10839,
  "Ġçł´": 10840,
  "åĵįèµ·": 10841,
  "çĵ£": 10842,
  "å¤§èµĽ": 10843,
  "Ġveget": 10844,
  "Ð±": 10845,
  "åº¸": 10846,
  "ä¸Ģå¼Ģå§ĭ": 10847,
  "è¢«ç§°ä¸º": 10848,
  "çĿĢçļĦ": 10849,
  "Ġtouch": 10850,
  "Ġä¸Ģå¼ł": 10851,
  "è¿Ļéĥ¨": 10852,
  "Ġå¦ĤæŃ¤": 10853,
  "åĬłæĭ¿": 10854,
  "å·¥ç¨ĭå¸Ī": 10855,
  "uts": 10856,
  "å¼ĢåĲ¯": 10857,
  "éĶ¤": 10858,
  "è¿ľå¤Ħ": 10859,
  "çĹħäºº": 10860,
  "ÐµÑĢ": 10861,
  "Ġhappy": 10862,
  "åħĨ": 10863,
  "Ġè¡¨ç¤º": 10864,
  "çŃīåĪ°": 10865,
  "ĠAlthough": 10866,
  "ĠåĸĬ": 10867,
  "ĠåĸĤ": 10868,
  "äºīè®®": 10869,
  "Ġsche": 10870,
  "ä¸ªæĢ§": 10871,
  "Ġäºĳ": 10872,
  "åľ°éĵģ": 10873,
  "çļĦåŃĺåľ¨": 10874,
  "éĢĲæŃ¥": 10875,
  "Ġç¢°": 10876,
  "äºĴåĬ¨": 10877,
  "åĴ¯": 10878,
  "çİ¯èĬĤ": 10879,
  "åħ¨å¸Ĥ": 10880,
  "Ġeasily": 10881,
  "FL": 10882,
  "ä½łä¼ļ": 10883,
  "ç»ĳ": 10884,
  "Ġåĺ»åĺ»": 10885,
  "æľįè£ħ": 10886,
  "Ġä»£": 10887,
  "Ġè¯ģ": 10888,
  "ĠçŃ¾": 10889,
  "ront": 10890,
  "Ġèľ": 10891,
  "Ġcompos": 10892,
  "èĪĴæľį": 10893,
  "976": 10894,
  "Ġåł": 10895,
  "Ġcompleted": 10896,
  "ĠåĽ¾ä¹¦": 10897,
  "Ġä¾¿å®ľ": 10898,
  "æĻļå®ī": 10899,
  "ĠæĦŁåĨĴ": 10900,
  "æ²¡æľīäºº": 10901,
  "åı¯æĢľ": 10902,
  "Ġinteresting": 10903,
  "Ġvac": 10904,
  "Ġtransfer": 10905,
  "rael": 10906,
  "é¹¤": 10907,
  "ĠCharles": 10908,
  "arily": 10909,
  "Ġstreng": 10910,
  "ĠJo": 10911,
  "ĠDevelop": 10912,
  "Ġachieve": 10913,
  "Ġteac": 10914,
  "##": 10915,
  "æ·±æ·±": 10916,
  "æ¡£æ¡Ī": 10917,
  "å¹´çºª": 10918,
  "çĿ¡è§ī": 10919,
  "Ġcomputer": 10920,
  "anta": 10921,
  "åĲ»": 10922,
  "Ġsuff": 10923,
  "ĠVirgin": 10924,
  "win": 10925,
  "ĠåĽ½å®¶": 10926,
  "Ġä¸įæĢķ": 10927,
  "rey": 10928,
  "],": 10929,
  "Ġçĵ": 10930,
  "Ġæĺİæĺİ": 10931,
  "è¾Ľèĭ¦": 10932,
  "ä»ĺåĩº": 10933,
  "åĨįåº¦": 10934,
  "è¾Ĳ": 10935,
  "ĠæĬĢæľ¯": 10936,
  "change": 10937,
  "çļĦç¾İ": 10938,
  "å·®çĤ¹": 10939,
  "ä¹Łä¸įèĥ½": 10940,
  "Ġcandid": 10941,
  "èĶ½": 10942,
  "Ġdecided": 10943,
  "Ġçĥ¤": 10944,
  "Ġguitar": 10945,
  "Ġbrought": 10946,
  "Ġå¤ıå¤©": 10947,
  "Ġç¡®å®ļ": 10948,
  "ç¨įå¾®": 10949,
  "ä¸Ģåº§": 10950,
  "Ġskills": 10951,
  "liament": 10952,
  "æ¸Ĺ": 10953,
  "æľĢä½İ": 10954,
  "è´¢å¯Į": 10955,
  "å®ŀä¹ł": 10956,
  "Ġrelationship": 10957,
  "å¤§ä¼Ĺ": 10958,
  "Ġartist": 10959,
  "Ġgradu": 10960,
  "ĠAlso": 10961,
  "ĠåĮ»éĻ¢": 10962,
  "porary": 10963,
  "çļĦè¦ģæ±Ĥ": 10964,
  "Ġmarketing": 10965,
  "ĠæĽ´æĸ°": 10966,
  "Ġå£°éŁ³": 10967,
  "Ġäºİ": 10968,
  "ooth": 10969,
  "Ġarchitect": 10970,
  "Ġcollabor": 10971,
  "Ġåıĭ": 10972,
  "å¤´ä¸Ĭ": 10973,
  "Ġåı¯æĢľ": 10974,
  "äºĨè¿ĩåİ»": 10975,
  "Ġä¸Ģä¸ªæľĪ": 10976,
  "æµģåĬ¨": 10977,
  "semb": 10978,
  "ĠFam": 10979,
  "åİŁå§ĭ": 10980,
  "ĠRichard": 10981,
  "å¤§åĬĽ": 10982,
  "ĠEr": 10983,
  "iation": 10984,
  "ä¸įç¦ģ": 10985,
  "èĢ»": 10986,
  "åĽ¾ä¹¦é¦Ĩ": 10987,
  "ady": 10988,
  "æĭ¿åĪ°": 10989,
  "çĽ¸å½ĵäºİ": 10990,
  "é¦ĸæŃĮ": 10991,
  "975": 10992,
  "Ġbed": 10993,
  "åĽŀå¿Ĩ": 10994,
  "Ġä¸įå¤ª": 10995,
  "umni": 10996,
  "ĠUse": 10997,
  "Ġä»»": 10998,
  "çļĦä¸ī": 10999,
  "è¿ĺçľŁ": 11000,
  "Ġboy": 11001,
  "Ġdead": 11002,
  "Ġä»İæĿ¥": 11003,
  "èģĮè´£": 11004,
  "MB": 11005,
  "Ġradio": 11006,
  "Ġè§Ĵ": 11007,
  "ĠFrid": 11008,
  "Ġjoined": 11009,
  "å¤§åľ°": 11010,
  "èŁ¹": 11011,
  "æĺ¯ä»İ": 11012,
  "Ġsafe": 11013,
  "çĽĳç®¡": 11014,
  "ĠæĦŁæĥħ": 11015,
  "ĠåĨ³å®ļ": 11016,
  "ä»Ģä¹ĪæĹ¶åĢĻ": 11017,
  "åįģç«ł": 11018,
  "Ġåĩºçİ°": 11019,
  "ĠHum": 11020,
  "ĠStep": 11021,
  "ruit": 11022,
  "TS": 11023,
  "Ġéĵ¶": 11024,
  "è®©å¥¹": 11025,
  "è®¤çŁ¥": 11026,
  "Ġcreating": 11027,
  "Ġcorn": 11028,
  "ĠOffic": 11029,
  "åľ°åĮºçļĦ": 11030,
  "éĥ¨èĲ½": 11031,
  "Ġç«ĭ": 11032,
  "Ġç§¦": 11033,
  "ĠåĳĨ": 11034,
  "Ġreturned": 11035,
  "ĠCur": 11036,
  "ĠGra": 11037,
  "Ġæİ¥åıĹ": 11038,
  "åī©ä¸ĭ": 11039,
  "ĠConst": 11040,
  "ĠäºĨæĺ¯": 11041,
  "æ°¨": 11042,
  "Ġunits": 11043,
  "Ġå¤ªéĺ³": 11044,
  "Ġé±¼": 11045,
  "Ġèģļ": 11046,
  "Ġæĺ¨æĻļ": 11047,
  "æīĢæľīäºº": 11048,
  "è¯ķåĽ¾": 11049,
  "åĩ½æķ°": 11050,
  "iller": 11051,
  "æī¿åıĹ": 11052,
  "æĪĳæĿ¥": 11053,
  "æ»ŀ": 11054,
  "Ġcensus": 11055,
  "Ġæį®": 11056,
  "å·²ç»ıè¢«": 11057,
  "è´¢äº§": 11058,
  "Ġdaughter": 11059,
  "æİł": 11060,
  "Ġwhose": 11061,
  "å¼ºçĥĪ": 11062,
  "ĠåĢ¼å¾Ĺ": 11063,
  "ĠæĳĶ": 11064,
  "isions": 11065,
  "è¾Ł": 11066,
  "å¹´èĩ³": 11067,
  "incip": 11068,
  "çĶŁæĦı": 11069,
  "ĠItal": 11070,
  "Ġque": 11071,
  "äº¨": 11072,
  "ä½ıå®ħ": 11073,
  "Ġè¾¹": 11074,
  "åįķåħĥ": 11075,
  "Ġchoice": 11076,
  "press": 11077,
  "è¿Ļåľº": 11078,
  "ĠçĤĴ": 11079,
  "éĻķè¥¿": 11080,
  "ĠTwo": 11081,
  "Ġreve": 11082,
  "amic": 11083,
  "Ġæĸ¹ä¾¿": 11084,
  "ĠéĽ¶": 11085,
  "Ġconne": 11086,
  "Can": 11087,
  "Ġprem": 11088,
  "ĠArmy": 11089,
  "Ġlic": 11090,
  "æĺ¯ä»ĸ": 11091,
  "usband": 11092,
  "Ġæ¸ħæ¥ļ": 11093,
  "ĠBoard": 11094,
  "ĻåŃĲ": 11095,
  "Ġcontext": 11096,
  "çļĦç»ĵæŀľ": 11097,
  "Ġfollowed": 11098,
  "ä¿®å¤į": 11099,
  "åģļæ³ķ": 11100,
  "æįı": 11101,
  "Ġchanged": 11102,
  "Ġä¸Ĭæ¬¡": 11103,
  "Ġæļ´": 11104,
  "åĬĽäºİ": 11105,
  "Ġpartners": 11106,
  "å¥½ä¹ħ": 11107,
  "Ġhands": 11108,
  "Ġconcept": 11109,
  "èĢĥçłĶ": 11110,
  "ĠåĨ¬å¤©": 11111,
  "Ġä½¿çĶ¨": 11112,
  "ĠæĹ¢": 11113,
  "ĠFace": 11114,
  "ĠOffice": 11115,
  "å¥½å¤Ħ": 11116,
  "èĢģå¤§": 11117,
  "è§Ĩè§ī": 11118,
  "çī©åĵģ": 11119,
  "èİ·åıĸ": 11120,
  "èĻļç©º": 11121,
  "æµªè´¹": 11122,
  "ä¿¡ä»»": 11123,
  "Ġæł¡": 11124,
  "Ġcollege": 11125,
  "Ġsem": 11126,
  "ĠCath": 11127,
  "Ġblock": 11128,
  "lo": 11129,
  "è¥¿å®ī": 11130,
  "Ġgovern": 11131,
  "åĲ«æľī": 11132,
  "ĠReview": 11133,
  "Ġmax": 11134,
  "ĠDemocr": 11135,
  "å¿ĺäºĨ": 11136,
  "rump": 11137,
  "å¥ĸåĬ±": 11138,
  "ĠSk": 11139,
  "Ġlimited": 11140,
  "Ġè±Ĩ": 11141,
  "çļĦæķ°æį®": 11142,
  "è®©æĪĳä»¬": 11143,
  "å¹¶æľª": 11144,
  "Ġroll": 11145,
  "What": 11146,
  "ĠæĲŃ": 11147,
  "Ġspread": 11148,
  "å¼ºåĮĸ": 11149,
  "æŁĲä¸ª": 11150,
  "ĠGoogle": 11151,
  "åħ±äº§åħļ": 11152,
  "ĠProgram": 11153,
  "æĿŃå·ŀ": 11154,
  "Ġserve": 11155,
  "ĠæĪĲéĥ½": 11156,
  "ette": 11157,
  "tty": 11158,
  "bu": 11159,
  "bre": 11160,
  "å¯¹æŃ¤": 11161,
  "Ad": 11162,
  "æĭ¿çĿĢ": 11163,
  "well": 11164,
  "no": 11165,
  "Ġitems": 11166,
  "Ġç§į": 11167,
  "tar": 11168,
  "å£¶": 11169,
  "æ¹ĸåĮĹ": 11170,
  "çĪ¸çĪ¸": 11171,
  "éĢīæīĭ": 11172,
  "æĹħè¡Į": 11173,
  "Ġdownload": 11174,
  "åĽ¾åĥı": 11175,
  "ĠæīĵçĶµè¯Ŀ": 11176,
  "çľģçº§": 11177,
  "ķæīĢ": 11178,
  "åı¸æ³ķ": 11179,
  "ĠRet": 11180,
  "ĠMel": 11181,
  "åĽłèĢĮ": 11182,
  "çļĦéģĵ": 11183,
  "åĬ¨äºĨ": 11184,
  "972": 11185,
  "Ġwrite": 11186,
  "973": 11187,
  "Ġè¡¨æĥħ": 11188,
  "åĲĦä½į": 11189,
  "åįķè¯į": 11190,
  "Ġearlier": 11191,
  "Ð³": 11192,
  "å¸ĮèħĬ": 11193,
  "Ġèº«è¾¹": 11194,
  "çĩĥçĥ§": 11195,
  "ĠCould": 11196,
  "Ġå¿ĥçĸ¼": 11197,
  "çĽ²": 11198,
  "ä¹ĭèī²": 11199,
  "åĲĳåīį": 11200,
  "Ġæľīä¸ª": 11201,
  "ĠTod": 11202,
  "ĠOpen": 11203,
  "Ġnothing": 11204,
  "é©¬åħĭ": 11205,
  "Ġå¤ļä¹ħ": 11206,
  "vedio": 11207,
  "log": 11208,
  "éľĩæĥĬ": 11209,
  "èļĢ": 11210,
  "Ġsen": 11211,
  "Ġattention": 11212,
  "ĠåŁİå¸Ĥ": 11213,
  "atre": 11214,
  "æĺ¯ä¸ŃåĽ½": 11215,
  "ĠRecords": 11216,
  "å®¡è®¡": 11217,
  "å®Ŀè´Ŀ": 11218,
  "æ¯ıä¸ªäºº": 11219,
  "CH": 11220,
  "ä¸ľäº¬": 11221,
  "ĠåĲĸ": 11222,
  "åŃĺåĤ¨": 11223,
  "ãģ®": 11224,
  "åİĨåı²ä¸Ĭ": 11225,
  "åľĨå½¢": 11226,
  "Ġexhib": 11227,
  "Ġremember": 11228,
  "åĽŀå½Ĵ": 11229,
  "Ġå¥½ä¸įå¥½": 11230,
  "west": 11231,
  "èĬ¦": 11232,
  "ga": 11233,
  "è®½": 11234,
  "ĠTime": 11235,
  "Ġå¯Ħ": 11236,
  "äº§çĶŁçļĦ": 11237,
  "åı¯ä»¥è¯´": 11238,
  "ä½¬": 11239,
  "Ġvan": 11240,
  "è§Ĥå¿µ": 11241,
  "Ġå¯¹è±¡": 11242,
  "Ġå®īåħ¨": 11243,
  "ç¼ĸåĪ¶": 11244,
  "çĶµè§Ĩåī§": 11245,
  "ĠCle": 11246,
  "Ġç»Ŀå¯¹": 11247,
  "ĠKingdom": 11248,
  "ĠLos": 11249,
  "å±±è¥¿": 11250,
  "antic": 11251,
  "Ġè¯Ħ": 11252,
  "å»ºæĪĲ": 11253,
  "Ġdeter": 11254,
  "åĨįåĬłä¸Ĭ": 11255,
  "é¥¶": 11256,
  "PA": 11257,
  "949": 11258,
  "ä¸ºæŃ¢": 11259,
  "çĶŁäºİ": 11260,
  "ION": 11261,
  "Ġhighly": 11262,
  "Ġlay": 11263,
  "å·¥åķĨ": 11264,
  "ĠåĸĦ": 11265,
  "Ġearn": 11266,
  "çīĩåĪ»": 11267,
  "å¯ŀ": 11268,
  "éħ¶": 11269,
  "ä¸įä¸ĭ": 11270,
  "è£ķ": 11271,
  "Ġç¬¬åĽĽèĬĤ": 11272,
  "ĠHot": 11273,
  "åĲĮå¿Ĺ": 11274,
  "ä½ĵåĪ¶": 11275,
  "ĠæĭĽ": 11276,
  "ç¤ºèĮĥ": 11277,
  "åĽ½åĬ¡": 11278,
  "ĠåĽ°": 11279,
  "ĠCare": 11280,
  "Ġä»ĭç»į": 11281,
  "éĿĴæĺ¥": 11282,
  "èĬ±åĽŃ": 11283,
  "Ġrecorded": 11284,
  "ä¸ĢçĽ´åľ¨": 11285,
  "åĬŁçİĩ": 11286,
  "ä¸Ĭåīį": 11287,
  "æĺ¾èĳĹ": 11288,
  "riving": 11289,
  "Ġetc": 11290,
  "éĻ¢éķ¿": 11291,
  "ĠFilm": 11292,
  "æģĲæĥ§": 11293,
  "ĠæĳĦ": 11294,
  "çľ¼éĩĮ": 11295,
  "oma": 11296,
  "ua": 11297,
  "è¯¾åłĤ": 11298,
  "ĠOb": 11299,
  "ĠEvery": 11300,
  "èº«åŃĲ": 11301,
  "çº§åĪ«": 11302,
  "çĤŃ": 11303,
  "Ġdegree": 11304,
  "Ġé¡¹": 11305,
  "è®¾å®ļ": 11306,
  "Ġdrug": 11307,
  "ena": 11308,
  "è®ºåĿĽ": 11309,
  "ä¸įæĿ¥": 11310,
  "å¸ĪåĤħ": 11311,
  "çħŀ": 11312,
  "èĦĤèĤª": 11313,
  "åħ»æ®ĸ": 11314,
  "ulations": 11315,
  "Ġæĭ¼": 11316,
  "ĠçĶ·çĶŁ": 11317,
  "ä¿¡å¿ĥ": 11318,
  "ĠæĢ¥": 11319,
  "ĠIN": 11320,
  "æĶ¶åĪ°": 11321,
  "åĴ½": 11322,
  "é¡¾éĹ®": 11323,
  "åĩŃåĢŁ": 11324,
  "æĪ¿å±ĭ": 11325,
  "åªļ": 11326,
  "å¼ķåıĳ": 11327,
  "pm": 11328,
  "ta": 11329,
  "éĢłåŀĭ": 11330,
  "ĠçĬ¶": 11331,
  "Ġå¦¹åŃĲ": 11332,
  "ĠæķĪæŀľ": 11333,
  "ä¸įä¸Ģæł·": 11334,
  "ç§įåŃĲ": 11335,
  "Ġåī©": 11336,
  "Ġå©ļ": 11337,
  "Ġä¸¾": 11338,
  "è°Ĭ": 11339,
  "Ġå±ŀ": 11340,
  "æ³Į": 11341,
  "åİļçļĦ": 11342,
  "ken": 11343,
  "åĨĪ": 11344,
  "å½¦": 11345,
  "ĠBre": 11346,
  "åŃ¦åİĨ": 11347,
  "çľĭäºĨçľĭ": 11348,
  "åĲįåįķ": 11349,
  "ä¼½": 11350,
  "åĸ»": 11351,
  "æµ·å¤ĸ": 11352,
  "é«ĺæķĪ": 11353,
  "Ġbud": 11354,
  "æĹ¥èµ·": 11355,
  "78": 11356,
  "Ġdress": 11357,
  "ä¼ļè¢«": 11358,
  "éĺ»æŃ¢": 11359,
  "æĿĥçļĦ": 11360,
  "ÐµÐ½": 11361,
  "Ġç£": 11362,
  "atively": 11363,
  "è¥¿éĥ¨": 11364,
  "ĠWood": 11365,
  "Ġå®¤": 11366,
  "åİ»ä¸ĸ": 11367,
  "æĽ´æľī": 11368,
  "ç½Ĳ": 11369,
  "ĠéŃĶ": 11370,
  "Ġé¢ľèī²": 11371,
  "nel": 11372,
  "This": 11373,
  "Ġlif": 11374,
  "å¾Īå®¹æĺĵ": 11375,
  "é¦¨": 11376,
  "åľ¨åľ°ä¸Ĭ": 11377,
  "Ġsch": 11378,
  "åĽĽå¹´": 11379,
  "Ġgoals": 11380,
  "Ġseven": 11381,
  "äºĶä¸ª": 11382,
  "enge": 11383,
  "åºĶå¯¹": 11384,
  "ĠCast": 11385,
  "ç¾¤ä½ĵ": 11386,
  "ä¸Ĭæ¬¡": 11387,
  "92": 11388,
  "é¢Ħç®Ĺ": 11389,
  "æĭ±": 11390,
  "æ³ķåĪĻ": 11391,
  "ĠçĨŁ": 11392,
  "Ġbur": 11393,
  "ĠæŁ¥": 11394,
  "æĹłè®ºæĺ¯": 11395,
  "250": 11396,
  "Ġæº": 11397,
  "ĠSil": 11398,
  "977": 11399,
  "æķ´åĲĪ": 11400,
  "ĠJose": 11401,
  "çĻ¾åº¦åľ°åĽ¾": 11402,
  "hire": 11403,
  "å¡Į": 11404,
  "ella": 11405,
  "Ġprogress": 11406,
  "td": 11407,
  "Ġple": 11408,
  "å±ĳ": 11409,
  "è¾¾åĪ°äºĨ": 11410,
  "ĠMinister": 11411,
  "åľºæīĢ": 11412,
  "è´ŀ": 11413,
  "ĠWestern": 11414,
  "ĠåĪ°æĹ¶åĢĻ": 11415,
  "åĩºèº«": 11416,
  "å°Ĭéĩį": 11417,
  "ĠAbout": 11418,
  "åħ¨éĥ½": 11419,
  "çĻ¾åĪĨ": 11420,
  "itely": 11421,
  "çŁ¥ä¹İ": 11422,
  "known": 11423,
  "new": 11424,
  "olk": 11425,
  "Ġåħ·": 11426,
  "Ġcivil": 11427,
  "äºĨä¸¤": 11428,
  "Ġfarm": 11429,
  "Ġbackground": 11430,
  "Ġcontain": 11431,
  "974": 11432,
  "åĴĮä»ĸ": 11433,
  "ä»İæŃ¤": 11434,
  "ĠWork": 11435,
  "ä½įçļĦ": 11436,
  "road": 11437,
  "Ġwarm": 11438,
  "çĳ°": 11439,
  "å¦ĩå¥³": 11440,
  "where": 11441,
  "Ġéº»çĥ¦": 11442,
  "ãĢĤãĢĤãĢĤ": 11443,
  "GA": 11444,
  "ĠFrancis": 11445,
  "è½¨éģĵ": 11446,
  "å¥½å¤ļ": 11447,
  "Ġç§ĭ": 11448,
  "éĻĢ": 11449,
  "dis": 11450,
  "Ġdire": 11451,
  "Ġjournal": 11452,
  "Ġfeed": 11453,
  "å¯¹æĬĹ": 11454,
  "æ±Łè¥¿": 11455,
  "è¡«": 11456,
  "Ġpatients": 11457,
  "Ġparticularly": 11458,
  "mary": 11459,
  "Ġeffective": 11460,
  "Ġæİ§": 11461,
  "è¸©": 11462,
  "å¹³æĸ¹åįĥç±³": 11463,
  "åıĳèĤ²": 11464,
  "æķĪåºĶ": 11465,
  "çº¦ç¿°": 11466,
  "Ġsett": 11467,
  "ĠåĲĹæĪĳ": 11468,
  "Ġforce": 11469,
  "çħ§é¡¾": 11470,
  "DR": 11471,
  "Ġactive": 11472,
  "å°±å¥½": 11473,
  "ĠAcademy": 11474,
  "LE": 11475,
  "äºĭåĦ¿": 11476,
  "ĠåĩºçīĪæĹ¶éĹ´": 11477,
  "http": 11478,
  "ĠParis": 11479,
  "enty": 11480,
  "Ġçĭ¬": 11481,
  "Ġindic": 11482,
  "Ġå¿ĺè®°": 11483,
  "Ġè¡Ģ": 11484,
  "ĠåĲ¸": 11485,
  "åĸĥ": 11486,
  "æ¸´": 11487,
  "ĠCommission": 11488,
  "____": 11489,
  "Ġçľģ": 11490,
  "uments": 11491,
  "æ°´çļĦ": 11492,
  "ĠGovernment": 11493,
  "ĠTur": 11494,
  "çŃīçĿĢ": 11495,
  "fortun": 11496,
  "èĨĿ": 11497,
  "Ġessential": 11498,
  "æµĳèº«": 11499,
  "å¿ĥèĦı": 11500,
  "more": 11501,
  "ĠFriday": 11502,
  "çģµæ´»": 11503,
  "çĽ¸ä¼¼": 11504,
  "Ġstatement": 11505,
  "ĠBrown": 11506,
  "ĠéĹ¹": 11507,
  "och": 11508,
  "top": 11509,
  "çļĦåŃ¦çĶŁ": 11510,
  "à¸": 11511,
  "èº«ä¸º": 11512,
  "èĻĲ": 11513,
  "å°ī": 11514,
  "unction": 11515,
  "Ġstructure": 11516,
  "ĠChicago": 11517,
  "Ġhelps": 11518,
  "ĠMass": 11519,
  "Ġones": 11520,
  "itude": 11521,
  "Ġæĭįçħ§": 11522,
  "æĸ½å±ķ": 11523,
  "Ġç¬¬ä¹Ŀ": 11524,
  "Ġassociated": 11525,
  "äºĨåı£æ°Ķ": 11526,
  "åħ¬æĸ¤": 11527,
  "ç»ĵè®º": 11528,
  "åħ³èĬĤ": 11529,
  "wide": 11530,
  "æĸ¯çļĦ": 11531,
  "Ġisn": 11532,
  "Ġblue": 11533,
  "ıè§Ī": 11534,
  "Ġanalysis": 11535,
  "mond": 11536,
  "ulture": 11537,
  "ĠæĿĢ": 11538,
  "968": 11539,
  "box": 11540,
  "æ¯«ä¸į": 11541,
  "é»Ħèī²": 11542,
  "åĪĿæľŁ": 11543,
  "Ġcollect": 11544,
  "æ¬£èµı": 11545,
  "68": 11546,
  "ä½ĽæķĻ": 11547,
  "äºĨå¾Īå¤ļ": 11548,
  "ĦåĤ²": 11549,
  "ĠçĪ¶": 11550,
  "ĠBig": 11551,
  "Ġçº¯": 11552,
  "Ġelements": 11553,
  "çļĦä¸ĸçķĮ": 11554,
  "ĠæĦŁåıĹ": 11555,
  "æĽ´å¥½çļĦ": 11556,
  "èªĵ": 11557,
  "reme": 11558,
  "imal": 11559,
  "Ġ%": 11560,
  "åĸī": 11561,
  "hens": 11562,
  "çŁ³å¤´": 11563,
  "ĠHel": 11564,
  "éĤ£ä¹Īå¤ļ": 11565,
  "å°±æĬĬ": 11566,
  "Ġregister": 11567,
  "åĪĨè¾¨": 11568,
  "Ġalone": 11569,
  "åı¸é©¬": 11570,
  "éĶ»çĤ¼": 11571,
  "è£Ķ": 11572,
  "ä¸Ģä»£": 11573,
  "èĲ½åľ¨": 11574,
  "ä½łæĢİä¹Ī": 11575,
  "Ġannual": 11576,
  "ĠåŃ¤": 11577,
  "aught": 11578,
  "é¡¾å®¢": 11579,
  "ĠèĬĤçĽ®": 11580,
  "}.": 11581,
  "å´Ķ": 11582,
  "ĠChild": 11583,
  "ervation": 11584,
  "çļĦç²¾": 11585,
  "Ġä¸Ģåıª": 11586,
  "Ġèĭ¦": 11587,
  "æį®è¯´": 11588,
  "ronic": 11589,
  "ĠçĶŁå¹³": 11590,
  "place": 11591,
  "ech": 11592,
  "ria": 11593,
  "list": 11594,
  "åĸľæ¬¢çļĦ": 11595,
  "Ġdrive": 11596,
  "Ġstring": 11597,
  "Ġepisode": 11598,
  "Ġimages": 11599,
  "äººä¸º": 11600,
  "Ġult": 11601,
  "Ġready": 11602,
  "ä¹Łéĥ½": 11603,
  "Ġæķ´ä¸ª": 11604,
  "writ": 11605,
  "Ġåı¯æĢķ": 11606,
  "èĨı": 11607,
  "ä¸įç®Ĺ": 11608,
  "51": 11609,
  "ç¬¬äºĮæ¬¡": 11610,
  "itable": 11611,
  "å¸ĥå±Ģ": 11612,
  "Ġapprox": 11613,
  "Ġgrand": 11614,
  "æ±ŁåįĹ": 11615,
  "åīįè¾Ī": 11616,
  "ĠçĹĽ": 11617,
  "è®¼": 11618,
  "åĲĪæĪĲ": 11619,
  "Ġopin": 11620,
  "Ġhusband": 11621,
  "æ¤İ": 11622,
  "æķħéļľ": 11623,
  "æĢ»ä½ĵ": 11624,
  "çŁ³æ²¹": 11625,
  "å¤§åŃ¦çĶŁ": 11626,
  "ola": 11627,
  "çļĦæĬĢæľ¯": 11628,
  "åĮª": 11629,
  "æ·±åº¦": 11630,
  "å®īéĿĻ": 11631,
  "Ġstarting": 11632,
  "ĠäºĨåĵĪåĵĪ": 11633,
  "å¸®å¿Ļ": 11634,
  "Ġcounty": 11635,
  "å®īå¾½": 11636,
  "åľ¨çº¿": 11637,
  "ba": 11638,
  "ĠéĢł": 11639,
  "Ġsyn": 11640,
  "Ġweight": 11641,
  "ç®Ĺæ³ķ": 11642,
  "ä¸Ģçķª": 11643,
  "ä¸Ĭæľī": 11644,
  "Ġequipment": 11645,
  "æĿĢäºº": 11646,
  "Ġwriter": 11647,
  "ĠçĪ¬": 11648,
  "anced": 11649,
  "åŀĭåı·": 11650,
  "ashion": 11651,
  "èµļéĴ±": 11652,
  "åİ»å¹´": 11653,
  "åĲµ": 11654,
  "Ġtrade": 11655,
  "Ġwest": 11656,
  "Ġæ®µ": 11657,
  "ĠIts": 11658,
  "Ġdram": 11659,
  "ĠFlorida": 11660,
  "è¾ĥä¸º": 11661,
  "ç¦»å¼ĢäºĨ": 11662,
  "ĠSpan": 11663,
  "æ¡Ĩæŀ¶": 11664,
  "èĮħ": 11665,
  "ĠåĲ´": 11666,
  "æĿĢæŃ»": 11667,
  "éĢıè¿ĩ": 11668,
  "ä¸įå¥½æĦıæĢĿ": 11669,
  "Ġdie": 11670,
  "èĤĨ": 11671,
  "Ġseek": 11672,
  "æĪĳçŁ¥éģĵ": 11673,
  "åĲĦé¡¹": 11674,
  "Ġtools": 11675,
  "æĴ¼": 11676,
  "åİŁæĸĻ": 11677,
  "Ġcouple": 11678,
  "Ġéħ¸": 11679,
  "æľĢåĲİä¸Ģ": 11680,
  "Ġè¯´æĺİ": 11681,
  "çĥŃæĥħ": 11682,
  "èµĽäºĭ": 11683,
  "éĺ²å®Ī": 11684,
  "riate": 11685,
  "ĠéĤ£æł·": 11686,
  "km": 11687,
  "é¦Ī": 11688,
  "Ġenter": 11689,
  "ustr": 11690,
  "Ġslow": 11691,
  "Ġå¾·": 11692,
  "Ġsust": 11693,
  "ĠæľīæĹ¶åĢĻ": 11694,
  "Ġpen": 11695,
  "ä¼ĺçĤ¹": 11696,
  "Ġbenefits": 11697,
  "ĠæģŃ": 11698,
  "Ġyourself": 11699,
  "ÑĨ": 11700,
  "Ġç½ĳç»ľ": 11701,
  "åĴĮåħ¶ä»ĸ": 11702,
  "Ġä»¥ä¸Ĭ": 11703,
  "Ġpred": 11704,
  "ĠIsrael": 11705,
  "ĠSu": 11706,
  "çĿ¿": 11707,
  "å¥¸": 11708,
  "ä¸įéĶĻçļĦ": 11709,
  "ĠAtt": 11710,
  "Ġlack": 11711,
  "Ġaccom": 11712,
  "Ġcateg": 11713,
  "Ġallowed": 11714,
  "åĽĽå¤§": 11715,
  "idge": 11716,
  "æıĲç¤º": 11717,
  "åįģä¸Ģç«ł": 11718,
  "Ġinterested": 11719,
  "Ġå¤´åĥı": 11720,
  "ĠæıĲåīį": 11721,
  "soft": 11722,
  "ĠNov": 11723,
  "ä¸ĢåįĬ": 11724,
  "æĶ¶èİ·": 11725,
  "çļĦåħī": 11726,
  "ä¾£": 11727,
  "åĩłåįģ": 11728,
  "æĳĩäºĨ": 11729,
  "Ġå¯Į": 11730,
  "Ġexperiences": 11731,
  "ä¿Ŀåģ¥": 11732,
  "åįķçº¯": 11733,
  "ä»ĬæĻļ": 11734,
  "è´µæĹı": 11735,
  "èľĢ": 11736,
  "å¤ıå¤©": 11737,
  "Ġä¹ĸ": 11738,
  "è¿ĻçĤ¹": 11739,
  "ĠæĲ¬": 11740,
  "èįĨ": 11741,
  "è¥": 11742,
  "Ġåħį": 11743,
  "äººæ°ĳå¸ģ": 11744,
  "åĩºäºĨä¸Ģ": 11745,
  "è£ħä¿®": 11746,
  "Ġingredients": 11747,
  "çľ¯": 11748,
  "ĠSocial": 11749,
  "èķ¾": 11750,
  "ĮåŃĲ": 11751,
  "Ġstra": 11752,
  "å¾®ç¬ĳ": 11753,
  "åĸĺ": 11754,
  "ĠçĶŁæĹ¥å¿«ä¹Ĳ": 11755,
  "æģŃåĸľ": 11756,
  "çļĦå¤ļ": 11757,
  "971": 11758,
  "Ġbehav": 11759,
  "Ġçīĩ": 11760,
  "æ²«": 11761,
  "ä»İå°ı": 11762,
  "ĠDirector": 11763,
  "Ġeast": 11764,
  "å¾Ĺå¾Ī": 11765,
  "çĪ·çĪ·": 11766,
  "lick": 11767,
  "ounds": 11768,
  "è¿Ļä»¶": 11769,
  "ĠçĽ´æĴŃ": 11770,
  "Ġèµļ": 11771,
  "Ġcarry": 11772,
  "é²ľè¡Ģ": 11773,
  "ä¼łå¥ĩ": 11774,
  "Ġdescript": 11775,
  "Ġanyone": 11776,
  "Ġ500": 11777,
  "éĺ¿æĭī": 11778,
  "çĭŃ": 11779,
  "ĠéĤ£å¤©": 11780,
  "æıĲåĪ°": 11781,
  "âĶ": 11782,
  "è¿Ľåı£": 11783,
  "è¿ĲåĬ¨åĳĺ": 11784,
  "èĦļæŃ¥": 11785,
  "Ġçĳ": 11786,
  "Ġhighest": 11787,
  "é¢ĳéģĵ": 11788,
  "asket": 11789,
  "èĪ±": 11790,
  "å¯¹æĪĳ": 11791,
  "958": 11792,
  "Ġmorning": 11793,
  "ĠæĶ¾å¼ĥ": 11794,
  "çļĦèº«ä½ĵ": 11795,
  "çŃīäºİ": 11796,
  "969": 11797,
  "Ġbeginning": 11798,
  "Ġcopy": 11799,
  "ĺħ": 11800,
  "ç¼ĸçłģ": 11801,
  "å°´å°¬": 11802,
  "Ġwa": 11803,
  "çĶ±æŃ¤": 11804,
  "ĠåıĺæĪĲ": 11805,
  "åĬŀäºĭ": 11806,
  "Ġleader": 11807,
  "ĠTrump": 11808,
  "ç¬ĳäºĨç¬ĳ": 11809,
  "Ġä¸įå¥½æĦıæĢĿ": 11810,
  "920": 11811,
  "vant": 11812,
  "ĠCommit": 11813,
  "azz": 11814,
  "ä¸»æķĻ": 11815,
  "èĢĥæł¸": 11816,
  "çļĦè¿ĩç¨ĭ": 11817,
  "52": 11818,
  "ĠåĿĳ": 11819,
  "åıĳè¾¾": 11820,
  "è¿ĻæĿ¡": 11821,
  "çĸ¼çĹĽ": 11822,
  "Ġç¬¬äºĮç«ł": 11823,
  "çļĩå®¶": 11824,
  "ä¼¦æķ¦": 11825,
  "éī´å®ļ": 11826,
  "Ġfirm": 11827,
  "äºĶåįģ": 11828,
  "ĠåŃ¦ä¹ł": 11829,
  "åĬĪ": 11830,
  "iverse": 11831,
  "Ġmovement": 11832,
  "ician": 11833,
  "åįķçĭ¬": 11834,
  "æĲı": 11835,
  "åĬłåĿ¡": 11836,
  "Ġcentral": 11837,
  "Ġcompl": 11838,
  "åľ°çĤ¹": 11839,
  "æİĪäºĪ": 11840,
  "ä¸¤ä¸ªäºº": 11841,
  "æī©å±ķ": 11842,
  "Ġeffects": 11843,
  "class": 11844,
  "èĶ¬èıľ": 11845,
  "Ġå±ıå¹ķ": 11846,
  "æĺ¯ä½ł": 11847,
  "Ġsurface": 11848,
  "åľ¨éĤ£": 11849,
  "åľ¨ç¾İåĽ½": 11850,
  "rd": 11851,
  "state": 11852,
  "ĠOld": 11853,
  "å°ĨæĿ¥": 11854,
  "ĠBank": 11855,
  "ä¸Ģçº§": 11856,
  "åħ¥åı£": 11857,
  "äº¤ç»Ļ": 11858,
  "ĠÂ£": 11859,
  "éĩĮéĿ¢çļĦ": 11860,
  "åĻĹ": 11861,
  "Ġè¿Ļä¸Ģ": 11862,
  "Ġobtain": 11863,
  "ä¸įæĢķ": 11864,
  "æº¢": 11865,
  "å¹²ä»Ģä¹Ī": 11866,
  "éĢĤå½ĵ": 11867,
  "çģ¿": 11868,
  "ä½ľçī©": 11869,
  "Ġæ¬º": 11870,
  "iant": 11871,
  "è¯´è¿ĩ": 11872,
  "Ġoffered": 11873,
  "é¢ł": 11874,
  "ĠåĹ¨": 11875,
  "éĢĽ": 11876,
  "ä¸ĬçıŃ": 11877,
  "igan": 11878,
  "ºåŃĲ": 11879,
  "éĻ·åħ¥": 11880,
  "é¢ĨåħĪ": 11881,
  "Ġeffic": 11882,
  "Ġlooks": 11883,
  "Ġspent": 11884,
  "åĲİèĢħ": 11885,
  "ä¹¦ç±į": 11886,
  "PR": 11887,
  "ĠèĦ±": 11888,
  "ĠéŁ³ä¹Ĳ": 11889,
  "Ġéŀĭ": 11890,
  "Le": 11891,
  "å®¢è§Ĥ": 11892,
  "åĻª": 11893,
  "ĠSunday": 11894,
  "åį«æĺŁ": 11895,
  "çļĦäººçī©": 11896,
  "Ġ70": 11897,
  "å¤§å®¶éĥ½": 11898,
  "OC": 11899,
  "ä¸Ģä¸ªå°ı": 11900,
  "ĠMarket": 11901,
  "Ġç»ĵæĿŁ": 11902,
  "å½ĵæĹ¶çļĦ": 11903,
  "Ġexpand": 11904,
  "DA": 11905,
  "çļĦè¯´éģĵ": 11906,
  "æįŀ": 11907,
  "ĠPop": 11908,
  "Ġserious": 11909,
  "Ġæĭħå¿ĥ": 11910,
  "åŁİéķĩ": 11911,
  "çĲª": 11912,
  "æĦŁåħ´è¶£": 11913,
  "Ġäºİæĺ¯": 11914,
  "èī¯å¥½": 11915,
  "Ġformed": 11916,
  "å¯¹è¯Ŀ": 11917,
  "Ġdeaths": 11918,
  "çĶ©": 11919,
  "Ġclick": 11920,
  "itiz": 11921,
  "èĢĥå¯Ł": 11922,
  "éĨĭ": 11923,
  "ä¸Ģæĸ¹éĿ¢": 11924,
  "è¯·æ±Ĥ": 11925,
  "çļĦåĪĨ": 11926,
  "940": 11927,
  "alse": 11928,
  "ä¹¡æĿĳ": 11929,
  "gu": 11930,
  "åĢ¡": 11931,
  "ĠSatur": 11932,
  "æĿ¥æºĲäºİ": 11933,
  "ç¦ģæŃ¢": 11934,
  "ref": 11935,
  "å§ļ": 11936,
  "åĬłå¿«": 11937,
  "Ġselect": 11938,
  "éĺ²æ²»": 11939,
  "åľ¨å®¶": 11940,
  "å´ĸ": 11941,
  "æ¶©": 11942,
  "ache": 11943,
  "å¾Īå¥½çļĦ": 11944,
  "æ¨±": 11945,
  "Ġinform": 11946,
  "å¾ĹçŁ¥": 11947,
  "Ġthreat": 11948,
  "Ġæķ¬": 11949,
  "ä¸ĢåĬ¨": 11950,
  "è¯´æ³ķ": 11951,
  "åĬłæĭ¿å¤§": 11952,
  "æ±Łæ¹ĸ": 11953,
  "icken": 11954,
  "Ġappl": 11955,
  "éĿ¢èī²": 11956,
  "Ġfounded": 11957,
  "Ġnote": 11958,
  "Ġgoes": 11959,
  "ç»ĵå±Ģ": 11960,
[...]
