{"<unk>":0,"<|endoftext|>":1,"<|im_start|>":2,"<|im_end|>":3,"<|think|>":4,"<|/think|>":5,"!":6,"\"":7,"#":8,"$":9,"%":10,"&":11,"'":12,"(":13,")":14,"*":15,"+":16,",":17,"-":18,".":19,"/":20,"0":21,"1":22,"2":23,"3":24,"4":25,"5":26,"6":27,"7":28,"8":29,"9":30,":":31,";":32,"<":33,"=":34,">":35,"?":36,"@":37,"A":38,"B":39,"C":40,"D":41,"E":42,"F":43,"G":44,"H":45,"I":46,"J":47,"K":48,"L":49,"M":50,"N":51,"O":52,"P":53,"Q":54,"R":55,"S":56,"T":57,"U":58,"V":59,"W":60,"X":61,"Y":62,"Z":63,"[":64,"\\":65,"]":66,"^":67,"_":68,"`":69,"a":70,"b":71,"c":72,"d":73,"e":74,"f":75,"g":76,"h":77,"i":78,"j":79,"k":80,"l":81,"m":82,"n":83,"o":84,"p":85,"q":86,"r":87,"s":88,"t":89,"u":90,"v":91,"w":92,"x":93,"y":94,"z":95,"{":96,"|":97,"}":98,"~":99,"¡":100,"¢":101,"£":102,"¤":103,"¥":104,"¦":105,"§":106,"¨":107,"©":108,"ª":109,"«":110,"¬":111,"®":112,"¯":113,"°":114,"±":115,"²":116,"³":117,"´":118,"µ":119,"¶":120,"·":121,"¸":122,"¹":123,"º":124,"»":125,"¼":126,"½":127,"¾":128,"¿":129,"À":130,"Á":131,"Â":132,"Ã":133,"Ä":134,"Å":135,"Æ":136,"Ç":137,"È":138,"É":139,"Ê":140,"Ë":141,"Ì":142,"Í":143,"Î":144,"Ï":145,"Ð":146,"Ñ":147,"Ò":148,"Ó":149,"Ô":150,"Õ":151,"Ö":152,"×":153,"Ø":154,"Ù":155,"Ú":156,"Û":157,"Ü":158,"Ý":159,"Þ":160,"ß":161,"à":162,"á":163,"â":164,"ã":165,"ä":166,"å":167,"æ":168,"ç":169,"è":170,"é":171,"ê":172,"ë":173,"ì":174,"í":175,"î":176,"ï":177,"ð":178,"ñ":179,"ò":180,"ó":181,"ô":182,"õ":183,"ö":184,"÷":185,"ø":186,"ù":187,"ú":188,"û":189,"ü":190,"ý":191,"þ":192,"ÿ":193,"Ā":194,"ā":195,"Ă":196,"ă":197,"Ą":198,"ą":199,"Ć":200,"ć":201,"Ĉ":202,"ĉ":203,"Ċ":204,"ċ":205,"Č":206,"č":207,"Ď":208,"ď":209,"Đ":210,"đ":211,"Ē":212,"ē":213,"Ĕ":214,"ĕ":215,"Ė":216,"ė":217,"Ę":218,"ę":219,"Ě":220,"ě":221,"Ĝ":222,"ĝ":223,"Ğ":224,"ğ":225,"Ġ":226,"ġ":227,"Ģ":228,"ģ":229,"Ĥ":230,"ĥ":231,"Ħ":232,"ħ":233,"Ĩ":234,"ĩ":235,"Ī":236,"ī":237,"Ĭ":238,"ĭ":239,"Į":240,"į":241,"İ":242,"ı":243,"Ĳ":244,"ĳ":245,"Ĵ":246,"ĵ":247,"Ķ":248,"ķ":249,"ĸ":250,"Ĺ":251,"ĺ":252,"Ļ":253,"ļ":254,"Ľ":255,"ľ":256,"Ŀ":257,"ŀ":258,"Ł":259,"ł":260,"Ń":261,"ä¸":262,"Ġt":263,"Ġa":264,"in":265,"he":266,"er":267,"ãĢ":268,"on":269,"çļ":270,"çļĦ":271,"äº":272,"re":273,"Ġthe":274,"Ġs":275,"or":276,"at":277,"en":278,"an":279,"Ġw":280,"Ġo":281,"ãĢĤ":282,"es":283,"it":284,"Ġc":285,"is":286,"ä»":287,"æľ":288,"åı":289,"ed":290,"å¤":291,"Ġf":292,"al":293,"nd":294,"ar":295,"Ġp":296,"ing":297,"åħ":298,"Ġb":299,"ou":300,"è¿":301,"Ġof":302,"Ġin":303,"æĺ":304,"Ġand":305,"ä½":306,"ic":307,"Ġm":308,"åĪ":309,"Ġto":310,"åĲ":311,"ä¹":312,"åľ":313,"å®":314,"as":315,"ion":316,"Ġd":317,"âĢ":318,"le":319,"ä¸Ģ":320,"æĪ":321,"æĺ¯":322,"å°":323,"om":324,"Ġh":325,"çĶ":326,"äºĨ":327,"ĠT":328,"ç»":329,"è¯":330,"åĽ":331,"æĹ":332,"il":333,"ĠS":334,"ent":335,"å¹":336,"ä¸į":337,"åį":338,"åĬ":339,"æĿ":340,"ãĢģ":341,"ĠA":342,"åŃ":343,"ĠC":344,"æĸ":345,"ro":346,"Ġth":347,"el":348,"st":349,"Ġl":350,"ä¼":351,"åľ¨":352,"Ġre":353,"æľī":354,"ĠI":355,"äºº":356,"æī":357,"ct":358,"et":359,"Ġn":360,"åĩ":361,"è®":362,"åĨ":363,"Ġe":364,"å¾":365,"ol":366,"å¼":367,"am":368,"å·":369,"Ġ1":370,"ĠM":371,"éĩ":372,"id":373,"Ġg":374,"èĢ":375,"å¸":376,"å¥":377,"ve":378,"ur":379,"ut":380,"è¿Ļ":381,"ot":382,"ad":383,"Ġfor":384,"ä¸Ń":385,"Ġis":386,"ĥ½":387,"..":388,"ĠB":389,"ch":390,"å¤§":391,"Ġon":392,"ĠP":393,"us":394,"åº":395,"ation":396,"ow":397,"ig":398,"ay":399,"im":400,"ä¸º":401,"ly":402,"ver":403,"ce":404,"æķ":405,"å¯":406,"Ġy":407,"Ġ2":408,"ä¸ª":409,"æĢ":410,"å¹´":411,"åĮ":412,"æĪĳ":413,"èµ":414,"åİ":415,"Ġbe":416,"æŃ":417,"è¡":418,"éĢ":419,"Ġ(":420,"åĴ":421,"çİ":422,"ç§":423,"çľ":424,"çĽ":425,"ĠThe":426,"è§":427,"âĢľ":428,"âĢĿ":429,"çī":430,"ir":431,"ĠH":432,"å¿":433,"æ²":434,"æł":435,"ith":436,"Ġst":437,"ä»ĸ":438,"éĹ":439,"ter":440,"èĩ":441,"ĠR":442,"å±":443,"00":444,"åĴĮ":445,"æĿ¥":446,"ĠD":447,"ä¸Ĭ":448,"å½":449,"ĠW":450,"æ°":451,"æĬ":452,"éģ":453,"æĶ":454,"ĠF":455,"ra":456,"Ġwith":457,"un":458,"åĳ":459,"åĽ½":460,"çº":461,"éĿ":462,"ä»¥":463,"ul":464,"æĹ¶":465,"Ġthat":466,"Ġyou":467,"éĻ":468,"åĪ°":469,"ĠL":470,"åĩº":471,"åĵ":472,"æ³":473,"Ġas":474,"è´":475,"her":476,"æĥ":477,"å°±":478,"¦ģ":479,"æŀ":480,"ä¼ļ":481,"'s":482,"se":483,"åŃ¦":484,"Ġal":485,"è¦ģ":486,"ers":487,"Ġan":488,"ge":489,"ĠN":490,"ä½ł":491,"ĠE":492,"Ġit":493,"ĠG":494,"æĭ":495,"Ġwas":496,"ç¬":497,"åľ°":498,"æµ":499,"ç«":500,"çĶŁ":501,"if":502,"åĲİ":503,"ist":504,"ä¹Ł":505,"est":506,"Ġwh":507,"è¾":508,"and":509,"em":510,"åī":511,"éģĵ":512,"æİ":513,"åı¯":514,"èĥ½":515,"éĺ":516,"Ġpro":517,"ri":518,"ill":519,"th":520,"ä¿":521,"ä¹ĭ":522,"äºİ":523,"Ġcon":524,"ac":525,"um":526,"æ¯":527,"çĲ":528,"op":529,"od":530,"ä¸ĭ":531,"çĿ":532,"Ġhe":533,"è½":534,"åŃĲ":535,"çĶ¨":536,"æĪĲ":537,"rom":538,"çŃ":539,"å¯¹":540,"éĤ":541,"ab":542,"Ġ\"":543,"ä»¬":544,"åıĳ":545,"Ġor":546,"Ġat":547,"ate":548,"èĩª":549,"å¦":550,"Ġcom":551,"è¿ĩ":552,"æĦ":553,"Ġare":554,"Ġv":555,"ä½ľ":556,"ĠO":557,"ess":558,"ew":559,"è¯´":560,"pp":561,"åŁ":562,"Ġde":563,"ak":564,"ity":565,"ore":566,"ĠJ":567,"Ġby":568,"å¤ļ":569,"oc":570,"çĦ":571,"å®¶":572,"æĮ":573,"éĥ½":574,"é¢":575,"os":576,"å¤©":577,"res":578,"ld":579,"è¡Į":580,"çĿĢ":581,"igh":582,"ç®":583,"ort":584,"ment":585,"èĢĮ":586,"qu":587,"æĸ¹":588,"æ¸":589,"éķ":590,"çĤ":591,"å¥½":592,"ä¹Ī":593,"çĦ¶":594,"Ġfrom":595,"ies":596,"Ġse":597,"ain":598,"éĥ":599,"å¾Ĺ":600,"çŁ":601,"éĤ£":602,"01":603,"æ´":604,"ç¬¬":605,"Ġex":606,"art":607,"è·":608,"iv":609,"ä¾":610,"Ġ,":611,"æ¬":612,"ant":613,"åĪĨ":614,"æ²¡":615,"å°ı":616,"çİ°":617,"éĿ¢":618,"æ³ķ":619,"è¿ĺ":620,"ä¸İ":621,"å¼Ģ":622,"èĤ":623,"ç»ı":624,"Ġha":625,"Ġsu":626,"æ±":627,"ä¸ļ":628,"pe":629,"æľ¬":630,"Ġr":631,"å¿ĥ":632,"æĽ":633,"åĬ¨":634,"çľĭ":635,"çĲĨ":636,"ç½":637,"ä¸»":638,"åħ¶":639,"all":640,"éĩĮ":641,"ud":642,"ĠU":643,"åĬĽ":644,"ive":645,"ĠIn":646,"éĽ":647,"ard":648,"èī":649,"è°":650,"end":651,"é«":652,"Ġch":653,"åħ¬":654,"è¢":655,"æľĪ":656,"å§":657,"äºĭ":658,"æĹ¥":659,"å£":660,"é«ĺ":661,"ust":662,"é£":663,"ç¥":664,"éĥ¨":665,"our":666,"çŃī":667,"ag":668,"nt":669,"åİ»":670,"ear":671,"æīĢ":672,"åīį":673,"åĢ":674,"å¦Ĥ":675,"ç©":676,"ĠâĢľ":677,"ial":678,"åģ":679,"æĻ":680,"å·¥":681,"åķ":682,"èĭ":683,"ç¾":684,"éķ¿":685,"Ġsh":686,"ä¸ī":687,"å®ļ":688,"éļ":689,"éĹ´":690,"ĠK":691,"ight":692,"è¿Ľ":693,"èĬ":694,"çĻ":695,"ä½ĵ":696,"ĠSt":697,"ä¸Ģä¸ª":698,"èµ·":699,"é¡":700,"Ġhave":701,"ure":702,"å®ŀ":703,"og":704,"ell":705,"åĲĮ":706,"åĿ":707,"Ġpl":708,"æģ":709,"æľĢ":710,"Ġk":711,"æĸĩ":712,"Ġu":713,"èº":714,"Ġus":715,"ine":716,"out":717,"Ġnot":718,"Ġle":719,"çĤ¹":720,"æīĭ":721,"ber":722,"....":723,"åħ¨":724,"ast":725,"pt":726,"ich":727,"æľº":728,"ok":729,"age":730,"ost":731,"ction":732,"ãĢĭ":733,"ãĢĬ":734,"ia":735,"rou":736,"Ġcan":737,"Ġwe":738,"Ġthis":739,"åĲį":740,"æĹł":741,"åĨħ":742,"è¶":743,"ome":744,"è¢«":745,"çķ":746,"çģ":747,"å»":748,"ç§į":749,"gh":750,"ip":751,"ç±":752,"æĥ³":753,"ç¨":754,"æı":755,"per":756,"èº«":757,"å½ĵ":758,"åįģ":759,"åĮĸ":760,"èĢħ":761,"ide":762,"æĢ§":763,"Ġwor":764,"çł":765,"ä½Ĩ":766,"Ġab":767,"are":768,"ĠçļĦ":769,"ated":770,"èģ":771,"äºĽ":772,"èĪ":773,"åıª":774,"Ġ3":775,"çĶµ":776,"ä½į":777,"ç¤":778,"éĩį":779,"äºĮ":780,"ong":781,"ĠV":782,"çĪ":783,"ãĢĤâĢĿ":784,"åĲĪ":785,"å°Ĩ":786,"èĦ":787,"ian":788,"ould":789,"åıĬ":790,"ç³":791,"åħ¥":792,"çī©":793,"æĸ°":794,"æĦı":795,"ame":796,"èĲ":797,"Ġhas":798,"åĬł":799,"æķĻ":800,"ire":801,"å¤ĸ":802,"å¹¶":803,"æį":804,"èĥ":805,"ff":806,"æŃ¤":807,"ry":808,"ie":809,"ĠTh":810,"ack":811,"Ġhis":812,"ary":813,"åº¦":814,"æĥħ":815,"å¾Ī":816,"å¤´":817,"ub":818,"ect":819,"åĽł":820,"æĺİ":821,"Ġj":822,"åĮº":823,"pl":824,"ice":825,"æķ°":826,"ical":827,"),":828,"orm":829,"åĪ¶":830,"å¸Ĥ":831,"äº§":832,"ĠCh":833,"æ°´":834,"éĢļ":835,"ä¸¤":836,"¥¿":837,"cc":838,"çŁ¥":839,"æł·":840,"éĶ":841,"ther":842,"æ²¡æľī":843,"åħ³":844,"iz":845,"so":846,"ere":847,"çī¹":848,"æ¬¡":849,"Ġad":850,"è¥¿":851,"ue":852,"å·±":853,"éĩı":854,"ä»İ":855,"ap":856,"ass":857,"é¦":858,"Ġcomp":859,"éľ":860,"Ġyour":861,"å·²":862,"cl":863,"Ġall":864,"å¢":865,"ĠæĪĳ":866,"æŁ":867,"å»º":868,"Ġwill":869,"Ġwhe":870,"èĩªå·±":871,"åĨĽ":872,"âĢĵ":873,"ç¼":874,"æŃ£":875,":âĢľ":876,"ik":877,"é©":878,"av":879,"åºĶ":880,"ĠY":881,"åĵģ":882,"Ġcl":883,"æ¶":884,"ous":885,"æ°Ķ":886,"âĢĶ":887,"fer":888,"Ġen":889,"ç´":890,"è®¾":891,"ord":892,"Ġun":893,"èį":894,"é»":895,"æ°ĳ":896,"å¹³":897,"çĽ¸":898,"ç¾İ":899,"ans":900,"åľº":901,"ind":902,"æ¯Ķ":903,"çĥ":904,"ç³»":905,"ç¥ŀ":906,"æ·":907,"ĠRe":908,"æĪĺ":909,"Ġtheir":910,"ä»£":911,"Ġwhich":912,"Ġbut":913,"99":914,"ä¸ľ":915,"Ġ-":916,"åı£":917,"ĠäºĨ":918,"Ġne":919,"able":920,"Ġcont":921,"çĽ®":922,"åĸ":923,"åĳĺ":924,"èī²":925,"ish":926,"ions":927,"ks":928,"ä»Ģ":929,"ook":930,"ä»»":931,"ign":932,"éħ":933,"ime":934,"ult":935,"æĸ¯":936,"æŀľ":937,"du":938,"Ġme":939,"Ġgo":940,"Ġim":941,"Ġdo":942,"èİ":943,"çĶ±":944,"ç®¡":945,"çľŁ":946,"æĶ¿":947,"ite":948,"mer":949,"éĴ":950,"Ġte":951,"è¡¨":952,"ä»Ģä¹Ī":953,"ç²":954,"æİ¥":955,"æµ·":956,"one":957,"åĽŀ":958,"èĻ":959,"Ġalso":960,"éĵ":961,"ence":962,"å±±":963,"Ġint":964,"å®ī":965,"Ġwere":966,"ib":967,"æľŁ":968,"act":969,"ru":970,"åĪ©":971,"Ġä¸į":972,"è·¯":973,"èĢģ":974,"ĠIt":975,"éĩĳ":976,"ations":977,"åı¯ä»¥":978,"ake":979,"ä½¿":980,"form":981,"Ġout":982,"è®¡":983,"ount":984,"éª":985,"æıĲ":986,"åŁº":987,"åĬ¡":988,"ç¦":989,"çĹ":990,"ç«ĭ":991,"Ġ4":992,"Ġmore":993,"ail":994,"èĩ³":995,"port":996,"ally":997,"æ¡":998,"ä¸ĸ":999,"å¸¸":1000,"ä¿¡":1001,"çĸ":1002,"Ġres":1003,"åĵĪ":1004,"éŁ":1005,"ase":1006,"å¥¹":1007,"Ġç¬¬":1008,"åįĹ":1009,"ance":1010,"ach":1011,"çĭ":1012,"æĽ´":1013,"Ġwho":1014,"åĽĽ":1015,"ov":1016,"åĲĳ":1017,"Ġup":1018,"Ġone":1019,"è®©":1020,"ç¨ĭ":1021,"ç§ĳ":1022,"è¯Ŀ":1023,"æľ¯":1024,"ace":1025,"éĹ¨":1026,"ç»Ļ":1027,"è£":1028,"å±ķ":1029,"Ġar":1030,"å¼ı":1031,"å²":1032,"éĹ®":1033,"çĽ´":1034,"åİŁ":1035,"çİĭ":1036,"ç¡":1037,"å°Ķ":1038,"Ġthey":1039,"ä¹¦":1040,"own":1041,"ond":1042,"Ġman":1043,"Ġ!":1044,"ile":1045,"ä¿Ŀ":1046,"ä»ĸä»¬":1047,"vers":1048,"Ġapp":1049,"ces":1050,"erv":1051,"å¸Ī":1052,"æĪĸ":1053,"ang":1054,"ç»ĵ":1055,"è½¦":1056,"åħī":1057,"åŀ":1058,"æīĵ":1059,"ory":1060,"Ġper":1061,"å¥³":1062,"Ġä½ł":1063,"é£İ":1064,"Ġyear":1065,"ition":1066,"ens":1067,"å°ĳ":1068,"ĠHe":1069,"ents":1070,"ĠÐ":1071,"æĦŁ":1072,"åıĪ":1073,"Ġabout":1074,"ĠãĢĤ":1075,"Ġso":1076,"å£°":1077,"æ®":1078,"æ»":1079,"å¤Ħ":1080,"åĮĹ":1081,"te":1082,"åĪ«":1083,"èµĦ":1084,"æīį":1085,"ark":1086,"è§ģ":1087,"å¤ª":1088,"Â·":1089,"å¼º":1090,"ric":1091,"ne":1092,"Ġ5":1093,"ree":1094,"Ġpart":1095,"ll":1096,"æ¼":1097,"very":1098,"åĨį":1099,"åĶ":1100,"è¯¥":1101,"ĠUn":1102,"å°±æĺ¯":1103,"tern":1104,"ep":1105,"çĻ½":1106,"Ġother":1107,"ck":1108,"'t":1109,"åŁİ":1110,"åħĥ":1111,"Ġnew":1112,"ç»Ł":1113,"å½±":1114,"ater":1115,"åıĺ":1116,"ress":1117,"ely":1118,"è¿Ļä¸ª":1119,"Ġhad":1120,"åĩł":1121,"Ġrec":1122,"Ġtr":1123,"åģļ":1124,"ound":1125,"ors":1126,"åı¸":1127,"Ġits":1128,"rit":1129,"å½¢":1130,"ä¸ŃåĽ½":1131,"æĪĳä»¬":1132,"çľ¼":1133,"ä¸ĩ":1134,"è§£":1135,"Ġsp":1136,"lic":1137,"æĬĬ":1138,"æ´»":1139,"irst":1140,"!âĢĿ":1141,"ild":1142,"ä¼ł":1143,"æĢ»":1144,"é©¬":1145,"è¯Ń":1146,"int":1147,"åħĭ":1148,"vel":1149,"é¢ĺ":1150,"ç©º":1151,"Ġdis":1152,"ph":1153,"Ġqu":1154,"old":1155,"ob":1156,"éĺŁ":1157,"reat":1158,"çº¿":1159,"æĤ":1160,"ç±»":1161,"æº":1162,"æĶ¾":1163,"ose":1164,"wn":1165,"çķĮ":1166,"çº§":1167,"åķĬ":1168,"éĻ¢":1169,"åĦ":1170,"å¾·":1171,"Ġsc":1172,"åħĪ":1173,"äºĶ":1174,"ays":1175,"é¾":1176,"æĬĢ":1177,"ç»Ħ":1178,"Ġsa":1179,"ings":1180,"Ġro":1181,"å¨":1182,"Ġev":1183,"æł¼":1184,"ĠâĢĵ":1185,"ĠåĲ":1186,"æµģ":1187,"ike":1188,"02":1189,"åıĹ":1190,").":1191,"åı°":1192,"ä»¶":1193,"ç«ł":1194,"æĶ¶":1195,"åĻ":1196,"Ġbeen":1197,"Ġwork":1198,"äº¤":1199,"...":1200,"Ġpe":1201,"æŀĹ":1202,"å®Į":1203,"Ġag":1204,"å¼ł":1205,"10":1206,"èĬĤ":1207,"clud":1208,"ates":1209,"ç¤¾":1210,"çłĶ":1211,"Ġher":1212,"åŀĭ":1213,"åįķ":1214,"Ġover":1215,"æĳ":1216,"wo":1217,"Ġpre":1218,"èĮ":1219,"ove":1220,"ng":1221,"hed":1222,"åĦ¿":1223,"ä¸ĵ":1224,"oy":1225,"fter":1226,"ool":1227,"æĮĩ":1228,"å¸¦":1229,"xt":1230,"Ġtime":1231,"ĠSe":1232,"å£«":1233,"Ġsome":1234,"98":1235,"è´¨":1236,"?âĢĿ":1237,"æ¸ħ":1238,"è¿Ĳ":1239,"oll":1240,"çĲĥ":1241,"Ġä¸Ģ":1242,"åĢĻ":1243,"æ£":1244,"......":1245,"Ġany":1246,"å·²ç»ı":1247,"Ġ6":1248,"åĲĦ":1249,"è±":1250,"ople":1251,"Ġdes":1252,"000":1253,"éĢī":1254,"è¾¾":1255,"æľį":1256,"ade":1257,"Ġfirst":1258,"è¾¹":1259,"å¯¼":1260,"Ġmy":1261,"å®¹":1262,"éŃ":1263,"è§ī":1264,"ä¸įæĺ¯":1265,"Ġacc":1266,"æĮģ":1267,"ä½ķ":1268,"Ġthere":1269,"ä¾¿":1270,"Ġspe":1271,"--":1272,"Ġkn":1273,"Ġoff":1274,"Ð¾":1275,"Ġprov":1276,"ĠThis":1277,"äºĨä¸Ģ":1278,"æ¢":1279,"nder":1280,"ick":1281,"è®º":1282,"åĥ":1283,"ough":1284,"èģĶ":1285,"Ġbec":1286,"ational":1287,"Ġour":1288,"è§Ĩ":1289,"æŃ»":1290,"éŁ³":1291,"ons":1292,"åį´":1293,"Ġthem":1294,"ç¬ĳ":1295,"Ġinclud":1296,"èµ°":1297,"è®¤":1298,"ç±³":1299,"æĭī":1300,"ĠAs":1301,"ç®Ĺ":1302,"èĭ±":1303,"çŁ¥éģĵ":1304,"amp":1305,"Ġcomm":1306,"å§ĭ":1307,"çĬ":1308,"å¿«":1309,"æ²»":1310,"ont":1311,"ä¹Ĳ":1312,"æģ¯":1313,"urn":1314,"é¾Ļ":1315,"çİ°åľ¨":1316,"Ð°":1317,"åĽ¾":1318,"ç§°":1319,"æĿ¡":1320,"å·¥ä½ľ":1321,"åıį":1322,"å¸ĥ":1323,"åĻ¨":1324,"åħ±":1325,"ç½ĳ":1326,"æł¡":1327,"Ġif":1328,"Ġinto":1329,"æłĩ":1330,"Ġwhen":1331,"ç©¶":1332,"æį®":1333,"åĺ":1334,"les":1335,"ç«Ļ":1336,"çľģ":1337,"çīĩ":1338,"åķĨ":1339,"we":1340,"Ġwould":1341,"è§Ħ":1342,"ä¿®":1343,"ft":1344,"æĹ¶éĹ´":1345,"åįİ":1346,"åı·":1347,"éĿŀ":1348,"åĬŁ":1349,"ath":1350,"æ¸¸":1351,"çª":1352,"éĽĨ":1353,"æĴ":1354,"èħ":1355,"æ¨":1356,"åıĤ":1357,"ood":1358,"è½¬":1359,"åĪĻ":1360,"land":1361,"è®°":1362,"Ġfe":1363,"çĮ":1364,"Ġ?":1365,"åħ¬åı¸":1366,"rough":1367,"ram":1368,"æĹ¶åĢĻ":1369,"ä½ı":1370,"æļ":1371,"iss":1372,"æĿĳ":1373,"çĻ¾":1374,"ĠCom":1375,"use":1376,"æĿİ":1377,"éĢł":1378,"éļ¾":1379,"åĳ¨":1380,"åĮħ":1381,"Ġæĺ¯":1382,"aw":1383,"èĬ±":1384,"èµĽ":1385,"æ¹":1386,"èĳ":1387,"Ġ$":1388,"Ġè¿Ļ":1389,"ç¦»":1390,"ual":1391,"Ġplay":1392,"è¿ŀ":1393,"è°ĥ":1394,"æ¯ı":1395,"ä»Ĭ":1396,"æ¥":1397,"Ġ'":1398,"Ġ=":1399,"æĶ¹":1400,"åĳ½":1401,"æĢĿ":1402,"å®ĥ":1403,"å·ŀ":1404,"åħ·":1405,"å¤ĩ":1406,"åĩĨ":1407,"è£ħ":1408,"äºļ":1409,"ĠDe":1410,"ited":1411,"å¹¿":1412,"åĥı":1413,"ĠNew":1414,"ä¹ī":1415,"12":1416,"ĠWe":1417,"Ġthan":1418,"ç²¾":1419,"man":1420,"é¥":1421,"ious":1422,"èĢĥ":1423,"Ġpeople":1424,"Ġtra":1425,"io":1426,"èĤ²":1427,"ased":1428,"Ġam":1429,"Ġtwo":1430,"åŃĹ":1431,"ĠWh":1432,"åĽ¢":1433,"æ±Ĥ":1434,"æĬ¥":1435,"æķ´":1436,"é¢Ĩ":1437,"åĬŀ":1438,"éľĢ":1439,"æł¹":1440,"Ġ7":1441,"ĠAr":1442,"åĩ»":1443,"ced":1444,"Ġco":1445,"åİĨ":1446,"97":1447,"åį³":1448,"Ġlike":1449,"ĠAl":1450,"çħ":1451,"Ġhow":1452,"çĪ±":1453,"æĹı":1454,"é¦ĸ":1455,"çģ«":1456,"çŁ³":1457,"iew":1458,"æĢİ":1459,"Ġget":1460,"ific":1461,"red":1462,"è¿ĳ":1463,"å¡":1464,"Ġind":1465,"æĺŁ":1466,"çłĶç©¶":1467,"æŃ¥":1468,"lect":1469,"çīĪ":1470,"ock":1471,"æħ":1472,"ink":1473,"round":1474,"çı":1475,"Ġadd":1476,"ities":1477,"orn":1478,"åı¤":1479,"Ġunder":1480,"ç½Ĺ":1481,"åıĳå±ķ":1482,"meric":1483,"ä¸Ķ":1484,"çĹħ":1485,"ç®¡çĲĨ":1486,"çļĦäºº":1487,"Ðµ":1488,"ç®Ģ":1489,"æĶ¯":1490,"éļı":1491,"åĪĽ":1492,"cial":1493,"uring":1494,"æ¼Ķ":1495,"åĽłä¸º":1496,"çº¦":1497,"è¡Ģ":1498,"è¨":1499,"ward":1500,"è¨Ģ":1501,"æºĲ":1502,"åıĸ":1503,"ject":1504,"Ġinter":1505,"Ġshe":1506,"ert":1507,".\"":1508,"Ġserv":1509,"olog":1510,"Ġact":1511,"Ġfl":1512,"ics":1513,"Ġbet":1514,"Ġra":1515,"chool":1516,"é¡¹":1517,"Ġwhat":1518,"è§Ĥ":1519,"é£ŀ":1520,"åºľ":1521,"Ġprodu":1522,"å¤į":1523,"åı²":1524,"Ġåľ¨":1525,"å¢ĥ":1526,"Ġmost":1527,"åĪ°äºĨ":1528,"als":1529,"Ð¸":1530,"hip":1531,"com":1532,"Ġafter":1533,"éĿĴ":1534,"Ġ8":1535,"Ġbu":1536,"ä»·":1537,"åĭ":1538,"æŀĦ":1539,"ran":1540,"Ġbl":1541,"Ġyears":1542,"æ·±":1543,"å±ŀ":1544,"ied":1545,"ife":1546,"è¶Ĭ":1547,"è¿ĺæĺ¯":1548,"åŃĺ":1549,"éĢŁ":1550,"åĨ³":1551,"Ġmay":1552,"æķĪ":1553,"æĪ·":1554,"åł":1555,"ç¿":1556,");":1557,"Ġcons":1558,"åĵĪåĵĪ":1559,"Ġonly":1560,"get":1561,"è®®":1562,"ts":1563,"ĠAmeric":1564,"ork":1565,"20":1566,"Ġthrough":1567,"ivers":1568,"æĸĻ":1569,"Ġno":1570,"æŀģ":1571,"bs":1572,"oth":1573,"é»ĳ":1574,"å¹²":1575,"ĠPro":1576,"è¿ľ":1577,"hen":1578,"ren":1579,"èİ·":1580,"Ġcol":1581,"èı":1582,"è¿Ľè¡Į":1583,"ĠLe":1584,"96":1585,"ener":1586,"Ġatt":1587,"Ġreg":1588,"è¯Ĩ":1589,"ily":1590,"çļĦä¸Ģ":1591,"å¼Ģå§ĭ":1592,"ĠCan":1593,"ĠMar":1594,"å§Ķ":1595,"11":1596,"éĺ³":1597,"ç¢":1598,"Ġjust":1599,"ublic":1600,"50":1601,"æĢİä¹Ī":1602,"åı¯èĥ½":1603,"æĿĢ":1604,"æ±Ł":1605,"è®¸":1606,"ç¤º":1607,"åİ¿":1608,"ating":1609,"æŃ¦":1610,"åĪĹ":1611,"Ġpr":1612,"ps":1613,"rib":1614,"çģµ":1615,"è¯ķ":1616,"æĿĥ":1617,"ise":1618,"åĮ»":1619,"Ġneed":1620,"Ġsaid":1621,"Ġsy":1622,"Ġloc":1623,"ä½Ĩæĺ¯":1624,"ç»´":1625,"Ġem":1626,"ĠAn":1627,"è¯ģ":1628,"Ġ0":1629,"åĨľ":1630,"ful":1631,"æĺĵ":1632,"èĲ¥":1633,"eth":1634,"çº¢":1635,"è½»":1636,"ict":1637,"ä»ĸçļĦ":1638,"Ã©":1639,"ç¡®":1640,"ug":1641,"åħŃ":1642,"ident":1643,"ments":1644,"ular":1645,"åĲ¬":1646,"Ġpo":1647,"ãĢĮ":1648,"ãĢį":1649,"æĺ¾":1650,"Ġuse":1651,"å¦Ĥæŀľ":1652,"gan":1653,"å¿ħ":1654,"ning":1655,"å¤±":1656,"æ³¨":1657,"æ¶Ī":1658,"Ġwhere":1659,"å±Ģ":1660,"æ¨¡":1661,"Ġrel":1662,"è¾ĥ":1663,"Ġinc":1664,"éĻħ":1665,"Ġstud":1666,"row":1667,"ĠSh":1668,"ä¼ģ":1669,"Ġhel":1670,"Ġret":1671,"éĹ®é¢ĺ":1672,"ms":1673,"ç½®":1674,"ä¹ł":1675,"çİ¯":1676,"å¾Ģ":1677,"æľª":1678,"ring":1679,"åĽ½å®¶":1680,"Ġ|":1681,"æĹ©":1682,"å¾®":1683,"Ġph":1684,"tt":1685,"Ġwell":1686,"äºĳ":1687,"æĬĢæľ¯":1688,"è¶³":1689,"åħ«":1690,"erson":1691,"formation":1692,"Ġ&":1693,"å®¢":1694,"èµ·æĿ¥":1695,"æĪ¿":1696,"fore":1697,"å¤§åŃ¦":1698,"æľĽ":1699,"æµİ":1700,"èĲ½":1701,"up":1702,"Ġå¥½":1703,"30":1704,"æĬ¤":1705,"Ġsupp":1706,"ä¸»è¦ģ":1707,"è¿ĻäºĽ":1708,"èģĮ":1709,"Ġrem":1710,"ä¸ŃçļĦ":1711,"ç§¯":1712,"ix":1713,"æ²³":1714,"Ġ10":1715,"åĪĴ":1716,"äººçļĦ":1717,"Ð½":1718,"Ġinv":1719,"ä¸ĸçķĮ":1720,"ale":1721,"å¼ķ":1722,"å¤Ł":1723,"Ġ9":1724,"ower":1725,"ĠYou":1726,"itt":1727,"ä½¿çĶ¨":1728,"elf":1729,"ouse":1730,"åħµ":1731,"Ġsec":1732,"éĺ¿":1733,"ures":1734,"æ»¡":1735,"è·Ł":1736,"ç»Ī":1737,"hes":1738,"ä¹Łæĺ¯":1739,"Ġdif":1740,"Ġsuch":1741,"çİĩ":1742,"any":1743,"Ġmake":1744,"åįĬ":1745,"au":1746,"Ġimp":1747,"Ġback":1748,"åıĮ":1749,"æĸŃ":1750,"æ®µ":1751,"åħ°":1752,"æİ¨":1753,"ä»ĭ":1754,"az":1755,"ative":1756,"çĥŃ":1757,"Ġset":1758,"Ġass":1759,"äº²":1760,"æīĢä»¥":1761,"åĨµ":1762,"åį¡":1763,"é»Ħ":1764,"ause":1765,"å®Ŀ":1766,",\"":1767,"æŁ¥":1768,"é¸":1769,"æĸ½":1770,"ys":1771,"ä½İ":1772,"oss":1773,"ç»Ń":1774,"åĵį":1775,"ä¾Ľ":1776,"ä¼Ĺ":1777,"ences":1778,"ä¹ĭåĲİ":1779,"è¶ħ":1780,"ah":1781,"éĻ¤":1782,"Ġmany":1783,"ÑĢ":1784,"æĪı":1785,"ä¹Ŀ":1786,"è¿Ļæł·":1787,"ĠEx":1788,"Ġthese":1789,"Ġfin":1790,"åĲ§":1791,"è±¡":1792,"Ġpol":1793,"åĪļ":1794,"ä¼ģä¸ļ":1795,"è§Ĵ":1796,"çĶ»":1797,"åįĥ":1798,"ç´ł":1799,"Ġfam":1800,"stem":1801,"è´¹":1802,"åı¶":1803,"velop":1804,"oh":1805,"èĪ¬":1806,"ç¬¬ä¸Ģ":1807,"äº¬":1808,"åºķ":1809,"éĺ²":1810,"ins":1811,"its":1812,"æī¾":1813,"æľĿ":1814,"Ġfil":1815,"æĬķ":1816,"ç³»ç»Ł":1817,"å®ĺ":1818,"ash":1819,"Ġmod":1820,"åĬ¿":1821,"iel":1822,"94":1823,"ä¼ĺ":1824,"é¦Ļ":1825,"é£Ł":1826,"åľŁ":1827,"èĻ½":1828,"åĩºæĿ¥":1829,"å¢ŀ":1830,"éķĩ":1831,"å·´":1832,"cess":1833,"æĢģ":1834,"ier":1835,"Ġac":1836,"Ġent":1837,"æĽ¾":1838,"day":1839,"éªĮ":1840,"é²":1841,"ton":1842,"åĳ¢":1843,"air":1844,"ä¸ĥ":1845,"pect":1846,"ility":1847,"cy":1848,"åĳĬ":1849,"åħ»":1850,"åĸľ":1851,"å¤§çļĦ":1852,"æĲ":1853,"oun":1854,"Ġpres":1855,"Ġå°±":1856,"å±Ĥ":1857,"çĶ·":1858,"æĺ¯ä¸Ģ":1859,"ĠFor":1860,"und":1861,"Ġused":1862,"Ġthen":1863,"ata":1864,"å±ħ":1865,"ĠåķĬ":1866,"Ġhelp":1867,"Ġhim":1868,"ey":1869,"ÑĤ":1870,"æ¡Ī":1871,"çĬ¶":1872,"èĦ¸":1873,"ull":1874,"èĴ":1875,"èĭı":1876,"Ġinst":1877,"âĢĶâĢĶ":1878,"ever":1879,"Ġmem":1880,"åİĭ":1881,"aking":1882,"ows":1883,"ç¼ĸ":1884,"å¸Ŀ":1885,"Ġart":1886,"//":1887,"ss":1888,"èį¯":1889,"Ġevery":1890,"ĠCl":1891,"Ġmed":1892,"ible":1893,"The":1894,"Ġinformation":1895,"ç»Ĩ":1896,"ience":1897,"Ġcould":1898,"Ġæľī":1899,"èīº":1900,"Ġ<":1901,"way":1902,"ices":1903,"å¤«":1904,"ars":1905,"åĪĿ":1906,"éħį":1907,"ĠSc":1908,"ek":1909,"ĠHow":1910,"ient":1911,"çªģ":1912,"æĪĲä¸º":1913,"Ġ{":1914,"åĪ»":1915,"ç»Ŀ":1916,"ven":1917,"åĽ´":1918,"ty":1919,"der":1920,"ax":1921,"95":1922,"Ñģ":1923,"ince":1924,"è´£":1925,"æİ§":1926,"çħ§":1927,"Ġend":1928,"æķĻèĤ²":1929,"åį«":1930,"åĬ©":1931,"Ġser":1932,"ç¾İåĽ½":1933,"ç»ıæµİ":1934,"Ġsm":1935,"ines":1936,"irect":1937,"ract":1938,"ĠAnd":1939,"uch":1940,"ames":1941,"Ġnum":1942,"åĪĩ":1943,"iness":1944,"Ġtrans":1945,"Ġmade":1946,"éĥ½æĺ¯":1947,"ten":1948,"ç¤¾ä¼ļ":1949,"éľĢè¦ģ":1950,"\",":1951,"èĩªå·±çļĦ":1952,"å®¤":1953,"ĠAd":1954,"ason":1955,"æĻ®":1956,"æľįåĬ¡":1957,"Ġhigh":1958,"iversity":1959,"ange":1960,"è¯·":1961,"äºī":1962,"ĠBe":1963,"pr":1964,"ues":1965,"Ġcall":1966,"Ġ...":1967,"Ġown":1968,"Ġexper":1969,"éĵģ":1970,"Ġlook":1971,"éĻĪ":1972,"æŃĮ":1973,"Ġ}":1974,"è¯Ħ":1975,"æĻ¯":1976,"åŁŁ":1977,"ists":1978,"åīĳ":1979,"ished":1980,"è¿ĺæľī":1981,"åĨĻ":1982,"ĠOn":1983,"let":1984,"æķħ":1985,"å°¼":1986,"Ġagain":1987,"åıĭ":1988,"ner":1989,"ween":1990,"æİĴ":1991,"iet":1992,"ĠAmerican":1993,"åħļ":1994,"Ġ[":1995,"åħ¶ä»ĸ":1996,"ä»¤":1997,"æī¿":1998,"èĩ´":1999,"15":2000,"éŃĶ":2001,"other":2002,"Ġsub":2003,"çł´":2004,"éĻĲ":2005,"ä¸ĬçļĦ":2006,"åī§":2007,"Ġform":2008,"å½ķ":2009,"ision":2010,"åŃ©":2011,"ä¼¼":2012,"ä¸įè¿ĩ":2013,"Ġgu":2014,"Ð¾Ð":2015,"ollow":2016,"pen":2017,"åħ¶ä¸Ń":2018,"çļĩ":2019,"ral":2020,"èĽ":2021,"alth":2022,"ä¸¾":2023,"åĢ¼":2024,"æµĭ":2025,"Ġknow":2026,"å¿µ":2027,"gram":2028,"è´Ł":2029,"Ġdec":2030,"åįĩ":2031,"Ġmin":2032,"çºª":2033,"Ġchar":2034,"åĲĮæĹ¶":2035,"Ġcre":2036,"ex":2037,"çĵ":2038,"Ġpop":2039,"è®¾è®¡":2040,"Ġcount":2041,"riv":2042,"Ġdef":2043,"Ġwant":2044,"Ġ.":2045,"Ġbeing":2046,"Ġear":2047,"Ġed":2048,"ting":2049,"Ġ*":2050,"ä»¥åıĬ":2051,"å¥ĩ":2052,"Ġsur":2053,"ĠZ":2054,"ç»ĩ":2055,"ä¾ĭ":2056,"èĮĥ":2057,"Ġ~":2058,"vern":2059,"æĵ":2060,"åĲĥ":2061,"Ġnow":2062,"å©":2063,"æ¦":2064,"ize":2065,"æĽ²":2066,"co":2067,"éĢļè¿ĩ":2068,"æ¬¢":2069,"è¿Ļä¸Ģ":2070,"çķĻ":2071,"ä¿¡æģ¯":2072,"çĨ":2073,"ctions":2074,"ä¼¤":2075,"åĵª":2076,"åĤ":2077,"å¯Ĩ":2078,"åħ´":2079,"oot":2080,"éº":2081,"Ġcent":2082,"ble":2083,"éĢĤ":2084,"Ġlong":2085,"Ġdiffer":2086,"ä¾Ŀ":2087,"æľ¨":2088,"arch":2089,"Ġstart":2090,"Ġbetween":2091,"åĨ·":2092,"ä¹Łä¸į":2093,"éħĴ":2094,"æ±ī":2095,"Ġdevelop":2096,"åĽŃ":2097,"Ġgr":2098,"Ġbus":2099,"ature":2100,"ä»ħ":2101,"èĻ½çĦ¶":2102,"ution":2103,"cept":2104,"æĶ¿åºľ":2105,"ather":2106,"åŃ¦çĶŁ":2107,"Ġbefore":2108,"raph":2109,"ĠQ":2110,"ury":2111,"ĠInd":2112,"usic":2113,"Ġway":2114,"els":2115,"ĠBl":2116,"Ġeff":2117,"éĥ¨åĪĨ":2118,"æ¤":2119,"ĠCol":2120,"èĹ":2121,"ank":2122,"ĠIs":2123,"éĩĩ":2124,"Ġshould":2125,"ĠIf":2126,"åįı":2127,"Ġmon":2128,"ç¾¤":2129,"ç«Ł":2130,"Ġworld":2131,"æĶ»":2132,"Ġéĥ½":2133,"Ġlead":2134,"äº§åĵģ":2135,"æ³¢":2136,"orth":2137,"å®Ĺ":2138,"Ġduring":2139,"æĿĲ":2140,"Ġfound":2141,",âĢľ":2142,"Ġvar":2143,"ä¹İ":2144,"ters":2145,"å¿Ĺ":2146,"Ġä¹Ł":2147,"ives":2148,"å¥ĸ":2149,"Ġsee":2150,"Ġvery":2151,"ield":2152,"Ġeven":2153,"Ġcar":2154,"outh":2155,"uc":2156,"Ġteam":2157,"å¨ģ":2158,"åıªæĺ¯":2159,"Ġbel":2160,"ä»½":2161,"ern":2162,"chn":2163,"con":2164,"æĢķ":2165,"Ġperson":2166,"Ġav":2167,"Ġaut":2168,"éĻĨ":2169,"view":2170,"è¯»":2171,"æ¸©":2172,"åĨ²":2173,"Ġpublic":2174,"aj":2175,"Ġins":2176,"éĶĻ":2177,"èĳĹ":2178,"Ġdid":2179,"åıĳçİ°":2180,"ĠPl":2181,"æ²¹":2182,"è¯´éģĵ":2183,"Ġfind":2184,"æĸĩåĮĸ":2185,"cent":2186,"Ġcur":2187,"16":2188,"ages":2189,"åľ£":2190,"çĭ¬":2191,"Ġdesign":2192,"ode":2193,"Ġclass":2194,"Ġright":2195,"åĿĩ":2196,"è¿Ļç§į":2197,"led":2198,"åı«":2199,"ç¦ı":2200,"ĠSp":2201,"Ġçľĭ":2202,"æ¸¯":2203,"æĭ¿":2204,"ave":2205,"Ġwhile":2206,"line":2207,"min":2208,"å°½":2209,"Ġche":2210,"æīĢæľī":2211,"çŀ":2212,"ene":2213,"Ġsystem":2214,"Ġspec":2215,"éĴ±":2216,"att":2217,"åĵ¥":2218,"åį°":2219,"å·®":2220,"atch":2221,"éĽ·":2222,"Ġrequ":2223,"ets":2224,"æ¸¸æĪı":2225,"Ġdet":2226,"ology":2227,"ĠThere":2228,"Ġest":2229,"èĭ¥":2230,"ually":2231,"è¯¾":2232,"çļĦæĹ¶åĢĻ":2233,"Ġdon":2234,"å®³":2235,"ĠPh":2236,"Ġlife":2237,"ĠUnited":2238,"åı¦":2239,"Ġgood":2240,"å¼Ĥ":2241,"rent":2242,"åī¯":2243,"ional":2244,"roup":2245,"åº§":2246,"æĻļ":2247,"Ġincluding":2248,"æĭħ":2249,"æĥħåĨµ":2250,"Ġimport":2251,"Ġsim":2252,"93":2253,"Ġext":2254,"ĠTr":2255,"çº³":2256,"ä¸įèĥ½":2257,"ĠUniversity":2258,"ider":2259,"18":2260,"ĠEng":2261,"ĠCon":2262,"=\"":2263,"çĶŁæ´»":2264,"æĥĬ":2265,"Ġcommun":2266,"åĢĴ":2267,"Ġfollow":2268,"uss":2269,"imes":2270,"Ġdown":2271,"Ġlar":2272,"Ġsign":2273,"Ġprovide":2274,"ç»Ħç»ĩ":2275,"Ġread":2276,"ann":2277,"Ġbecause":2278,"Ġbest":2279,"éĺµ":2280,"æĭ¬":2281,"é¼":2282,"éĤ£ä¹Ī":2283,"ĠShe":2284,"Ġthree":2285,"å¸®":2286,"Ġdist":2287,"Ġthose":2288,"ital":2289,"éĻ©":2290,"å¸Į":2291,"Ġdoes":2292,"Ġexp":2293,"bers":2294,"æ´¾":2295,"ç´§":2296,"Ġschool":2297,"14":2298,"åĩºçİ°":2299,"åĪĺ":2300,"ç»§":2301,"èĤ¡":2302,"Ġgener":2303,")ãĢĤ":2304,"çļĦæĺ¯":2305,"Ġrep":2306,"çİ©":2307,"Ġsupport":2308,"ger":2309,"æ½":2310,"ä½ľä¸º":2311,"ley":2312,"ä¸ªäºº":2313,"010":2314,"Ġbook":2315,"ute":2316,"åĲĹ":2317,"è°¢":2318,"ox":2319,"ä¸įåĲĮ":2320,"iving":2321,"Ġgreat":2322,"Ġter":2323,"lease":2324,"iver":2325,"lish":2326,"èĥ½å¤Ł":2327,"æŃ¢":2328,"åŁºæľ¬":2329,"éĩįè¦ģ":2330,"Ġchild":2331,"ved":2332,"vent":2333,"Ġbr":2334,"arm":2335,"Ġ12":2336,"Ġmuch":2337,"Ġfun":2338,"Ġboth":2339,"Ġwrit":2340,"çĪ¶":2341,"Ġprogram":2342,"ism":2343,"å¼Ł":2344,"mber":2345,"çıŃ":2346,"gg":2347,"åŃ¦æł¡":2348,"å³":2349,"ä½łä»¬":2350,"è¿Ļä¹Ī":2351,"æ¥¼":2352,"å¾ĭ":2353,"Ġeach":2354,"æį¢":2355,"èĢĮä¸Ķ":2356,"ants":2357,"ina":2358,"çīĮ":2359,"Ġshow":2360,"13":2361,"æ¯į":2362,"ands":2363,"read":2364,"æĸĹ":2365,"æ¥ļ":2366,"Ġcare":2367,"ohn":2368,"é¢Ħ":2369,"Ġäºº":2370,"ired":2371,"ural":2372,"Ġlast":2373,"è¿ĻéĩĮ":2374,"æĮī":2375,"Ġmark":2376,"èĩªçĦ¶":2377,"çĳ":2378,"Ġ20":2379,"ä½Ļ":2380,"oad":2381,"ĠBut":2382,"ized":2383,"çļ®":2384,"Ġreturn":2385,"åĮħæĭ¬":2386,"ross":2387,"äºĭæĥħ":2388,"ĠComm":2389,"æľīäºĽ":2390,"Ġpass":2391,"ä¹ħ":2392,"Ġty":2393,"Ġday":2394,"akes":2395,"çĽ´æİ¥":2396,"çĸĹ":2397,"Ġval":2398,"éĢģ":2399,"ç»ĥ":2400,"åĹ":2401,"å½±åĵį":2402,"alk":2403,"25":2404,"åİĨåı²":2405,"åįļ":2406,"å¥¥":2407,"çĦ¶åĲİ":2408,"Ġvis":2409,"éĵ¶":2410,"Ġhome":2411,"Ġè¯´":2412,"çİī":2413,"istory":2414,"çŃĸ":2415,"ä¹°":2416,"ĠTe":2417,"ä¸įä¼ļ":2418,"èĥĮ":2419,"ron":2420,"æĿ¿":2421,"Ġtake":2422,"æ¿":2423,"çĽĳ":2424,"åįł":2425,"Ġdep":2426,"å¯Į":2427,"èĦĳ":2428,"æ¯ķ":2429,"Ġname":2430,"ãģ":2431,"å°Ħ":2432,"Ġbusiness":2433,"ĠThey":2434,"ä¸Ńå¿ĥ":2435,"æł¸":2436,"Ġdifferent":2437,"èŀ":2438,"Ġaround":2439,"Ġsame":2440,"90":2441,"17":2442,"ä¸¥":2443,"åĽ½éĻħ":2444,"ĠAll":2445,"ically":2446,"enn":2447,"Ġrun":2448,"è°ģ":2449,"Ġla":2450,"Ġlist":2451,"----":2452,"Ġmain":2453,"ä¸ĢèĪ¬":2454,"èĤī":2455,"è¯į":2456,"åľ°æĸ¹":2457,"urch":2458,"äººæ°ĳ":2459,"ality":2460,"Ġnumber":2461,"iqu":2462,"ä¸Ŀ":2463,"æ£Ģ":2464,"æıĲä¾Ľ":2465,"ä¹¡":2466,"åŃ©åŃĲ":2467,"Ġprovid":2468,"å²Ľ":2469,"é¡¿":2470,"Ġhere":2471,"åĩºçīĪ":2472,"Ġdirect":2473,"Ġæ²¡":2474,"éĻį":2475,"ness":2476,"ä¸¤ä¸ª":2477,"ä¸ĵä¸ļ":2478,"ä¸ĢäºĽ":2479,"å¯¹äºİ":2480,"ec":2481,"è§īå¾Ĺ":2482,"ä»Ļ":2483,"æĿ¥çļĦ":2484,"çĶļ":2485,"Ġsk":2486,"inal":2487,"æĸ¹éĿ¢":2488,"iam":2489,"éĶĢ":2490,"æĿ¨":2491,"åĨħå®¹":2492,"ple":2493,"å¾ħ":2494,"Ġsom":2495,"åĶĲ":2496,"Ġsl":2497,"å¸Ĥåľº":2498,"Ġplace":2499,"Ġdel":2500,"Ġsecond":2501,"å·¦":2502,"é¡»":2503,"ä¸ºäºĨ":2504,"å²ģ":2505,"son":2506,"æ´²":2507,"åģľ":2508,"Ġi":2509,"eb":2510,"Ġopen":2511,"æĴŃ":2512,"rist":2513,"Ġfamily":2514,"'re":2515,"ĠJohn":2516,"è®¤ä¸º":2517,"Ġusing":2518,"ared":2519,"ember":2520,"å®«":2521,"åºĶè¯¥":2522,"åľ°åĮº":2523,"ä½Ľ":2524,"åħħ":2525,"æľĢåĲİ":2526,"ĠWor":2527,"èĥ½åĬĽ":2528,"å¾Īå¤ļ":2529,"Ġcour":2530,"è¿°":2531,"ott":2532,"æ´»åĬ¨":2533,"Ġ18":2534,"åº·":2535,"ĠOr":2536,"ferences":2537,"éĿĻ":2538,"æĹ¥æľ¬":2539,"ograph":2540,"å·¨":2541,"Ġbuild":2542,"è®Ń":2543,"åĿĲ":2544,"æĸ¹æ³ķ":2545,"ç§ĳåŃ¦":2546,"èĵ":2547,"åħ³ç³»":2548,"ĠCount":2549,"Ġcontin":2550,"Ġob":2551,"åºĹ":2552,"ĠAt":2553,"å¤ľ":2554,"Ġinf":2555,"åĳ³":2556,"Ġperform":2557,"éĨ":2558,"Ġoper":2559,"å·¥ç¨ĭ":2560,"è¡£":2561,"19":2562,"æ¬§":2563,"éĿŀå¸¸":2564,"é¡¹çĽ®":2565,"Ġ/":2566,"Ġstill":2567,"lished":2568,"è®²":2569,"åıªæľī":2570,"ĠCar":2571,"æĭį":2572,"Ð»":2573,"åıĳçĶŁ":2574,"ball":2575,"å¤ı":2576,"Ġpoint":2577,"Ġstr":2578,"æ¹ĸ":2579,"Ġresult":2580,"èİ·å¾Ĺ":2581,"Ġgl":2582,"011":2583,"ober":2584,"til":2585,"çļĦè¯Ŀ":2586,"Ġel":2587,"uro":2588,"ç¯":2589,"åŁ¹":2590,"æ¿Ģ":2591,"ined":2592,"åı¥":2593,"eng":2594,"éĢĢ":2595,"çŃĳ":2596,"æĦŁè§ī":2597,"å¯Ł":2598,"Ġgame":2599,"ales":2600,"Ġarea":2601,"é½":2602,"ä¸´":2603,"åĲ¸":2604,"ris":2605,"Ġorgan":2606,"è´¢":2607,"Ġprof":2608,"gy":2609,"ĠéĤ£":2610,"è¾ĵ":2611,"ording":2612,"reen":2613,"Ġ#":2614,"ium":2615,"åŃ¦ä¹ł":2616,"Ġthink":2617,"ĠStates":2618,"ĠMan":2619,"ĠâĢĶ":2620,"Ġele":2621,"ery":2622,"Ġpost":2623,"40":2624,"æŀĲ":2625,"å®£":2626,"ç¬¬äºĮ":2627,"å»ºè®¾":2628,"æĬĹ":2629,"92":2630,"Ġbro":2631,"Ġmov":2632,"ä¸ľè¥¿":2633,"ccess":2634,"åłĤ":2635,"å¾ģ":2636,"Ġsoc":2637,"ruct":2638,"ç§»":2639,"Ġtop":2640,"èĥľ":2641,"åı³":2642,"ator":2643,"Ġconst":2644,"oard":2645,"æķ£":2646,"......âĢĿ":2647,"riend":2648,"Ġcompany":2649,"Ġproduct":2650,"ĠCent":2651,"åĽłæŃ¤":2652,"æĢ¥":2653,"'m":2654,"çĶŁäº§":2655,"èī¯":2656,"Ġke":2657,"æĭ¥":2658,"008":2659,"èįī":2660,"Ġreport":2661,"Ġsing":2662,"åħį":2663,"vernment":2664,"çŁŃ":2665,"Ġmusic":2666,"ĠMay":2667,"æĭ©":2668,"sh":2669,"åı¯æĺ¯":2670,"è¿Ļæĺ¯":2671,"çķ¥":2672,"009":2673,"åĸĦ":2674,"çľŁçļĦ":2675,"gin":2676,"âĢĿ,":2677,"Ġpartic":2678,"ä¸Ģæł·":2679,"Ġsol":2680,"ody":2681,"èĹı":2682,"Ġappro":2683,"rid":2684,"çĽĬ":2685,"Ġfilm":2686,"çĶ±äºİ":2687,"çĽĺ":2688,"ister":2689,"ulation":2690,"åŃ£":2691,"Ġsmall":2692,"åĲ«":2693,"é¦Ĩ":2694,"ç´¢":2695,"èĨ":2696,"ä¹ĭéĹ´":2697,"éĴŁ":2698,"019":2699,"å®Ī":2700,"ird":2701,"æ²Ļ":2702,"hor":2703,"æłĳ":2704,"åĩºäºĨ":2705,"Ġä»ĸ":2706,"018":2707,"çĶ²":2708,"80":2709,"ç£":2710,"Ġpar":2711,"012":2712,"Ġtechn":2713,"Ġprocess":2714,"æī¹":2715,"ĠUS":2716,"æĿ¾":2717,"ving":2718,"Ġmar":2719,"por":2720,"çĶ°":2721,"ission":2722,"illion":2723,"Ġavail":2724,"ç«¯":2725,"Ġå¤§":2726,"Ġknown":2727,"æĻº":2728,"Ġthough":2729,"æĶ¯æĮģ":2730,"çİ¯å¢ĥ":2731,"Ġuntil":2732,"æ¦Ĥ":2733,"Ġann":2734,"Ġrest":2735,"æ¯Ľ":2736,"é±":2737,"Ġresp":2738,"87":2739,"Ġconf":2740,"ĠSchool":2741,"ĠJan":2742,"Ġadv":2743,"åģ¥":2744,"åĿĹ":2745,"me":2746,"Ġdata":2747,"che":2748,"arn":2749,"Ġrece":2750,"ke":2751,"une":2752,"oint":2753,"Ġhouse":2754,"æĸ¹å¼ı":2755,"ä¸Ģå®ļ":2756,"60":2757,"the":2758,"æķ¢":2759,"é±¼":2760,"å´":2761,"æļĹ":2762,"app":2763,"ĠRes":2764,"èŃ":2765,"to":2766,"åħ¸":2767,"åĸľæ¬¢":2768,"æķ°æį®":2769,"Ġfour":2770,"å¥½çļĦ":2771,"é¹":2772,"æĺ¥":2773,"ternational":2774,"çŃĶ":2775,"æİ§åĪ¶":2776,"ways":2777,"æħ¢":2778,"Ġstate":2779,"ER":2780,"ç©¿":2781,"çļĦå¤§":2782,"be":2783,"ains":2784,"å®īåħ¨":2785,"ĠCo":2786,"æ¯Ĵ":2787,"æĭĽ":2788,"ling":2789,"Ðº":2790,"007":2791,"ret":2792,"æİĮ":2793,"angu":2794,"Ġold":2795,"è·Ŀ":2796,"Ġ15":2797,"è¦ģæ±Ĥ":2798,"å°ģ":2799,"ĠTo":2800,"omen":2801,"æ¹¾":2802,"ately":2803,"bum":2804,"Ġè¿ĺ":2805,"èµµ":2806,"ä»£è¡¨":2807,"ai":2808,"è¿Ľåħ¥":2809,"éĢīæĭ©":2810,"æīĺ":2811,"éĹ»":2812,"è¿½":2813,"ĠGo":2814,"ived":2815,"çľĭåĪ°":2816,"Ġsince":2817,"ats":2818,"ĠHowever":2819,"inks":2820,"Ġcity":2821,"ior":2822,"Ġagainst":2823,"è´Łè´£":2824,"\".":2825,"006":2826,"Ġiss":2827,"å¦Ĥä½ķ":2828,"æ²ī":2829,"éĿ©":2830,"æĢª":2831,"Ġsever":2832,"ãĥ":2833,"èŃ¦":2834,"Ġaccess":2835,"ç»ľ":2836,"Ġwater":2837,"éĽ¨":2838,"Ġca":2839,"éľ²":2840,"éĻĦ":2841,"St":2842,"æī§":2843,"ç§Ģ":2844,"ustom":2845,"éĿ¢ç§¯":2846,"oci":2847,"Ġ11":2848,"ining":2849,"Ġfew":2850,"å®ģ":2851,"åĬŁèĥ½":2852,"é¢ĳ":2853,"æģ©":2854,"ç®Ģä»ĭ":2855,"Ġcle":2856,"ĠWorld":2857,"å¡Ķ":2858,"æİĪ":2859,"è½½":2860,"ternal":2861,"å¼¹":2862,"Ġhead":2863,"å¦ĤæŃ¤":2864,"Ġcurrent":2865,"Ġorig":2866,"æł¹æį®":2867,"å§Ĳ":2868,"å»ºçŃĳ":2869,"ĠåĲ§":2870,"Ġwebs":2871,"âĢĻ":2872,"çĩ":2873,"çĶļèĩ³":2874,"by":2875,"ried":2876,"ĠSo":2877,"éĽª":2878,"Ġproject":2879,"ption":2880,"Ġexpl":2881,"èĪª":2882,"Ġeng":2883,"Ġdisc":2884,"èĦļ":2885,"ĠAm":2886,"ĠPr":2887,"ä½įäºİ":2888,"èĭ¦":2889,"020":2890,"ç¤¼":2891,"åĲ¦":2892,"self":2893,"çĶµå½±":2894,"Ġrecord":2895,"æĵį":2896,"Ġposs":2897,"ãĢģãĢĬ":2898,"åºı":2899,"æ¬¾":2900,"ĠGe":2901,"de":2902,"017":2903,"è¯Ĺ":2904,"å®Įåħ¨":2905,"Ġwin":2906,"ĠNational":2907,"Ġavailable":2908,"iven":2909,"Ġeas":2910,"é¡º":2911,"ration":2912,"æ´Ľ":2913,"Ġpos":2914,"Ġage":2915,"æ¤į":2916,"åŃ¦éĻ¢":2917,"Ġhand":2918,"Ġstat":2919,"ä¼Ĭ":2920,"Ġhealth":2921,"åĪĢ":2922,"ww":2923,"éŁ©":2924,"ç§¦":2925,"éª¨":2926,"016":2927,"Ġåİ»":2928,"è´µ":2929,"Ġè¦ģ":2930,"ivid":2931,"åħ·æľī":2932,"çľĭçĿĢ":2933,"Ġleg":2934,"èŀį":2935,"Ġpat":2936,"Ġmonth":2937,"æ··":2938,"çłģ":2939,"ense":2940,"è¡¥":2941,"ä¸½":2942,"ĠFl":2943,"Ġ16":2944,"Ġoffer":2945,"ä¹ĭåīį":2946,"åŃĺåľ¨":2947,"åĩı":2948,"Ġlater":2949,"aut":2950,"rict":2951,"ĠWhat":2952,"ä¸ĢçĽ´":2953,"åĳ¼":2954,"Ġreal":2955,"åŁºç¡":2956,"çĻ»":2957,"é¬":2958,"åģĩ":2959,"Ġinterest":2960,"005":2961,"ä¸¹":2962,"ä¸ĭæĿ¥":2963,"osed":2964,"æĹħ":2965,"åŁºç¡Ģ":2966,"ency":2967,"Ġcor":2968,"âĢĿãĢĤ":2969,"Ġfact":2970,"Ġmet":2971,"Ġref":2972,"ç¥ĸ":2973,"åĿļ":2974,"çīĽ":2975,"22":2976,"ĠReferences":2977,"å®¡":2978,"è½¯":2979,"çĶµè§Ĩ":2980,"Ġair":2981,"Ġtext":2982,"ĠAust":2983,"ç¥¨":2984,"ä¹±":2985,"æĦ¿":2986,"Ġoffic":2987,"ĠPol":2988,"ä½ľåĵģ":2989,"ves":2990,"Ġ:":2991,"ajor":2992,"rol":2993,"çīĻ":2994,"æĮ¥":2995,"èĸ":2996,"åĮĹäº¬":2997,"ĠCounty":2998,"Ġopp":2999,"æĪĸèĢħ":3000,"Ġpower":3001,"äºĴ":3002,"è´¥":3003,"cer":3004,"å°Ĭ":3005,"Ġlaw":3006,"ä»»ä½ķ":3007,"ĠYork":3008,"Ġcap":3009,"Ġlocal":3010,"éģĩ":3011,"Ñĥ":3012,".,":3013,"ç§ĺ":3014,"èĤ¯":3015,"æĭ¥æľī":3016,"ĠWhen":3017,"å§Ķåĳĺ":3018,"**":3019,"Ġrele":3020,"ney":3021,"é¡¶":3022,"æĪĳçļĦ":3023,"äº®":3024,"iety":3025,"Ġrese":3026,"ploy":3027,"Ġtown":3028,"ittle":3029,"è¸":3030,"Ġå°ı":3031,"ĠWith":3032,"ries":3033,"åŁİå¸Ĥ":3034,"Ġseries":3035,"éĤ£äºĽ":3036,"ç»ĵæŀĦ":3037,"ä¸Ģèµ·":3038,"çĸĳ":3039,"çĿ¡":3040,"ged":3041,"éĺ¶":3042,"ases":3043,"çĤ¼":3044,"éĿł":3045,"'ve":3046,"èİ«":3047,"æĿĤ":3048,"åĬ³":3049,"éĩĬ":3050,"less":3051,"Ġseason":3052,"èĻļ":3053,"åħ¨åĽ½":3054,"åħ¶å®ŀ":3055,"ote":3056,"ertain":3057,"éĺ´":3058,"ĠWar":3059,"æĹłæ³ķ":3060,"ĠSy":3061,"Ġprom":3062,"Ġincre":3063,"å¥Ĺ":3064,"å¹´çļĦ":3065,"æ°¸":3066,"IN":3067,"è¿ĩç¨ĭ":3068,"Ġreally":3069,"ĠX":3070,"ä½ľçĶ¨":3071,"Ġcalled":3072,"par":3073,"Ġplan":3074,"24":3075,"æģĲ":3076,"Ġweek":3077,"èĪ¹":3078,"é¡¾":3079,"Ġpresent":3080,"ĠEd":3081,"è¯ī":3082,"åŃĻ":3083,"ĠAfter":3084,"ĠChrist":3085,"ope":3086,"ĠSu":3087,"Ġeffect":3088,"æ·¡":3089,"ĠEn":3090,"015":3091,"ised":3092,"ential":3093,"ä¹ĭä¸Ģ":3094,"äº¦":3095,"å½ĵæĹ¶":3096,"Ġgroup":3097,"è´§":3098,"ĠBrit":3099,"åħ¬éĩĮ":3100,"Ġservice":3101,"Ġanother":3102,"Ġbased":3103,"é¬¼":3104,"åĪĨæŀĲ":3105,"è®¡åĪĴ":3106,"aster":3107,"Ġtry":3108,"Ġz":3109,"å½Ĵ":3110,"æİī":3111,"å³°":3112,"lex":3113,"Ġmarket":3114,"çĹĽ":3115,"æłĩåĩĨ":3116,"äºĮåįģ":3117,"å¿ħé¡»":3118,"ians":3119,"Ġcharact":3120,"urs":3121,"Ġnear":3122,"æ¯«":3123,"ream":3124,"äººåĳĺ":3125,"Ġorder":3126,"åįķä½į":3127,"Ġimportant":3128,"Ġdem":3129,"åĶ®":3130,"è·ĳ":3131,"ĠGr":3132,"Ġelect":3133,"æķĻåŃ¦":3134,"åĨ°":3135,"Ġæĥ³":3136,"ĠNo":3137,"æ£®":3138,"æĪĲäºĨ":3139,"å¼Ģåıĳ":3140,"æĩ":3141,"èīºæľ¯":3142,"Ġvers":3143,"ĠãĢĬ":3144,"Ġ13":3145,"ãĤ":3146,"Ġline":3147,"åĶ±":3148,"è´Ń":3149,"med":3150,"Ġnext":3151,"ĠGu":3152,"Ġalbum":3153,"æ¯Ķè¾ĥ":3154,"ĠPe":3155,"omm":3156,"éĤ£ä¸ª":3157,"ä¸Ģä¸ĭ":3158,"Ġsay":3159,"ĠåĲĹ":3160,"åª":3161,"å¤ĦçĲĨ":3162,"ĠMed":3163,"Ġsuccess":3164,"ä¹ĭä¸Ń":3165,"èį£":3166,"://":3167,"ĠBy":3168,"ories":3169,"ention":3170,"éľĩ":3171,"sp":3172,"Ġhum":3173,"çĥĪ":3174,"Ġfree":3175,"itions":3176,"è¾ĳ":3177,"004":3178,"Ġide":3179,"ĠSouth":3180,"Ġseveral":3181,"æ¢¦":3182,"ä¸°":3183,"Ġstand":3184,"è¡Ĺ":3185,"ony":3186,"éĩİ":3187,"Ġequ":3188,"Ġwithout":3189,"Ġfac":3190,"ĠåĲĥ":3191,"éŁ³ä¹Ĳ":3192,"Ġsong":3193,"Ġ14":3194,"cing":3195,"Ġgoing":3196,"æŀª":3197,"Ġconsider":3198,"Ġchildren":3199,"ä½łçļĦ":3200,"èıľ":3201,"ĠEuro":3202,"ĠCity":3203,"itional":3204,"åĩ¡":3205,"Ġhapp":3206,"ĠComp":3207,"æ´ĭ":3208,"ä»Ĭå¤©":3209,"ush":3210,"ĠMin":3211,"ipp":3212,"23":3213,"ization":3214,"mp":3215,"Ġlevel":3216,"ained":3217,"è¿ĩåİ»":3218,"ç»ĵæŀľ":3219,"å°ļ":3220,"ended":3221,"ĠÂ":3222,"Ġquest":3223,"ä»į":3224,"Ġinvest":3225,"åĬĽéĩı":3226,"eter":3227,"æĢĢ":3228,"aterial":3229,"é¦Ļæ¸¯":3230,"Ġwebsite":3231,"æķĳ":3232,"èĥ¡":3233,"013":3234,"Ġpolit":3235,"åĲī":3236,"æĤ¨":3237,"èº«ä½ĵ":3238,"èľ":3239,"yle":3240,"æİ¢":3241,"ified":3242,"å·Ŀ":3243,"Ġalong":3244,"014":3245,"ç½ĳç»ľ":3246,"Ġinclude":3247,"conom":3248,"å½©":3249,"æŀ¶":3250,"wards":3251,"ä¿ĿæĬ¤":3252,"é½Ĳ":3253,"ĠPar":3254,"stand":3255,"çĪĨ":3256,"çĽ®åīį":3257,"æŁĲ":3258,"Ġwithin":3259,"Ġtoo":3260,"rop":3261,"Ġbre":3262,"Ġå¾Ī":3263,"Ġcustom":3264,"anguage":3265,"ĠGer":3266,"Ġlove":3267,"è¿ĲåĬ¨":3268,"ä¸Ģæ¬¡":3269,"æĳĩ":3270,"åİĤ":3271,"ently":3272,"ä¼¯":3273,"Ġmust":3274,"æķĮ":3275,"Ġevent":3276,"100":3277,"éŃĤ":3278,"ung":3279,"ĠAb":3280,"Ġ30":3281,"ample":3282,"æ¸Ĳ":3283,"ĠWill":3284,"ç»į":3285,"Ġtest":3286,"èĴĻ":3287,"ĠNorth":3288,"lege":3289,"resent":3290,"åºĶçĶ¨":3291,"ware":3292,"eg":3293,"ĠThat":3294,"ĠBro":3295,"ument":3296,"Ġlinks":3297,"äººåı£":3298,"åĩĨå¤ĩ":3299,"sc":3300,"ç¼ĵ":3301,"è½®":3302,"AT":3303,"ç»§ç»Ń":3304,"ĠCal":3305,"ask":3306,"augh":3307,"work":3308,"ä¼¦":3309,"è¿ĩæĿ¥":3310,"èĲ§":3311,"ems":3312,"åıĤåĬł":3313,"å¿Ļ":3314,"æĪĲåĬŁ":3315,"æĶ¶åħ¥":3316,"ours":3317,"ee":3318,"çĽ¸åħ³":3319,"æĹ§":3320,"åĸĿ":3321,"åºĵ":3322,"hold":3323,"Ġpub":3324,"ump":3325,"ĠCanad":3326,"åºŃ":3327,"ç»¿":3328,"ster":3329,"af":3330,"Ġgovernment":3331,"inc":3332,"èĪŀ":3333,"In":3334,"åĽº":3335,"iron":3336,"uary":3337,"ively":3338,"çĽŁ":3339,"Ġestab":3340,"Ġfeel":3341,"åĲĽ":3342,"yl":3343,"å¤§å®¶":3344,"Ġes":3345,"éļĲ":3346,"ights":3347,"Ġbecame":3348,")ãĢģ":3349,"Ã¡":3350,"éĢı":3351,"Ġmembers":3352,"ients":3353,"21":3354,"Ġturn":3355,"atic":3356,"Ġkeep":3357,"Ġdesc":3358,"è°Ī":3359,"Ġcr":3360,"yn":3361,"001":3362,"Ġlot":3363,"æ°ı":3364,"æľīä¸Ģ":3365,"Ġgrow":3366,"åį±":3367,"()":3368,"èģļ":3369,"ĠJu":3370,"åħĦ":3371,"of":3372,"Ġearly":3373,"è®¸å¤ļ":3374,"vious":3375,"é²ģ":3376,"æĹ¢":3377,"Ġalways":3378,"å½ĵçĦ¶":3379,"æ¾":3380,"Ġexperience":3381,"Ġfriend":3382,"ãĢĭãĢģãĢĬ":3383,"çī¹åĪ«":3384,"Ġmil":3385,"çģŃ":3386,"Ġåķ":3387,"atter":3388,"'ll":3389,"ç¼º":3390,"amed":3391,"Ġä¸Ĭ":3392,"ON":3393,"Ġfollowing":3394,"ä»ĺ":3395,"Ġcome":3396,"ç¿»":3397,"ç¡¬":3398,"Ġaff":3399,"Ġer":3400,"Ġnon":3401,"ead":3402,"ideo":3403,"åĺ´":3404,"ĠOne":3405,"æĶ¿æ²»":3406,"æľĭ":3407,"ä¸įè¦ģ":3408,"icle":3409,"å¸Ń":3410,"Ġview":3411,"lection":3412,"Ġspecial":3413,"ĠAss":3414,"ä¸»ä¹ī":3415,"çĿ£":3416,"å®ĩ":3417,"è¡ĮæĶ¿":3418,"Ð²":3419,"ĠHis":3420,"ç¬Ķ":3421,"uck":3422,"è¯º":3423,"Ġfull":3424,"Ġocc":3425,"ä¼ĳ":3426,"ä¾§":3427,"ourn":3428,"å¤®":3429,"Ġchang":3430,"æĳĦ":3431,"éĽĦ":3432,"ards":3433,"ä¸įæĸŃ":3434,"æĬķèµĦ":3435,"å¡ŀ":3436,"Ġproper":3437,"003":3438,"ĠDo":3439,"Ġstudents":3440,"mm":3441,"Ġlet":3442,"ement":3443,"ething":3444,"çĺ":3445,"è´Ŀ":3446,"thing":3447,"æģ¶":3448,"ille":3449,"oman":3450,"åľĨ":3451,"åĲĦç§į":3452,"Ġspecific":3453,"é¢Ŀ":3454,"åį·":3455,"Ġ25":3456,"Ġoften":3457,"æļ´":3458,"åĢŁ":3459,"æ¶²":3460,"ĠMy":3461,"ç¨³":3462,"çĨŁ":3463,"åĨł":3464,"Ġprot":3465,"åĨ³å®ļ":3466,"å¸ĮæľĽ":3467,"Ġcase":3468,"ilt":3469,"arent":3470,"ortun":3471,"Ġcommunity":3472,"Ġtrad":3473,"Ġå¤ļ":3474,"ĠNe":3475,"Ġmajor":3476,"rodu":3477,"Ġve":3478,"åĪ¤":3479,"Ġput":3480,"Ġsit":3481,"oid":3482,"Ġmaterial":3483,"ç©ºéĹ´":3484,"mb":3485,"Ġ17":3486,"çĽĸ":3487,"ĠOct":3488,"Ġindust":3489,"lement":3490,"åĪº":3491,"Ġx":3492,"èĮ¶":3493,"ĠHar":3494,"éħ¸":3495,"Ġbetter":3496,"ĠBr":3497,"ä¸ºä»Ģä¹Ī":3498,"é²ľ":3499,"ĠState":3500,"æķ´ä¸ª":3501,"ique":3502,"æľºæŀĦ":3503,"Ġbig":3504,"çŁ¥è¯Ĩ":3505,"idd":3506,"èµĦæºĲ":3507,"ç¦ģ":3508,"æįŁ":3509,"éº»":3510,"åºĨ":3511,"å»¶":3512,"ä½³":3513,"å±Ĭ":3514,"Ġleft":3515,"å¾ĹåĪ°":3516,"Ġservices":3517,"èĽĭ":3518,"æ¡¥":3519,"aim":3520,"AR":3521,"äº¡":3522,"äº§çĶŁ":3523,"oney":3524,"ç¨İ":3525,"éģĹ":3526,"Ġnever":3527,"ĠApr":3528,"ĠAf":3529,"ĠEurope":3530,"çªģçĦ¶":3531,"Ġprofess":3532,"çĪ·":3533,"ering":3534,"27":3535,"ane":3536,"ä¸įçŁ¥éģĵ":3537,"åįĸ":3538,"86":3539,"verage":3540,"çĹĩ":3541,"ãĢĲ":3542,"ĠAug":3543,"26":3544,"æŁĵ":3545,"å«":3546,"ç²ī":3547,"ify":3548,"Ġproble":3549,"ä¸ĭçļĦ":3550,"Ġcountry":3551,"åºĦ":3552,"ãĢĳ":3553,"ĠPart":3554,"Ġbelie":3555,"here":3556,"amb":3557,"ãĢĭ,":3558,"side":3559,"ĠFran":3560,"Ġlarge":3561,"Ġä¸ī":3562,"ĠBar":3563,"gether":3564,"Ġtogether":3565,"èĲ¨":3566,"èĢ³":3567,"Ġcamp":3568,"ino":3569,"Ġactiv":3570,"å¹³æĸ¹":3571,"æł¹æľ¬":3572,"Ġmaking":3573,"ç¯ĩ":3574,"ç¬¦":3575,"ability":3576,"Ġdeath":3577,"Ġsum":3578,"osp":3579,"çĲĨè®º":3580,"ĠEl":3581,"åĩłä¸ª":3582,"Ġvisit":3583,"é¥Ń":3584,"è¡¨ç¤º":3585,"åĭĴ":3586,"ĠHer":3587,"021":3588,"èĵĿ":3589,"ç´«":3590,"ä¼Ļ":3591,"åĲĪä½ľ":3592,"Ġallow":3593,"Ġshort":3594,"Ġable":3595,"my":3596,"ĠMe":3597,"æľĭåıĭ":3598,"Ġstory":3599,"ored":3600,"ĠInst":3601,"Ġworking":3602,"Ġless":3603,"éĴĪ":3604,"002":3605,"ĠMc":3606,"utes":3607,"ä»¥åĲİ":3608,"Ġbeh":3609,"å®ĭ":3610,"ending":3611,"istor":3612,"raft":3613,"ĠMarch":3614,"èĭ±è¯Ń":3615,"èĪ°":3616,"èĶ":3617,"ES":3618,"å»ºç«ĭ":3619,"Ġeduc":3620,"æľīåħ³":3621,"Ġmodel":3622,"æĺ¯åľ¨":3623,"ĠAustral":3624,"åħ½":3625,"éĹª":3626,"Ġcost":3627,"Ġâ":3628,"Ġfr":3629,"éĢĲ":3630,"ç§ĳæĬĢ":3631,"Ġsocial":3632,"Ġmillion":3633,"ĠThese":3634,"ä¸ģ":3635,"åºĬ":3636,"urther":3637,"ource":3638,"Ġwon":3639,"å£°éŁ³":3640,"Ġlittle":3641,"Ġgive":3642,"Ġthings":3643,"ĠPre":3644,"äº«":3645,"éĶ®":3646,"æľĢç»Ī":3647,"åıªè¦ģ":3648,"ç²¾ç¥ŀ":3649,"Ġauthor":3650,"Ġcho":3651,"ĠJanuary":3652,"aff":3653,"Ġhistory":3654,"Ġpopulation":3655,"ĠåĽŀ":3656,"Ġsomething":3657,"Ġ24":3658,"agement":3659,"ges":3660,"28":3661,"æĿ¥è¯´":3662,"ä¸įå¾Ĺ":3663,"Ġpay":3664,"reet":3665,"ividual":3666,"ails":3667,"Ġ100":3668,"åİħ":3669,"ror":3670,"åĿı":3671,"èİ±":3672,"Ġopt":3673,"ç½ª":3674,"Ġresearch":3675,"æľ±":3676,"):":3677,"Ġhard":3678,"å®ĮæĪĲ":3679,"Ġpract":3680,"æıĲé«ĺ":3681,"ç§ĭ":3682,"Ġdays":3683,"åı°æ¹¾":3684,"Ġmight":3685,"ĠSept":3686,"å©ļ":3687,"ued":3688,"èĦ±":3689,"Ġet":3690,"çĵ¦":3691,"Ġtell":3692,"ç³»åĪĹ":3693,"ills":3694,"å¦Ī":3695,"lev":3696,"åĲ¯":3697,"çĥŁ":3698,"Ġpast":3699,"ĠApril":3700,"æĹģ":3701,"åıªèĥ½":3702,"hern":3703,"ocus":3704,"alf":3705,"è´¨éĩı":3706,"ĠHigh":3707,"åĪ¶ä½ľ":3708,"isc":3709,"äº§ä¸ļ":3710,"Ġchange":3711,"ze":3712,"é¥°":3713,"Ġgiven":3714,"æĪĲç«ĭ":3715,"å¹ķ":3716,"ĠNot":3717,"ĠWest":3718,"å½¢æĪĲ":3719,"go":3720,"èµ¶":3721,"å®ŀåĬĽ":3722,"ĠEnglish":3723,"ffic":3724,"ĠJune":3725,"ä¸Ńå¤®":3726,"æı¡":3727,"ä¸Ģç§į":3728,"aces":3729,"æ³¨æĦı":3730,"rew":3731,"ĠPres":3732,"AS":3733,"ague":3734,"è¯¸":3735,"ones":3736,"çĽ®æłĩ":3737,"put":3738,"Ġtem":3739,"Ġcreat":3740,"Ġphot":3741,"artment":3742,"ç«¥":3743,"Ġformer":3744,"Ġfeat":3745,"éĿ¢çļĦ":3746,"ĠApp":3747,"==":3748,"éĽħ":3749,"ç±»åŀĭ":3750,"Ġmove":3751,"æĿŁ":3752,"æ³°":3753,"Ġmeet":3754,"æľīéĻĲ":3755,"aint":3756,"Ġfoot":3757,"æ´Ĺ":3758,"Ġsite":3759,"ĠExternal":3760,"ising":3761,"Ġtit":3762,"Ġlanguage":3763,"ĠTra":3764,"æĤ£":3765,"å±ŀäºİ":3766,"Ġword":3767,"Ġåĵ":3768,"èĦī":3769,"é»ĺ":3770,"Ġworks":3771,"ports":3772,"æ®¿":3773,"ä¹Į":3774,"Ġappear":3775,"ches":3776,"çĭĤ":3777,"Ġonline":3778,"85":3779,"åĲ´":3780,"Ġ//":3781,"Ġpriv":3782,"ĠKing":3783,"Ġcult":3784,"ç»¼":3785,"ĠPer":3786,"ĠGl":3787,"è·Ŀç¦»":3788,"ä¸ĸçºª":3789,"æ´ŀ":3790,"org":3791,"ape":3792,"viron":3793,"pecial":3794,"éĻ¤äºĨ":3795,"å¯»":3796,"AN":3797,"ham":3798,"Ġconc":3799,"Ġbecome":3800,"ĠGerman":3801,"å¯Ĵ":3802,"éķľ":3803,"Ġask":3804,"ĠSec":3805,"è®¾å¤ĩ":3806,"ethod":3807,"Ġland":3808,"å¼±":3809,"Ġpersonal":3810,"æī¬":3811,"å¹¸":3812,"ĠChar":3813,"ray":3814,"çº¸":3815,"æĺ¯ä¸Ģä¸ª":3816,"æ²»çĸĹ":3817,"çİ°ä»£":3818,"ese":3819,"iod":3820,"ä»ĭç»į":3821,"aper":3822,"ç«ŁçĦ¶":3823,"è®¨":3824,"å¿ĥä¸Ń":3825,"éģ¿":3826,"</":3827,"iter":3828,"å®½":3829,"äº¿":3830,"Ġ+":3831,"ination":3832,"è¿Ļæł·çļĦ":3833,"ĠII":3834,"éĩĩçĶ¨":3835,"ĠAugust":3836,"oon":3837,"æľ«":3838,"Ġfore":3839,"ĠJuly":3840,"ĠPark":3841,"rap":3842,"Ġfunction":3843,"Ġpot":3844,"Ġindividual":3845,"éĥ¨éĹ¨":3846,"Ġsw":3847,"æĦıæĢĿ":3848,"ç¦»å¼Ģ":3849,"uture":3850,"Ġmult":3851,"çĮ®":3852,"ĠDes":3853,"Ġimpro":3854,"ides":3855,"Ġcond":3856,"ä¸Ńåįİ":3857,"ĠBritish":3858,"ably":3859,"Ġæľ¬":3860,"Ġtimes":3861,"alt":3862,"ances":3863,"è®¡ç®Ĺ":3864,"åĪ©çĶ¨":3865,"ĠQu":3866,"åĩĮ":3867,"è¿·":3868,"val":3869,"Ġside":3870,"Ġtri":3871,"ef":3872,"çİĦ":3873,"ovember":3874,"Ġ19":3875,"åĳĢ":3876,"ç¬¬ä¸ī":3877,"joy":3878,"ĠOctober":3879,"çº¯":3880,"cember":3881,"Ġdevelopment":3882,"ateg":3883,"play":3884,"ference":3885,"Ġlight":3886,"ĠSeptember":3887,"æľºä¼ļ":3888,"ä¸Ĭæµ·":3889,"Ã³":3890,"Ġç¬¬äºĮ":3891,"Ġç¬¬ä¸Ģ":3892,"35":3893,"ä¸įåĪ°":3894,"Ġemploy":3895,"ID":3896,"Ġtyp":3897,"Ġsure":3898,"ĠSw":3899,"å®ŀçİ°":3900,"ography":3901,"500":3902,"è¡¨çİ°":3903,"éĢŁåº¦":3904,"Ġcreate":3905,"æĿ°":3906,"æĢĴ":3907,"æ¢ħ":3908,"Ġsays":3909,"èĻİ":3910,"ĠLa":3911,"åİļ":3912,"itive":3913,"ĠDav":3914,"Ġwomen":3915,"sw":3916,"IS":3917,"nect":3918,"ä¸ĢçĤ¹":3919,"¤Ĳ":3920,"irl":3921,"br":3922,"aly":3923,"ured":3924,"Ġport":3925,"èĭ±åĽ½":3926,"èĤ¯å®ļ":3927,"ĠChe":3928,"ĠSee":3929,"å¦¹":3930,"raw":3931,"ources":3932,"å¦ĸ":3933,"ĠReg":3934,"Ġfood":3935,"Ġwar":3936,"èº«ä¸Ĭ":3937,"Ġyoung":3938,"æ¯ĶèµĽ":3939,"Ġcheck":3940,"Ġfield":3941,"åĽ½åĨħ":3942,"ondon":3943,"æŃ¤æĹ¶":3944,"cil":3945,"çĽĽ":3946,"çĤİ":3947,"åĩºçļĦ":3948,"å¨ĺ":3949,"acy":3950,"æĽ¼":3951,"è§£åĨ³":3952,"ĠFeb":3953,"Ġsugg":3954,"ĠRep":3955,"Ġsuggest":3956,"éĢĥ":3957,"70":3958,"ched":3959,"Ġexample":3960,"ctor":3961,"irth":3962,"åĹ¯":3963,"eder":3964,"ĠæľĢ":3965,"ä½įç½®":3966,"ĠåĵĪåĵĪ":3967,"Ġdev":3968,"å¢ŀåĬł":3969,"Ġgot":3970,"Ġinvol":3971,"ler":3972,"ĠCont":3973,"è¡Įä¸ļ":3974,"å·¥ä¸ļ":3975,"Ġ@":3976,"ä»ª":3977,"ole":3978,"åĽ°":3979,"45":3980,"å±ĭ":3981,"Ġdue":3982,"irc":3983,"åªĴ":3984,"éļľ":3985,"Ġexpect":3986,"Ġgames":3987,"Ġtook":3988,"ival":3989,"è¡Įä¸º":3990,"Ġplayers":3991,"Ġcomplet":3992,"ĠÃ":3993,"è§Ħå®ļ":3994,"Ġexc":3995,"Ġtoday":3996,"è§¦":3997,"è¿ª":3998,"Ñı":3999,"å¾Ĳ":4000,"éªĳ":4001,"Ġdri":4002,"å¹¶ä¸Ķ":4003,"ĠArt":4004,"è·³":4005,"vert":4006,"éĨĴ":4007,"Ġsingle":4008,"å§Ķåĳĺä¼ļ":4009,"ĠNovember":4010,"è°·":4011,"Ġpopular":4012,"Ġhtt":4013,"çļĦå°ı":4014,"åĩºçīĪç¤¾":4015,"ana":4016,"æĹ¶æľŁ":4017,"not":4018,"Ġç¬¬ä¸ī":4019,"ĠDecember":4020,"Ġhaving":4021,"æĸ¹åĲĳ":4022,"Ġcompet":4023,"åİŁåĽł":4024,"Ġlim":4025,"Ġcontact":4026,"Ġ21":4027,"åĳµ":4028,"Ġtot":4029,"ĠèĢĮ":4030,"Ġapplic":4031,"Ġacross":4032,"ä¼°":4033,"itor":4034,"æĬĵ":4035,"Ġreleased":4036,"88":4037,"åıĹåĪ°":4038,"æĶ»åĩ»":4039,"oor":4040,"æĥ³è¦ģ":4041,"ilar":4042,"é¢Ĩå¯¼":4043,"å°¤":4044,"Ġå¯¹":4045,"è¶£":4046,"Ġfund":4047,"äº©":4048,"Ġä»Ģä¹Ī":4049,"roll":4050,"åıĺåĮĸ":4051,"ift":4052,"OR":4053,"åħ¨éĥ¨":4054,"ĠSoc":4055,"Ġofficial":4056,"æĢ§çļĦ":4057,"pro":4058,"ÃŃ":4059,"Ġmen":4060,"Ġaway":4061,"ĠAfric":4062,"Ġä¸Ģä¸ª":4063,"ĠAcc":4064,"çľ¼çĿ":4065,"çĶµåŃĲ":4066,"gr":4067,"ruction":4068,"ä»·åĢ¼":4069,"Ġkey":4070,"ä¸įåı¯":4071,"back":4072,"ä¼łç»Ł":4073,"Ġjo":4074,"ç«ŀ":4075,"apan":4076,"å®ŀéĻħ":4077,"vironment":4078,"Ġbas":4079,"å¤ļçļĦ":4080,"æĿ¯":4081,"è¾°":4082,"Ġfocus":4083,"ä¼¼ä¹İ":4084,"Ġliving":4085,"ä¹Łæľī":4086,"ered":4087,"icy":4088,"uf":4089,"æĿĲæĸĻ":4090,"éĽĨåĽ¢":4091,"ç®Ģåįķ":4092,"Ġhowever":4093,"å®ľ":4094,"Ġlocated":4095,"ots":4096,"æī©":4097,"urity":4098,"Ġfive":4099,"abor":4100,"å¹¶ä¸į":4101,"Ġåĳ¢":4102,"çĶ³":4103,"å®¹æĺĵ":4104,"èĮĥåĽ´":4105,"Ġpossible":4106,"Ġvol":4107,"æ±ł":4108,"å§ĵ":4109,"Ġå¼Ģ":4110,"ald":4111,"æĵįä½ľ":4112,"ĠLondon":4113,"æĸ°çļĦ":4114,"ç¾½":4115,"åįĪ":4116,"çĶµè¯Ŀ":4117,"Ġident":4118,"ä»ĸä»¬çļĦ":4119,"Ġnet":4120,"Ð¼":4121,"å§Ĩ":4122,"Ð´":4123,"Ġjob":4124,"äºĪ":4125,"å¿½":4126,"éĴ¢":4127,"çĥ§":4128,"ä»¥ä¸Ĭ":4129,"na":4130,"å°º":4131,"ele":4132,"è¾¾åĪ°":4133,"æĿ¡ä»¶":4134,"æ±ĩ":4135,"Ġcomb":4136,"æ³ķåĽ½":4137,"though":4138,"ç»ıè¿ĩ":4139,"åıĤä¸İ":4140,"ĠCor":4141,"umb":4142,"åĩºåİ»":4143,"æĥ³åĪ°":4144,"Ġ\\":4145,"å¥¹çļĦ":4146,"for":4147,"ners":4148,"iting":4149,"ĠDep":4150,"åĲİæĿ¥":4151,"Ġä¼ļ":4152,"Ġtype":4153,"ĠSer":4154,"è¯Ńè¨Ģ":4155,"åīĤ":4156,"æķĻå¸Ī":4157,"æĶ¿çŃĸ":4158,"Ġsound":4159,"999":4160,"Ġfre":4161,"æ¨¡å¼ı":4162,"Ġtre":4163,"çľŁæŃ£":4164,"åĺĽ":4165,"Ġsaf":4166,"Ġamong":4167,"çº·":4168,"æ¼«":4169,"Ġcover":4170,"ä¿Ħ":4171,"è¯¯":4172,"æĹ¶ä»£":4173,"åįģåĪĨ":4174,"ips":4175,"Ġcommon":4176,"äº¤éĢļ":4177,"Ġä¸ĭ":4178,"æ±½":4179,"ĠSm":4180,"çĤ¹å¤´":4181,"çģ¯":4182,"Ġhold":4183,"Ġlive":4184,"èª":4185,"anies":4186,"èī²çļĦ":4187,"çĦ¶èĢĮ":4188,"ien":4189,"åŃĶ":4190,"é¢ľ":4191,"Ġreview":4192,"Ġcharacter":4193,"ript":4194,"ç¼ĺ":4195,"Ġeconom":4196,"Ġvalue":4197,"Ġothers":4198,"ula":4199,"æµª":4200,"æľŁéĹ´":4201,"ĠäºĮ":4202,"å¯¹æĸ¹":4203,"Ġcame":4204,"åĶ¯":4205,"Ġband":4206,"ington":4207,"ĠHouse":4208,"å¾Ħ":4209,"Ġcareer":4210,"éļĨ":4211,"(\"":4212,"åı¦å¤ĸ":4213,"çŃ¾":4214,"æķħäºĭ":4215,"imate":4216,"uk":4217,"ĠAg":4218,"avor":4219,"çľ¼çĿĽ":4220,"ids":4221,"ä¸¤äºº":4222,"Ġcourse":4223,"Ġcrit":4224,"ford":4225,"æ³ķå¾ĭ":4226,"',":4227,"éĢĶ":4228,"fect":4229,"Ġbuilding":4230,"Ġsize":4231,"adem":4232,"åĩłä¹İ":4233,"Ġmag":4234,"ibr":4235,"çĳŀ":4236,"ä¿ĥ":4237,"éļıçĿĢ":4238,"Ġcontrol":4239,"èģĮä¸ļ":4240,"ruary":4241,"åľĪ":4242,"åĬŀæ³ķ":4243,"Ġunderstand":4244,"Ġfar":4245,"33":4246,"utions":4247,"Ġvideo":4248,"è¿İ":4249,"Ġmember":4250,"æ¨ª":4251,"å¿į":4252,"Ġlik":4253,"fl":4254,"åĮ»éĻ¢":4255,"è£Ĥ":4256,"Ġparticular":4257,"Ġperiod":4258,"Ġmean":4259,"çĸ¾":4260,"ç§°ä¸º":4261,"Ġannoun":4262,"çľī":4263,"Ġhig":4264,"æĪĺæĸĹ":4265,"Ġdeb":4266,"èĢĮæĺ¯":4267,"æĿľ":4268,"ç»¼åĲĪ":4269,"Ġdr":4270,"ĠStud":4271,"æıı":4272,"!!":4273,"æĻ®éĢļ":4274,"é¥®":4275,"èĻĳ":4276,"ä»¥ä¸º":4277,"gest":4278,"AC":4279,"ĠInternational":4280,"ĠâĢ":4281,"Ġrole":4282,"illed":4283,"::":4284,"æĬ±":4285,"åŃĲçļĦ":4286,"aul":4287,"Ġfinal":4288,"åį´æĺ¯":4289,"ĠJapan":4290,"ç§ģ":4291,"çĶŁçī©":4292,"Ġprop":4293,"åĵģçīĮ":4294,"æķĪæŀľ":4295,"__":4296,"Ñĸ":4297,"æĿ¥äºĨ":4298,"å¯¼èĩ´":4299,"lin":4300,"Ġtreat":4301,"è°ĵ":4302,"\">":4303,"å®ŀéªĮ":4304,"Ġrepresent":4305,"uff":4306,"ĠEar":4307,"å¹´ä»£":4308,"æ³½":4309,"Ġfuture":4310,"aken":4311,"now":4312,"ĠAct":4313,"iber":4314,"Ġdi":4315,"Ġredu":4316,"Ġcou":4317,"ç¼©":4318,"æĪĺäºī":4319,"å¯¸":4320,"umn":4321,"ä»»åĬ¡":4322,"æ¢ģ":4323,"ison":4324,"ops":4325,"ief":4326,"Th":4327,"çĬ¯":4328,"Ġep":4329,"ä¸Ģå£°":4330,"éĺ»":4331,"Ġbody":4332,"åĬª":4333,"Ġoriginal":4334,"åĬłåħ¥":4335,"æ¯ķä¸ļ":4336,"urg":4337,"oph":4338,"ready":4339,"åĩĿ":4340,"æĮĳ":4341,"ç´¯":4342,"ither":4343,"Ġabove":4344,"Ġmedia":4345,"Ġplayed":4346,"èĩ£":4347,"Ġheld":4348,"çĴ":4349,"Ġvarious":4350,"éº¦":4351,"Ġåı¯ä»¥":4352,"åģ¥åº·":4353,"çıł":4354,"ç»ıèĲ¥":4355,"Ġversion":4356,"ogn":4357,"ĠCollege":4358,"aps":4359,"ĠAir":4360,"ĠAng":4361,"Ġplease":4362,"è§ĦåĪĴ":4363,"mar":4364,"Ġbo":4365,"Ġenjoy":4366,"éĩĮçļĦ":4367,"ĠWilliam":4368,"EN":4369,"reg":4370,"Ġhuman":4371,"åģı":4372,"ouncil":4373,"çĮĽ":4374,"ç»©":4375,"enef":4376,"ĠFebruary":4377,"åĿ¦":4378,"ĠRec":4379,"ç³ĸ":4380,"åıįåºĶ":4381,"ĠFr":4382,"Ġroom":4383,"ĠHistory":4384,"ĠServ":4385,"ĠMich":4386,"èĢģå¸Ī":4387,"rench":4388,"most":4389,"ett":4390,"hers":4391,"ental":4392,"ĠåĴĮ":4393,"Ġspace":4394,"ä¸ĩåħĥ":4395,"Ġinit":4396,"è¿¹":4397,"æĭħä»»":4398,"å¸®åĬ©":4399,"éĥĳ":4400,"æĬĺ":4401,"Ġaccount":4402,"Ġwhy":4403,"æŃ£å¼ı":4404,"Ġrepl":4405,"ä½ľèĢħ":4406,"å°ıæĹ¶":4407,"çŀ¬":4408,"Ġnamed":4409,"Ġlearn":4410,"åįģäºĮ":4411,"çĤ¸":4412,"çļĦä¸Ģä¸ª":4413,"time":4414,"åĪ¶åº¦":4415,"atural":4416,"ç¢İ":4417,"Ġant":4418,"éĽ¶":4419,"elt":4420,"å°¾":4421,"å¾¡":4422,"IC":4423,"å¸ģ":4424,"Ġproducts":4425,"æľīçļĦ":4426,"aining":4427,"over":4428,"Ch":4429,"book":4430,"Ġaccording":4431,"æīįèĥ½":4432,"Ġbuilt":4433,"Ġnational":4434,"ä¸ĢæŃ¥":4435,"çļĦäºĭæĥħ":4436,"ĠæĿ¥":4437,"ĠMon":4438,"éĩĮéĿ¢":4439,"åĪĨåĪ«":4440,"ç»Ŀå¯¹":4441,"aur":4442,"Ġself":4443,"ä»ģ":4444,"isk":4445,"æİ¥åıĹ":4446,"li":4447,"Ġrecomm":4448,"åĪĨéĴŁ":4449,"èĥŀ":4450,"æĩĤ":4451,"Ġstrong":4452,"æĳ©":4453,"Ġfem":4454,"éĵ¶è¡Į":4455,"ators":4456,"å·§":4457,"Ġstarted":4458,"ground":4459,"Ġstudy":4460,"å¢Ļ":4461,"ç»ĦæĪĲ":4462,"æľīäºº":4463,"é¸¡":4464,"åħ³äºİ":4465,"å½»":4466,"åŁĥ":4467,"ĠRuss":4468,"å¦ĩ":4469,"ma":4470,"Ġindustry":4471,"Ġhousehold":4472,"Ġclear":4473,"Ġdoc":4474,"èµĦæĸĻ":4475,"Ġever":4476,"ĠSan":4477,"æĺİçĻ½":4478,"æĹĹ":4479,"èī¾":4480,"rain":4481,"å°±ç®Ĺ":4482,"Ġsix":4483,"ples":4484,"ĠæĪĳä»¬":4485,"32":4486,"å¼ĥ":4487,"æŃ£åľ¨":4488,"200":4489,"äººä»¬":4490,"IT":4491,"apt":4492,"èĻ«":4493,"Ġlow":4494,"Ġå¤ª":4495,"èı²":4496,"36":4497,"Ġpublished":4498,"Ġbegan":4499,"ĠDr":4500,"åĩĢ":4501,"ä¸įå°ĳ":4502,"äººç±»":4503,"Ġaverage":4504,"è¶ħè¿ĩ":4505,"ĠFrom":4506,"ica":4507,"éĹŃ":4508,"è½°":4509,"Ġbirth":4510,"åĨįæ¬¡":4511,"Ġnews":4512,"ilities":4513,"åĳĬè¯ī":4514,"Ġevents":4515,"oe":4516,"Ġnight":4517,"Ġmanag":4518,"è®¿":4519,"AL":4520,"çĤ®":4521,"å°±ä¼ļ":4522,"ED":4523,"éģŃ":4524,"Ġsuper":4525,"uation":4526,"Ġlooking":4527,"çĶ¨äºİ":4528,"Ġmeans":4529,"å¸¦çĿĢ":4530,"opp":4531,"ĠPresident":4532,"ĠSch":4533,"åĽ¾ä¹¦":4534,"éģį":4535,"obal":4536,"ä»¿":4537,"Ġkind":4538,"éĹ®éģĵ":4539,"é¤Ĳ":4540,"Ġfurther":4541,"è¯ĳ":4542,"æ¸ħæ¥ļ":4543,"é¡µ":4544,"å±ı":4545,"ĠMark":4546,"sel":4547,"Ġrange":4548,"990":4549,"åħĪçĶŁ":4550,"cast":4551,"Ġalready":4552,"åĺī":4553,"Ġreceived":4554,"Ġpri":4555,"022":4556,"èļ":4557,"æĭľ":4558,"Ġrad":4559,"Ġmakes":4560,"Ġstyle":4561,"èµŀ":4562,"åħ¼":4563,"itary":4564,"ming":4565,"Ġleast":4566,"idence":4567,"Ġç»Ļ":4568,"levision":4569,"Ġfeatures":4570,"Ġonce":4571,"Ġgeneral":4572,"Ġthird":4573,"Ġfeature":4574,"æľīæķĪ":4575,"ĠAdd":4576,"äºİæĺ¯":4577,"çĶŁåĳ½":4578,"Ġenc":4579,"used":4580,"ĠGener":4581,"Ġopportun":4582,"Ġclaim":4583,"Ġcompanies":4584,"Ġbelow":4585,"Ġpage":4586,"Ġwent":4587,"ites":4588,"äºĨè§£":4589,"ĠåĪ°":4590,"ĠDon":4591,"æ®ĭ":4592,"ĠSome":4593,"ĠFil":4594,"right":4595,"iol":4596,"ä¼¸":4597,"Ġdescrib":4598,"ournal":4599,"Ġcertain":4600,"Ġprevious":4601,"éĢłæĪĲ":4602,"ĠAmerica":4603,"Ġmoney":4604,"lu":4605,"Ġ50":4606,"ĠAc":4607,"Ġhost":4608,"ae":4609,"åĨľä¸ļ":4610,"Ġsearch":4611,"ĠOur":4612,"998":4613,"æĽ´åĬł":4614,"çŁ¿":4615,"å²©":4616,"çĭĹ":4617,"è¯ļ":4618,"æĬµ":4619,"Ġwr":4620,"75":4621,"Ġmethod":4622,"å¤§éĩı":4623,"rick":4624,"å®ŀæĸ½":4625,"epend":4626,"åĲİçļĦ":4627,"iforn":4628,"duct":4629,"çĬ¶æĢģ":4630,"Ġpie":4631,"äººçī©":4632,"Ġtotal":4633,"--------":4634,"Ġengine":4635,"Ġsignific":4636,"æľĹ":4637,"Ġsoft":4638,"load":4639,"æľīéĻĲåħ¬åı¸":4640,"lete":4641,"aced":4642,"Ġincluded":4643,"æ°´å¹³":4644,"ä¼ļè®®":4645,"ä¸īä¸ª":4646,"ĠVal":4647,"åİī":4648,"Ġæ²¡æľī":4649,"å·¦åı³":4650,"ç±į":4651,"Ġbar":4652,"Ġrelations":4653,"é¢ĨåŁŁ":4654,"ĠDem":4655,"ä¸ºä¸»":4656,"Ġbenef":4657,"Ġåı¯":4658,"Ġåķ¦":4659,"å¹¼":4660,"Ġ23":4661,"æĺ¾ç¤º":4662,"eal":4663,"åĮºåŁŁ":4664,"Ġçİ°åľ¨":4665,"æĹĭ":4666,"Ġcreated":4667,"æĺİæĺ¾":4668,"Ġbegin":4669,"hel":4670,"ĠWhile":4671,"Ġneeds":4672,"olution":4673,"Ġtw":4674,"èģĶåĲĪ":4675,"attle":4676,"ĠFin":4677,"Ġens":4678,"ç»Īäºİ":4679,"BC":4680,"Ġfamil":4681,"åºŁ":4682,"æĭĶ":4683,"Ġseen":4684,"cle":4685,"çľŁæĺ¯":4686,"ades":4687,"æĺł":4688,"è¹":4689,"ĠPhil":4690,"Ġsimilar":4691,"å¯º":4692,"ãĢĭ(":4693,"æ²¿":4694,"29":4695,"Ġbeaut":4696,"Ġmonths":4697,"Ġrequire":4698,"ifornia":4699,"unch":4700,"å¤º":4701,"Ġsent":4702,"Ġaud":4703,"èĤ¥":4704,"æĭ³":4705,"æ´ª":4706,"OS":4707,"æĳĨ":4708,"ä¼´":4709,"æĢĿæĥ³":4710,"åĨĮ":4711,"Ġareas":4712,"èĢħçļĦ":4713,"ä¹ĺ":4714,"å¤ļå°ĳ":4715,"èĩªçĶ±":4716,"iction":4717,"çĽ¸ä¿¡":4718,"Ġchall":4719,"èĿ":4720,"Ġprivate":4721,"unic":4722,"ç»ıéªĮ":4723,"Ġprovided":4724,"useum":4725,"Ġå¤©":4726,"éŀ":4727,"åĬĽçļĦ":4728,"å¿ĥçĲĨ":4729,"æĮĩå¯¼":4730,"Ġvill":4731,"dom":4732,"èĪį":4733,"ĠFrench":4734,"ä¸ļåĬ¡":4735,"Ġrefer":4736,"é¸Ł":4737,"ĠDist":4738,"chie":4739,"éĶĭ":4740,"å¿ĥéĩĮ":4741,"wh":4742,"åĤ¨":4743,"Ġson":4744,"æ°ĳæĹı":4745,"Ġenough":4746,"åľ¨è¿Ļ":4747,"ara":4748,"å²¸":4749,"ä¸įä»ħ":4750,"84":4751,"Ġpress":4752,"Ġphys":4753,"ĠSte":4754,"orge":4755,"æķĻæİĪ":4756,"åĲĮæł·":4757,"ĠÂ·":4758,"Ġè¿Ļä¸ª":4759,"Ġ22":4760,"ÑģÑĤ":4761,"æĸĩåŃ¦":4762,"éĥ½ä¸į":4763,"ville":4764,"ume":4765,"ĠçŁ¥éģĵ":4766,"æĻ¶":4767,"æ½ľ":4768,"ama":4769,"AM":4770,"Ġstation":4771,"\")":4772,"å¿ĺ":4773,"Ġminutes":4774,"Ġdone":4775,"Ġèĩªå·±":4776,"Ġder":4777,"ule":4778,"bor":4779,"ãĢĤ[":4780,"æī§è¡Į":4781,"997":4782,"ancial":4783,"è¾Ĩ":4784,"Ġsqu":4785,"å¾Ĵ":4786,"æĽ¿":4787,"ĠGod":4788,"Ġlo":4789,"ux":4790,"ĠBlack":4791,"Ġcoll":4792,"äºĨä¸Ģä¸ª":4793,"ä¸ĭåİ»":4794,"èıĮ":4795,"åĢį":4796,"å¢¨":4797,"æ³ī":4798,"ords":4799,"ĠRiver":4800,"ĠUK":4801,"ÑĮ":4802,"anks":4803,"Ġstruct":4804,"ĠCalifornia":4805,"room":4806,"è±Ĩ":4807,"Ġquality":4808,"rag":4809,"head":4810,"Ġcomes":4811,"31":4812,"çĭ¬ç«ĭ":4813,"ĠCenter":4814,"åĨħçļĦ":4815,"Ġmat":4816,"ĠAssoci":4817,"é¼ĵ":4818,"äºĭä»¶":4819,"å¾·åĽ½":4820,"å¦Ĥä»Ĭ":4821,"å½¢å¼ı":4822,"Ġwind":4823,"Ġener":4824,"æķ¬":4825,"Ġhot":4826,"äºĨèµ·æĿ¥":4827,"è±ª":4828,"%,":4829,"Ġmot":4830,"±ä¹Ĳ":4831,"irt":4832,"minist":4833,"Ġrespons":4834,"éĩįçĤ¹":4835,"ĠÐ¿":4836,"year":4837,"estern":4838,"Ġpurch":4839,"ä½ĵçļĦ":4840,"Ġaddition":4841,"æ²Ī":4842,"éļĶ":4843,"ari":4844,"Ġcal":4845,"é¢Ĺ":4846,"è½¦ç«Ļ":4847,"Ġcentury":4848,"è®¢":4849,"ĠJust":4850,"icro":4851,"æĪĲåĳĺ":4852,"Ġhy":4853,"éĥ½æľī":4854,"Ġhalf":4855,"æľĢé«ĺ":4856,"åł¡":4857,"èªī":4858,"asing":4859,"ä¹ĥ":4860,"Ġcut":4861,"èķ":4862,"Ġå°±æĺ¯":4863,"ĠPeople":4864,"ĠMr":4865,"Ġbring":4866,"çĶ¨æĪ·":4867,"ael":4868,"Ġenvironment":4869,"iff":4870,"ĠHere":4871,"å®¢æĪ·":4872,"å®ĥä»¬":4873,"ä¸»ä»»":4874,"Ġbreak":4875,"æĮīçħ§":4876,"è´´":4877,"åįıä¼ļ":4878,"itch":4879,"æ¯ķç«Ł":4880,"çĽ®çļĦ":4881,"æīĭæľº":4882,"å¹´è½»":4883,"off":4884,"åĩºä¸Ģ":4885,"åĩŃ":4886,"Ġposition":4887,"Ġmeas":4888,"çī¹çĤ¹":4889,"ship":4890,"è®¤è¯Ĩ":4891,"ĠNews":4892,"gress":4893,"ores":4894,"Ġdeal":4895,"æģ¢":4896,"æ®Ĭ":4897,"Ġoffice":4898,"è¿ħ":4899,"ç»ĵåĲĪ":4900,"face":4901,"Ġestablished":4902,"Ġcook":4903,"éĤ¦":4904,"ij":4905,"ification":4906,"oo":4907,"ĠIsland":4908,"ĠCanada":4909,"çļĦé«ĺ":4910,"itted":4911,"avy":4912,"ĠæĿİ":4913,"è´¸":4914,"nes":4915,"åĩ¤":4916,"è¯¢":4917,"Ġshare":4918,"Ġä¸įè¿ĩ":4919,"iddle":4920,"å¨ľ":4921,"Ġexist":4922,"è¡¡":4923,"æĿ¥èĩª":4924,"åį«çĶŁ":4925,"We":4926,"ä»·æł¼":4927,"Ġserved":4928,"ĠIm":4929,"Ġassoci":4930,"ĠTV":4931,"Ġthing":4932,"Â°":4933,"Ġarch":4934,"æ¬²":4935,"å¥¶":4936,"Ġexam":4937,"Ġaddress":4938,"æŃ£å¸¸":4939,"US":4940,"çģ°":4941,"Ġperformance":4942,"åĿĢ":4943,"ĠãĢĲ":4944,"Ġcontent":4945,"å°¸":4946,"ĠTrans":4947,"Ġstep":4948,"ĠPat":4949,"rest":4950,"ided":4951,"Ġ26":4952,"ĠCour":4953,"Ġgen":4954,"Ġdiscuss":4955,"Ġblack":4956,"empt":4957,"ĠDavid":4958,"iences":4959,"æĻĭ":4960,"uel":4961,"éĿ¢åīį":4962,"Ġproduction":4963,"Ġtechnology":4964,"996":4965,"è½¯ä»¶":4966,"çŀ¬éĹ´":4967,"aker":4968,"ened":4969,"anc":4970,"å¹¶æ²¡æľī":4971,"æ±¤":4972,"è®Ńç»ĥ":4973,"EC":4974,"Ġè¿ĩ":4975,"field":4976,"Ġlate":4977,"ç¬ĳéģĵ":4978,"Ġassist":4979,"Ã¼":4980,"ables":4981,"è®¯":4982,"ĠMore":4983,"å®¶åºŃ":4984,"add":4985,"earch":4986,"Ġupd":4987,"ends":4988,"ä¼ĺç§Ģ":4989,"æ³Ľ":4990,"åŁ¹åħ»":4991,"Ġmess":4992,"æ¬§æ´²":4993,"åĨ¬":4994,"Ġtravel":4995,"ä¿ĿæĮģ":4996,"åĪĬ":4997,"elling":4998,"Ġparticip":4999,"Ġä¸įæĺ¯":5000,"æķı":5001,"ĠRed":5002,"ĠæĢİä¹Ī":5003,"Ġtax":5004,"å¹³åı°":5005,"Ġpur":5006,"ç»Ĩèĥŀ":5007,"åĬ¨çī©":5008,"Ġissues":5009,"åıĸå¾Ĺ":5010,"ĠHol":5011,"æĭŁ":5012,"åķĨä¸ļ":5013,"çĬ¹":5014,"ecut":5015,"ä¸įä½ı":5016,"ibility":5017,"ç¹":5018,"ĠçĶŁ":5019,"è¾Ī":5020,"è¿Ļæ¬¡":5021,"Ġprim":5022,"Ġtour":5023,"çĥ¦":5024,"Ġmiss":5025,"ç»ĵæĿŁ":5026,"ç¡®å®ļ":5027,"åĪ«äºº":5028,"Ã¶":5029,"åĭĩ":5030,"ault":5031,"æıĲåįĩ":5032,"åĬŀåħ¬":5033,"æĦıè¯Ĩ":5034,"Ġhours":5035,"æĮº":5036,"Ġcontrib":5037,"Ġpolitical":5038,"ender":5039,"aring":5040,"Ġdidn":5041,"æ´¥":5042,"Ġquestion":5043,"å°ĺ":5044,"èĪĴ":5045,"ampions":5046,"éĥİ":5047,"Ġquick":5048,"Ġinternational":5049,"Ġroad":5050,"éķ¿çļĦ":5051,"èĩªåĬ¨":5052,"onse":5053,"ĠEm":5054,"Ġé«ĺ":5055,"ä¾¿æĺ¯":5056,"çĽĲ":5057,"æĹħæ¸¸":5058,"wood":5059,"ä»¥åīį":5060,"è¢Ń":5061,"hib":5062,"Ġred":5063,"Ġdiff":5064,"sy":5065,"Ġfall":5066,"çĶĺ":5067,"ĠEast":5068,"Ġheart":5069,"éĻ·":5070,"ĠStreet":5071,"åĪĽæĸ°":5072,"åı¹":5073,"æģ¢å¤į":5074,"Ġprotect":5075,"igital":5076,"æĺ¯åĲ¦":5077,"Ġintrodu":5078,"Ġhistor":5079,"èĥ¸":5080,"æĶ¹åıĺ":5081,"Ġparty":5082,"Ġtalk":5083,"Ġmom":5084,"éĺħ":5085,"34":5086,"ç¹ģ":5087,"->":5088,"aid":5089,"ĠInter":5090,"æµ®":5091,"åĵªéĩĮ":5092,"åħ±åĴĮ":5093,"ception":5094,"åĩ¯":5095,"Ġanim":5096,"Ġthought":5097,"èµı":5098,"adu":5099,"ä½ĵç³»":5100,"urb":5101,"lected":5102,"Ġpercent":5103,"Ġobject":5104,"cover":5105,"ext":5106,"Ġdetails":5107,"éĩįæĸ°":5108,"Ġincludes":5109,"ules":5110,"æ¾³":5111,"Ġnov":5112,"æ¯ģ":5113,"ĠFirst":5114,"pecially":5115,"çĭł":5116,"ufact":5117,"éĶĢåĶ®":5118,"Ġdeter":5119,"ĠLaw":5120,"Ġeducation":5121,"å±ħçĦ¶":5122,"ml":5123,"çķª":5124,"It":5125,"set":5126,"å¹»":5127,"åŁ¹è®Ń":5128,"è¾Ľ":5129,"æĪª":5130,"opy":5131,"istic":5132,"Ġimpact":5133,"åªĴä½ĵ":5134,"æıĴ":5135,"37":5136,"ĠPort":5137,"æĹ¦":5138,"Ã¤":5139,"980":5140,"å°ĸ":5141,"æ¡£":5142,"Ġlog":5143,"Ġadded":5144,"ĠEngland":5145,"Ġsignificant":5146,"æĬ½":5147,"roups":5148,"Ġfootball":5149,"ĠAut":5150,"irm":5151,"è§£éĩĬ":5152,"å£ģ":5153,"çļĨ":5154,"åĪĳ":5155,"bl":5156,"Ġess":5157,"Ġä¸Ń":5158,"ä¸¥éĩį":5159,"ky":5160,"Ġ27":5161,"åĪ¶éĢł":5162,"âĢĺ":5163,"åĴ±":5164,"Ġpain":5165,"éĵģè·¯":5166,"æĻĵ":5167,"'d":5168,"Ġborn":5169,"å½ĵåľ°":5170,"Ġresults":5171,"Ġmention":5172,"aching":5173,"çļĦåľ°æĸ¹":5174,"ny":5175,"å¼ķèµ·":5176,"Ġeasy":5177,"Ġmind":5178,"è®¾æĸ½":5179,"Ġplayer":5180,"Ġdest":5181,"è¯¾ç¨ĭ":5182,"Ġåģļ":5183,"Ġpack":5184,"omin":5185,"æĲŀ":5186,"ĠBu":5187,"Ġproblem":5188,"ivil":5189,"itute":5190,"çĽ¸å½ĵ":5191,"è¿ģ":5192,"Ġshows":5193,"è°ĥæŁ¥":5194,"åįģä¸Ģ":5195,"ĠIS":5196,"è°ĭ":5197,"æļĤ":5198,"åİ»äºĨ":5199,"ological":5200,"atform":5201,"Ġtitle":5202,"ĠåıĪ":5203,"å¿ł":5204,"Ġprint":5205,"ĠJames":5206,"è¯´çļĦ":5207,"Ġconnect":5208,"Ġ||":5209,"ĠBer":5210,"Ġåĩº":5211,"aign":5212,"64":5213,"Ġbuy":5214,"mit":5215,"Ġwritten":5216,"å®¶çļĦ":5217,"çĮª":5218,"æµ©":5219,"Ġç¬¬åĽĽ":5220,"æĸ°éĹ»":5221,"Ġhon":5222,"cont":5223,"Ġsold":5224,"å¿Ĩ":5225,"è¶ĬæĿ¥":5226,"ä¸°å¯Į":5227,"Ġfront":5228,"Ġste":5229,"ude":5230,"str":5231,"Ġenergy":5232,"å®¾":5233,"Ġdoing":5234,"995":5235,"arget":5236,"æł¸å¿ĥ":5237,"çĪ¶äº²":5238,"aving":5239,"è¡ĮåĬ¨":5240,"é¡¿æĹ¶":5241,"ĠIndia":5242,"ĠOff":5243,"Ġclub":5244,"åĲįç§°":5245,"icult":5246,"ĠList":5247,"Ġæīĵ":5248,"æ±½è½¦":5249,"Ġpotential":5250,"Ġtaken":5251,"åĨľæĿĳ":5252,"Ġtrack":5253,"Ġå¥¹":5254,"è¶ĬæĿ¥è¶Ĭ":5255,"å¼Ĺ":5256,"è¾ħ":5257,"ĠBook":5258,"è´£ä»»":5259,"æ½®":5260,"55":5261,"ensive":5262,"èĴĤ":5263,"æµĵ":5264,"Ġparent":5265,"Ġ28":5266,"ĠNet":5267,"Ġattack":5268,"æīİ":5269,"Ġcode":5270,"Ġled":5271,"Ġwhether":5272,"ĠÐ²":5273,"ç¨ĭåº¦":5274,"åĬªåĬĽ":5275,"Ġbit":5276,"æ»ĳ":5277,"Ġap":5278,"çļĦæĥħåĨµ":5279,"äº¤æĺĵ":5280,"æ£ĢæŁ¥":5281,"èº«ä»½":5282,"è¯¦":5283,"ä¿Ĺ":5284,"ç¿¼":5285,"Ġhom":5286,"é©»":5287,"ä¹Łæ²¡æľī":5288,"ensus":5289,"å»·":5290,"ĠCons":5291,"å¥³äºº":5292,"Ġworked":5293,"ä¼į":5294,"çĲĨè§£":5295,"nov":5296,"æĮĤ":5297,"åľ¨äºĨ":5298,"çĩĥ":5299,"åıĳè¡Į":5300,"ĠOther":5301,"æĪ´":5302,"Ġperfect":5303,"Ġey":5304,"ä¸įå¥½":5305,"ä¾µ":5306,"Ġtool":5307,"Ġachie":5308,"Ġeffort":5309,"Ġoffers":5310,"æ¢°":5311,"Ġfire":5312,"ä¼Ł":5313,"Ġsomeone":5314,"Ġentire":5315,"çİĽ":5316,"Ġelse":5317,"Ġclose":5318,"Ġrecogn":5319,"æĦıä¹ī":5320,"ÃĹ":5321,"ci":5322,"ä¸įäºĨ":5323,"born":5324,"ĠDay":5325,"èĢĥèĻĳ":5326,"æĶ¹éĿ©":5327,"è¿«":5328,"æ¶ī":5329,"å¼Ħ":5330,"ires":5331,"åħĦå¼Ł":5332,"ĠKe":5333,"èĩ³äºİ":5334,"Ġaction":5335,"è§Ħæ¨¡":5336,"atur":5337,"tr":5338,"itar":5339,"çıį":5340,"åĨĴ":5341,"Ġdou":5342,"å¦Ļ":5343,"Ġèĥ½":5344,"Ġ40":5345,"åħ±åĲĮ":5346,"pper":5347,"Ġprofessional":5348,"è¢ĭ":5349,"Ġlink":5350,"uter":5351,"Ġdoesn":5352,"ait":5353,"Ġground":5354,"æĻ¨":5355,"cks":5356,"ÑĢÐ°":5357,"çĭ¼":5358,"Ġtrue":5359,"èµ«":5360,"iful":5361,"ĠYour":5362,"åĽ½çļĦ":5363,"ĠIndian":5364,"icles":5365,"Ġsett":5366,"ĠRober":5367,"æĥ¯":5368,"ĠChina":5369,"ç«¹":5370,"éĿ¢å¯¹":5371,"æĥľ":5372,"åĳĪ":5373,"èħ¾":5374,"ico":5375,"æŁĶ":5376,"Ġwhite":5377,"ĠDis":5378,"ĠAnt":5379,"Ġpoints":5380,"å¥ı":5381,"Ñĭ":5382,"è¾ĸ":5383,"æĮ¯":5384,"èħ¿":5385,"ĠLeague":5386,"Ġtaking":5387,"æ¤įçī©":5388,"Ġclos":5389,"ĠAccording":5390,"Ġeither":5391,"text":5392,"å»ºè®®":5393,"Ġtraining":5394,"ç½ĳç«Ļ":5395,"ises":5396,"Ġreason":5397,"atory":5398,"æıĲåĩº":5399,"ailed":5400,"åı¬":5401,"ĠMusic":5402,"Ġop":5403,"ĠOf":5404,"ãĢģâĢľ":5405,"Ġcirc":5406,"Ġamount":5407,"994":5408,"çº¹":5409,"åĪ°åºķ":5410,"ĠHealth":5411,"èº«è¾¹":5412,"æ¶Īæģ¯":5413,"åĬ³åĬ¨":5414,"ĠåĨį":5415,"Ġgetting":5416,"ĠAustralia":5417,"clus":5418,"æĽ¾ç»ı":5419,"æķ°éĩı":5420,"èĨľ":5421,"ached":5422,"Ñĩ":5423,"iple":5424,"æ¯Ķå¦Ĥ":5425,"ç®±":5426,"ĠInc":5427,"oyal":5428,"Ġyet":5429,"æ¶Īè´¹":5430,"resh":5431,"å°ĨåĨĽ":5432,"Ġidea":5433,"Ġè¿ĺæĺ¯":5434,"èĬĤçĽ®":5435,"Ġdesigned":5436,"å¥Ī":5437,"ridge":5438,"ĠSim":5439,"çĽ®åħī":5440,"Ġnorth":5441,"Ġå½ĵ":5442,"Ġunique":5443,"èį·":5444,"hips":5445,"Ġactually":5446,"Ġåĸľæ¬¢":5447,"ĠRich":5448,"tain":5449,"å¹½":5450,"æĪĳä»¬çļĦ":5451,"è¯´è¯Ŀ":5452,"ĠDuring":5453,"éĺ¶æ®µ":5454,"ha":5455,"åħ¨çĲĥ":5456,"rug":5457,"AP":5458,"Ġprovides":5459,"ä»¥ä¸ĭ":5460,"Ġcolor":5461,"Ġstay":5462,"æĺ¯ä¸į":5463,"Ġimprove":5464,"æŁ³":5465,"Ġhope":5466,"Ġboard":5467,"æ¶¦":5468,"Ġä»İ":5469,"ĠSen":5470,"ĠWhite":5471,"å°¤åħ¶":5472,"ĠWash":5473,"çľĭçľĭ":5474,"ĠMag":5475,"ä¸ĬäºĨ":5476,"çļĦåľ°":5477,"Ġund":5478,"ĠPost":5479,"Ġstar":5480,"Ġnatural":5481,"Ġbase":5482,"mon":5483,"Ġsuccessful":5484,"ä¸Ģè¾¹":5485,"ĠåĽĽ":5486,"Ġmer":5487,"æĳ¸":5488,"ä¸ĵå®¶":5489,"Ġdeg":5490,"ä¸ĢåĪĩ":5491,"ees":5492,"èµ¢":5493,"æ¹¿":5494,"æı´":5495,"Ġ>":5496,"ĠDirect":5497,"å¹ħ":5498,"å¿«éĢŁ":5499,"Ġoil":5500,"Ġrelease":5501,"éĥ½ä¼ļ":5502,"ledge":5503,"www":5504,"èĢĹ":5505,"ĠPaul":5506,"Ġwriting":5507,"ĠCouncil":5508,"Ġfather":5509,"itte":5510,"æ»ļ":5511,"æī¾åĪ°":5512,"éĶ¦":5513,"ength":5514,"Ġcell":5515,"Ġdied":5516,"Ġpresident":5517,"Ġprob":5518,"åĬ±":5519,"åĿļæĮģ":5520,"Ġdate":5521,"Ġ</":5522,"å®¶ä¼Ļ":5523,"ET":5524,"çĸ«":5525,"å®ŀåľ¨":5526,"Ġmodern":5527,"èĤ¤":5528,"çºµ":5529,"ç£¨":5530,"ç¨į":5531,"æĬ¥åĳĬ":5532,"ĠNow":5533,"Ġcred":5534,"åħ³éĶ®":5535,"åıĤæķ°":5536,"æĺĮ":5537,"ĠTown":5538,"Ġtold":5539,"Ġface":5540,"éĥ¨éĺŁ":5541,"è¿Ķ":5542,"Ġaward":5543,"åį¢":5544,"æľīçĿĢ":5545,"Ġä¹Ī":5546,"å¥½äºĨ":5547,"Ġarticle":5548,"ĠDan":5549,"æ®ĸ":5550,"ä»¥æĿ¥":5551,"Ġespecially":5552,"Ġorigin":5553,"oved":5554,"åĲįçļĦ":5555,"ĠMem":5556,"ä»ĸåľ¨":5557,"ging":5558,"æľīä»Ģä¹Ī":5559,"ederal":5560,"çļĦæĹ¶éĹ´":5561,"ç½Ĺæĸ¯":5562,"æī«":5563,"ç¨ĭåºı":5564,"38":5565,"åıĶ":5566,"è¯Ĭ":5567,"Ġmanagement":5568,"éľĢæ±Ĥ":5569,"äºĭä¸ļ":5570,"åĲįä¸º":5571,"åħ³æ³¨":5572,"Ġä½Ĩ":5573,"ĠAI":5574,"Ġgroups":5575,"();":5576,"ĠDepartment":5577,"duc":5578,"éļ¾éģĵ":5579,"Ġalmost":5580,"ĠçĿ¡":5581,"Ġthroughout":5582,"æĺ¯ä»Ģä¹Ī":5583,"eds":5584,"åī©":5585,"èįĴ":5586,"æ°§":5587,"åıĺå¾Ĺ":5588,"century":5589,"ĠJe":5590,"Ð½Ð¸":5591,"Ġstaff":5592,"amer":5593,"Ġregion":5594,"å½¹":5595,"Ġinj":5596,"åĪļåĪļ":5597,"Ġcannot":5598,"Ġtelevision":5599,"äºĨä¸Ģä¸ĭ":5600,"ĠChurch":5601,"Ġdam":5602,"Ġcele":5603,"Ġstre":5604,"ĠMor":5605,"ĠèĢģ":5606,"äº¤æµģ":5607,"åģ·":5608,"Ġleaders":5609,"èĥ¶":5610,"ato":5611,"65":5612,"rem":5613,"ä¹¦è®°":5614,"van":5615,"ety":5616,"æł·åŃĲ":5617,"éĥŃ":5618,"éĻµ":5619,"Ġinflu":5620,"ĠåĳĢ":5621,"åĮĸçļĦ":5622,"ĠCO":5623,"çĲ´":5624,"Ġinstall":5625,"æŁ±":5626,"èħ¹":5627,"Ġansw":5628,"èĥĸ":5629,"Ġrespect":5630,"board":5631,"é¾Ħ":5632,"ç»ª":5633,"icated":5634,"Ġfile":5635,"ĠEuropean":5636,"ĠThom":5637,"Ġregard":5638,"éĩĳèŀį":5639,"éĶģ":5640,"ĠMil":5641,"ç»ķ":5642,"Ġincome":5643,"æĽ´æĺ¯":5644,"éĿĴå¹´":5645,"ãĢį,":5646,"Ġbooks":5647,"æĴŀ":5648,"ĠRepublic":5649,"993":5650,"Ġrequired":5651,"ests":5652,"å¸ħ":5653,"dd":5654,"Ġhous":5655,"ternet":5656,"å¾Īå¿«":5657,"Ġåľ°":5658,"ogle":5659,"Ġissue":5660,"based":5661,"II":5662,"Ġcurrently":5663,"éĢļå¸¸":5664,"å¯¿":5665,"èĥĨ":5666,"åĺ¿":5667,"ibrary":5668,"å¥ĭ":5669,"Ġrecent":5670,"çī¹æ®Ĭ":5671,"æ²Ł":5672,"å¤§éĻĨ":5673,"Ġwalk":5674,"Ġsystems":5675,"ĠGroup":5676,"Ġdiv":5677,"992":5678,"åľŁåľ°":5679,"ä¸įçŁ¥":5680,"ä¹ĭå¤ĸ":5681,"ä¼Ĺäºº":5682,"ä¾¯":5683,"Ġill":5684,"èĢĲ":5685,"ä¿Ŀè¯ģ":5686,"æĬ¢":5687,"ĠæĹł":5688,"Ġdifficult":5689,"aves":5690,"ĠUs":5691,"å®¶æĹı":5692,"åĪ©äºļ":5693,"åĲįåŃĹ":5694,"alys":5695,"Ġannounced":5696,"Ġ)":5697,"Ġbehind":5698,"etimes":5699,"ĠGreat":5700,"Ġproperty":5701,"çļĦæīĭ":5702,"ĠTer":5703,"èĢĥè¯ķ":5704,"æħķ":5705,"ospital":5706,"ĠPal":5707,"Ġcontinue":5708,"selves":5709,"æĺ¯ä¸Ģç§į":5710,"Ġsubject":5711,"Ġwhole":5712,"pos":5713,"éĹ²":5714,"ĠHall":5715,"........":5716,"05":5717,"å°±åľ¨":5718,"oke":5719,"Ġsouth":5720,"Ġexpress":5721,"çļĦä¸»":5722,"rab":5723,"ç»ĺ":5724,"ĠBel":5725,"ç«ĭåĪ»":5726,"Ġmanufact":5727,"éī":5728,"Ġri":5729,"atives":5730,"Ġä½Ĩæĺ¯":5731,"ç»ıåİĨ":5732,"idents":5733,"è·µ":5734,"è¯´æĺİ":5735,"èĤĮ":5736,"action":5737,"Ġmix":5738,"åįģä¸ī":5739,"ä¸ŃåŃ¦":5740,"æ±¡":5741,"ĠAre":5742,"Ġfavor":5743,"åĪĽéĢł":5744,"ius":5745,"Ġlat":5746,"Ġoptions":5747,"ç¨³å®ļ":5748,"åľ¨åľ°":5749,"Ð¾Ð²":5750,"å°±ä¸į":5751,"åĪ·":5752,"åĳ¨åĽ´":5753,"çģ¾":5754,"è®©äºº":5755,"çľĭæĿ¥":5756,"å¥½åĥı":5757,"ĠBus":5758,"Wh":5759,"æĸĩä»¶":5760,"çĩķ":5761,"è®©ä»ĸ":5762,"èģĶç³»":5763,"åģ¶":5764,"Ġfriends":5765,"ĠJack":5766,"04":5767,"èĦ¸ä¸Ĭ":5768,"unt":5769,"oud":5770,"èĬĴ":5771,"ĠOver":5772,"hood":5773,"æĽ¹":5774,"Ġfinancial":5775,"åĪļæīį":5776,"oul":5777,"èĭĹ":5778,"ription":5779,"Ġchanges":5780,"ĠUp":5781,"èĳ£":5782,"åĪĽä½ľ":5783,"ago":5784,"Ġcountries":5785,"åıĳè¡¨":5786,"çŃīäºº":5787,"band":5788,"ipe":5789,"Ġrather":5790,"Ġnetwork":5791,"Ġcourt":5792,"è¯Ħä»·":5793,"ava":5794,"Ġprice":5795,"è²":5796,"ype":5797,"æĮģç»Ń":5798,"éļıåĲİ":5799,"rote":5800,"omb":5801,"Ġrev":5802,"ç§¯æŀģ":5803,"æģĴ":5804,"éĶħ":5805,"éī´":5806,"èµ¤":5807,"Ġbi":5808,"é»İ":5809,"Ġlab":5810,"ening":5811,"Ġrights":5812,"äºķ":5813,"æĬ¬":5814,"ĠRoad":5815,"Ġconsidered":5816,"åı¦ä¸Ģ":5817,"è£ģ":5818,"å¤ļæķ°":5819,"ida":5820,"asc":5821,"çĶŁçļĦ":5822,"çĸ¯":5823,"ply":5824,"Ġfig":5825,"ĠGeorge":5826,"ocr":5827,"åĨłåĨĽ":5828,"Ġwatch":5829,"rel":5830,"ado":5831,"ĠBest":5832,"Ġusually":5833,"åĵ²":5834,"Ġfamilies":5835,"ç»ıå¸¸":5836,"Ġlikely":5837,"order":5838,"new":5839,"çļĦåıĳå±ķ":5840,"æĪĳåĽ½":5841,"Ġadditional":5842,"ĠSam":5843,"é©±":5844,"Ġbecom":5845,"Ġbroad":5846,"æģ¨":5847,"Ġvia":5848,"éķ¿æľŁ":5849,"çī§":5850,"ä¼ĺåĬ¿":5851,"Ġfilms":5852,"ĠWashington":5853,"ander":5854,"Ġregular":5855,"å£®":5856,"éĺģ":5857,"åıĳå¸ĥ":5858,"ĠJer":5859,"æľīçĤ¹":5860,"ä¹ĭä¸ĭ":5861,"Ġrock":5862,"300":5863,"que":5864,"æľºåħ³":5865,"ston":5866,"ç¾Ĭ":5867,"Ġtakes":5868,"Ġcontract":5869,"Ġsepar":5870,"éĥ¡":5871,"ç®Ń":5872,"ĠCourt":5873,"éħĴåºĹ":5874,"æ¯ıä¸ª":5875,"æĥł":5876,"Ġepis":5877,"Ġcomplete":5878,"éĿ©åĳ½":5879,"åħ±åĴĮåĽ½":5880,"Ġcompl":5881,"ä¾ĭå¦Ĥ":5882,"çĶ¨çļĦ":5883,"å¥ī":5884,"RE":5885,"æĹ¢çĦ¶":5886,"Ġmus":5887,"ĠGeneral":5888,"åħĪè¿Ľ":5889,"imately":5890,"ĠçŃī":5891,"æľªæĿ¥":5892,"æĮ¡":5893,"ĠçĪ±":5894,"æģĭ":5895,"Ġarg":5896,"æĭ¼":5897,"uted":5898,"Ġobs":5899,"Ġplatform":5900,"éŃı":5901,"range":5902,"970":5903,"itution":5904,"Ġplaying":5905,"ä¸ĵè¾ĳ":5906,"Ġaccept":5907,"Ġnecess":5908,"Ġclean":5909,"Con":5910,"ä¸įåĲĮçļĦ":5911,"rown":5912,"Ġrout":5913,"èµ°äºĨ":5914,"ĠYear":5915,"è½´":5916,"Ġcampaign":5917,"ĠTw":5918,"ĠAssociation":5919,"ç¡®å®ŀ":5920,"å¦»":5921,"ĠSl":5922,"éĤ£éĩĮ":5923,"çĸ¾çĹħ":5924,"è®¾ç½®":5925,"('":5926,"çĦ¦":5927,"éľ¸":5928,"airs":5929,"ĠProf":5930,"Ġquestions":5931,"çľĭäºĨ":5932,"è¿ĺè¦ģ":5933,".)":5934,"77":5935,"æŃ£æĺ¯":5936,"Ġcapt":5937,"æľĢå¤§":5938,"ãĢĤ\"":5939,"ç½²":5940,"Ð¹":5941,"Ġinsp":5942,"aries":5943,"ä¹ĭéĹ´çļĦ":5944,"æĸ¹æ¡Ī":5945,"æĻļä¸Ĭ":5946,"çĽĳçĿ£":5947,"Ġ--":5948,"æĲŃ":5949,"ĠQue":5950,"èĩ³å°ĳ":5951,"ication":5952,"èİ²":5953,"ĠEduc":5954,"Ġsoon":5955,"é³":5956,"medi":5957,"oice":5958,"åıĬåħ¶":5959,"Ġlost":5960,"Ġabs":5961,"æ³¡":5962,"ĠAward":5963,"åĪĨå¸ĥ":5964,"ĠÑģ":5965,"alls":5966,"Ġpict":5967,"Ġago":5968,"ayer":5969,"å¾®å¾®":5970,"itect":5971,"fort":5972,"Ġviol":5973,"Ġoutside":5974,"è¿Ŀ":5975,"åŁºéĩĳ":5976,"ç§»åĬ¨":5977,"è§Ī":5978,"Ġattempt":5979,"åĶ¯ä¸Ģ":5980,"é£İæł¼":5981,"åĦ¿ç«¥":5982,"åĨĽéĺŁ":5983,"åĬ²":5984,"Ġneg":5985,"åĮĸåŃ¦":5986,"æ§":5987,"ç§Ł":5988,"æ´ģ":5989,"è´¯":5990,"è¿ħéĢŁ":5991,"ĠOut":5992,"è¿ĩç¨ĭä¸Ń":5993,"ki":5994,"gar":5995,"éĵľ":5996,"éĥ½æ²¡æľī":5997,"åĪĨä¸º":5998,"hing":5999,"sec":6000,"Ġdocument":6001,"çļĩå¸Ŀ":6002,"Ġbrand":6003,"åįģäºĶ":6004,"06":6005,"è§Ĵèī²":6006,"Ġterm":6007,"Ġtable":6008,"æł·çļĦ":6009,"ä¹Ķ":6010,"vin":6011,"æİª":6012,"vey":6013,"å§ľ":6014,"ension":6015,"hem":6016,"åİŁæĿ¥":6017,"net":6018,"ãĢĭãĢĤ":6019,"å¡ĳ":6020,"åĢ¾":6021,"ĠMod":6022,"ä¹³":6023,"å¼Ģå±ķ":6024,"çĲĥéĺŁ":6025,"ç²®":6026,"è¾ī":6027,"ä¼ı":6028,"leg":6029,":\"":6030,"åı£æ°Ķ":6031,"Ġagre":6032,"æ³¥":6033,"Ġneeded":6034,"ĠLou":6035,"px":6036,"å¥Ķ":6037,"çĮ«":6038,"sequ":6039,"å®ĥçļĦ":6040,"Ġstri":6041,"åĸĬ":6042,"ellow":6043,"åĩºæĿ¥çļĦ":6044,"astic":6045,"Ġmoved":6046,"å¥³åŃĲ":6047,"unk":6048,"Ġå¼ł":6049,"Ġtou":6050,"Ġuser":6051,"mercial":6052,"Ġmother":6053,"ä»İäºĭ":6054,"Ġeverything":6055,"æĤŁ":6056,"991":6057,"è½¨":6058,"bert":6059,"èĦı":6060,"ĠMart":6061,"éĤ®":6062,"çļĦäºĭ":6063,"ĠSystem":6064,"æ¯ıå¤©":6065,"lier":6066,"uge":6067,"åĨħéĥ¨":6068,"Ġleading":6069,"çī¹èī²":6070,"ĠMer":6071,"obile":6072,"ĠMet":6073,"ä½ĵèĤ²":6074,"enc":6075,"å§ĳ":6076,"ĠDistrict":6077,"åİŁæľ¬":6078,"åĩī":6079,"åĮ»çĸĹ":6080,"èģĶçĽŁ":6081,"ocal":6082,"äººæīį":6083,"çī¹å¾ģ":6084,"aily":6085,"åŃ¦ä¼ļ":6086,"çļĦéĹ®é¢ĺ":6087,"Ġcand":6088,"æľīäºĨ":6089,"æİ¥åı£":6090,"ĠåĲ¬":6091,"è¦":6092,"ĠYes":6093,"åħ¨éĿ¢":6094,"å¹³åĿĩ":6095,"çĸ¼":6096,"æīĢè°ĵ":6097,"å®īæİĴ":6098,"éģĵè·¯":6099,"Ġpaper":6100,"Ġveh":6101,"Ġround":6102,"èĥ½éĩı":6103,"Ġproduced":6104,"ä½ıäºĨ":6105,"Ġ29":6106,"åĲ¬åĪ°":6107,"Ġsimple":6108,"Ġpark":6109,"Ġlocation":6110,"ession":6111,"Ġincrease":6112,"uments":6113,"åľ¨è¿ĻéĩĮ":6114,"Ġreported":6115,"ĠTex":6116,"aughter":6117,"çªĹ":6118,"ĠParty":6119,"Ġwords":6120,"å¥³æĢ§":6121,"ä¸Ńæĸĩ":6122,"èģĬ":6123,"Ġrace":6124,"ä½©":6125,"ĠVol":6126,"ä¹Łä¼ļ":6127,"Ġrecommend":6128,"col":6129,"ĠGreen":6130,"izing":6131,"Ġmarried":6132,"Ġvillage":6133,"ĠMary":6134,"éĹ¹":6135,"Ð·":6136,"åĿ¡":6137,"èįĲ":6138,"arter":6139,"å®£å¸ĥ":6140,"Ġsecurity":6141,"åĬłä¸Ĭ":6142,"Ġschools":6143,"Cl":6144,"éĵ¾":6145,"Ġtrying":6146,"å®£ä¼ł":6147,"å¸ĿåĽ½":6148,"èħ°":6149,"Ġä¹°":6150,"44":6151,"Ġsat":6152,"opt":6153,"éĻĦè¿ĳ":6154,"ç§Ĵ":6155,"Ġè¿Ļä¹Ī":6156,"Ġè¢«":6157,"Ġdeveloped":6158,"éĢĤåĲĪ":6159,"åĽŀæĿ¥":6160,"èĢ¶":6161,"æ±Ĺ":6162,"07":6163,"ĠGold":6164,"Ġrelated":6165,"Ġdefin":6166,"ĠMichael":6167,"olic":6168,"å¹´æĿ¥":6169,"âĢĿãĢģâĢľ":6170,"è°ĥæķ´":6171,"Ġcy":6172,"Ġå¦Ĥæŀľ":6173,"ĠMac":6174,"å®ŀè·µ":6175,"æĮĩæĮ¥":6176,"ĠæĹ©":6177,"ĠTechn":6178,"å·¡":6179,"Ġbelieve":6180,"ĠPublic":6181,"Ġinstead":6182,"åħ·ä½ĵ":6183,"Ġprote":6184,"é£İéĻ©":6185,"ä¸ĭäºĨ":6186,"è´¡":6187,"åıĤèĢĥ":6188,"ä¸¾è¡Į":6189,"orthern":6190,"light":6191,"ä»Ķ":6192,"ittee":6193,"Ġmass":6194,"ĠCompany":6195,"ä¸įéĶĻ":6196,"èµ·äºĨ":6197,"æľºæ¢°":6198,"åįļå£«":6199,"åĬ¨ä½ľ":6200,"Ġhit":6201,"Ġver":6202,"estival":6203,"Ġcenter":6204,"onder":6205,"Ġmatch":6206,"Ġinvolved":6207,"æĲľ":6208,"come":6209,"Ġbox":6210,"ĠWin":6211,"pite":6212,"Ġactivities":6213,"Ġforward":6214,"Ġdecl":6215,"han":6216,"Ġreading":6217,"å°ĳå¹´":6218,"Ġpolicy":6219,"åĿĽ":6220,"æĤ£èĢħ":6221,"Ġæ¸¸æĪı":6222,"èĸĦ":6223,"èİī":6224,"Ġvot":6225,"AD":6226,"åİĭåĬĽ":6227,"Ġseem":6228,"IP":6229,"æĸĩæĺİ":6230,"çĽ¸å¯¹":6231,"æŃ»äº¡":6232,"Ġhigher":6233,"ĠArch":6234,"æĹłè®º":6235,"æ¶Īå¤±":6236,"Ġterms":6237,"Ġbeautiful":6238,"olf":6239,"Ġrunning":6240,"Ġpers":6241,"é©¾":6242,"æ¦Ĥå¿µ":6243,"ĠSuper":6244,"Ġimm":6245,"ĠTH":6246,":ãĢĬ":6247,"Ġensure":6248,"Ġconcern":6249,"ka":6250,"alysis":6251,"éĽķ":6252,"Ġhttps":6253,"aging":6254,"èį¡":6255,"Ġmilitary":6256,"eared":6257,"Ġpick":6258,"Ġcases":6259,"roid":6260,"æĴ¤":6261,"ä¸Ģä¸ªäºº":6262,"æĪĺçķ¥":6263,"aches":6264,"Ġgrowth":6265,"outhern":6266,"Ġcollection":6267,"éĻ¶":6268,"ç«Ļåľ¨":6269,"Ġcross":6270,"è·¨":6271,"raz":6272,"æĢ§èĥ½":6273,"Ġmid":6274,"EL":6275,"Ġcard":6276,"Ġestablish":6277,"Ġtarget":6278,"oring":6279,"ament":6280,"åĸ·":6281,"æĺ¯ä¸ª":6282,"çļĦç¥ŀ":6283,"åĴ±ä»¬":6284,"åį°åº¦":6285,"Ġmach":6286,"åŁºåľ°":6287,"reek":6288,"Ġways":6289,"ãĢįãĢĤ":6290,"Ġè§īå¾Ĺ":6291,"Ġrate":6292,"iation":6293,"ĠWind":6294,"è²Į":6295,"æ¡ĥ":6296,"èĦĤ":6297,"itz":6298,"å¤©ä¸ĭ":6299,"æĪĲæľ¬":6300,"pre":6301,"éľį":6302,"éĢ¸":6303,"åį±éĻ©":6304,"Ġresponse":6305,"989":6306,"è¾ŀ":6307,"çī©è´¨":6308,"ĠåĴ":6309,"èĽĩ":6310,"åĩıå°ĳ":6311,"Ġitself":6312,"æŀ«":6313,"åĽłç´ł":6314,"ä¿ĿéĻ©":6315,"çĶ³è¯·":6316,"Ġsil":6317,"Ġwrote":6318,"960":6319,"åĳĨ":6320,"ä¸įæķ¢":6321,"æħ§":6322,"é¼ł":6323,"ivity":6324,"iment":6325,"Ġweb":6326,"erous":6327,"Ġpolice":6328,"å¢ĵ":6329,"odes":6330,"å¿½çĦ¶":6331,"eks":6332,"ĠAngel":6333,"Ġvict":6334,"Ġgirl":6335,"ç²Ĺ":6336,"ç«ŀäºī":6337,"èµĦéĩĳ":6338,"çĵľ":6339,"itter":6340,"æĪĲç»©":6341,"Ġden":6342,"èĤ¿":6343,"åĲĲ":6344,"Ð¿":6345,"Ġupon":6346,"nown":6347,"åŃ¤":6348,"ĠFrance":6349,"éĢĲæ¸Ĳ":6350,"asons":6351,"Ġcoming":6352,"Ġliter":6353,"ĠSing":6354,"åĲķ":6355,"çĨĬ":6356,"ĠPress":6357,"è¦Ĩ":6358,"å®¿":6359,"å°ıè¯´":6360,"Ġwife":6361,"igation":6362,"æ»´":6363,"Ġdirector":6364,"æļĸ":6365,"æİĮæı¡":6366,"æįķ":6367,"Ġrisk":6368,"ĠMost":6369,"ç½¢":6370,"æŃ¤å¤ĸ":6371,"Ġsource":6372,"itting":6373,"Ġwanted":6374,"RO":6375,"ceed":6376,"åħ¬åħ±":6377,"ST":6378,"ĠLat":6379,"åŃ¦æľ¯":6380,"ada":6381,"çļĦéĤ£":6382,"Ġlives":6383,"988":6384,"æ¬£":6385,"Ġplaces":6386,"Ġconsum":6387,"uth":6388,"è¿Ł":6389,"Ġdecision":6390,"Ġgre":6391,"åĬ«":6392,"Ġten":6393,"ä»İèĢĮ":6394,"Ġdu":6395,"é¼»":6396,"Ġstates":6397,"èĦ¸èī²":6398,"Ex":6399,"Ġmovie":6400,"Ġindepend":6401,"787":6402,"èĭį":6403,"erve":6404,"vis":6405,"Ġdistrib":6406,"å°½ç®¡":6407,"Ġä¸ª":6408,"ĠçĶ¨":6409,"å°±è¦ģ":6410,"ĠRobert":6411,"æĦ¿æĦı":6412,"åĪĻæĺ¯":6413,"Ġlonger":6414,"Ġanything":6415,"æ¡Į":6416,"oom":6417,"Ã¨":6418,"æºª":6419,"zz":6420,"ĠCanadian":6421,"Ġsaw":6422,"æĺ¯ä¸įæĺ¯":6423,"å¹¿åĳĬ":6424,"ym":6425,"rian":6426,"éĢ¼":6427,"å¼ºèĢħ":6428,"æĳĩå¤´":6429,"Ġhimself":6430,"Ġprevent":6431,"urt":6432,"æĤ²":6433,"Ġloss":6434,"ä¿ĥè¿Ľ":6435,"ãĢĤâĢľ":6436,"weet":6437,"çĻĮ":6438,"Ġinteg":6439,"æľĢä½³":6440,"Ġsense":6441,"å°ºå¯¸":6442,"Ġbad":6443,"Ġprograms":6444,"sey":6445,"Ġappoint":6446,"æĢĸ":6447,"Ġprior":6448,"ĠLife":6449,"Ġpan":6450,"æµĻ":6451,"Ġculture":6452,"æĸ¯çī¹":6453,"TV":6454,"åĽ½æ°ĳ":6455,"å½»åºķ":6456,"çļ±":6457,"ä¼°è®¡":6458,"åºĻ":6459,"æĭĴ":6460,"éĩįè¦ģçļĦ":6461,"åĨľæ°ĳ":6462,"Ġstudent":6463,"Ar":6464,"Ġglobal":6465,"cis":6466,"Ġemb":6467,"åĦ¿åŃĲ":6468,"Ġ_":6469,"ĠçľŁ":6470,"ĠMal":6471,"ç¬¬ä¸Ģæ¬¡":6472,"é¦ĸåħĪ":6473,"Ġability":6474,"Ġcustomers":6475,"Ġemail":6476,"è¯¥æĿĳ":6477,"Ġlargest":6478,"ç»Łä¸Ģ":6479,"66":6480,"Ġsummer":6481,"èĤ©":6482,"Ġlower":6483,"Ġplant":6484,"39":6485,"é«ĺçļĦ":6486,"æį·":6487,"Ġpractice":6488,"Ġstandard":6489,"Ġimage":6490,"æľĢå¤§çļĦ":6491,"ä¹Łå°±æĺ¯":6492,"æĭħå¿ĥ":6493,"å¤ªéĺ³":6494,"ä¸»æĮģ":6495,"ĠTexas":6496,"çĽ´åĪ°":6497,"çĪ¸":6498,"å½ĵä¸Ń":6499,"lands":6500,"Ġinitial":6501,"isl":6502,"Ġelection":6503,"è·ĥ":6504,"ĠMount":6505,"Ġstore":6506,"Ġindividuals":6507,"æııè¿°":6508,"ä¸įçĶ¨":6509,"çĶ·äºº":6510,"mark":6511,"åįģåħŃ":6512,"ĠFound":6513,"ĠCommun":6514,"Ġquite":6515,"å°ıçļĦ":6516,"aged":6517,"åĩºçĶŁ":6518,"ĠLeg":6519,"ĠSub":6520,"Ġmedical":6521,"Ġlegal":6522,"è¿ŀç»Ń":6523,"ĠResearch":6524,"ä¿®çĤ¼":6525,"Ġful":6526,"Ġpromot":6527,"Ġsoftware":6528,"åıĳåĩº":6529,"Ġparts":6530,"è¯ģæĺİ":6531,"ĠCong":6532,"lying":6533,"å´ĩ":6534,"è®°å½ķ":6535,"æ¸¡":6536,"Ġmount":6537,"Ġrecently":6538,"å¯¹æīĭ":6539,"oper":6540,"ĠClass":6541,"æķ°åŃĹ":6542,"ç¢°":6543,"Ġproblems":6544,"çĽ®å½ķ":6545,"Ġextra":6546,"istry":6547,"iding":6548,"ç¡ķ":6549,"ĠRoyal":6550,"å¾ª":6551,"Ġlatest":6552,"%ãĢĤ":6553,"Ġcomplex":6554,"ios":6555,"ĠRead":6556,"800":6557,"ought":6558,"Ġsongs":6559,"Ġscreen":6560,"Ġaffect":6561,"åĪĨç±»":6562,"æŃĮæĽ²":6563,"Ġnorm":6564,"ç²Ĵ":6565,"å·¥åħ·":6566,"Ġ31":6567,"985":6568,"Ġ......":6569,"arning":6570,"æĥ¨":6571,"ĠRock":6572,"Ġvariety":6573,"pped":6574,"åħ´è¶£":6575,"åĢº":6576,"berg":6577,"åĵ¦":6578,"èĤł":6579,"name":6580,"çŃīçŃī":6581,"Ġdeep":6582,"Ġå¹´":6583,"Ġsection":6584,"inary":6585,"è§ģåĪ°":6586,"ĠClub":6587,"å°±åı¯ä»¥":6588,"Ġpath":6589,"ĠInstitute":6590,"ĠAfrican":6591,"ç¥Ń":6592,"æµĭè¯ķ":6593,"åŃŁ":6594,"çº½":6595,"ĠScott":6596,"Ġspecies":6597,"Ġemer":6598,"å°Ŀ":6599,"ç§įæ¤į":6600,"ht":6601,"mission":6602,"Ġsal":6603,"Ġtraditional":6604,"çªģçł´":6605,"åħ¬è·¯":6606,"ĠæīĢä»¥":6607,"éĢĴ":6608,"éĤª":6609,"ĠBay":6610,"ä¸Ģéģĵ":6611,"ĠAcadem":6612,"Ġapplication":6613,"Ġasked":6614,"Ġadminist":6615,"ä¸Ĭåİ»":6616,"ĠMiss":6617,"åīįå¾Ģ":6618,"ĠçĿĢ":6619,"ounter":6620,"æĬĢèĥ½":6621,"æ¼Ķåĳĺ":6622,"ä¸įå¤ļ":6623,"Pro":6624,"Ġnovel":6625,"èĤĿ":6626,"åĽ¢éĺŁ":6627,"é¸£":6628,"ĠVir":6629,"men":6630,"OT":6631,"illing":6632,"BA":6633,"åĨĽäºĭ":6634,"Ġut":6635,"Ġä¸¤":6636,"åİŁåĪĻ":6637,"47":6638,"ç¬ĳçĿĢ":6639,"rought":6640,"èĩªèº«":6641,"urance":6642,"Ġgold":6643,"å®īè£ħ":6644,"orning":6645,"ç½ļ":6646,"åı¥è¯Ŀ":6647,"023":6648,"ç¥Ŀ":6649,"èĢĮå·²":6650,"imum":6651,"ĠSpe":6652,"\"ãĢĤ":6653,"æŃ¦åĻ¨":6654,"çĪ¶æ¯į":6655,"ĠAnn":6656,"Ġolder":6657,"ager":6658,"Ġdisplay":6659,"å¸ķ":6660,"Ġsus":6661,"å°ıåŃ¦":6662,"CC":6663,"æģĲæĢĸ":6664,"çĭ±":6665,"Ġhor":6666,"ĠSur":6667,"åħ¬å¼Ģ":6668,"éĥ½åľ¨":6669,"è®ºæĸĩ":6670,"PS":6671,"Ġrequest":6672,"ota":6673,"å¼ŁåŃĲ":6674,",ãĢĬ":6675,"ä¸»å¸Ń":6676,"å®ħ":6677,"gen":6678,"ĠæĹ¶åĢĻ":6679,"åįģåĽĽ":6680,"Ġchalleng":6681,"ĠRoman":6682,"èĥĮæĻ¯":6683,"çĶ·åŃĲ":6684,"Ġeveryone":6685,"ä¼ļåĳĺ":6686,"èĭ¥æĺ¯":6687,"Ġå¿«":6688,"Ġsimply":6689,"çĮľ":6690,"æĤī":6691,"Ġmale":6692,"inese":6693,"bit":6694,"Ġæĸ°":6695,"ĠLet":6696,"ç¬¬åĽĽ":6697,"ä»¿ä½Ľ":6698,"èµĸ":6699,"Ġfight":6700,"Ġdraw":6701,"itation":6702,"ĠDel":6703,"èµĦäº§":6704,"éļ¾ä»¥":6705,"ĠUnion":6706,"ĠSince":6707,"Ġdirectly":6708,"987":6709,"Ġprojects":6710,"Ñħ":6711,"çľ¼åīį":6712,"Ġacqu":6713,"æİ¨èįĲ":6714,"åĬłå¼º":6715,"Ġçİĭ":6716,"08":6717,"ĠHome":6718,"Ġdistrict":6719,"å°¿":6720,"çļĦå¿ĥ":6721,"æ²ĥ":6722,"Ġautom":6723,"çļĦæĸ°":6724,"Ġball":6725,"éªĤ":6726,"ils":6727,"unicip":6728,"åħ¶å®ĥ":6729,"Ġinside":6730,"åºĶå½ĵ":6731,"400":6732,"è¿Ľä¸ĢæŃ¥":6733,"éĻª":6734,"å¹¿ä¸ľ":6735,"å±±ä¸ľ":6736,"åįģåħ«":6737,"Ġcharacters":6738,"ĠScience":6739,"è¦ģæĺ¯":6740,"å°±èĥ½":6741,"Ġconsist":6742,"Ġstage":6743,"æľ¬èº«":6744,"å®ļçļĦ":6745,"ĠAlex":6746,"984":6747,"Ġå¾Ĺ":6748,"div":6749,"å¹¿å·ŀ":6750,"Ġtypes":6751,"Ġ65":6752,"Ġknowledge":6753,"Ġdeliver":6754,"ĠPri":6755,"æ¡ĳ":6756,"ĠFlor":6757,"ç¾İåħĥ":6758,"ä¸Ģçľ¼":6759,"ĠMuseum":6760,"Ġwid":6761,"éĤĢ":6762,"å¤§äºº":6763,"Ġä¸ŃåĽ½":6764,"ams":6765,"é£Łåĵģ":6766,"åľ°çļĦ":6767,"rect":6768,"ĠÐ½":6769,"ĠCup":6770,"æĿ¥åĪ°":6771,"å°¼äºļ":6772,"Ġwide":6773,"æ£Ĵ":6774,"rack":6775,"Ġå¤ĸ":6776,"Ġsubs":6777,"éĴĪå¯¹":6778,"æĶ¾åľ¨":6779,"Ġcast":6780,"ĠSal":6781,"ĠSociety":6782,"Ġtal":6783,"ĠChristian":6784,"èµĦæł¼":6785,"Ġopened":6786,"Ġtru":6787,"ĠEv":6788,"çĪµ":6789,"çĲĨå¿µ":6790,"ç»Łè®¡":6791,"éĵº":6792,"çļĦå£°éŁ³":6793,"edd":6794,"oura":6795,"986":6796,"la":6797,"è¶³çĲĥ":6798,"è®¡ç®Ĺæľº":6799,"Re":6800,"irit":6801,"Ġdise":6802,"pan":6803,"Ġjud":6804,"rie":6805,"åĩ¶":6806,"å·¥èīº":6807,"Ġmatter":6808,"ĠEducation":6809,"ros":6810,"ä¿Ħç½Ĺæĸ¯":6811,"é½¿":6812,"Ġsens":6813,"uit":6814,"Ġweeks":6815,"çļĦä¸»è¦ģ":6816,"ona":6817,"Ġseems":6818,"ĠRad":6819,"Ġprobably":6820,"arc":6821,"mas":6822,"è§Ĩé¢ĳ":6823,"ç¿°":6824,"æİ¥çĿĢ":6825,"è¢ģ":6826,"iant":6827,"annel":6828,"Ġgave":6829,"lymp":6830,"å¤§ä¼ļ":6831,"Ġwood":6832,"iles":6833,"Ġmultiple":6834,"çŃ¹":6835,"åıĺæĪĲ":6836,"ecutive":6837,"æĭįæĳĦ":6838,"azine":6839,"48":6840,"rated":6841,"è¿Ĳè¡Į":6842,"Ġuses":6843,"ä½¿å¾Ĺ":6844,"èħĲ":6845,"çĶµèĦĳ":6846,"Ġconditions":6847,"Ġcause":6848,"ĠForm":6849,"Ġteams":6850,"æĸ©":6851,"ç®Ĺæĺ¯":6852,"è°±":6853,"key":6854,"ĠLake":6855,"Ġmentioned":6856,"éĽ¾":6857,"ĠNor":6858,"?\"":6859,"å¼ĢäºĨ":6860,"ĠGrand":6861,"htt":6862,"ares":6863,"éģ¥":6864,"ä»°":6865,"å¤įæĿĤ":6866,"æĢ»ç»Ł":6867,"Ġusers":6868,"ĠFe":6869,"pose":6870,"Ġcat":6871,"Ġapproach":6872,"æ°ĳä¸»":6873,"ube":6874,"Ġstop":6875,"ĠæĬĬ":6876,"æħ¢æħ¢":6877,"====":6878,"roy":6879,"Ġconduct":6880,"Ġæĺİ":6881,"åĲĪåĲĮ":6882,"Ġopportunity":6883,"ĠDef":6884,"ĠStar":6885,"ä¹Ļ":6886,"Ġthemselves":6887,"osing":6888,"ĠHen":6889,"åĭ¤":6890,"æ»¡è¶³":6891,"ĠMont":6892,"ç£ģ":6893,"IL":6894,"æĺ¾çĦ¶":6895,"Ġinterview":6896,"Ġimplement":6897,"MP":6898,"å©Ĩ":6899,"ishing":6900,"ä¸įç®¡":6901,"Ġbrother":6902,"ĠSund":6903,"è°¢è°¢":6904,"Ġè®©":6905,"ĠFore":6906,"æ¶Į":6907,"å®ı":6908,"ĠCr":6909,"ĠãĢģ":6910,"åĩºæīĭ":6911,"hest":6912,"å¥´":6913,"Ġtreatment":6914,"ĠSum":6915,"uses":6916,"ç»ĻæĪĳ":6917,"Ġorganiz":6918,"åħ¹":6919,"Ġnames":6920,"æĸ¹ä¾¿":6921,"ĠRob":6922,"ĠBusiness":6923,"fully":6924,"ç¤¾åĮº":6925,"Ġmeeting":6926,"Ġorganization":6927,"ĠAfrica":6928,"ä¹łæĥ¯":6929,"éģĩåĪ°":6930,"Ġcelebr":6931,"edy":6932,"Ġneigh":6933,"æŀĿ":6934,"Ġhol":6935,"GB":6936,"Ġblog":6937,"chan":6938,"ĠPlease":6939,"Ġscience":6940,"ĠJew":6941,"å¥¹ä»¬":6942,"ita":6943,"Ġéķ¿":6944,"Ġleave":6945,"like":6946,"ĠäºĶ":6947,"èĭ±æĸĩ":6948,"ÐµÑĢ":6949,"è§Ĥå¯Ł":6950,"åıĳåĬ¨":6951,"Ġcommercial":6952,"åį³ä½¿":6953,"Ġtemper":6954,"Ġç¬¬äºĶ":6955,"Ġrelig":6956,"ĠTom":6957,"Ġlearning":6958,"Ġbank":6959,"ĠAustralian":6960,"ä¸ĢæĿ¡":6961,"èĥİ":6962,"Ġcontinued":6963,"åħ¬åĽŃ":6964,"æĥĳ":6965,"Ġhttp":6966,"ä¸ľåĮĹ":6967,"å·¨å¤§çļĦ":6968,"Ġreceive":6969,"oto":6970,"iance":6971,"craft":6972,"600":6973,"Ġsex":6974,"æĽ´å¤ļ":6975,"Ġdiscover":6976,"Ġgra":6977,"æľ¬æĿ¥":6978,"iers":6979,"æ©":6980,"ĠåĲİ":6981,"sych":6982,"åħĪåĲİ":6983,"åİīå®³":6984,"åĵ¼":6985,"æ¯įäº²":6986,"Ġè·Ł":6987,"æĦŁåĪ°":6988,"åĲĮå¹´":6989,"ä¸Ī":6990,"æĿ¥æºĲ":6991,"æľĢè¿ĳ":6992,"ĠMus":6993,"éĥģ":6994,"erved":6995,"ĠOh":6996,"ĠBre":6997,"Ġchurch":6998,"Ġtowards":6999,"ä¹Łæ²¡":7000,"Ġsales":7001,"Ġconstruction":7002,"Ġworth":7003,"ĠåĨħå®¹":7004,"ĠCamp":7005,"Ġsports":7006,"iring":7007,"ĠThomas":7008,"Ġsn":7009,"rial":7010,"ĠâĢ¢":7011,"down":7012,"Ð±":7013,"ĠSol":7014,"Ġåĳ¨":7015,"å¼ĢæĶ¾":7016,"ĠService":7017,"Ġrestaur":7018,"Ġgoal":7019,"Ġdigital":7020,"Ġmoment":7021,"å½¼":7022,"å¤©çļĦ":7023,"ĠGet":7024,"é£ĺ":7025,"åĽŀçŃĶ":7026,"za":7027,"ims":7028,"èģĶèµĽ":7029,"Ġstories":7030,"å¤§éĥ¨åĪĨ":7031,"éĤ»":7032,"å¸Ĥéķĩ":7033,"éĺħè¯»":7034,"ĠFrank":7035,"éĽĨä¸Ń":7036,"æŃ¤åĪ»":7037,"ĠInt":7038,"EO":7039,"owers":7040,"ä¸¢":7041,"950":7042,"è¿Ļä½į":7043,"éģ¿åħį":7044,"Ġge":7045,"Ġaltern":7046,"ĠMex":7047,"ĠChampions":7048,"BS":7049,"çİ°åľº":7050,"åĳĺå·¥":7051,"ili":7052,"igned":7053,"åŃķ":7054,"æ¶Ĥ":7055,"å¹³æĸ¹ç±³":7056,"ç©·":7057,"æ¼Ĥ":7058,"åħģ":7059,"Ġplans":7060,"ulated":7061,"))":7062,"æĸ¹çļĦ":7063,"ç©Ĩ":7064,"ä¸Ģå¹´":7065,"ĠMany":7066,"æĹłæķ°":7067,"venue":7068,"ĠVer":7069,"à¤":7070,"Ġfast":7071,"è¸ı":7072,"Ġtransl":7073,"Ġpiece":7074,"ĠOlymp":7075,"ĠRem":7076,"Ġappeared":7077,"éĩĳå±ŀ":7078,"Ġbott":7079,"ĠçľŁçļĦ":7080,"ection":7081,"å¢ŀéķ¿":7082,"ĠIr":7083,"ä¹Łåı¯ä»¥":7084,"å¿ħè¦ģ":7085,"äºĭå®ŀ":7086,"part":7087,"Ġfrequ":7088,"çĦ°":7089,"å¹¿æ³Ľ":7090,"Ġwoman":7091,"æĺ¨":7092,"èĪªç©º":7093,"Ġprep":7094,"æ¸©åº¦":7095,"ĠTop":7096,"çİ°å®ŀ":7097,"é«ĺçº§":7098,"æī¶":7099,"46":7100,"ä¼ļæľī":7101,"é©¬ä¸Ĭ":7102,"ĠRel":7103,"rast":7104,"æĭĸ":7105,"inn":7106,"å²³":7107,"UT":7108,"Ġæīį":7109,"åĲŀ":7110,"äººéĥ½":7111,"ç±»ä¼¼":7112,"Ġexpected":7113,"ĠSmith":7114,"istics":7115,"Ġåĵ¦":7116,"åĽŀåĪ°":7117,"æ°ĳåĽ½":7118,"Ġstru":7119,"Ġpric":7120,"åºŀ":7121,"Ġsubst":7122,"ĠPlay":7123,"Ġalthough":7124,"ranch":7125,"ç«ĭåį³":7126,"åĲĮåŃ¦":7127,"orial":7128,"èĩĤ":7129,"Ġadj":7130,"ĠGood":7131,"å°±åĥı":7132,"ä¸Ģä½į":7133,"åĢĴæĺ¯":7134,"æĪĲæŀľ":7135,"Ġexact":7136,"Ġsometimes":7137,"éļ¶":7138,"åĤ²":7139,"ipment":7140,"Ġä¸»":7141,"è´«":7142,"è¯´äºĨ":7143,"Ġarriv":7144,"è¿ĺåľ¨":7145,"æ¦ľ":7146,"Ġåĵª":7147,"Ġnature":7148,"ĠåĺĽ":7149,"æĢĿèĢĥ":7150,"ä¸įè¶³":7151,"ä¸Ľ":7152,"æ¶¯":7153,"éĻįä½İ":7154,"BN":7155,"åĲ¹":7156,"çĵ¶":7157,"å¿Į":7158,"éŁ©åĽ½":7159,"Ġvac":7160,"Ph":7161,"MA":7162,"éĢĨ":7163,"see":7164,"è¸ª":7165,"Ġrail":7166,"ĠDiv":7167,"åĳµåĳµ":7168,"ä¸ĬéĿ¢":7169,"ĠAlthough":7170,"ĠMo":7171,"etry":7172,"ä»įçĦ¶":7173,"arden":7174,"UR":7175,"ä¸ĢåĲį":7176,"wor":7177,"akers":7178,"Ġ60":7179,"ä¹Łå°±":7180,"å½¢è±¡":7181,"åĵŃ":7182,"MS":7183,"æī°":7184,"åįģå¹´":7185,"Ġparents":7186,"çļĦå½±åĵį":7187,"ya":7188,"åĩºçİ°åľ¨":7189,"åłĨ":7190,"Ġresources":7191,"åľ¨ä¸Ģèµ·":7192,"çİ°è±¡":7193,"rael":7194,"iable":7195,"ĠOb":7196,"ĠBill":7197,"å¼ºå¤§":7198,"æĭĵ":7199,"æĹ¶çļĦ":7200,"æİ¥è§¦":7201,"ĠChinese":7202,"Ġdom":7203,"Ġcapital":7204,"è§ĦèĮĥ":7205,"Ġsuff":7206,"ĠThen":7207,"Ð³":7208,"å¿§":7209,"ties":7210,"rows":7211,"ĠWil":7212,"ĠæĢ»":7213,"ĠBi":7214,"Ġimmedi":7215,"è¿ŀæİ¥":7216,"ĠUnder":7217,"å¹¶ä¸įæĺ¯":7218,"Ġded":7219,"å¹¶åľ¨":7220,"978":7221,"çī©çĲĨ":7222,"Ġeight":7223,"Ġå¿ĥ":7224,"ä»ĵ":7225,"Ġlevels":7226,"Ġcomment":7227,"æµħ":7228,"ĠåĵĪåĵĪåĵĪ":7229,"è´¤":7230,"ĠBen":7231,"76":7232,"ĠSun":7233,"åĬłå·¥":7234,"æľºåľº":7235,"ĠVict":7236,"åħħæ»¡":7237,"gl":7238,"ĠHam":7239,"Ġdecided":7240,"çĶŁæĢģ":7241,"åĮ¹":7242,"ä¹ĭä¸Ĭ":7243,"Ġscient":7244,"ĠWell":7245,"tty":7246,"æĸ¤":7247,"osition":7248,"æĪĴ":7249,"èĢĢ":7250,"ĠFam":7251,"ĠTor":7252,"ÐµÐ½":7253,"ero":7254,"ĠCarol":7255,"Ġeconomic":7256,"Ġqual":7257,"ste":7258,"åĿĳ":7259,"å¿ĥçļĦ":7260,"åĬŀåħ¬å®¤":7261,"æĸĩç«ł":7262,"Ġpatients":7263,"burg":7264,"åķĨåĵģ":7265,"ĠRail":7266,"æ³ª":7267,"ä»ĩ":7268,"Ġç¾İ":7269,"ä¸ĢæĹ¦":7270,"Ġavoid":7271,"å²Ĺ":7272,"è¿Ĳè¾ĵ":7273,"åıĳæĮ¥":7274,"ĠGermany":7275,"æĴĴ":7276,"å±ħæ°ĳ":7277,"ags":7278,"Ġteac":7279,"Ġartists":7280,"ĠBoard":7281,"ĠChic":7282,"çĶľ":7283,"ĠJapanese":7284,"983":7285,"Ġsurv":7286,"æĺĨ":7287,"éĥ¨çļĦ":7288,"vest":7289,"Ġfresh":7290,"Ġpartners":7291,"bon":7292,"ĠçĻ½":7293,"åĲĵ":7294,"arily":7295,"Ġdrug":7296,"982":7297,"ĠMad":7298,"Ġbal":7299,"Ġåĩł":7300,"æŀļ":7301,"åĽ°éļ¾":7302,"è¾½":7303,"çĽ¾":7304,"ĠTrump":7305,"è½©":7306,"Ġlic":7307,"Ġreve":7308,"è¡¨è¾¾":7309,"ĠHill":7310,"Ġdog":7311,"Ġallows":7312,"ĠLouis":7313,"ä¾ĿçĦ¶":7314,"Ġcandid":7315,"CO":7316,"ç§ĳçłĶ":7317,"ä¿Ĭ":7318,"èµĭ":7319,"cel":7320,"ĠBur":7321,"azing":7322,"Ġbrought":7323,"è®¾æľī":7324,"aby":7325,"çĺ¦":7326,"æīĭä¸Ń":7327,"è¡¨æĥħ":7328,"Ġcompleted":7329,"Ġoccur":7330,"Ġprem":7331,"æ°Ķæģ¯":7332,"ĠDevelop":7333,"Ġquickly":7334,"Ġwhose":7335,"é©¶":7336,"ĠPet":7337,"ĠProgram":7338,"56":7339,"åħ±æľī":7340,"æģĲæĢķ":7341,"è¿ĩäºĨ":7342,"Ġgreen":7343,"Ġblock":7344,"ĠCentral":7345,"isions":7346,"bour":7347,"Ġsun":7348,"ä¸Ģç¬ĳ":7349,"Ġwear":7350,"ĠAlso":7351,"å¯¹è±¡":7352,"Ġetc":7353,"udd":7354,"æĹ¨":7355,"æµ·åĨĽ":7356,"Ġmessage":7357,"het":7358,"Ġdescribed":7359,"Ġtransport":7360,"Ġfemale":7361,"å¤©åľ°":7362,"ĠHum":7363,"ĠåĽłä¸º":7364,"Ġphone":7365,"Ġnothing":7366,"Ġsen":7367,"æīĳ":7368,"åĨľæĪ·":7369,"æ³ķéĻ¢":7370,"Ġgovern":7371,"Ġisn":7372,"çİ©å®¶":7373,"Ġèĩª":7374,"Ġmedian":7375,"iller":7376,"incip":7377,"å¯¼æ¼Ķ":7378,"Ġmeaning":7379,"ĠEr":7380,"Ġfit":7381,"ç¢ĳ":7382,"osh":7383,"Ġjoined":7384,"åİĺ":7385,"Ġchoose":7386,"é¦ĸæ¬¡":7387,"ĠPeter":7388,"izes":7389,"èĥĥ":7390,"ĠConst":7391,"Ġsafety":7392,"ano":7393,"rief":7394,"ä¸įåı¯èĥ½":7395,"åŃ¦å®¶":7396,"èĢķ":7397,"erc":7398,"è¡¨éĿ¢":7399,"è·ŁçĿĢ":7400,"ĠDemocr":7401,"Ġbirths":7402,"Ġchanged":7403,"ala":7404,"ä¹ı":7405,"çļĦä¸ľè¥¿":7406,"ĠRet":7407,"éŁ¦":7408,"Ġgradu":7409,"Ġè¿Ļæł·":7410,"change":7411,"ç©ºä¸Ń":7412,"ĠTod":7413,"åĵĪåĵĪåĵĪ":7414,"ĠJo":7415,"Ġcomputer":7416,"Ġ`":7417,"ĠæĽ´":7418,"Ġrelationship":7419,"itc":7420,"ĠLove":7421,"é£Łçī©":7422,"ä¸¾åĬŀ":7423,"ĠæŃ£":7424,"æµĻæ±Ł":7425,"å±ħä½ı":7426,"èĲ¥åħ»":7427,"ĠFace":7428,"ĠFrid":7429,"èº²":7430,"è´¸æĺĵ":7431,"çĮİ":7432,"ĠCD":7433,"æĪĸè®¸":7434,"ç¢į":7435,"ĠAbout":7436,"ĠOffic":7437,"Ġearn":7438,"ini":7439,"ĠReview":7440,"iament":7441,"Ġproviding":7442,"åľ°åĽ¾":7443,"ĠCur":7444,"Ġconne":7445,"ä¿Ŀéļľ":7446,"Ġreturned":7447,"çĴĥ":7448,"çīĪæľ¬":7449,"å¤§å°ı":7450,"Ġsle":7451,"Ġreach":7452,"çļĦçłĶç©¶":7453,"åģ¿":7454,"bu":7455,"ç©ºæ°Ķ":7456,"semb":7457,"ä¸įåĨį":7458,"usband":7459,"çĪĨåıĳ":7460,"å¹´åº¦":7461,"Ġfollowed":7462,"åĴ¬":7463,"Ġcollege":7464,"è´¾":7465,"Ġwrite":7466,"æĤ¬":7467,"ĠCap":7468,"åħħåĪĨ":7469,"****":7470,"Ġpositive":7471,"æľ¬ä¹¦":7472,"é¸¿":7473,"ensity":7474,"æīĢæľīçļĦ":7475,"è§ĦåĪĻ":7476,"ING":7477,"çĽ¸åĲĮ":7478,"é£ŀæľº":7479,"ĠCharles":7480,"åĪ¸":7481,"åŃĿ":7482,"anta":7483,"Ġcomfort":7484,"Ġåıª":7485,"ĠVirgin":7486,"ĠWork":7487,"åĮ»åŃ¦":7488,"Ġboy":7489,"Ġskills":7490,"ĠCare":7491,"Ġ45":7492,"ĠOffice":7493,"ĠçľĭåĪ°":7494,"lor":7495,"Ġsurround":7496,"Ġnecessary":7497,"æĨ":7498,"ĠEvery":7499,"ĠéĤ£ä¹Ī":7500,"ĠAv":7501,"ĠTwo":7502,"èį¯çī©":7503,"èĩ³ä»Ĭ":7504,"coming":7505,"Ġdegree":7506,"ÑĨ":7507,"liament":7508,"wide":7509,"iger":7510,"Ġdaughter":7511,"Ġcool":7512,"å®Ļ":7513,"09":7514,"æŁı":7515,"æ£Ģæµĭ":7516,"orpor":7517,"ĠMinister":7518,"Ġsem":7519,"Ġradio":7520,"æĦ£":7521,"çºªå¿µ":7522,"å¼Ģåı£":7523,"æĪĲçļĦ":7524,"è¯´æĺ¯":7525,"Ġarchitect":7526,"åĽŀåİ»":7527,"ĠLos":7528,"ç¬¦åĲĪ":7529,"Ġtransfer":7530,"æĹłæ¯Ķ":7531,"Ġnumbers":7532,"è¡£æľį":7533,"unction":7534,"rey":7535,"æīįæĺ¯":7536,"Sh":7537,"å¤§åŀĭ":7538,"åķĨåĬ¡":7539,"Ġconcept":7540,"å¤§åĪ©":7541,"Ġcollabor":7542,"æķ¦":7543,"Ġpassage":7544,"ĠRichard":7545,"Ġcouple":7546,"ĠCommission":7547,"ĠIN":7548,"ç³Ĭ":7549,"Ġachieve":7550,"ĠCle":7551,"Ġque":7552,"è¶ħçº§":7553,"åĬ¨çĶ»":7554,"amic":7555,"ç¥ŀç»ı":7556,"ĠArmy":7557,"Ġdrive":7558,"æĿĨ":7559,"ĠÐ¸":7560,"umber":7561,"è½»è½»":7562,"porary":7563,"Ġlimited":7564,"Ġfamous":7565,"Ġstreng":7566,"where":7567,"Ġhands":7568,"atre":7569,"Ġseven":7570,"Ġcollect":7571,"arr":7572,"ĠSk":7573,"çĬ¶åĨµ":7574,"äº«åıĹ":7575,"Ġbur":7576,"æº¶":7577,"å¤ļå¹´":7578,"å¤ļä¸ª":7579,"ãĢĤãĢĬ":7580,"å¹¸ç¦ı":7581,"enge":7582,"Ġartist":7583,"ĠGovernment":7584,"åįĹäº¬":7585,"å¦ĤåĲĮ":7586,"Ġearlier":7587,"æĦıè§ģ":7588,"è®©æĪĳ":7589,"03":7590,"Ġanswer":7591,"çºł":7592,"Ġideas":7593,"åıĳå±ķçļĦ":7594,"æĬķåħ¥":7595,"house":7596,"Ġdead":7597,"Ġhouseholds":7598,"alian":7599,"Ġsquare":7600,"This":7601,"è¶ĭ":7602,"Ġhighly":7603,"Ġåīį":7604,"éħįåĲĪ":7605,"Ġä¸įè¦ģ":7606,"å¤Ħäºİ":7607,"ĠCath":7608,"Ġcivil":7609,"Ġmaterials":7610,"ulations":7611,"Ġguitar":7612,"Ġèµ°":7613,"icate":7614,"ĠåĬł":7615,"AA":7616,"ä¸įèµ·":7617,"Ġæī¾":7618,"æľīæīĢ":7619,"Ġsell":7620,"çľŁå®ŀ":7621,"Ġple":7622,"Ġattention":7623,"äººæ°ĳåħ±åĴĮåĽ½":7624,"ĠHot":7625,"Ġprogress":7626,"åĪ«çļĦ":7627,"åĪ©çĽĬ":7628,"ä¸ªæľĪ":7629,"bre":7630,"éĶĲ":7631,"æĪĲéķ¿":7632,"éĻĲåĪ¶":7633,"èĳ¡":7634,"ä¼ĳæģ¯":7635,"åĳ½ä»¤":7636,"ä¸įæĥ³":7637,"Ġdownload":7638,"Ġunits":7639,"éªĹ":7640,"åĪĹè½¦":7641,"win":7642,"road":7643,"Ġoption":7644,"çĲĨäºĭ":7645,"æĪ¿éĹ´":7646,"Ġphysical":7647,"Ġcustomer":7648,"æĸĩåŃĹ":7649,"é¢ľèī²":7650,"ä¸Ńåħ±":7651,"Ġlines":7652,"ression":7653,"ĠMel":7654,"ĠOpen":7655,"Ġmax":7656,"çĽĹ":7657,"å¤ļç§į":7658,"Ġjournal":7659,"åĩºåı£":7660,"Ġlength":7661,"éĩįå¤§":7662,"è¿Ī":7663,"Ġsche":7664,"itiz":7665,"ĠGoogle":7666,"ç¨Ģ":7667,"æİªæĸ½":7668,"åĲ¦åĪĻ":7669,"è¾£":7670,"orry":7671,"td":7672,"Ġactive":7673,"no":7674,"ĠKingdom":7675,"æ¯ıå¹´":7676,"ocol":7677,"èĳĹåĲį":7678,"ä¸Ģéĺµ":7679,"æĬĳ":7680,"å¥³åĦ¿":7681,"ĠDirector":7682,"Ġeasily":7683,"ĠIsrael":7684,"west":7685,"æµĳ":7686,"ĠWestern":7687,"å¨±ä¹Ĳ":7688,"Ġtrade":7689,"Ġing":7690,"åľ°ä½į":7691,"Ġdark":7692,"äººå®¶":7693,"ĠChild":7694,"æīĭæ®µ":7695,"ĠFrancis":7696,"å¼ºå¤§çļĦ":7697,"Ġchoice":7698,"Ġä¸º":7699,"nel":7700,"éĴ»":7701,"979":7702,"ç»Ļä½ł":7703,"Ġfarm":7704,"èĽĭçĻ½":7705,"Ġforce":7706,"ady":7707,"ĠÐ¾":7708,"Ġexhib":7709,"ĠFriday":7710,"ION":7711,"èĲ¥éĶĢ":7712,"å£«åħµ":7713,"Ġrecorded":7714,"aught":7715,"ĠChicago":7716,"éĢīä¸¾":7717,"çļ®èĤ¤":7718,"æ¯«ç±³":7719,"åĲ¼":7720,"ĠStep":7721,"Ġremember":7722,"alse":7723,"Ġfail":7724,"Ġanyone":7725,"ette":7726,"antic":7727,"place":7728,"den":7729,"å®ª":7730,"Ġcensus":7731,"çģĮ":7732,"ä¸ľæĸ¹":7733,"è¿Ľåİ»":7734,"é»ĳèī²":7735,"Ġspread":7736,"ella":7737,"Ġitems":7738,"é¼İ":7739,"CD":7740,"åįģä¸ĥ":7741,"åĨ¥":7742,"ĠFlorida":7743,"åĮºçļĦ":7744,"ä¸Ģçīĩ":7745,"åıįå¯¹":7746,"Ġåıĳ":7747,"enty":7748,"ĠRecords":7749,"oma":7750,"æĹģè¾¹":7751,"Ġparticularly":7752,"class":7753,"å¾½":7754,"Ġnation":7755,"è®¾ç«ĭ":7756,"981":7757,"ĠBig":7758,"ĠTime":7759,"Ġlack":7760,"ken":7761,"å§Ķä¼ļ":7762,"well":7763,"æ¶µ":7764,"æĻºèĥ½":7765,"Ġroll":7766,"åįĵ":7767,"ĠJose":7768,"Ġsch":7769,"ĠéĻĪ":7770,"æ¢¯":7771,"åĤ»":7772,"Ġstructure":7773,"Ġdie":7774,"ĠStr":7775,"çĤ¹äºĨ":7776,"Ġdire":7777,"Ġpurchase":7778,"Ġserious":7779,"æ·»":7780,"hy":7781,"å¸¸è§ģ":7782,"Ġleader":7783,"çļĦå¤©":7784,"ĠGra":7785,"ĠSunday":7786,"ĠNov":7787,"é«ĺåº¦":7788,"åľ¨æŃ¤":7789,"lo":7790,"ria":7791,"Ġtouch":7792,"åŀĤ":7793,"çīµ":7794,"å»ī":7795,"ĠSatur":7796,"ç¼ĸè¾ĳ":7797,"Ġhusband":7798,"NA":7799,"Ġannual":7800,"èĭ±éĽĦ":7801,"è®°å¿Ĩ":7802,"é£ŀè¡Į":7803,"Ġinteresting":7804,"ĠMass":7805,"åļ":7806,"å¢ĥçķĮ":7807,"Ġdram":7808,"æĶ¾å¼ĥ":7809,"Ġeffective":7810,"åĤħ":7811,"ĠHel":7812,"Ġbed":7813,"è¡¨æ¼Ķ":7814,"Ġspent":7815,"ĠAtt":7816,"æ²³åįĹ":7817,"Ġç¬¬äºĮèĬĤ":7818,"Ġthreat":7819,"Ġbeginning":7820,"more":7821,"Ġcreating":7822,"Ġallowed":7823,"è¾¨":7824,"æĤł":7825,"Ġserve":7826,"è¶³å¤Ł":7827,"IV":7828,"èµĦæľ¬":7829,"æľīä¸Ģä¸ª":7830,"åħĥç´ł":7831,"æī¿æĭħ":7832,"å°¤åħ¶æĺ¯":7833,"EE":7834,"rd":7835,"ĠFilm":7836,"Ġcorn":7837,"Ġfirm":7838,"ĠTur":7839,"Ġç¬¬ä¸ĢèĬĤ":7840,"èĤº":7841,"å½ĵå¹´":7842,"ĠåİĨåı²":7843,"Ġstarting":7844,"èĢĮè¨Ģ":7845,"æłı":7846,"è®¨è®º":7847,"æĿĤå¿Ĺ":7848,"ĠAcademy":7849,"çļĦå·¥ä½ľ":7850,"ĠæŀĹ":7851,"ĠSil":7852,"Ġéĺ¿":7853,"Ġ35":7854,"æ°¸è¿ľ":7855,"ĠCast":7856,"æĺĤ":7857,"Ġlay":7858,"ena":7859,"icon":7860,"æīĢåľ¨":7861,"ĠBo":7862,"Ġfavorite":7863,"Ġanalysis":7864,"çĿĢä¸Ģ":7865,"state":7866,"åıĬæĹ¶":7867,"ä»ĸæĺ¯":7868,"ä¾į":7869,"ĠWood":7870,"apter":7871,"Ġenter":7872,"Ġassociated":7873,"åĲĪçĲĨ":7874,"æķ°åŃ¦":7875,"Ð¾ÑĢ":7876,"Ġtast":7877,"ç¥¥":7878,"ĠPo":7879,"åĲ¸æĶ¶":7880,"Ġgoes":7881,"Ġåķ¥":7882,"Ġä¸İ":7883,"éķ¿èĢģ":7884,"è¥¿åĮĹ":7885,"è´·":7886,"known":7887,"mitted":7888,"ario":7889,"Ġeffic":7890,"çł´åĿı":7891,"Ġemot":7892,"ä¸´åºĬ":7893,"Ġepisode":7894,"ech":7895,"é¢ĩ":7896,"Ġbehav":7897,"å¤ĸçļĦ":7898,"Ġwonder":7899,"Ġaccom":7900,"è´Ńä¹°":7901,"ĠSocial":7902,"åī²":7903,"Ġlooks":7904,"this":7905,"PC":7906,"ĠWhy":7907,"Ġevidence":7908,"æľµ":7909,"å®ļä¹ī":7910,"Ġready":7911,"æĢģåº¦":7912,"æĥ§":7913,"Ġoverall":7914,"æĴĳ":7915,"Ġmarketing":7916,"Ġinnov":7917,"ä¸Ńåįİäººæ°ĳåħ±åĴĮåĽ½":7918,"ervation":7919,"æĺĬ":7920,"Ġgives":7921,"Ġcateg":7922,"owl":7923,"writ":7924,"åŁºæľ¬ä¿¡æģ¯":7925,"è®°å¾Ĺ":7926,"æŃ»äºĨ":7927,"ĠProfess":7928,"Ġgrand":7929,"åħ¬ä¸»":7930,"æĺ¯çĶ±":7931,"Ġhappy":7932,"SS":7933,"ä¸įå¦Ĥ":7934,"åĪĨåŃĲ":7935,"å¡«":7936,"ronic":7937,"æĦ¤":7938,"èħĶ":7939,"78":7940,"ĠParis":7941,"å£¤":7942,"æķ´ä½ĵ":7943,"Ġult":7944,"çļĦåĬĽéĩı":7945,"è¯¦ç»Ĩ":7946,"ĠÂ£":7947,"å§¬":7948,"ref":7949,"lick":7950,"Ġmorning":7951,"Ġpred":7952,"çº¤":7953,"udget":7954,"éĤ£ç§į":7955,"ä»¤äºº":7956,"Ġalone":7957,"42":7958,"Ð¾Ð´":7959,"éĺŁä¼į":7960,"èĤĥ":7961,"éĩįéĩı":7962,"åłª":7963,"Ġexpand":7964,"Ġstatement":7965,"ĠBrown":7966,"è¿ĲçĶ¨":7967,"Name":7968,"Ġcentral":7969,"åŃ¦ç§ĳ":7970,"Ġseek":7971,"Ġones":7972,"æŀľçĦ¶":7973,"pm":7974,"ĠIts":7975,"Ġgoals":7976,"Ġessential":7977,"Ġcounty":7978,"Ġvan":7979,"hens":7980,"ola":7981,"æĭĴç»Ŀ":7982,"ä¼Ĳ":7983,"Ġmovement":7984,"æĥ³æ³ķ":7985,"LE":7986,"illa":7987,"Ġskin":7988,"anced":7989,"Ġwriter":7990,"å¾Ģå¾Ģ":7991,"ician":7992,"Ġappl":7993,"Ġpretty":7994,"Ġincreased":7995,"list":7996,"haps":7997,"ä¸įè§ģ":7998,"ĠRussian":7999,"Ġçİ©":8000,"åįıè°ĥ":8001,"Id":8002,"itude":8003,"èĬ¯":8004,"åįĥç±³":8005,"Ġwa":8006,"ç»ĦåĲĪ":8007,"Ġbackground":8008,"åķ¦":8009,"åĮ»çĶŁ":8010,"æ¨¡åŀĭ":8011,"è¿ĺèĥ½":8012,"çľĭè§ģ":8013,"Ġpen":8014,"Ġstring":8015,"è¿ĺæ²¡æľī":8016,"æī£":8017,"å£³":8018,"olk":8019,"ĠBank":8020,"Ġgiving":8021,"ulture":8022,"Ġwest":8023,"atively":8024,"å®ĮåĸĦ":8025,"çļĦéĩįè¦ģ":8026,"ÅĤ":8027,"åĮħåĲ«":8028,"Ġstra":8029,"æĪĪ":8030,"èİİ":8031,"è®°èĢħ":8032,"ĠMond":8033,"Al":8034,"è¯ķéªĮ":8035,"åľ°çĲĥ":8036,"Ġsolution":8037,"æ¯ħ":8038,"Ġequipment":8039,"ç¾İæľ¯":8040,"åįµ":8041,"itable":8042,"å¤ļæ¬¡":8043,"ĠçĤ¹":8044,"è´¢æĶ¿":8045,"ÑģÐº":8046,"æĥħç»ª":8047,"aled":8048,"imal":8049,"Ġapprox":8050,"Ġkids":8051,"äººåľ¨":8052,"æīŃ":8053,"å®ĩå®Ļ":8054,"è¿ĽäºĨ":8055,"reme":8056,"ĠSpan":8057,"Ġremain":8058,"èħº":8059,"åħ¨æĿĳ":8060,"å¼¥":8061,"Ġeffects":8062,"Ġprimary":8063,"Ġweight":8064,"ä¸ľåįĹ":8065,"çĤī":8066,"Ġslow":8067,"Ġtrust":8068,"ĠåĨħå®¹ç®Ģä»ĭ":8069,"Ġrank":8070,"ä¸ĵéĹ¨":8071,"ĠWomen":8072,"Ð°Ð½":8073,"Ġfair":8074,"èĭıèģĶ":8075,"Ġheat":8076,"æīĵç®Ĺ":8077,"å¤ļäºĨ":8078,"Ġcontain":8079,"Ġdro":8080,"è¡°":8081,"æĭĨ":8082,"ä¸īå¹´":8083,"uts":8084,"çľ¼ç¥ŀ":8085,"ä¿¡åı·":8086,"åĴ¨":8087,"Ġgar":8088,"èĴĻåı¤":8089,"æĮĳæĪĺ":8090,"åıĮæĸ¹":8091,"è§Ĵåº¦":8092,"ĠEven":8093,"Ġfeed":8094,"Ġclick":8095,"æĦŁæŁĵ":8096,"ura":8097,"ĠIre":8098,"åįģä¹Ŀ":8099,"ĠArts":8100,"ĠFree":8101,"ancy":8102,"Ġselect":8103,"çļĦåīį":8104,"éº»çĥ¦":8105,"åĪ¶å®ļ":8106,"ä¾ĿæĹ§":8107,"ĠOld":8108,"ĠèĻ½çĦ¶":8109,"ç»ĻäºĨ":8110,"Ġcarry":8111,"Ġblood":8112,"åŁºäºİ":8113,"Ġsafe":8114,"æķĮäºº":8115,"ĠçĶµ":8116,"èŁ":8117,"åĩ½":8118,"äºĨä¸ĭæĿ¥":8119,"igan":8120,"Ġhighest":8121,"å¹¿åľº":8122,"Ġeast":8123,"è¿ĽæĶ»":8124,"ĠVictor":8125,"Ġregister":8126,"ĠSaturday":8127,"inter":8128,"!\"":8129,"å¼ºçļĦ":8130,"ĠKn":8131,"èĲĦ":8132,"å°ıåŃĲ":8133,"Sc":8134,"ĠCongress":8135,"åĲ¸å¼ķ":8136,"åĬ¿åĬĽ":8137,"ä¸įçĶ±":8138,"imb":8139,"Ġyourself":8140,"Ġnearly":8141,"Ġfans":8142,"çĺ¤":8143,"åİĺç±³":8144,"æĦĪ":8145,"Ġä½łä»¬":8146,"è±«":8147,"çĤĴ":8148,"iverse":8149,"ç¬¬ä¸Ģä¸ª":8150,"çģµéŃĤ":8151,"Ġbusinesses":8152,"æľºåĪ¶":8153,"å§¿":8154,"çĽ¸æ¯Ķ":8155,"Ġdemon":8156,"Ġcopy":8157,"Ġsituation":8158,"æŃ£ç¡®":8159,"èĳ¡èĲĦ":8160,"åľ°ä¸ĭ":8161,"force":8162,"ä½Ĳ":8163,"och":8164,"çļĦä¸į":8165,"æ¬¢è¿İ":8166,"èĬ³":8167,"å²Ń":8168,"æĺ¯åĽłä¸º":8169,"èģĺ":8170,"åķ¥":8171,"umni":8172,"ĠHistor":8173,"åĿĲåľ¨":8174,"æĢ¨":8175,"Ġgrowing":8176,"æĸĳ":8177,"ĠJournal":8178,"Ġcontext":8179,"ĠÐº":8180,"ruit":8181,"æ»¨":8182,"Ġbenefits":8183,"Ġfounded":8184,"æĪĳå°±":8185,"Ġdeaths":8186,"è¿ĽæŃ¥":8187,"å¹³æĸ¹åħ¬éĩĮ":8188,"å¥³åŃ©":8189,"ĠAtl":8190,"Ġhelped":8191,"Ġformed":8192,"Ġbillion":8193,"Ġship":8194,"TS":8195,"Ġspeed":8196,"å¼¯":8197,"Ġimages":8198,"ev":8199,"asket":8200,"ä¸»åĬ¨":8201,"Ġchance":8202,"Ġfederal":8203,"è´¢åĬ¡":8204,"Ġstatus":8205,"azz":8206,"å±Ī":8207,"æĦıçļĦ":8208,"idge":8209,"çĹħæ¯Ĵ":8210,"riate":8211,"åħ±äº§":8212,"æĬ¹":8213,"ĠåĨħ":8214,"ç¯®":8215,"istan":8216,"å¯»æī¾":8217,"Ġvalues":8218,"ga":8219,"Ġlaun":8220,"Ġdaily":8221,"æ¶¨":8222,"Ġincreasing":8223,"ä¸§":8224,"Un":8225,"ashion":8226,"æ²¡æĥ³åĪ°":8227,"Ġcommunities":8228,"Ġhop":8229,"ĠIll":8230,"é«ĺéĢŁ":8231,"èĥģ":8232,"Ġinform":8233,"æķĻæĿĲ":8234,"Ġdouble":8235,"ĠChristmas":8236,"Ġtools":8237,"ä¼łæĴŃ":8238,"Ġ32":8239,"FL":8240,"ĠPop":8241,"ĠFacebook":8242,"çİ°åľ¨çļĦ":8243,"å¤§å¸Ī":8244,"Ġanc":8245,"æ®µæĹ¶éĹ´":8246,"yp":8247,"Ġtrain":8248,"lim":8249,"è´¦":8250,"ND":8251,"åĤ¬":8252,"è£ħå¤ĩ":8253,"ĠBet":8254,"çĽ¯":8255,"ĠCommittee":8256,"ache":8257,"ocks":8258,"Ġelements":8259,"åįıè®®":8260,"å¤¹":8261,"çĹĩçĬ¶":8262,"å¤±è´¥":8263,"agn":8264,"æģŃ":8265,"Ð¾Ð¼":8266,"Ġå¹³":8267,"çĸĨ":8268,"ĠValley":8269,"Ġcondition":8270,"æł¼åħ°":8271,"å®Ŀå®Ŀ":8272,"ĠPenn":8273,"åĽºå®ļ":8274,"æľĿçĿĢ":8275,"Ġsurpr":8276,"çĸı":8277,"çĳŁ":8278,"éĥ½è¦ģ":8279,"Ġstudies":8280,"æİĴåĲį":8281,"log":8282,"å¤§å¤ļæķ°":8283,"Ġoperations":8284,"çŃīçº§":8285,"Ġcompletely":8286,"âĢĭ":8287,"éŃĶæ³ķ":8288,"Ġgas":8289,"Ġexcell":8290,"åį³åı¯":8291,"çħ§çīĩ":8292,"çĲĥåĳĺ":8293,"Ġfelt":8294,"æĪĳæĺ¯":8295,"æĹ©å°±":8296,"ĠKore":8297,"ĠPlan":8298,"ç»¿èī²":8299,"Ġfully":8300,"å°Ĩåħ¶":8301,"ä¸ĺ":8302,"ä¿±ä¹Ĳ":8303,"Ġsust":8304,"ĠLand":8305,"Ġhear":8306,"æµģè¡Į":8307,"èĬ¬":8308,"å¦®":8309,"æ£®æŀĹ":8310,"Ġoffered":8311,"Ġlif":8312,"åŃ¦ä½į":8313,"ĠTre":8314,"box":8315,"ĠDu":8316,"eed":8317,"éļıåį³":8318,"riving":8319,"Ġcontains":8320,"å®ŀéĻħä¸Ĭ":8321,"Ġconvers":8322,"ä¿®å£«":8323,"uty":8324,"çĲ³":8325,"æ¼Ķåĩº":8326,"Ġgenerally":8327,"Ġperformed":8328,"çħ¤":8329,"mond":8330,"lis":8331,"çĽ¸äºĴ":8332,"Ġshot":8333,"Ġwel":8334,"encies":8335,"ĠBack":8336,"Ġexcept":8337,"ä½łæĺ¯":8338,"éĢĤåºĶ":8339,"ĠPub":8340,"çľ¼ä¸Ń":8341,"ĠWeb":8342,"ĠSure":8343,"orage":8344,"ĠLu":8345,"ĠAngeles":8346,"åīª":8347,"å¿«ä¹Ĳ":8348,"ounds":8349,"æįŁå¤±":8350,"æľŁçļĦ":8351,"Ġkm":8352,"ĠItalian":8353,"æħĪ":8354,"You":8355,"Ġturned":8356,"Ġmission":8357,"Ġconsult":8358,"çķĻä¸ĭ":8359,"Ġcosts":8360,"Ġä»Ĭå¤©":8361,"Ġactivity":8362,"Ġencoura":8363,"Ġcorrect":8364,"ä¸¤ç§į":8365,"èĶ¡":8366,"ç»´æĬ¤":8367,"æ¸Ĭ":8368,"itely":8369,"IA":8370,"ibly":8371,"Ġreports":8372,"icine":8373,"Ġfix":8374,"ä¹ĭåĬĽ":8375,"è´¡çĮ®":8376,"çº¢èī²":8377,"Ġheard":8378,"ä¿©":8379,"Ġblue":8380,"è¿ĩçļĦ":8381,"Ġsurface":8382,"ç½©":8383,"çº·çº·":8384,"Ġtried":8385,"oral":8386,"Ġacadem":8387,"Ġsaying":8388,"æľºåĻ¨":8389,"su":8390,"åŃ¦èĢħ":8391,"è¿Ļä»¶":8392,"è¥¿åįĹ":8393,"Ġdemand":8394,"è¢ĸ":8395,"æĦıå¤§åĪ©":8396,"è¥¿çıŃ":8397,"ĠLong":8398,"Ġremains":8399,"Ð¾Ð»":8400,"ĠExp":8401,"ĠEnter":8402,"ä¸ŃéĹ´":8403,"é¢¤":8404,"è§£æĶ¾":8405,"ç¬ĳäºĨ":8406,"ç½Ĺé©¬":8407,"è¥¿çıŃçīĻ":8408,"æĮĸ":8409,"çĹķ":8410,"Ġang":8411,"Ġhelps":8412,"é¢Ī":8413,"è¿Ľè¡ĮäºĨ":8414,"åĳ¼åĲ¸":8415,"çİ»":8416,"anned":8417,"åħĭæĸ¯":8418,"Ð°Ð»":8419,"åİŁçĲĨ":8420,"ixt":8421,"æ¼ĶåĶ±":8422,"Ġesc":8423,"çĥĤ":8424,"åĬ¨åĬĽ":8425,"åľ¨ä»ĸ":8426,"VID":8427,"Ġsort":8428,"opping":8429,"åĴ¨è¯¢":8430,"æīĵå¼Ģ":8431,"Ġvoice":8432,"vant":8433,"Ġcolle":8434,"Ġdisease":8435,"ĠTHE":8436,"æĢİæł·":8437,"èĴ¸":8438,"ĠRev":8439,"Ġwarm":8440,"Ġsigned":8441,"Ġä»ĸä»¬":8442,"å¹¿æĴŃ":8443,"Ġinterested":8444,"æĺİç¡®":8445,"Ġisland":8446,"sk":8447,"ĠElect":8448,"Ġpurpose":8449,"],":8450,"resp":8451,"ĠSeries":8452,"900":8453,"éĩĩåıĸ":8454,"Ã³n":8455,"ĠSecond":8456,"acity":8457,"èŃ¦å¯Ł":8458,"Ġ90":8459,"Ġintroduced":8460,"å¯Ħ":8461,"Ġwild":8462,"Ġopening":8463,"Ġclients":8464,"æĸ¹éĿ¢çļĦ":8465,"rive":8466,"Ġfinally":8467,"Ġlarger":8468,"Ġorganizations":8469,"Ġfloor":8470,"è¾ĵåħ¥":8471,"Ġtim":8472,"imin":8473,"å©´":8474,"åĽĽä¸ª":8475,"undred":8476,"976":8477,"Ġpaint":8478,"ä¸²":8479,"å°ıå¿ĥ":8480,"Ġshoot":8481,"Ġè°ģ":8482,"èĳĽ":8483,"asion":8484,"ĠAwards":8485,"uing":8486,"ĠSupp":8487,"ç®ĢçĽ´":8488,"OL":8489,"è¯´ä¸į":8490,"Ġfa":8491,"975":8492,"èĤ¾":8493,"91":8494,"Ġchem":8495,"Ġexamples":8496,"çº²":8497,"çļĦä¸Ģç§į":8498,"èĳ¬":8499,"Ġruns":8500,"ĠIreland":8501,"èħĬ":8502,"ç»ĥä¹ł":8503,"ä»ħä»ħ":8504,"ĠJes":8505,"ĠOl":8506,"Ġsave":8507,"ä¹Łåľ¨":8508,"çĻ¾å§ĵ":8509,"åĨ¯":8510,"Ġmiddle":8511,"çĶŁæ¶¯":8512,"åĲİéĿ¢":8513,"è®°è½½":8514,"ä¸Ģå®ļè¦ģ":8515,"ä¸Ģå¤©":8516,"ĠBoy":8517,"ç´łè´¨":8518,"Ġadult":8519,"æĬļ":8520,"Ġsociety":8521,"ĠMat":8522,"å¾Īå¤§":8523,"icks":8524,"çľŁæŃ£çļĦ":8525,"Ġanaly":8526,"åĢ¼å¾Ĺ":8527,"è¿½æ±Ĥ":8528,"çķħ":8529,"äººæķ°":8530,"CH":8531,"ĠFre":8532,"\":":8533,"ä¹Łè¦ģ":8534,"Ġmiles":8535,"cription":8536,"Ġåı¶":8537,"itionally":8538,"ĠServices":8539,"Ġfeatured":8540,"Ġmoving":8541,"ĠEngine":8542,"ç¢³":8543,"Ġmeasure":8544,"Ġlands":8545,"Ġstock":8546,"åįļçī©":8547,"ĠPac":8548,"ĠMain":8549,"åĲ¨":8550,"ä»²":8551,"ä½ľæĪĺ":8552,"alog":8553,"Ġdevice":8554,"An":8555,"Ġshown":8556,"ĠSpanish":8557,"hr":8558,"ca":8559,"ĠDen":8560,"æĶ¾å¿ĥ":8561,"Ġunit":8562,"Ġresidents":8563,"Ġè¿ĺæľī":8564,"çľł":8565,"è§Ĥä¼Ĺ":8566,"945":8567,"Ġindependent":8568,"åĨĽçļĦ":8569,"Ġopportunities":8570,"Ġid":8571,"ĠFoundation":8572,"Ġcredit":8573,"èĩªæĪĳ":8574,"ĠåĪĺ":8575,"Ġclosed":8576,"String":8577,"åİ¦":8578,"Ġç¬¬åħŃ":8579,"Ġeventually":8580,"Ġaw":8581,"éģĵçļĦ":8582,"Ġpattern":8583,"Ġnote":8584,"onent":8585,"æĦŁåıĹ":8586,"Ġ%":8587,"å¦Īå¦Ī":8588,"è´¼":8589,"æĪĲå°±":8590,"ĠTimes":8591,"ĠShow":8592,"è¯ŀ":8593,"æĺ¯æĮĩ":8594,"ĠUse":8595,"èīĺ":8596,"æ³¨åĨĮ":8597,"ĠVis":8598,"Ġstream":8599,"ĠSom":8600,"åģļåĪ°":8601,"Ġ(\"":8602,"ĠHenry":8603,"éĥ¨éķ¿":8604,"Ġemployees":8605,"äººå£«":8606,"Ġgun":8607,"Hz":8608,"ĠCat":8609,"ĠISBN":8610,"ategy":8611,"ĠæľĪ":8612,"ĠMur":8613,"èĩªæ²»":8614,"çļĦåŁºç¡Ģ":8615,"çļĦå¥½":8616,"åľ³":8617,"ĠDesign":8618,"align":8619,"Ġstrugg":8620,"Ġwrong":8621,"å¾Īéļ¾":8622,"Ġrules":8623,"Ġbey":8624,"Ġamazing":8625,"972":8626,"41":8627,"æ¡Ĥ":8628,"ĠOnce":8629,"body":8630,"do":8631,"åı¤ä»£":8632,"ĠProject":8633,"æĵ¦":8634,"Ġstrateg":8635,"Ġvoid":8636,"Ġefforts":8637,"æĽ°":8638,"ĠTheir":8639,"èģĶç½ĳ":8640,"Ġ200":8641,"ĠLab":8642,"Ġelectric":8643,"Ġload":8644,"IM":8645,"èº«åĲİ":8646,"Ġhospital":8647,"Ġsites":8648,"ä¸įåľ¨":8649,"ĠEconom":8650,"ĠWater":8651,"ä¼ļåĦ¿":8652,"ĠWho":8653,"åīįçļĦ":8654,"å®Įæķ´":8655,"è´º":8656,"ĠFollow":8657,"è°Ĳ":8658,"å®¹éĩı":8659,"éħ·":8660,"ĠMarket":8661,"ãĢĤ(":8662,"åħįè´¹":8663,"iques":8664,"with":8665,"ĠPerson":8666,"Ġpassed":8667,"ä¼¤å®³":8668,"æİ¨å¹¿":8669,"ĠGall":8670,"çļĦæĸ¹å¼ı":8671,"Ġdress":8672,"éĤ£è¾¹":8673,"åĽĽå·Ŀ":8674,"acing":8675,"ĠDevelopment":8676,"Ġbeyond":8677,"Ġrespond":8678,"ç§ĺå¯Ĩ":8679,"ously":8680,"974":8681,"Ġwall":8682,"Ġord":8683,"éĺĶ":8684,"è¿Ļæīį":8685,"ç»ıåħ¸":8686,"å¹¼åĦ¿":8687,"soft":8688,"973":8689,"äºĭåĬ¡":8690,"43":8691,"Ġplanning":8692,"åıĽ":8693,"ĠVirginia":8694,"Ġcert":8695,"ua":8696,"ĠJul":8697,"vention":8698,"æĺ¾å¾Ĺ":8699,"éŀĭ":8700,"ĠDou":8701,"ç»ıçĲĨ":8702,"ç³»ç»ŁçļĦ":8703,"Ġimag":8704,"Ġkilled":8705,"ellig":8706,"æİ¥è¿ĳ":8707,"çĥĪçļĦ":8708,"èµ¶ç´§":8709,"VD":8710,"èĽ®":8711,"Ġpeace":8712,"å¸¦æĿ¥":8713,"è¿ĲèĲ¥":8714,"Ġopin":8715,"Ġcommand":8716,"ĠMa":8717,"ç¼Ŀ":8718,"ii":8719,"åħ¬åı¸çļĦ":8720,"ç¬¬äºĶ":8721,"Ġ80":8722,"thlet":8723,"è½»æĿ¾":8724,"ĠAnother":8725,"ĠJim":8726,"ĠSecret":8727,"æµ¦":8728,"ä¿®ä¸º":8729,"ä¼ļçļĦ":8730,"Ġinstr":8731,"ä½ĵåĨħ":8732,"é¢ģ":8733,"ĠPower":8734,"çĶŁéķ¿":8735,"Ġmis":8736,"Ġgets":8737,"Ġpet":8738,"èģª":8739,"Ġadvert":8740,"Ġoriginally":8741,"Ġè¯¥":8742,"ĠÐ´":8743,"977":8744,"ĠUSA":8745,"mine":8746,"ĠMicro":8747,"æī®":8748,"å°ıç»Ħ":8749,"æ·±åħ¥":8750,"ĠLast":8751,"Ġrecipe":8752,"ester":8753,"ĠThanks":8754,"ä½ıæĪ¿":8755,"inger":8756,"è·¯çº¿":8757,"isation":8758,"åıįæŃ£":8759,"Ġshall":8760,"Ġexperien":8761,"ä½ĵéªĮ":8762,"è®©ä½ł":8763,"ĠEarth":8764,"ĠTour":8765,"é«ĺçŃī":8766,"æīĭæľ¯":8767,"Ġgraph":8768,"æĸ½å·¥":8769,"ĠMartin":8770,"Ġhousing":8771,"Ġattend":8772,"æ¼ı":8773,"ĠPolit":8774,"Ġaware":8775,"Ġthous":8776,"Ġsend":8777,"ooth":8778,"Ġquarter":8779,"PA":8780,"å£°éģĵ":8781,"èĹ¤":8782,"met":8783,"æŀģä¸º":8784,"Ġpreviously":8785,"éĹ·":8786,"Ġresponsible":8787,"Ġfeet":8788,"ĠæĦŁè§ī":8789,"atab":8790,"dis":8791,"ä¿±ä¹Ĳéĥ¨":8792,"rupt":8793,"ĠEach":8794,"Ġdream":8795,"ĠLord":8796,"æİ©":8797,"ĠBlue":8798,"ç¼ĵç¼ĵ":8799,"ä¼łè¯´":8800,"Ġelected":8801,"Ġsea":8802,"Ġmunicip":8803,"å¢ŀå¼º":8804,"ourney":8805,"Ġclimate":8806,"Ġcru":8807,"ĠTim":8808,"éģµ":8809,"ĠFoot":8810,"é»Ħéĩĳ":8811,"cher":8812,"çĪ¬":8813,"??":8814,"ĠMedia":8815,"Ġjoin":8816,"Ġæ¯Ķ":8817,"oms":8818,"asy":8819,"æ·±åľ³":8820,"Ġhuge":8821,"ipl":8822,"ĠScot":8823,"ĠMonday":8824,"Ġlisted":8825,"ĠCommunity":8826,"Ġsources":8827,"çŁĽ":8828,"äºĨåĩł":8829,"è¿ĺæ²¡":8830,"åĽĬ":8831,"çĻ½èī²":8832,"æİ¨åĬ¨":8833,"Ġhar":8834,"ĠToday":8835,"çī¹åĪ«æĺ¯":8836,"Ġproduce":8837,"å´©":8838,"çŃīå¥ĸ":8839,"éĩįè§Ĩ":8840,"éľ²åĩº":8841,"ĠMatt":8842,"PU":8843,"æ¯ıæ¬¡":8844,"çļĦæĸ¹æ³ķ":8845,"Ġexpert":8846,"fig":8847,"æĶ¹åĸĦ":8848,"ĠSports":8849,"Ġmechan":8850,"å±ķç¤º":8851,"åıįèĢĮ":8852,"TM":8853,"ban":8854,"Ġerror":8855,"å®Įç¾İ":8856,"ĠLiving":8857,"çĨŁæĤī":8858,"æ¹ĸåįĹ":8859,"Ġparties":8860,"Ġowners":8861,"éĢ»":8862,"è¿Ļä¸ªæĹ¶åĢĻ":8863,"é«ĺæīĭ":8864,"ĠOper":8865,"ç¢§":8866,"Ġbeg":8867,"éĶ¡":8868,"å¤«äºº":8869,"æĺŃ":8870,"astern":8871,"mary":8872,"çļĦèĢģ":8873,"ä¹Łä¸įæĺ¯":8874,"Ġreduce":8875,"ĠHy":8876,"Ġdoor":8877,"Ġé»ĳ":8878,"æĪĺåľº":8879,"equ":8880,"Ġä¸įä¼ļ":8881,"æ·¡æ·¡":8882,"57":8883,"å®¶éĩĮ":8884,"æľĢå¥½":8885,"Ġadapt":8886,"968":8887,"ä¸ĭä¸Ģ":8888,"å°ĳå¥³":8889,"DA":8890,"æĮĩåĩº":8891,"ĠFamily":8892,"åľ¨ä¸Ģ":8893,"hab":8894,"åĲĮæĦı":8895,"æĲ¬":8896,"inct":8897,"Ġanti":8898,"Ġmanager":8899,"çļĦåŁºæľ¬":8900,"Ġmusical":8901,"Ġmur":8902,"Ġscene":8903,"Ġapplications":8904,"çĤ¹äºĨçĤ¹å¤´":8905,"ĠåĪ«":8906,"Ġåıªæĺ¯":8907,"Ġtick":8908,"ications":8909,"éĤĵ":8910,"Ġfine":8911,"uration":8912,"æĿ¥çľĭ":8913,"æĢĿç»´":8914,"riage":8915,"Ġunderstanding":8916,"cm":8917,"å¨ģèĥģ":8918,"å½¢æĢģ":8919,"æĿĢäºĨ":8920,"Ġgrant":8921,"Ġaf":8922,"ĠDet":8923,"RA":8924,"å¹¶éĿŀ":8925,"åĵģè´¨":8926,"Ġpressure":8927,"Ġletter":8928,"Ġmachine":8929,"Ġdefe":8930,"ĠDec":8931,"IF":8932,"åĮĢ":8933,"æ±¡æŁĵ":8934,"ulate":8935,"Ġmaster":8936,"Ġtrib":8937,"Ġexperiences":8938,"ĠCatholic":8939,"åĺ»":8940,"åıĪæĺ¯":8941,"éĺ²å¾¡":8942,"ĠEnd":8943,"æĹ¥å¸¸":8944,"æī¹åĩĨ":8945,"äºĨä¸ĢäºĽ":8946,"çĭĲ":8947,"aks":8948,"åĪĽå»º":8949,"anda":8950,"æĳĦå½±":8951,"ç¡ķå£«":8952,"Ġcorpor":8953,"58":8954,"ä¸īäºº":8955,"ĠFestival":8956,"Ġpages":8957,"éŁµ":8958,"ĠProv":8959,"ĠGame":8960,"æĬĸ":8961,"å·®ä¸įå¤ļ":8962,"ĠWed":8963,"ä¸¥æł¼":8964,"æĢ»æĶ¶åħ¥":8965,"å±ķå¼Ģ":8966,"Ġpull":8967,"ĠâĹ":8968,"å¯¹çĿĢ":8969,"Ġinvestment":8970,"igr":8971,"åĲĦç±»":8972,"ç§ĺä¹¦":8973,"bur":8974,"Ġhair":8975,"æ±Łèĭı":8976,"è¥¿äºļ":8977,"ĠST":8978,"Ġspirit":8979,"éĨī":8980,"ä¼ļè®¡":8981,"Ġregarding":8982,"æ»ĭ":8983,"éĢĿ":8984,"å¼Ĥå¸¸":8985,"ĠHead":8986,"éĤ£æł·":8987,"ĠPan":8988,"Ġpartner":8989,"969":8990,"Ġshared":8991,"Ġwasn":8992,"iny":8993,"å¨ĥ":8994,"Ġsecret":8995,"ĠWindows":8996,"è¡į":8997,"è¯±":8998,"Ġcompetition":8999,"ucle":9000,"Ġdetermin":9001,"Ġcoast":9002,"Ġdensity":9003,"Ġreached":9004,"æģ°":9005,"Ġåħ¶ä»ĸ":9006,"ĠDown":9007,"ç´§å¼ł":9008,"ç»Łæ²»":9009,"Ġcalc":9010,"å¥ĩæĢª":9011,"mbol":9012,"åħ¥äºĨ":9013,"Ġforms":9014,"Ġ*/":9015,"Ġç¬¬ä¸īèĬĤ":9016,"Ġhour":9017,"hi":9018,"ĠAny":9019,"äººåĿĩ":9020,"Ġdry":9021,"uled":9022,"ĠSaint":9023,"Ġbuildings":9024,"Com":9025,"æĸľ":9026,"ç©´":9027,"Ġcaused":9028,"top":9029,"çĭ¬çī¹":9030,"æ°§åĮĸ":9031,"æ¯Ķä¾ĭ":9032,"ç¬¼":9033,"Ã§":9034,"Ġç¬¬äºĮåįģ":9035,"Ġbasis":9036,"ipped":9037,"èĥľåĪ©":9038,"IG":9039,"ĠçĦ¶åĲİ":9040,"Ġplaced":9041,"Ġcities":9042,"éĺ¿å°Ķ":9043,"Ġfinished":9044,"'.":9045,"èĤĸ":9046,"----------------":9047,"ĠHon":9048,"ĠLibrary":9049,"é¹°":9050,"Ġreplace":9051,"Ġforces":9052,"å§ĭç»Ī":9053,"Ġlegisl":9054,"äºŃ":9055,"Ġiniti":9056,"Cont":9057,"Ġå·²ç»ı":9058,"ä¸įçĦ¶":9059,"Ġrequirements":9060,"ias":9061,"hire":9062,"using":9063,"Ġmobile":9064,"çļĦæĦŁè§ī":9065,"æĸĩçĮ®":9066,"Ġprincip":9067,"024":9068,"Ġ=>":9069,"date":9070,"cell":9071,"Ġä¸»è¦ģ":9072,"å¥ĳ":9073,"å¤§æĪĺ":9074,"Ġinvestig":9075,"Ġmodels":9076,"åľ¨ä¸ŃåĽ½":9077,"åĥıæĺ¯":9078,"èµĽåŃ£":9079,"ying":9080,"å®ŀè¡Į":9081,"å®ĹæķĻ":9082,"è¯Ħè®º":9083,"Ġworkers":9084,"ĠSqu":9085,"Ġcoach":9086,"çłĸ":9087,"Ġcas":9088,"äº²èĩª":9089,"å¹´åºķ":9090,"çĶµè§Ĩåı°":9091,"Ġcompared":9092,"Ġvirt":9093,"æĢ§è´¨":9094,"Ġaudience":9095,"Ġcamer":9096,"971":9097,"ĠEarly":9098,"ĠColumb":9099,"ĠBuild":9100,"Ġeth":9101,"gu":9102,"cean":9103,"ĠEp":9104,"æĥ³è±¡":9105,"èĴĭ":9106,"çĶ¨æĿ¥":9107,"Ð¾Ð³":9108,"ç¨¿":9109,"äºļæ´²":9110,"å¤ĸéĿ¢":9111,"æĿĥåĪ©":9112,"Ġappears":9113,"Ġfemales":9114,"éĢĬ":9115,"Ġpaid":9116,"Ġsale":9117,"ĠJud":9118,"Ġbudget":9119,"Ġ;":9120,"æŃĮæīĭ":9121,"åĲĦä¸ª":9122,"éĤ£å°±":9123,"Ġsorry":9124,"Ġforeign":9125,"åĽ¢ä½ĵ":9126,"çĽĨ":9127,"æ¶īåıĬ":9128,"Ġpresented":9129,"åĬ¨çļĦ":9130,"Ġbrief":9131,"ĠZeal":9132,"ä¸Ĭä¸Ģ":9133,"aming":9134,"è¥¿æĸ¹":9135,"aven":9136,"Ġattract":9137,"wise":9138,"æ£ĭ":9139,"Ġrow":9140,"Ġ**":9141,"åıĮæīĭ":9142,"Ġvehicle":9143,"ĠSpecial":9144,"å§Ĳå§Ĳ":9145,"ĠManagement":9146,"å·«":9147,"çĥ¤":9148,"Ġdifference":9149,"éĩįåºĨ":9150,"å·¨å¤§":9151,"èľľ":9152,"Ġmap":9153,"Ġrecords":9154,"æĦıå¤ĸ":9155,"ĠGeorg":9156,"ĠLiber":9157,"åľ°éĿ¢":9158,"å¦ĥ":9159,"æľīåı¯èĥ½":9160,"åľ°äº§":9161,"æĪĲçĨŁ":9162,"æ¬º":9163,"comp":9164,"apers":9165,"éĶĻè¯¯":9166,"çĵ·":9167,"Ġingred":9168,"æİ¨è¿Ľ":9169,"èµļ":9170,"å¤ĦçļĦ":9171,"va":9172,"Ġlaws":9173,"å½±çīĩ":9174,"Ġice":9175,"ä¹Łä¸įä¼ļ":9176,"æŁĦ":9177,"Ġæ°´":9178,"ĠCentre":9179,"Ġspl":9180,"Ġphil":9181,"ä¸ĳ":9182,"æĽ´å¤ļçļĦ":9183,"Ġserving":9184,"content":9185,"å¹³è¡¡":9186,"å±ıå¹ķ":9187,"Ġcop":9188,"Ġcharge":9189,"Ġcritical":9190,"ä¸įä¹ħ":9191,"fortun":9192,"aters":9193,"æ°ĶçļĦ":9194,"åľ°è¯´éģĵ":9195,"åŁĭ":9196,"âĢĿ(":9197,"SP":9198,"åįĥä¸ĩ":9199,"Ġå¸¦":9200,"ä½ľå®¶":9201,"èµ´":9202,"Ġsetting":9203,"Ġinput":9204,"isf":9205,"ĠÐ½Ð°":9206,"èĦĨ":9207,"Ġelement":9208,"Ġcancer":9209,"Ġå¥³":9210,"ifying":9211,"Ġlov":9212,"èį£èªī":9213,"Ġoccup":9214,"ĠMot":9215,"Ġheavy":9216,"What":9217,"ĠåĽŀæĿ¥":9218,"ĠMen":9219,"mod":9220,"æĿŃ":9221,"ä¸ĢèĦ¸":9222,"edia":9223,"å¥½å¥½":9224,"åŃĲéĩĮ":9225,"æĬ¥éģĵ":9226,"reci":9227,"ĠFer":9228,"ĠçĶ·":9229,"oration":9230,"Ġminor":9231,"ĠLike":9232,"Ġsolutions":9233,"Ġsequ":9234,"EM":9235,"Ġveget":9236,"ĠZealand":9237,"è¯»èĢħ":9238,"æķĪçİĩ":9239,"Ġä¸Ģèµ·":9240,"940":9241,"rad":9242,"ĠCy":9243,"ĠRo":9244,"amm":9245,"Ġlaunch":9246,"ä¸ºä¸Ģ":9247,"Ġglass":9248,"æ¯«æĹł":9249,"ĠSwed":9250,"Val":9251,"æī¿è®¤":9252,"éĻķ":9253,"è¿ĺä¸į":9254,"Ġapprop":9255,"ĠUN":9256,"word":9257,"ipping":9258,"Ġimmediately":9259,"ĠFort":9260,"Ġeyes":9261,"Ġcultural":9262,"çľĭåĲĳ":9263,"ĠBob":9264,"æīĢå±ŀ":9265,"Ġriver":9266,"ĠFurther":9267,"äºı":9268,"ĨĴ":9269,"icians":9270,"å¿įä¸įä½ı":9271,"å½ĵåĪĿ":9272,"äºĨä¸Ģå£°":9273,"æ°ĳéĹ´":9274,"Ġapply":9275,"è´¹çĶ¨":9276,"å§ĳå¨ĺ":9277,"æľ´":9278,"Type":9279,"å·ŀå¸Ĥ":9280,"åĪ¤æĸŃ":9281,"Ġadopt":9282,"à¸":9283,"Ġalbums":9284,"Ġbattle":9285,"äºĨä¸ª":9286,"çŃĶæ¡Ī":9287,"ç»ĵå©ļ":9288,"Ġcitiz":9289,"éĩıçļĦ":9290,"Ġestim":9291,"æĬĢå·§":9292,"ĠGen":9293,"åį±æľº":9294,"ĠDivision":9295,"åįļçī©é¦Ĩ":9296,"Ġur":9297,"Ġnumerous":9298,"ĠBas":9299,"List":9300,"æĪĳæĥ³":9301,"enced":9302,"è·¯ä¸Ĭ":9303,"uries":9304,"ä¹Łè®¸":9305,"Ġexerc":9306,"Ġtrip":9307,"ightly":9308,"Res":9309,"åħ¬åħĥ":9310,"ologies":9311,"itan":9312,"Ġexisting":9313,"éĩįçļĦ":9314,"èĬĿ":9315,"çĸ¯çĭĤ":9316,"è¿ĽæĿ¥":9317,"New":9318,"amin":9319,"Ġlaunched":9320,"rics":9321,"Ġaspect":9322,"æĤĦ":9323,"å¯Ĩåº¦":9324,"èĨĢ":9325,"å®¶éķ¿":9326,"Ġcompos":9327,"Ġschol":9328,"åŁºåĽł":9329,"æĪĳè¦ģ":9330,"çĨĻ":9331,"å¹´éĹ´":9332,"Ġbecoming":9333,"quest":9334,"è®¤çľŁ":9335,"anger":9336,"æĢ»æĺ¯":9337,"æ¡Īä¾ĭ":9338,"ora":9339,"Ġä¸įèĥ½":9340,"å¤ķ":9341,"ĠCross":9342,"ements":9343,"920":9344,"éĥ½èĥ½":9345,"949":9346,"ta":9347,"150":9348,"ÑĪ":9349,"arts":9350,"Ġcry":9351,"Ġpoor":9352,"æīĵéĢł":9353,"Ġaccur":9354,"éĤĢè¯·":9355,"friend":9356,"ĠæĹ¶éĹ´":9357,"æ¶Ľ":9358,"æķ°çļĦ":9359,"miss":9360,"Ġcup":9361,"çłĶåıĳ":9362,"ä¸ĩäºº":9363,"èŀº":9364,"Ġseat":9365,"km":9366,"Ġstations":9367,"Ġbound":9368,"ãĢĭãĢĬ":9369,"ba":9370,"èīĩ":9371,"ĠHaw":9372,"Ġseparate":9373,"Ġdepartment":9374,"930":9375,"Ġmill":9376,"gn":9377,"Ġmajority":9378,"Ġpsych":9379,"ĠMexico":9380,"ĠSand":9381,"éĤ£ä¸Ģ":9382,"point":9383,"Ġnormal":9384,"ĠWrit":9385,"Ġincorpor":9386,"äºĨåĩºæĿ¥":9387,"èĮ¨":9388,"Ġlived":9389,"æ¤Ĵ":9390,"ä¸»é¢ĺ":9391,"ĠBec":9392,"Ġgreater":9393,"æ§½":9394,"å¹´é¾Ħ":9395,"çľĭèµ·æĿ¥":9396,"æŁĲäºĽ":9397,"Ġapproximately":9398,"ĠæĿ¨":9399,"ĠStat":9400,"Ġinsurance":9401,"çĻ¾åº¦":9402,"åħģè®¸":9403,"çĲĨæĥ³":9404,"å¹²éĥ¨":9405,"ĠYoung":9406,"Ġentry":9407,"çļĦèº«":9408,"ĠSa":9409,"æŁ¯":9410,"é¹¿":9411,"Ġdirected":9412,"ffee":9413,"Ġpowerful":9414,"ÐµÐ»":9415,"Ġentertain":9416,"html":9417,"standing":9418,"%)":9419,"care":9420,"åĨ³èµĽ":9421,"ĠDi":9422,"ĠLee":9423,"964":9424,"edom":9425,"inet":9426,"æĻ´":9427,"Ġå®ī":9428,"Ġhundred":9429,"åĩºçİ°äºĨ":9430,"Ġvoc":9431,"ĠOrgan":9432,"æĦŁæĥħ":9433,"Ġdamage":9434,"Ġprec":9435,"Ã©s":9436,"Ġassess":9437,"çŃĶåºĶ":9438,"çŃĸçķ¥":9439,"Ġä¸Ģä¸ĭ":9440,"çĽĪ":9441,"è¿Ļå°±æĺ¯":9442,"ĠRussia":9443,"49":9444,"967":9445,"ä»ĬæĹ¥":9446,"èĦĳè¢ĭ":9447,"ä¸Ģäºº":9448,"ĠFire":9449,"æ¸ł":9450,"Ġretail":9451,"Ġformat":9452,"æĹ¥æľŁ":9453,"##":9454,"åĶ¤":9455,"ç»ĻäºĪ":9456,"æłª":9457,"ĠPC":9458,"Ġvote":9459,"Ġcovered":9460,"ä¸Ĭä¸ĭ":9461,"reate":9462,"Ġspot":9463,"é¹ı":9464,"965":9465,"è§ĤçĤ¹":9466,"ĠChief":9467,"ĠTechnology":9468,"ĠMiddle":9469,"arian":9470,"è¿Ļä¸¤":9471,"antly":9472,"åĵ¥åĵ¥":9473,"æĪĺå£«":9474,"Ġpicture":9475,"åģļåĩº":9476,"åģļçļĦ":9477,"ç¾¤ä¼Ĺ":9478,"ĠGovern":9479,"ĠCarolina":9480,"Ġscen":9481,"67":9482,"View":9483,"éģĵçĲĨ":9484,"ĠTues":9485,"å½Ń":9486,"utch":9487,"åı¯è§ģ":9488,"ĠDie":9489,"emporary":9490,"print":9491,"anging":9492,"works":9493,"å¤¸":9494,"Ġaircraft":9495,"ĠSong":9496,"Ġcentre":9497,"çļĦæ°´":9498,"Ġtypically":9499,"çī¢":9500,"Ġthus":9501,"orough":9502,"Ġeditor":9503,"uce":9504,"ç»Ļä»ĸ":9505,"çłĶç©¶æīĢ":9506,"åľ°ä¸Ĭ":9507,"çŀª":9508,"ĠTri":9509,"åģľæŃ¢":9510,"éĺŁçļĦ":9511,"åĵ²åŃ¦":9512,"ä¸įä¸Ĭ":9513,"unte":9514,"rison":9515,"ä¸ĭéĻį":9516,"æĻĥ":9517,"è½¬ç§»":9518,"ĠOk":9519,"].":9520,"åĽ¾çīĩ":9521,"è½¦è¾Ĩ":9522,"å±ł":9523,"ç»§æī¿":9524,"sembly":9525,"è¾©":9526,"Ġdefinitely":9527,"èĸĽ":9528,"ĠThurs":9529,"ä¸įåĩº":9530,"ä¼ª":9531,"åħ¬åŃĲ":9532,"ĠIrish":9533,"å¤§çº¦":9534,"zy":9535,"life":9536,"ä½Ĩåľ¨":9537,"ĠéĤ£ä¸ª":9538,"itors":9539,"èµł":9540,"Ġeconomy":9541,"ione":9542,"ĠIns":9543,"éª¤":9544,"Ġappointed":9545,"bt":9546,"inder":9547,"ĠLead":9548,"da":9549,"å¾ªçİ¯":9550,"Ġraised":9551,"Ġweather":9552,"ĠAM":9553,"Ġprefer":9554,"Ġeye":9555,"ĠTest":9556,"çħ®":9557,"Ġconstruct":9558,"Ġreviews":9559,"ä¾ł":9560,"asketball":9561,"ĠGames":9562,"ç²ĺ":9563,"ç»´æĮģ":9564,"ä¼Ĺå¤ļ":9565,"ĠåĪĨ":9566,"æĻºæħ§":9567,"æ¼ł":9568,"ç¿»è¯ĳ":9569,"ĠWay":9570,"Ġking":9571,"ç¬ĳå®¹":9572,"èģĶéĤ¦":9573,"kins":9574,"ĠInternet":9575,"èĤļ":9576,"çļĦåħ³ç³»":9577,"Ġextrem":9578,"åĲ¬è¯´":9579,"Ġtheory":9580,"ä½ĵçİ°":9581,"onents":9582,"Ġåħ¶å®ŀ":9583,"Ġdyn":9584,"Ġneighbor":9585,"ä¸»æķĻ":9586,"Ġedition":9587,"Ġtemperature":9588,"Ġ()":9589,"éĵŃ":9590,"å¨ĩ":9591,"å±Ĥæ¬¡":9592,"ĠTeam":9593,"äºĮäºº":9594,"Ġbasic":9595,"iced":9596,"ĠRos":9597,"urer":9598,"åħ·å¤ĩ":9599,"æĶ¹ä¸º":9600,"LA":9601,"åĬĿ":9602,"å¢ĥåĨħ":9603,"å®¶äºº":9604,"åİĮ":9605,"Ġreflect":9606,"Ġadvant":9607,"è¿Ļè¾¹":9608,"ĠPacific":9609,"å®ĺæĸ¹":9610,"span":9611,"ĠæĶ¾":9612,"Ġ64":9613,"Ġraces":9614,"å¯¨":9615,"fr":9616,"åĪ°è¾¾":9617,"tained":9618,"ordin":9619,"ĠBoth":9620,"æĺı":9621,"çİ»çĴĥ":9622,"Ġconnection":9623,"Ġmetal":9624,"ĠWhe":9625,"iano":9626,"Ġknew":9627,"å¤ªå¹³":9628,"æľĽçĿĢ":9629,"Ġviews":9630,"Ġbird":9631,"åĵģç§į":9632,"æĹº":9633,"Ġ70":9634,"Ġcris":9635,"æĺ¯æľī":9636,"Ġpieces":9637,"left":9638,"ç¥ŀç§ĺ":9639,"Ġir":9640,"åĭĥ":9641,"966":9642,"èŀįåĲĪ":9643,"æ¼«çĶ»":9644,"Ġmethods":9645,"åĦĴ":9646,"èĪŁ":9647,"è¦ĨçĽĸ":9648,"ĠCorpor":9649,"ĠWal":9650,"Ġrent":9651,"ĠGar":9652,"æĭ¨":9653,"ĠOrder":9654,"Ġcontinues":9655,"éĥ½è¢«":9656,"æµ·æĭĶ":9657,"Ġran":9658,"æĦıåĳ³":9659,"Ġdestroy":9660,"ç¾İä¸½":9661,"è¯Ħä¼°":9662,"ĠBecause":9663,"æĢĢçĸĳ":9664,"å¼ĵ":9665,"Ġmyself":9666,"è¯´çĿĢ":9667,"ĠHuman":9668,"çī©çļĦ":9669,"Ġwriters":9670,"çĶ»éĿ¢":9671,"éĦ":9672,"æ³Ħ":9673,"èĢģæĿ¿":9674,"Ġcritic":9675,"Ġpoem":9676,"æŀĦæĪĲ":9677,"æ³ķè§Ħ":9678,"Ġlabel":9679,"ums":9680,"è¾ĵåĩº":9681,"éĢļéģĵ":9682,"958":9683,"åģļå¥½":9684,"CA":9685,"Ġfigure":9686,"Ġäº§åĵģ":9687,"Ġrat":9688,"ĠåĩºçīĪ":9689,"æºĥ":9690,"ĠLim":9691,"Ġleaving":9692,"æĬĽ":9693,"äººæ°ĳæĶ¿åºľ":9694,"Ġwinning":9695,"ĠJoseph":9696,"Americ":9697,"azon":9698,"æ¡Ĩ":9699,"Ġclin":9700,"ns":9701,"ĠBased":9702,"çļĦæł·åŃĲ":9703,"Ġstreet":9704,"ĠEmp":9705,"é»ĳæļĹ":9706,"æ¼Ĥäº®":9707,"ivery":9708,"ĠApple":9709,"éĢļçŁ¥":9710,"çķľ":9711,"ĠRadio":9712,"He":9713,"Bl":9714,"Ġsitu":9715,"ĠJeff":9716,"èī¯å¥½çļĦ":9717,"Ġ....":9718,"Ġdebut":9719,"ä¸ĭéĿ¢":9720,"èī³":9721,"Ġharm":9722,"Ġdedicated":9723,"æ¸Ĳæ¸Ĳ":9724,"ĠWild":9725,"Ġhappen":9726,"åĺ¿åĺ¿":9727,"Ġhistorical":9728,"oes":9729,"itchen":9730,"èµĶ":9731,"ä¹Łèĥ½":9732,"çº¿çļĦ":9733,"ĠMP":9734,"èĥ½æºĲ":9735,"ĠGal":9736,"ructure":9737,"å¼ĺ":9738,"ÑĢÐµ":9739,"ç¦ıå»º":9740,"Ġended":9741,"ĠKar":9742,"Ġsenior":9743,"Ġwhom":9744,"Ġuniversity":9745,"èī²å½©":9746,"å¹³æĸ¹åįĥç±³":9747,"stra":9748,"æ°Ľ":9749,"åĽ½çİĭ":9750,"Ġthinking":9751,"ä¸ºä½ķ":9752,"ĠStand":9753,"å¤§æ¦Ĥ":9754,"åĭ¾":9755,"æ¦Ĥè¿°":9756,"åħ¨èº«":9757,"Ġaim":9758,"åĩĨç¡®":9759,"Ġdemonstr":9760,"Ġprofession":9761,"Ġrepe":9762,"è·Į":9763,"å¤©æ´¥":9764,"ĠçīĪ":9765,"ä¼ļåľ¨":9766,"ĠçĶŁå¹³":9767,"usion":9768,"Ġrap":9769,"åĿĬ":9770,"ĠSar":9771,"rim":9772,"æ±ģ":9773,"ĠWednes":9774,"Ġcapacity":9775,"agram":9776,"eline":9777,"Ġleadership":9778,"zh":9779,"Ġalumni":9780,"æ¡Īä»¶":9781,"Ġprotection":9782,"Ġselected":9783,"çī¹æĢ§":9784,"Ġmicro":9785,"å¾ĹåĪ°äºĨ":9786,"Ġchair":9787,"ĠNext":9788,"çĭ®":9789,"Ġdespite":9790,"ĠTuesday":9791,"å¤§äºĨ":9792,"Ġchallenge":9793,"oston":9794,"Ġleague":9795,"è®©ä»ĸä»¬":9796,"Ġscore":9797,"äº¿åħĥ":9798,"èĳĹä½ľ":9799,"ĠAP":9800,"åĪ°çļĦ":9801,"åıĻ":9802,"TA":9803,"æĹ¥åŃĲ":9804,"åħ±äº§åħļ":9805,"çļĦæĥħåĨµä¸ĭ":9806,"Ġbra":9807,"tra":9808,"Ġmemory":9809,"å®ļä½į":9810,"Ġchallenges":9811,"')":9812,"Ġprison":9813,"Ġcars":9814,"å¼¦":9815,"Ġnav":9816,"Ġphoto":9817,"æĤ¦":9818,"68":9819,"çģ«çĦ°":9820,"Ġbecomes":9821,"ä¹ĭå¤Ħ":9822,"LC":9823,"Ġfourth":9824,"åı¯æĥľ":9825,"Ġpurs":9826,"é«ĺä¸Ń":9827,"orter":9828,"Ġbill":9829,"Ġexcellent":9830,"Ġstraight":9831,"Ġarrest":9832,"åī§æĥħ":9833,"Ġdoll":9834,"Ġroute":9835,"bar":9836,"iar":9837,"åįıåĬ©":9838,"æħİ":9839,"çĽ¸åºĶ":9840,"yan":9841,"äºĳåįĹ":9842,"è¡¥åħħ":9843,"inem":9844,"ÑĤÐ°":9845,"ĠNavy":9846,"ingu":9847,"____":9848,"ĠNorthern":9849,"çĪĨçĤ¸":9850,"æł¡åĽŃ":9851,"Ñİ":9852,"http":9853,"eters":9854,"éĹ¨åı£":9855,"ĠAsia":9856,"æľĢåĪĿ":9857,"çł¸":9858,"éĤ£æĺ¯":9859,"åĵİ":9860,"ĠCharl":9861,"ÑĢÐ¸":9862,"Ġguide":9863,"Ġdevices":9864,"æıŃ":9865,"ä¾ĽåºĶ":9866,"æĺİçļĦ":9867,"åį¿":9868,"ĠJohnson":9869,"Ġdirection":9870,"Ġstated":9871,"rapy":9872,"Ġdrink":9873,"ĠPolice":9874,"Ġsupply":9875,"Ġimpress":9876,"Ġinternet":9877,"Le":9878,"åľ°éĿ¢ç§¯":9879,"æİ¨åĩº":9880,"Ġsav":9881,"ĠSir":9882,"ãĢĤãĢĤ":9883,"æ·ĭ":9884,"Ġéĩĳ":9885,"ĠThursday":9886,"Ġtermin":9887,"des":9888,"æĻ°":9889,"èº¯":9890,"åĲĦåľ°":9891,"aling":9892,"Col":9893,"OP":9894,"Ġprices":9895,"ç¼ºä¹ı":9896,"åıī":9897,"åĮºåĪ«":9898,"Pl":9899,"ears":9900,"çļĦç¡®":9901,"Ġadjust":9902,"Ġsweet":9903,"Ġfish":9904,"Ġstudio":9905,"çľīå¤´":9906,"Ġflow":9907,"åĨ»":9908,")(":9909,"Ġoffering":9910,"ä¸Ģåıª":9911,"Ġrare":9912,"æĢ§æł¼":9913,"Ġadding":9914,"Ġpolic":9915,"ĠGreek":9916,"ĠWall":9917,"ĠPass":9918,"Ġrule":9919,"Ġphotos":9920,"Ġsmaller":9921,"iana":9922,"Ġcm":9923,"IR":9924,"éħįç½®":9925,"çĪ½":9926,"ented":9927,"active":9928,"é¥±":9929,"è®¤è¯ģ":9930,"ĠMax":9931,"ĠItaly":9932,"Ġahead":9933,"å¹´èĩ³":9934,"ĠBeach":9935,"æĲº":9936,"Ġrates":9937,"iner":9938,"fit":9939,"çº§çļĦ":9940,"Ð½Ð°":9941,"åħ¬å¸ĥ":9942,"å¾Īå¥½":9943,"ĠVill":9944,"å¿ħçĦ¶":9945,"éģĵå¾·":9946,"Ġmuseum":9947,"Ġchief":9948,"ä»Ĭå¹´":9949,"çĻ¾ä¸ĩ":9950,"ucky":9951,"ansas":9952,"Ġnice":9953,"Ġrob":9954,"ç¿ł":9955,"ses":9956,"ä»Ķç»Ĩ":9957,"Ġsolid":9958,"åĲĪå¹¶":9959,"åĥ§":9960,"çĬ¯ç½ª":9961,"ĠHor":9962,"arant":9963,"Ġawarded":9964,"Ġtraffic":9965,"Ġfeeling":9966,"ĠHave":9967,"æľĢä¸º":9968,"ulty":9969,"æĥħåĨµä¸ĭ":9970,"é¢Ħéĺ²":9971,"po":9972,"Ġstrength":9973,"Ġstress":9974,"åĵªæĢķ":9975,"ä½łè¯´":9976,"Ġè¿Ļç§į":9977,"Ġthr":9978,"åŀĭçļĦ":9979,"Ġclient":9980,"ultural":9981,"æīĩ":9982,"iled":9983,"å®ĺåĳĺ":9984,"èľĤ":9985,"Ġegg":9986,"å¡ĺ":9987,"äºĴèģĶç½ĳ":9988,"Ġsustain":9989,"ä¸įåıĬ":9990,"è¿ĻæĹ¶":9991,"Ġreplaced":9992,"æŁ´":9993,"æĸ¯åĿ¦":9994,"æłĩå¿Ĺ":9995,"Ġmagazine":9996,"And":9997,"åĭĭ":9998,"iling":9999,"ĠArab":10000,"pective":10001,"Ġbenefit":10002,"æĮ¤":10003,"ä¸«":10004,"è¢«äºº":10005,"ser":10006,"Ġtree":10007,"ä¸īåįģ":10008,"Ġoperation":10009,"Ġoperating":10010,"Ġcontroll":10011,"Ġ500":10012,"Ġlimit":10013,"Ġda":10014,"Can":10015,"è£ħç½®":10016,"ĠQueen":10017,"dule":10018,"ĠJoe":10019,"OM":10020,"ĠColor":10021,"ĠLittle":10022,"çŁ©":10023,"çĻ»è®°":10024,"Ġfiles":10025,"Ġsteps":10026,"Ġtrend":10027,"ĠGre":10028,"Ġwait":10029,"æļĤæĹ¶":10030,"åħīèĬĴ":10031,"opped":10032,"åľ¨äºİ":10033,"åºĶè¯¥æĺ¯":10034,"fortunately":10035,"äººçĶŁ":10036,"ĠData":10037,"Ġment":10038,"Ġinfluence":10039,"Ġcommit":10040,"can":10041,"Ġappreci":10042,"æĻķ":10043,"ylvan":10044,"å¯Ĥ":10045,"Ġfacilities":10046,"term":10047,"ĠJones":10048,"å¸Ĳ":10049,"UN":10050,"dro":10051,"å¾ĹäºĨ":10052,"Ġcolumn":10053,"ĠWednesday":10054,"ä»£çĲĨ":10055,"æħĮ":10056,"æ³ķçļĦ":10057,"ican":10058,"åıįæĺł":10059,"æĹ©æľŁ":10060,"gs":10061,"Ġfactors":10062,"æŃ»çļĦ":10063,"åħ´å¥ĭ":10064,"estic":10065,"ĠLear":10066,"ĠInformation":10067,"Ġowner":10068,"æŁľ":10069,"éĺ²æŃ¢":10070,"edding":10071,"åĪºæ¿Ģ":10072,"Ġsubsequ":10073,"Ġsleep":10074,"rac":10075,"æĢľ":10076,"962":10077,"Ġsand":10078,"To":10079,"éĩĬæĶ¾":10080,"atabase":10081,"Ġvisual":10082,"Ġcold":10083,"Ġmostly":10084,"ĠMcC":10085,"ä¸ĢæĬĬ":10086,"Ġplays":10087,"æ¸Ķ":10088,"æľĿé²ľ":10089,"ĠParliament":10090,"ĠTem":10091,"å°±æľī":10092,"Ġreasons":10093,"åİ¨":10094,"çļĦåİŁåĽł":10095,"æħ°":10096,"spe":10097,"Ġå½ĵçĦ¶":10098,"irus":10099,"å°ĳæķ°":10100,"æ°ĶåĢĻ":10101,"963":10102,"ç¢Ĺ":10103,"Ġadvice":10104,"Ġspring":10105,"Ġproced":10106,"ĠWeek":10107,"Ġremained":10108,"Ġsupported":10109,"å¤§éģĵ":10110,"ups":10111,"Ġguid":10112,"çĲĨçĶ±":10113,"Ġexactly":10114,"Ġnewsp":10115,"zen":10116,"ä¸Ŀæ¯«":10117,"æł¼å¼ı":10118,"Ġé©¬":10119,"Ġcatch":10120,"ä¸»ç®¡":10121,"åº¦çļĦ":10122,"Ġfif":10123,"æľºçļĦ":10124,"ani":10125,"èĢĮåĩº":10126,"Ġdisp":10127,"ä»İæĿ¥":10128,"Ġè§ģ":10129,"çĹĽèĭ¦":10130,"ä¹ĭåľ°":10131,"ĠDev":10132,"ĠForce":10133,"awa":10134,"ĠIran":10135,"çĽ¯çĿĢ":10136,"Ġåħ¨":10137,"ĠEll":10138,"icken":10139,"éĿĸ":10140,"èĢĮæĿ¥":10141,"ĠÐ³":10142,"æ¯ıä¸Ģ":10143,"Ġsounds":10144,"ĠLive":10145,"Ġfat":10146,"Ġç¬¬ä¸ĥ":10147,"é¡ºåĪ©":10148,"inner":10149,"icious":10150,"Ġjourney":10151,"æĸĩçī©":10152,"Ġfab":10153,"æĭ¦":10154,"ja":10155,"SA":10156,"å®ŀéªĮå®¤":10157,"è®¶":10158,"Ġè¯·":10159,"åįľ":10160,"èĩªä¸»":10161,"but":10162,"rowd":10163,"Ġcreative":10164,"æ²³åĮĹ":10165,"Ġvon":10166,"å¼ºè°ĥ":10167,"å»ºéĢł":10168,"Ġcounter":10169,"çĶŁåŃĺ":10170,"è½¬èº«":10171,"ç¼ł":10172,"Ġtro":10173,"ĠCook":10174,"ĠWilliams":10175,"è´Ŀå°Ķ":10176,"bury":10177,"Ġ|-":10178,"rier":10179,"Ġpoll":10180,"fo":10181,"Ġhealthy":10182,"åķ¡":10183,"åĪ¶çļĦ":10184,"éŃħ":10185,"ĠSouthern":10186,"æİ¢ç´¢":10187,"å³¡":10188,"osoph":10189,"iday":10190,"Ġæķ°":10191,"Ġestate":10192,"ĠMichigan":10193,"æĪĸæĺ¯":10194,"Ġä¸ĢçĽ´":10195,"èĪĮ":10196,"æ»¤":10197,"ĠView":10198,"956":10199,"ylvania":10200,"ĠVan":10201,"æ¤ħ":10202,"othing":10203,"æľīæĹ¶":10204,"éĩĮæĸ¯":10205,"æĢİä¹Īæł·":10206,"Ð¶":10207,"ĠTwitter":10208,"æĹıçļĦ":10209,"åĮħè£ħ":10210,":(":10211,"ĠFar":10212,"\";":10213,"Ġsector":10214,"host":10215,"æµ·æ´ĭ":10216,"Ġfav":10217,"ä¸ĬæĿ¥":10218,"ĠChris":10219,"actions":10220,"ĠAsian":10221,"bed":10222,"Ġstrategy":10223,"Ġarray":10224,"Ġleaves":10225,"Ġrich":10226,"type":10227,"åį§":10228,"Ġreligious":10229,"è¢«ç§°ä¸º":10230,"Ġpal":10231,"å°±ç®Ĺæĺ¯":10232,"Ġåı¯æĺ¯":10233,"åĨ²åĩ»":10234,"Ġå®Į":10235,"çĮ´":10236,"Ġplants":10237,"çĽĴ":10238,"ati":10239,"è°¨":10240,"ĠAuthor":10241,"åĴĮå¹³":10242,"åīįéĿ¢":10243,"Ġborder":10244,"Ġalternative":10245,"ä¾Ŀæį®":10246,"osis":10247,"Ġhab":10248,"heast":10249,"å¤±åİ»":10250,"ä¸ºäºº":10251,"éĵĥ":10252,"Ġonto":10253,"ĠCard":10254,"å·¥èµĦ":10255,"Ġdisapp":10256,"è¡ĮçļĦ":10257,"æĬ¼":10258,"Ġfalse":10259,"å«ģ":10260,"ç©¶ç«Ł":10261,"ĠUl":10262,"å°Ĩä¼ļ":10263,"å²Ĥ":10264,"Ġtheme":10265,"åĵªäºĽ":10266,"æī¹è¯Ħ":10267,"æµĨ":10268,"çļĦä½ľçĶ¨":10269,"gency":10270,"urban":10271,"æľŁå¾ħ":10272,"Ġtherefore":10273,"ĠBoston":10274,"961":10275,"æĿĳæ°ĳ":10276,"éĢļä¿¡":10277,"Ġanimals":10278,"ä¼łæĿ¥":10279,"Ġofficer":10280,"Ġä»¥":10281,"Ġposted":10282,"å±ģ":10283,"çŁ¥åĲį":10284,"emic":10285,"Ġè¥¿":10286,"åĳ¨è¾¹":10287,"å«Į":10288,"ĠIndust":10289,"Ġforest":10290,"Ġwants":10291,"æĢ§åĴĮ":10292,"ifically":10293,"è¡¨æĺİ":10294,"æ²Ĳ":10295,"åıĳçļĦ":10296,"ĠMid":10297,"Ġtow":10298,"éĽĨä½ĵ":10299,"Ġä½ľèĢħ":10300,"ĠçĽ®å½ķ":10301,"ĠJon":10302,"gers":10303,"æ½ĺ":10304,"ä¸ŃåĮ»":10305,"çĤ¹åĩ»":10306,"Ġä¸Ģæł·":10307,"æ¸ħæĻ°":10308,"çļĦåĲĮæĹ¶":10309,"formula":10310,"ĠIII":10311,"Ġkept":10312,"Ġowned":10313,"Ġpair":10314,"itness":10315,"Ġhotel":10316,"Ġcalls":10317,"åķ¸":10318,"ĠCall":10319,"åĩłå¹´":10320,"ĠNight":10321,"Ġwww":10322,"Ġ==":10323,"unning":10324,"Ġillust":10325,"SC":10326,"ĠOhio":10327,"ĠAndrew":10328,"Ġconference":10329,"è¯´æ³ķ":10330,"Ġfashion":10331,"ĠAp":10332,"ç¤¾ä¼ļä¸»ä¹ī":10333,"isters":10334,"GA":10335,"è£ħé¥°":10336,"includ":10337,"ä¸įå¾Ĺä¸į":10338,"def":10339,"Ġproperties":10340,"æ²¡æľīä»»ä½ķ":10341,"Ġofficials":10342,"è¿ĶåĽŀ":10343,"ĠJewish":10344,"Ġingredients":10345,"æıĲåīį":10346,"èķ´":10347,"èĢĮåľ¨":10348,"Ġearth":10349,"Ġclassic":10350,"ograp":10351,"æµĭéĩı":10352,"Ġclasses":10353,"èĬ¯çīĩ":10354,"Ġsymbol":10355,"æ²ŁéĢļ":10356,"Ġproposed":10357,"Ġbiggest":10358,"sm":10359,"Ġwish":10360,"æĸ¥":10361,"åĩ»è´¥":10362,"ancing":10363,"ĠCOVID":10364,"åµ":10365,"ĠLine":10366,"ais":10367,"Ġimpl":10368,"çĬ¹è±«":10369,"data":10370,"Ġclaims":10371,"å¤ªå¤ļ":10372,"å¦Ĩ":10373,"çľĭåĪ°äºĨ":10374,"ä»ĸä¹Ł":10375,"è¢į":10376,"æĺ¨å¤©":10377,"Ġ36":10378,"çĪ±æĥħ":10379,"Ġamb":10380,"äººä½ĵ":10381,"ĠÐ¼":10382,"æĪĲéĥ½":10383,"Ġbatter":10384,"Ġ44":10385,"éģĤ":10386,"åı¸ä»¤":10387,"Tr":10388,"ĠChampionship":10389,"ĠCould":10390,"æĶ¹éĢł":10391,"Ġbottom":10392,"ĠFred":10393,"è¯ĬæĸŃ":10394,"Ġpresence":10395,"Ġdeveloping":10396,"äºĭæķħ":10397,"OW":10398,"Ġnoted":10399,"ĠGlobal":10400,"çļĦèĥ½åĬĽ":10401,"åıĳå°Ħ":10402,"æĤĶ":10403,"å¸ĪèĮĥ":10404,"çļĦå¤ĸ":10405,"Ġfle":10406,"ĠMike":10407,"è¡Ĺéģĵ":10408,"Is":10409,"Ġarm":10410,"itage":10411,"Ġæł¹æį®":10412,"ä¸ĢèĤ¡":10413,"ĠCivil":10414,"æī©å¤§":10415,"æľīå¤ļ":10416,"å¯¹ä»ĺ":10417,"OC":10418,"å±Ģéķ¿":10419,"ĠOx":10420,"æĶ¯ä»ĺ":10421,"verse":10422,"ĠMos":10423,"æĹłå¥Ī":10424,"çºªå½ķ":10425,"æĥ¹":10426,"å°±ä¸ļ":10427,"Ġdance":10428,"ĠString":10429,"Ġweekend":10430,"åĨĻä½ľ":10431,"æī¯":10432,"Int":10433,"æĻ®éģį":10434,"å®ł":10435,"hew":10436,"èµĲ":10437,"æĮĩæłĩ":10438,"Ġsty":10439,"çĪ±çļĦ":10440,"Ġcream":10441,"æĵħ":10442,"Ġsinger":10443,"æ¶Īè´¹èĢħ":10444,"ishop":10445,"iat":10446,"700":10447,"èµĮ":10448,"Ġfant":10449,"Ġloved":10450,"åĻ¨çļĦ":10451,"ao":10452,"Ġé»Ħ":10453,"ä¼ĺè´¨":10454,"Ġactor":10455,"Ġadministration":10456,"Ġfan":10457,"Ġeval":10458,"ĠBritain":10459,"Ġconv":10460,"æ²¡äºĭ":10461,"Ġshape":10462,"aren":10463,"Ġå·¥ä½ľ":10464,"Ġèĭı":10465,"å¹´åľ¨":10466,"çº½çº¦":10467,"è´§å¸ģ":10468,"æĺ¯ä»¥":10469,"Ġwindow":10470,"çħĮ":10471,"Ġdetermine":10472,"Ġshop":10473,"Ġcolors":10474,"Ġcab":10475,"æĹ¶åĪ»":10476,"æ·ĺ":10477,"æľĢæĹ©":10478,"Ġbul":10479,"è¶ģ":10480,"å°ıå§Ĳ":10481,"ye":10482,"ĠLook":10483,"çŃīå¾ħ":10484,"UL":10485,"ĠColl":10486,"bo":10487,"æĴŃæĶ¾":10488,"ä¿ĿçķĻ":10489,"éģ£":10490,"èĲĿ":10491,"Ġoutput":10492,"alle":10493,"ĠCoast":10494,"Ġdistance":10495,"Ġcomments":10496,"ĠNetwork":10497,"ĸåķ¡":10498,"ĠPenns":10499,"å·ħ":10500,"Ġrecip":10501,"æĩĴ":10502,"rical":10503,"ĠGirl":10504,"ĠPM":10505,"Ġcer":10506,"çĶµæ±ł":10507,"æķ²":10508,"Ġcommission":10509,"Ġplus":10510,"ĠMedical":10511,"äºĨä¸Ģçľ¼":10512,"adium":10513,"Ġresist":10514,"ocation":10515,"959":10516,"51":10517,"Ġtom":10518,"åı¯æĢķ":10519,"orney":10520,"ĠHospital":10521,"ĠLight":10522,"SE":10523,"itle":10524,"æĬ«":10525,"cript":10526,"åŃĺåĤ¨":10527,"ĠåºĶè¯¥":10528,"Ġinstit":10529,"Ġjobs":10530,"å±¥":10531,"Ġwinter":10532,"Be":10533,"Man":10534,"Ġappearance":10535,"abel":10536,"éĽĢ":10537,"phone":10538,"Ġspect":10539,"å¸Ĩ":10540,"rich":10541,".'":10542,"çº¦ç¿°":10543,"Ġhomes":10544,"è¿Ļä¸Ģæ¬¡":10545,"%;":10546,"èĳ£äºĭ":10547,"ä¸»è§Ĵ":10548,"æ¯ıä¸Ģä¸ª":10549,"äºĨåĲ§":10550,"ĠSpring":10551,"Ġconcert":10552,"èµĽäºĭ":10553,"åĲĦèĩª":10554,"æĹ¶å°ļ":10555,"ç¿ħ":10556,"èİ·å¾ĹäºĨ":10557,"Ġterrit":10558,"948":10559,"Ġmanaged":10560,"ä¹ĭäºº":10561,"æĪĳä¹Ł":10562,"çłĤ":10563,"ework":10564,"ĠÂ©":10565,"èī°":10566,"Ġfailed":10567,"é«ĺåħ´":10568,"åĬ¨æīĭ":10569,"çłĶç©¶çĶŁ":10570,"éļıæĹ¶":10571,"orrow":10572,"åıł":10573,"è¡Ģç®¡":10574,"clusive":10575,"Ġchampions":10576,"ideos":10577,"Ġmeant":10578,"æĺ¯æĪĳ":10579,"Ġbroadcast":10580,"ĠåĲį":10581,"hand":10582,"under":10583,"æĭīæĸ¯":10584,"Ġban":10585,"çº¿è·¯":10586,"Ġåı«":10587,"Ġven":10588,"çļĦæľºä¼ļ":10589,"åĶĩ":10590,"ĠMake":10591,"åľ¨å¤§":10592,"Ġagreement":10593,"Ġæ¸ħ":10594,"ĠæĶ¯æĮģ":10595,"Ġreference":10596,"Ġstars":10597,"ç¦ħ":10598,"agon":10599,"æł½":10600,"Ġtrou":10601,"Ġexperienced":10602,"è¿ŀå¿Ļ":10603,"åı¯èĥ½ä¼ļ":10604,"åģļäºĨ":10605,"Ġsmart":10606,"Ġremove":10607,"è¯¾é¢ĺ":10608,"Ġmile":10609,"éĿ¢ä¸Ĭ":10610,"look":10611,"oles":10612,"éĺ³åħī":10613,"Ġcertainly":10614,"eless":10615,"Ġhappened":10616,"Ġfunding":10617,"é¥¿":10618,"æ¨¡æĭŁ":10619,"Ġarticles":10620,"razil":10621,"Ġgift":10622,"æ¶ĪèĢĹ":10623,"ĠAud":10624,"Ġreality":10625,"Ġhelping":10626,"abeth":10627,"ĠJun":10628,"Ġstorage":10629,"Ġmurder":10630,"ĠFood":10631,"Ġsport":10632,"æİĺ":10633,"èĢĮä¸į":10634,"äºĨä»ĸ":10635,"Ġrequires":10636,"andom":10637,"955":10638,"nam":10639,"æīĵåĩ»":10640,"ä¹ĭæĹ¶":10641,"Ġactual":10642,"ĠèĢĮä¸Ķ":10643,"éħįå¥Ĺ":10644,"Ġmotor":10645,"wan":10646,"ĠFund":10647,"ĠBra":10648,"ĠPrem":10649,"ĠåĸĿ":10650,"ä¸įä½Ĩ":10651,"Ġconflic":10652,"åŃ¦çĶŁçļĦ":10653,"ĠMaster":10654,"åĪĨéħį":10655,"éħ±":10656,"åĽ¾ä¹¦ä¿¡æģ¯":10657,"ĠAdditionally":10658,"æ£ī":10659,"Ġlooked":10660,"å¤§åĵ¥":10661,"çªģåĩº":10662,"ç±»çļĦ":10663,"onto":10664,"ĠOrig":10665,"ç°":10666,"Ġappropriate":10667,"ĠPennsylvania":10668,"çļĦä¸ĢäºĽ":10669,"Ġtips":10670,"Ġdriver":10671,"åĲŁ":10672,"Ġsalt":10673,"èĪ°éĺŁ":10674,"æ¹ĺ":10675,"yer":10676,"èĮĤ":10677,"Ġexecutive":10678,"Se":10679,"ĠCamb":10680,"è§ģè¿ĩ":10681,"ĠBefore":10682,"å°Ķæĸ¯":10683,"ä¹ĭåĨħ":10684,"Ġspend":10685,"Ġscript":10686,"respond":10687,"ĠJesus":10688,"gent":10689,"944":10690,"asp":10691,"ĠProdu":10692,"Ġtrial":10693,"Ġåĳ":10694,"rate":10695,"æ··åĲĪ":10696,"ä¸Ģçľĭ":10697,"ĠÐ·":10698,"ĠMov":10699,"Ġstandards":10700,"Ġindic":10701,"è¶ĭåĬ¿":10702,"å¤´çļĦ":10703,"æĶ¶èĹı":10704,"ĠDeath":10705,"250":10706,":ãĢĮ":10707,"ĠCheck":10708,"Ġtechnical":10709,"Ġlibrary":10710,"ĠPrince":10711,"Ġdriving":10712,"åĽĽåĳ¨":10713,"Ġactions":10714,"ĠAff":10715,"åı°åĮĹ":10716,"å¤´åıĳ":10717,"å¹¿å¤§":10718,"ĠSecurity":10719,"ĠFrancisco":10720,"éĨĩ":10721,"120":10722,"æŃ¦æ±ī":10723,"åĲ¾":10724,"946":10725,"ä¸°å¯ĮçļĦ":10726,"éĥ½æ²¡":10727,"ĠThree":10728,"Ġnine":10729,"Ġrecommended":10730,"52":10731,"çŃĭ":10732,"Ġvs":10733,"è¿Ļä¸ĢçĤ¹":10734,"ĠVideo":10735,"Ġfell":10736,"åĽŀäºĭ":10737,"Ġcells":10738,"Ġåįķ":10739,"èĪ¬çļĦ":10740,"æĹłçº¿":10741,"ĠJersey":10742,"Ġsched":10743,"ĠAC":10744,"é©¾é©¶":10745,"ä¸Ģåľº":10746,"æľĿå»·":10747,"ctors":10748,"Ġrain":10749,"å¯¹å¤ĸ":10750,"door":10751,"era":10752,"957":10753,"Ġteaching":10754,"ĠFederal":10755,"ĠMembers":10756,"Ġtaste":10757,"æ¼Ĩ":10758,"å¦Ĥä¸ĭ":10759,"ä¸īå¤§":10760,"åĬłæĭ¿":10761,"çľ¸":10762,"ĠLo":10763,"ĠSummer":10764,"ç®Ģç§°":10765,"ä¸ŃåĽ½çļĦ":10766,"éªĳå£«":10767,"åı¦ä¸Ģä¸ª":10768,"Ġenvironmental":10769,"Ġstuff":10770,"oute":10771,"test":10772,"Ġfinish":10773,"æľĢå¤ļ":10774,"fe":10775,"ih":10776,"ĠIsl":10777,"Ġperhaps":10778,"Ġtransform":10779,"For":10780,"å·®å¼Ĥ":10781,"As":10782,"åĪ¹":10783,"ä¸ĸçķĮä¸Ĭ":10784,"Ġpatient":10785,"Ġä½ľ":10786,"Ġabsol":10787,"Ġsatisf":10788,"Ġacademic":10789,"åįĴ":10790,"ä¼ģä¸ļçļĦ":10791,"åħĶ":10792,"èµ°åĪ°":10793,"crib":10794,"ĠåĩºæĿ¥":10795,"Ġsouthern":10796,"ä¸ľäº¬":10797,"ĠLy":10798,"ĠFootball":10799,"éĢıè¿ĩ":10800,"ĠFour":10801,"ç»´ä¿®":10802,"è§Ħå¾ĭ":10803,"çĶ·æĢ§":10804,"åĸĤ":10805,"ä¸¤ä½į":10806,"going":10807,"Ġnull":10808,"åĴ³":10809,"å°Ŀè¯ķ":10810,"aked":10811,"ä¿®æĶ¹":10812,"ĠPriv":10813,"ĠBroad":10814,"ç¥¸":10815,"atically":10816,"EP":10817,"è¯»ä¹¦":10818,"ĠåħŃ":10819,"éĢ»è¾ĳ":10820,"rite":10821,"Ġdepend":10822,"ĠCEO":10823,"ĠStan":10824,"æĦŁè§īåĪ°":10825,"ĠReal":10826,"Åį":10827,"Ġfram":10828,"stein":10829,"èĳ±":10830,"DF":10831,"å¥¥è¿Ĳ":10832,"èĢĮä¸įæĺ¯":10833,"Ġrelevant":10834,"Ġdiscovered":10835,"Ġrestaurant":10836,"å®°":10837,"çŀ§":10838,"ä¼¼çļĦ":10839,"æł¡éķ¿":10840,"Ġè¯Ŀ":10841,"Ġæµ·":10842,"Ġnotes":10843,"Ġupdate":10844,"å¤ªåŃĲ":10845,"anguages":10846,"åħ¶ä½Ļ":10847,"Ġgrad":10848,"æ»¡æĦı":10849,"éļľç¢į":10850,"mann":10851,"æĴ°":10852,"çĪª":10853,"sen":10854,"ansion":10855,"ĠReport":10856,"é¥¼":10857,"uting":10858,"å·¥ä½ľçļĦ":10859,"æľīæ²¡æľī":10860,"eria":10861,"å¼ķå¯¼":10862,"Ġsets":10863,"iro":10864,"ĠSpace":10865,"å¤§éĩıçļĦ":10866,"å¹¶äºİ":10867,"Ġèµµ":10868,"../":10869,"ockey":10870,"Ġremaining":10871,"Äģ":10872,"çİ²":10873,"ä¹¦æ³ķ":10874,"Ġmental":10875,"æįĲ":10876,"åĨ²çªģ":10877,"ç¨»":10878,"æĺİå¤©":10879,"ç¿Ķ":10880,"è¯´å®Į":10881,"Ġfoll":10882,"iminal":10883,"ureau":10884,"ĠåĹ¯":10885,"Ġburn":10886,"åĽ½åĬ¡":10887,"Ġè¿ĻäºĽ":10888,"é¾Ł":10889,"Ġdistribution":10890,"Ġrestrict":10891,"åıĳçĶŁäºĨ":10892,"Ġsession":10893,"Ġnorthern":10894,"Ġadvance":10895,"è¯ģæį®":10896,"å±ŀæĢ§":10897,"Ġbrain":10898,"ĠThrough":10899,"æĺ¯è°ģ":10900,"Ġå¯¹äºİ":10901,"Ġfra":10902,"atures":10903,"\");":10904,"éªĳåħµ":10905,"Ġmist":10906,"Ġactress":10907,"Ġvalid":10908,"ä¸Ĭå¸Ĥ":10909,"æĪĲä¸ºäºĨ":10910,"inois":10911,"è°¦":10912,"ĠMajor":10913,"è°ĥèĬĤ":10914,"ensions":10915,"Ġeat":10916,"Ġmaintain":10917,"èĢĮåİ»":10918,"Ġuseful":10919,"ĠInvest":10920,"ĠSet":10921,"åĳ³éģĵ":10922,"gal":10923,"èĩªè¡Į":10924,"åħįçĸ«":10925,"Ġåı¯èĥ½":10926,"Ġshowed":10927,"Ġå¹²":10928,"æĪĳä¸į":10929,"ĠOF":10930,"Ġyouth":10931,"TC":10932,"pping":10933,"ĠHa":10934,"Ġunivers":10935,"Ġdra":10936,"Ġconfig":10937,"èĤ¡ä»½":10938,"ĠSea":10939,"æĥĬè®¶":10940,"Ġconnected":10941,"DR":10942,"Ġforced":10943,"æľĢå¥½çļĦ":10944,"åľ°åĿĢ":10945,"ĠNotes":10946,"ĠId":10947,"ä½¿çĶ¨çļĦ":10948,"åĲ¯åĬ¨":10949,"ĠFair":10950,"ructions":10951,"Ġsister":10952,"Ġresident":10953,"Ġmedium":10954,"Ġpush":10955,"Ġdivid":10956,"Ġdig":10957,"Ġsusp":10958,"å¸ĮèħĬ":10959,"onic":10960,"å®¤åĨħ":10961,"èĿ¶":10962,"Ġtruly":10963,"obe":10964,"gypt":10965,"åīĬ":10966,"omy":10967,"éĵ¸":10968,"çĶµè§Ĩåī§":10969,"éģ®":10970,"Ġjoint":10971,"ĠBrook":10972,"roud":10973,"ĠAirport":10974,"~~":10975,"Ġfocused":10976,"Ġ33":10977,"947":10978,"è¯Ħä¸º":10979,"æıĲéĨĴ":10980,"å¤©çĦ¶":10981,"Ġancient":10982,"ĠéĹ®":10983,"ä¹¾":10984,"Ġinstance":10985,"ä¸»è¦ģæĺ¯":10986,"ä¸´æĹ¶":10987,"ĠImp":10988,"Ġreb":10989,"Ġfaith":10990,"Ġwine":10991,"æľīä¸ª":10992,"On":10993,"Ġattended":10994,"ä¸Ģä¸Ŀ":10995,"ĠÎ":10996,"æĦıå¿Ĺ":10997,"æ³³":10998,"åĲĳçĿĢ":10999,"Ġselection":11000,"ç½ĳä¸Ĭ":11001,"ker":11002,"Ġextremely":11003,"Ġç©¿":11004,"æĭ¾":11005,"umin":11006,"æľ¬ç§ĳ":11007,"Ġfort":11008,"åĪĽä¸ļ":11009,"enses":11010,"ĠKen":11011,"ĠSenate":11012,"ulf":11013,"éľľ":11014,"ç¡®ä¿Ŀ":11015,"æ·®":11016,"è¿ĻäºĽäºº":11017,"ä¾¦":11018,"åĬŀçĲĨ":11019,"ĠDespite":11020,"æĺŁæľŁ":11021,"Ġbeat":11022,"çļĦçĶŁæ´»":11023,"Data":11024,"Ġdepart":11025,"çĻ¾å¹´":11026,"Ġtrees":11027,"uclear":11028,"ĠJac":11029,"Ġsugar":11030,"Ġappeal":11031,"Ġpolicies":11032,"Ġeasier":11033,"Ġtask":11034,"idth":11035,"939":11036,"ĠTheatre":11037,"ä¿ĿåŃĺ":11038,"åĻ¬":11039,"Ġtend":11040,"è¿ľè¿ľ":11041,"éĻĽ":11042,"954":11043,"ĠTownship":11044,"American":11045,"çĳ¶":11046,"pret":11047,"åľ°çĲĨ":11048,"Ġmissing":11049,"Ġdial":11050,"Ġadvent":11051,"æµ´":11052,"çĶµåĬĽ":11053,"ĠThank":11054,"åıĹä¼¤":11055,"Ġnut":11056,"ç§°åı·":11057,"Ġafford":11058,"æĳĺ":11059,"Sp":11060,"ĠLar":11061,"ä¸ĵåĪ©":11062,"æĹ¥èµ·":11063,"Ġweap":11064,"ĠCarl":11065,"Ġbaby":11066,"èºº":11067,"Ġcommunication":11068,"åĨĪ":11069,"Ġchannel":11070,"Ġflu":11071,"ĠçĥŃ":11072,"ç²¾çģµ":11073,"ä¸Ģä¸ªä¸ª":11074,"å·¥åİĤ":11075,"ĠWalk":11076,"ĠBC":11077,"è®®ä¼ļ":11078,"æıĲä¾ĽäºĨ":11079,"ĠæľĢåĲİ":11080,"mes":11081,"water":11082,"åĴĮè°Ĳ":11083,"ador":11084,"ä¹ĸ":11085,"Ġfinding":11086,"ĠRay":11087,"odies":11088,"Ġimportance":11089,"çĶŁç´ł":11090,"Ġbeauty":11091,"åľ°åĮºçļĦ":11092,"ä¸Ģå®¶":11093,"è®¿éĹ®":11094,"å´Ķ":11095,"free":11096,"çİĭæľĿ":11097,"Ġitem":11098,"ĠJackson":11099,"åı¯èĥ½æĺ¯":11100,"illy":11101,"Ġç¬¬ä¸ĢçĻ¾":11102,"cles":11103,"å®´":11104,"èĦĬ":11105,"åĮĸä¸º":11106,"ĠåĲĮ":11107,"æ²Į":11108,"Ġdepending":11109,"Ġtesting":11110,"ç»µ":11111,"Ġrise":11112,"åĲİæľŁ":11113,"å¨ģåĬĽ":11114,"Ġpros":11115,"ĠDisc":11116,"Ġpil":11117,"ä¸įå¯¹":11118,"Ġcombined":11119,"å°¸ä½ĵ":11120,"abilities":11121,"952":11122,"Ġpractices":11123,"ä¸Ńæľī":11124,"ĠJustice":11125,"éĥ½åı¯ä»¥":11126,"ĠKent":11127,"æĪĲåĪĨ":11128,"Ġfunds":11129,"nic":11130,"ĠBrazil":11131,"Ġvari":11132,"å²ģçļĦ":11133,"ç¼ĸçłģ":11134,"éĻķè¥¿":11135,"file":11136,"åħ¶åĲİ":11137,"åıªä¸įè¿ĩ":11138,"åĩºåľº":11139,"power":11140,"oir":11141,"Ġutil":11142,"ĠAri":11143,"Ġgeneration":11144,"Ġfeaturing":11145,"path":11146,"çļĦæĥħ":11147,"ĠExt":11148,"ĠæŃ¤":11149,"Ġissued":11150,"Ġbreat":11151,"ĠDaniel":11152,"ĠWhere":11153,"Ġslightly":11154,"ĠåħĪ":11155,"OD":11156,"Ġprepar":11157,"rees":11158,"ç¬¬åħŃ":11159,"ä¼ļéķ¿":11160,"åĲĪéĢĤ":11161,"ĠSup":11162,"comm":11163,"Ġhonor":11164,"achel":11165,"941":11166,"ially":11167,"äººåĴĮ":11168,"å¾Īæľī":11169,"942":11170,"Ġgone":11171,"ĠÃł":11172,"å±±è¥¿":11173,"elligence":11174,"Ġteacher":11175,"æ³Ĭ":11176,"æĮ£":11177,"ĠèĲ§":11178,"ĠScotland":11179,"çĤ¹çļĦ":11180,"Ġbehavior":11181,"éĹ®é¢ĺçļĦ":11182,"ä¸ĭåįĪ":11183,"éĢļè®¯":11184,"Ġpictures":11185,"Ã±":11186,"chester":11187,"shire":11188,"éļıä¾¿":11189,"ali":11190,"æ»©":11191,"å°±å·²ç»ı":11192,"Ġdelivery":11193,"åı·çº¿":11194,"Ġreferred":11195,"Ġtechniques":11196,"ĠTransport":11197,"çİ¯ä¿Ŀ":11198,"ĠChildren":11199,"åĨįåº¦":11200,"ĠLog":11201,"åįĳ":11202,"hors":11203,"Ġlearned":11204,"åĩłå¤©":11205,"ç¡®è®¤":11206,"ixture":11207,"Ġnearby":11208,"å¯¹ä»ĸ":11209,"Ġå¥½çľĭ":11210,"å°±è¢«":11211,"âĢ²":11212,"Ġtoward":11213,"nergy":11214,"lishing":11215,"char":11216,"oken":11217,"çļĦçľĭçĿĢ":11218,"èĥĮåĲİ":11219,"idden":11220,"è½¨éģĵ":11221,"anged":11222,"åĽłèĢĮ":11223,"Ġéļ¾":11224,"Ð¾Ð½":11225,"ĠTay":11226,"Ġinspired":11227,"è¿ĺä¼ļ":11228,"Ġbath":11229,"æµģç¨ĭ":11230,"æµ¸":11231,"ĠBattle":11232,"Ġalle":11233,"ç½ķ":11234,"æĹ¥åľ¨":11235,"Ġmulti":11236,"æ¹ĸåĮĹ":11237,"çĬ¬":11238,"Ġheight":11239,"çļĦåİĨåı²":11240,"æ²īé»ĺ":11241,"ĠKh":11242,"Ġallowing":11243,"èĻ¹":11244,"Ġcore":11245,"åįĩçº§":11246,"953":11247,"ĠFind":11248,"ç¼´":11249,"æĿĥåĬĽ":11250,"Ġagree":11251,"ĠAdminist":11252,"ĠConference":11253,"èĲĮ":11254,"Ġnotice":11255,"kin":11256,"æĬĬæı¡":11257,"Ġcitizens":11258,"ographic":11259,"è¡Ķ":11260,"phas":11261,"Ġserver":11262,"æĽ´ä¸º":11263,"èµ°åĲĳ":11264,"ĠEliz":11265,"ĠLatin":11266,"ĠKong":11267,"MB":11268,"çĭłçĭł":11269,"åľ¨è¿Ļä¸ª":11270,"etic":11271,"igration":11272,"çľģçº§":11273,"Ġpassion":11274,"DP":11275,"è´ª":11276,"Ġsecure":11277,"æģ¼":11278,"ĠProfessor":11279,"åľºæĻ¯":11280,"Ġvehicles":11281,"FA":11282,"âĢĶâĢĶâĢĶâĢĶ":11283,"åĥµ":11284,"çĿģ":11285,"];":11286,"ĠåĵĪ":11287,"ä¸¸":11288,"gment":11289,"Ġmales":11290,"ĠMu":11291,"Ġrecording":11292,"Ġquant":11293,"Ġformula":11294,"åįģä¸ĩ":11295,"Ġrom":11296,"ĠèĬ±":11297,"53":11298,"æĶ¶éĽĨ":11299,"æ¨¡æł·":11300,"war":11301,"Ġlabor":11302,"é¥®é£Ł":11303,"ĠGeorgia":11304,"covery":11305,"Ġju":11306,"å¤·":11307,"çļĦä¸Ń":11308,"èĸĩ":11309,"adel":11310,"Ġstores":11311,"ĠWales":11312,"é¢ĳçİĩ":11313,"Ġhouses":11314,"ĠOnt":11315,"çļĦæ°Ķ":11316,"Ġcrowd":11317,"ä¸Ģè·¯":11318,"ÐµÑĤ":11319,"ĠIllinois":11320,"æĢ»ç»ĵ":11321,"Ġtracks":11322,"Ġfacility":11323,"åĵĩ":11324,"æ··æ²Į":11325,"54":11326,"åĴĴ":11327,"Ġflight":11328,"ĠSpain":11329,"çĤ¹çĤ¹å¤´":11330,"èĥĢ":11331,"èĦ¾":11332,"ä½ıå®ħ":11333,"ĠåįĹ":11334,"Ġagency":11335,"ç²®é£Ł":11336,"è¡Ģæ¶²":11337,"æīĭä¸ŃçļĦ":11338,"Ġadvanced":11339,"Ġä¸ºä»Ģä¹Ī":11340,"uous":11341,"æĪ¿å±ĭ":11342,"Ġintended":11343,"ĠOnline":11344,"Ġspeak":11345,"åĵĢ":11346,"åĩºåıĳ":11347,"Ġscale":11348,"å»ºæĪĲ":11349,"çŁĽçĽ¾":11350,"ĠDemocratic":11351,"åį³å°Ĩ":11352,"ĠAmericans":11353,"çİ°æľī":11354,"èĪŀåı°":11355,"iler":11356,"Ġcombination":11357,"Ġcarried":11358,"ä¸Ģå®ļçļĦ":11359,"ĠåĶĲ":11360,"oviet":11361,"($":11362,"Ġpropos":11363,"éĺŁéķ¿":11364,"å¾Īå°ĳ":11365,"ä¾Ŀæ³ķ":11366,"é¼ĵåĬ±":11367,"éĹ´çļĦ":11368,"ç¾İçļĦ":11369,"åı¸æ³ķ":11370,"æĴķ":11371,"å¾ĭå¸Ī":11372,"Ġinjury":11373,"ĠSteve":11374,"Ġproducer":11375,"Ġdrop":11376,"Ġconcent":11377,"çļĦæĦıæĢĿ":11378,"Ġpool":11379,"çĶŁäºİ":11380,"ĠColumbia":11381,"Ġnative":11382,"äº¨":11383,"Ġcheese":11384,"Ġremoved":11385,"Ġofficers":11386,"Ġcash":11387,"çªĿ":11388,"Im":11389,"åŀĥ":11390,"Ġconcerns":11391,"è¥¿éĥ¨":11392,"Ġlocations":11393,"Ġcouncil":11394,"Ġäºĭ":11395,"fam":11396,"Ġvision":11397,"Ġcoffee":11398,"åŃ¦çļĦ":11399,"Ġadministr":11400,"ĠUr":11401,"Ġapplied":11402,"Ġfollows":11403,"è¯ģåĪ¸":11404,"è¯´ä»Ģä¹Ī":11405,"ĠåŃ¦æł¡":11406,"ä¸Ģä»¶":11407,"åİ»ä¸ĸ":11408,"ennis":11409,"Ġcraft":11410,"äººå·¥":11411,"åħĭåħ°":11412,"Ġsmooth":11413,"çļĦéĢŁåº¦":11414,"ä¸Ńåįİæ°ĳåĽ½":11415,"å®ŀçĶ¨":11416,"Ġthanks":11417,"elled":11418,"ÑĦ":11419,"åľ¾":11420,"ĠEst":11421,"eller":11422,"Ġregional":11423,"äºĴçĽ¸":11424,"æĹłäºº":11425,"æ±ª":11426,"ĠDub":11427,"Ġbelieved":11428,"å¦»åŃĲ":11429,"åŀĥåľ¾":11430,"äºīè®®":11431,"ĠBBC":11432,"FC":11433,"è®®åĳĺ":11434,"rehens":11435,"Ġcrew":11436,"Ġsurvey":11437,"Ġdefined":11438,"Ġfields":11439,"Ġvolunte":11440,"mpt":11441,"App":11442,"Ġé£İ":11443,"Ġthousands":11444,"atever":11445,"Ġserves":11446,"æĽ´æĸ°":11447,"ĠéĻĦ":11448,"éĹ¨çļĦ":11449,"Ġlock":11450,"ĠåĨ·":11451,"................":11452,"åŁİçļĦ":11453,"çŃĸåĪĴ":11454,"çī©æµģ":11455,"Ġexplore":11456,"Ġbass":11457,"æľīåĪ©":11458,"Ġgall":11459,"ä½ĽæķĻ":11460,"ĠçĦ¶èĢĮ":11461,"æĪ¿åľ°äº§":11462,"Ġincred":11463,"åĴĸåķ¡":11464,"mail":11465,"Ġsauce":11466,"ĠSaf":11467,"ä¸»äºº":11468,"ç¾ŀ":11469,"rome":11470,"Ġmovies":11471,"å¦¥":11472,"ĠSus":11473,"Ġbutton":11474,"asure":11475,"andon":11476,"åŁºæľ¬ä¸Ĭ":11477,"Ġdivision":11478,"ui":11479,"ĠBooks":11480,"alled":11481,"ĠPlace":11482,"èĢķåľ°":11483,"igen":11484,"çĶµè·¯":11485,"èµ·èº«":11486,"ç³ķ":11487,"Ġera":11488,"car":11489,"èĩŃ":11490,"Ġmeasures":11491,"ĠJr":11492,"äºĨä¸¤":11493,"è£Ķ":11494,"ĠPoint":11495,"éĢ¢":11496,"ĠCorn":11497,"Ġ38":11498,"Ġfuel":11499,"Ġå®ļ":11500,"ishes":11501,"ĠBase":11502,"æīĶ":11503,"ournament":11504,"çĪ¹":11505,"ä¸įè¡Į":11506,"å¾Īæĺ¯":11507,"Ġlandsc":11508,"ä¸įåĬ¨":11509,"ä¹Łè¢«":11510,"ĠEgypt":11511,"ĠStation":11512,"Ġvisitors":11513,"åĨ³çŃĸ":11514,"kg":11515,"Ġcompar":11516,"æ±Łè¥¿":11517,"ĠPrime":11518,"åħļåĳĺ":11519,"osen":11520,"Ġmarriage":11521,"èĸª":11522,"åħ¬ä¼Ĺ":11523,"å¤ĸäº¤":11524,"Ġcamera":11525,"é©¬åħĭ":11526,"æĵİ":11527,"ĠNY":11528,"ENT":11529,"Ġadvantage":11530,"osure":11531,"Ġdescription":11532,"stone":11533,"ĠEdward":11534,"Ġstatic":11535,"è¡ĮæĺŁ":11536,"string":11537,"real":11538,"Don":11539,"outs":11540,"icted":11541,"éľŀ":11542,"clusion":11543,"æ¡£æ¡Ī":11544,"ĠDar":11545,"èĮ«":11546,"ãĢĤãĢį":11547,"Ġç¬¬åħ«":11548,"Ġidentify":11549,"åĽ¾ä¹¦é¦Ĩ":11550,"Ġcouldn":11551,"Ġindustrial":11552,"ĠAmazon":11553,"Ġvocals":11554,"æĪĳä¼ļ":11555,"which":11556,"åħ¶ä»ĸçļĦ":11557,"äºĨè¿ĩæĿ¥":11558,"related":11559,"æłĭ":11560,"Ġbelong":11561,"å°±æ²¡æľī":11562,"å¼ºåº¦":11563,"937":11564,"Ġsuc":11565,"å»Ĭ":11566,"ä»Ĺ":11567,"Ġtele":11568,"olved":11569,"æķ´çĲĨ":11570,"æ´Ĵ":11571,"Ġmaybe":11572,"ĠåŃ¦":11573,"ä½łè¦ģ":11574,"ima":11575,"ĠRailway":11576,"}.":11577,"Ġpm":11578,"æī©å±ķ":11579,"Ġåħī":11580,"burgh":11581,"æĸĩèīº":11582,"èĳĹåĲįçļĦ":11583,"ĠéĿĴ":11584,"ãĢİ":11585,"æ²¡ä»Ģä¹Ī":11586,"plate":11587,"Ġmo":11588,"Ġorg":11589,"lywood":11590,"æīįä¼ļ":11591,"Ġscored":11592,"Ġsnow":11593,"çķı":11594,"ira":11595,"Ġfunctions":11596,"Ġvary":11597,"è·ª":11598,"å¦¹å¦¹":11599,"åħ¬å®ī":11600,"Ġcrime":11601,"åĬłæĭ¿å¤§":11602,"je":11603,"ĠToronto":11604,"åıĳçİ°äºĨ":11605,"Ġcorner":11606,"Ġtalking":11607,"Ġæĭį":11608,"åĳĪçİ°":11609,"æ¬ł":11610,"çĸ²":11611,"å®ļäºĨ":11612,"åĩĳ":11613,"å®³æĢķ":11614,"ãĢı":11615,"æ¿ĢåĬ¨":11616,"Ġvolume":11617,"ä¸Ģèĩ´":11618,"Ġaccident":11619,"Ġseeing":11620,"åħ³å¿ĥ":11621,"ä¹īåĬ¡":11622,"otic":11623,"Ġwebsites":11624,"rastructure":11625,"ĠSecretary":11626,"Ind":11627,"å¹¶æľª":11628,"éĶ»":11629,"Ġsurrounding":11630,"çļĦä½įç½®":11631,"ĠField":11632,"ãģ®":11633,"å¤§èµĽ":11634,"ĠBern":11635,"éĹ¯":11636,"ĠBon":11637,"Ġ37":11638,"fficient":11639,"è´·æ¬¾":11640,"ä¿Ŀä¿®":11641,"ading":11642,"Ġresearc":11643,"Ã£":11644,"Ġhandle":11645,"æĲľç´¢":11646,"çīĩåĪ»":11647,"ĠEmpire":11648,"ĠKey":11649,"Ġactors":11650,"ä¸įåģľ":11651,"åĮĹæĸ¹":11652,"ĠRh":11653,"éĻ¢éķ¿":11654,"Ġgain":11655,"zer":11656,"etime":11657,"ĠIT":11658,"Ġpolitics":11659,"å½ĵä»£":11660,"å·²ç»ıæĺ¯":11661,"Ġtruth":11662,"Ġgrew":11663,"é¢ĳéģĵ":11664,"äºĶå¹´":11665,"Ġedge":11666,"ĠExper":11667,"aped":11668,"å¸½":11669,"elly":11670,"Ġæīĭ":11671,"Ġå¾Īå¤ļ":11672,"Ġsomew":11673,"ela":11674,"ĠMicrosoft":11675,"Ġdim":11676,"åıĺæĪĲäºĨ":11677,"èģĮå·¥":11678,"éĻ¢æł¡":11679,"ä¹Łåı¯":11680,"éĤ£å°±æĺ¯":11681,"åĽ¾åĥı":11682,"å¯ĵ":11683,"åį³ä¾¿":11684,"ä¸Ģåº§":11685,"çĥŃå¸¦":11686,"èĭ±æł¼åħ°":11687,"Ġles":11688,"Ġgirls":11689,"inent":11690,"Ã©e":11691,"ello":11692,"çº¤ç»´":11693,"ras":11694,"ĠHong":11695,"Ġcart":11696,"åĽŀå¤´":11697,"ĠHun":11698,"Ġerr":11699,"Ġassistance":11700,"èĤ¢":11701,"ĠÐ¡":11702,"Ġdomin":11703,"ä¸ĸçķĮçļĦ":11704,"oted":11705,"è¾ħåĬ©":11706,"emy":11707,"Ġbalance":11708,"çŃĴ":11709,"å©ī":11710,"ĠBridge":11711,"ĠFollowing":11712,"938":11713,"Ġshowing":11714,"ĠçĶ±äºİ":11715,"ç¾¡":11716,"åį°è±¡":11717,"ji":11718,"rig":11719,"Ġflo":11720,"bi":11721,"ĠRog":11722,"é«ĺæł¡":11723,"Ġconfir":11724,"Ġcampus":11725,"oster":11726,"ila":11727,"Ġdecor":11728,"ĠNav":11729,"essions":11730,"è¿ľå¤Ħ":11731,"59":11732,"å§»":11733,"ĠInf":11734,"enger":11735,"ãĢī":11736,"ĠUnfortunately":11737,"Ad":11738,"èĤ¡ç¥¨":11739,"All":11740,"Ġdocuments":11741,"å½¢æĪĲäºĨ":11742,"Ġupdated":11743,"ĠNote":11744,"build":11745,"çķĮçļĦ":11746,"Ġdecades":11747,"é¸Ń":11748,"èĤ¿çĺ¤":11749,"çĢ":11750,"Ġwonderful":11751,"å¸¦é¢Ĩ":11752,"ko":11753,"iency":11754,"iture":11755,"å·ħå³°":11756,"åĳ½è¿Ĳ":11757,"Ġindex":11758,"æľīæľº":11759,"cho":11760,"Ġnegative":11761,"Ġsexual":11762,"ç»ĨèĬĤ":11763,"Ġgarden":11764,"ç»³":11765,"ãĢį(":11766,"éĿ¢ä¸´":11767,"çĶµæºĲ":11768,"Ġremind":11769,"rm":11770,"951":11771,"Ġschedule":11772,"Ġspons":11773,"ä½ľä¸ļ":11774,"Ġec":11775,"ĠBul":11776,"Ġtun":11777,"ĠScottish":11778,"ĠRam":11779,"å·¢":11780,"Ġmanage":11781,"Ġassum":11782,"cur":11783,"ĠæĦŁ":11784,"ighter":11785,"ĠKenn":11786,"Ġdetect":11787,"Ġupdates":11788,"éĥ¨èĲ½":11789,"è£¤":11790,"Ġåħ¬åı¸":11791,"arp":11792,"èĵĦ":11793,"En":11794,"If":11795,"Ġdoctor":11796,"Ġly":11797,"ä½łå°±":11798,"Ġbrown":11799,"çļĦéķ¿":11800,"ropol":11801,"Ġcards":11802,"Ġmaximum":11803,"ä¼ĺåĮĸ":11804,"Ġflat":11805,"Ġprepared":11806,"æĳĶ":11807,"ÐºÐ°":11808,"Ġcorrespond":11809,"ãĢĪ":11810,"ä¸īè§Ĵ":11811,"Ġinternal":11812,"Ġmonitor":11813,"ĠCro":11814,"Ġchanging":11815,"Ġå¼Ģæľ¬":11816,"ĠæĮº":11817,"hop":11818,"åĬĽäºİ":11819,"èĻ¾":11820,"Ġè£ħ":11821,"Ġentered":11822,"Ġpromote":11823,"çī©ä¸ļ":11824,"ĠOnly":11825,"æĶ¾åħ¥":11826,"Ġ34":11827,"éºŁ":11828,"ĠÂ»":11829,"ĠAL":11830,"çļĦåĲİ":11831,"943":11832,"éģŃåĪ°":11833,"ĠOntario":11834,"åĪĥ":11835,"å¹³éĿĻ":11836,"arrow":11837,"ä¿±":11838,"Ġmarkets":11839,"Ġthrow":11840,"HS":11841,"Ġevening":11842,"Ġcreation":11843,"ĠPen":11844,"æ¢¦æĥ³":11845,"How":11846,"ĠéĹ®é¢ĺ":11847,"ĠEs":11848,"Ġdiss":11849,"åĽ½å®¶çļĦ":11850,"ĠPhot":11851,"åĴ¸":11852,"Ġfear":11853,"èº«ä¸ĬçļĦ":11854,"Ġconvert":11855,"ä½Ĩä»ĸ":11856,"å¤ļäºº":11857,"åħ¨å¸Ĥ":11858,"ĠAvenue":11859,"åŃ©åŃĲçļĦ":11860,"Ġcandidate":11861,"åİŁå§ĭ":11862,"æ£ĢéªĮ":11863,"etts":11864,"Ġmountain":11865,"eral":11866,"ĠElizabeth":11867,"cious":11868,"Ġæ¬¡":11869,"Ġengineering":11870,"ĠDer":11871,"ĠChair":11872,"äº¤æį¢":11873,"éĿ¢ç§¯ä¸º":11874,"è¯ķåĽ¾":11875,"èĭ¹":11876,"Ġextended":11877,"ĠSanta":11878,"Ġast":11879,"rum":11880,"åĽ½å¤ĸ":11881,"Ġapart":11882,"éĺĢ":11883,"ownt":11884,"pected":11885,"ifications":11886,"Ġideal":11887,"æĺ¯ä¸ŃåĽ½":11888,"Ġæĸ¹":11889,"ĠTake":11890,"éħ¶":11891,"è¾Ĳ":11892,"uan":11893,"Ġsharing":11894,"rovers":11895,"Ġign":11896,"åĬ¨æĢģ":11897,"ĠConf":11898,"çķĻåľ¨":11899,"éĻĽä¸ĭ":11900,"aser":11901,"ä¿®å¤į":11902,"ç²¹":11903,"åĩ°":11904,"èģĮè´£":11905,"Ġbutter":11906,"å¹³æĹ¶":11907,"éĿłè¿ĳ":11908,"ç«ĭæ³ķ":11909,"ç½¢äºĨ":11910,"èģĤ":11911,"ĠÐ±":11912,"Ġçº¢":11913,"æĢİä¹ĪåĬŀ":11914,"ampion":11915,"Ġsides":11916,"ä¹ĥæĺ¯":11917,"rane":11918,"Ġprotected":11919,"iration":11920,"My":11921,"å¤§åĨĽ":11922,"ç§įåŃĲ":11923,"è¿ĺåı¯ä»¥":11924,"Ġspecifically":11925,"Ġ300":11926,"éĢĲæŃ¥":11927,"Ġä¸ºäºĨ":11928,"å¼ķåıĳ":11929,"æ°¨":11930,"çĩ¥":11931,"ĠèĢħ":11932,"å°ī":11933,"ĠDun":11934,"iser":11935,"èĶ¬":11936,"bro":11937,"èł":11938,"ĠMic":11939,"å¦ĩå¥³":11940,"gery":11941,"Ġholds":11942,"Ġä¸įå¥½":11943,"ĠHand":11944,"ĠSoviet":11945,"Ġremov":11946,"Ġ/**":11947,"äººç¾¤":11948,"ĠSign":11949,"Ġexchange":11950,"çļĩå®¶":11951,"ä»¥ä¸ĬçļĦ":11952,"å¤§åľ°":11953,"tenance":11954,"eler":11955,"Ġstarts":11956,"ä¼łæī¿":11957,"sub":11958,"DS":11959,"ĠHard":11960,"äºĭé¡¹":11961,"ocket":11962,"fs":11963,"mont":11964,"æĦ¤æĢĴ":11965,"></":11966,"Ġthank":11967,"åħ¨åĬĽ":11968,"åĲĬ":11969,"ĠCensus":11970,"ĠAlbert":11971,"åŁİéķĩ":11972,"Ġvideos":11973,"Ġdish":11974,"ĠOfficial":11975,"å¤ĸåĽ½":11976,"Ġå®ĥ":11977,"éĺ¿æĭī":11978,"åĪ°æĹ¶åĢĻ":11979,"å¹´åīį":11980,"ä¾ĿéĿł":11981,"itu":11982,"ads":11983,"åħĨ":11984,"ĠéĩĮ":11985,"Ġ48":11986,"èĻļç©º":11987,"aka":11988,"ĠStory":11989,"æľįè£ħ":11990,"è¯¾åłĤ":11991,"åĽ½åĬ¡éĻ¢":11992,"æª":11993,"ĠRights":11994,"åĮĹéĥ¨":11995,"æįī":11996,"ĠUk":11997,"çĶ±æŃ¤":11998,"èį·åħ°":11999,"æİł":12000,"åĪĿæľŁ":12001,"æĶĢ":12002,"ĠTrust":12003,"Ġinstitutions":12004,"Ġcategory":12005,"Ġflavor":12006,"åĽŀå®¶":12007,"åŁİåĮº":12008,"ommod":12009,"åľĨå½¢":12010,"jo":12011,"ĠDigital":12012,"ä¸įå¤Ł":12013,"çłį":12014,"é¡¾éĹ®":12015,"å«©":12016,"ĠÅ":12017,"éľī":12018,"Ġadvoc":12019,"æĪĳè¯´":12020,"Ġidentity":12021,"ĠRepublican":12022,"ĠGovernor":12023,"Ġinterests":12024,"åĿ¤":12025,"ocolate":12026,"Ġestablishments":12027,"ä¸įè¯´":12028,"æĪĺå½¹":12029,"Ġsteel":12030,"åĲĮä¸Ģ":12031,"è¶³ä»¥":12032,"rence":12033,"è¸¢":12034,"ĠAsh":12035,"ĠPak":12036,"abled":12037,"ä¸ĭæĿ¥çļĦ":12038,"Ġidentified":12039,"Ġpackage":12040,"ä¸įå¤ª":12041,"åıªè§ģ":12042,"coh":12043,"ä¼¦æķ¦":12044,"Ġrevealed":12045,"ĠStudies":12046,"åĮĨ":12047,"çļĦå®ŀåĬĽ":12048,"æĺ¯è¦ģ":12049,"è´¢äº§":12050,"ĠBal":12051,"ervice":12052,"éĢĤçĶ¨":12053,"è¯¡":12054,"ĠClick":12055,"Ġrapid":12056,"No":12057,"ä¸Ĭåįĩ":12058,"ä¸ĢèĪ¬çļĦ":12059,"enth":12060,"âĶ":12061,"Ġdiagn":12062,"\"),":12063,"Ġæĺ¯ä¸įæĺ¯":12064,"Ġbridge":12065,"Ġflex":12066,"ĠBell":12067,"æĹ¥åĨĽ":12068,"åı¸é©¬":12069,"Ġarrived":12070,"Ġemphas":12071,"ĠåĲĦ":12072,"ĠEnergy":12073,"achus":12074,"ĠCommon":12075,"é¢Ħæµĭ":12076,"utation":12077,"ĠPu":12078,"æŃ£å¥½":12079,"Ġfold":12080,"åĲįåįķ":12081,"åĪĨäº«":12082,"Ġcommonly":12083,"ĠEastern":12084,"å¼ıçļĦ":12085,"Ġefficient":12086,"ĠJean":12087,"Ġunc":12088,"ĠPolicy":12089,"uten":12090,"å·´é»İ":12091,"Ġvent":12092,"Ġwestern":12093,"ä»ĸå°±":12094,"å¯¹æŃ¤":12095,"Ġbegins":12096,"Ġaren":12097,"ç®ĢåįķçļĦ":12098,"Ġawards":12099,"_{":12100,"ä¹Łä¸įçŁ¥éģĵ":12101,"Ãº":12102,"ä¹ĭæīĢä»¥":12103,"Ġscholars":12104,"inity":12105,"Ġcloud":12106,"æİĪäºĪ":12107,"Ġcommitted":12108,"asters":12109,"çļĦç¬¬ä¸Ģ":12110,"ĠLi":12111,"ĠArea":12112,"ç¬¬äºĮæ¬¡":12113,"å®ŀåľ¨æĺ¯":12114,"Ġvictory":12115,"Ġliber":12116,"æĴŃåĩº":12117,"ç¼ĸåĪ¶":12118,"Ġreform":12119,"Ġpod":12120,"ĠMill":12121,"ÑĤÐ¸":12122,"ĠSher":12123,"æķĻç»ĥ":12124,"Qu":12125,"hent":12126,"Ġlanguages":12127,"åħ»æ®ĸ":12128,"èº«ä¸º":12129,"ĠVictoria":12130,"Ġanimal":12131,"Ġhero":12132,"ĠLin":12133,"è§Ĩä¸º":12134,"è¯ģä¹¦":12135,"Ġotherwise":12136,"Ġce":12137,"TH":12138,"pack":12139,"è¾±":12140,"æĭ±":12141,"çĩĥçĥ§":12142,"Ġobvious":12143,"æĸ¯çļĦ":12144,"ĠSciences":12145,"Ġfurn":12146,"athan":12147,"Ġbright":12148,"ĠWorks":12149,"åĵįèµ·":12150,"å°½éĩı":12151,"Ġarts":12152,"Ġwidely":12153,"Ġplanned":12154,"é¢ĸ":12155,"lig":12156,"Ġbowl":12157,"Ġä¸ĥ":12158,"ĠPhys":12159,"èĢģåŃĲ":12160,"ĠMah":12161,"éļĲèĹı":12162,"Ð»Ð°":12163,"Ġrelationships":12164,"Ġflag":12165,"rant":12166,"æ¸Ĺ":12167,"èĢģäºº":12168,"Ġparam":12169,"æĦıåĳ³çĿĢ":12170,"><":12171,"å¾Īå¤§çļĦ":12172,"çļĦåĨħå®¹":12173,"Ġkitchen":12174,"asks":12175,"ĠPhilipp":12176,"ç¤ºèĮĥ":12177,"æ¯ķä¸ļäºİ":12178,"è¿Ļè¯Ŀ":12179,"è´ŀ":12180,"okes":12181,"æ¾³éĹ¨":12182,"è¤":12183,"æŃĩ":12184,"ĠEU":12185,"anges":12186,"åŀĭåı·":12187,"åłµ":12188,"}-":12189,"Ġfill":12190,"Ġoccasion":12191,"å¹´è½»äºº":12192,"æĤį":12193,"eld":12194,"Ġearned":12195,"è¿Ļä¹Łæĺ¯":12196,"æŀ¯":12197,"åįģåĩł":12198,"ĠCorporation":12199,"é¥¶":12200,"ä¿¡å¿ĥ":12201,"åįķåħĥ":12202,"é¹¤":12203,"æĹ©å·²":12204,"Wind":12205,"æŃī":12206,"å¿ĺè®°":12207,"prise":12208,"äºĨè¿ĩåİ»":12209,"Ġdecisions":12210,"aine":12211,"Ġchemical":12212,"code":12213,"gor":12214,"éŃĦ":12215,"ĠæĩĤ":12216,"ä¸įæĪĲ":12217,"å°±è¿ŀ":12218,"åıĪæľī":12219,"éĺ»æŃ¢":12220,"phy":12221,"çļĦä¸ĢåĪĩ":12222,"Ġarrange":12223,"èĬ±åĽŃ":12224,"Ġdetailed":12225,"nesota":12226,"Ã¥":12227,"Ġconducted":12228,"ĠTaylor":12229,"ĠRest":12230,"Ġdetail":12231,"ĠKim":12232,"å¹´åĲİ":12233,"ä¸Ĭè¿°":12234,"Ġviolence":12235,"åľ°éĵģ":12236,"ãĥ¼":12237,"å¿ĥæĥħ":12238,"mosp":12239,"Ġpun":12240,"èĭ¹æŀľ":12241,"62":12242,"Ġsupporting":12243,"Ġvacc":12244,"Ġé¾Ļ":12245,"åĩ½æķ°":12246,"æĬĵä½ı":12247,"Ġcomfortable":12248,"Ã£o":12249,"çļĦéģĵ":12250,"ĠLocal":12251,"Ġguarant":12252,"ĠLtd":12253,"Ġdistinct":12254,"Ġneighborhood":12255,"æİ¥ä¸ĭæĿ¥":12256,"åĬŁçİĩ":12257,"çŁ³æ²¹":12258,"ĠCountry":12259,"Ġfestival":12260,"è½¬æį¢":12261,"ĠHom":12262,"æ±ŁåįĹ":12263,"Ġinstrument":12264,"ĠTurn":12265,"king":12266,"Ġfilled":12267,"Ġren":12268,"936":12269,"Ġleads":12270,"bec":12271,"Ġannounce":12272,"Ġä¹¦":12273,"Ġperman":12274,"æĥ³çĿĢ":12275,"while":12276,"lets":12277,"kes":12278,"åı¬å¼Ģ":12279,"icit":12280,"ä¸ĢçĻ¾":12281,"ĠCas":12282,"æīĭæĮĩ":12283,"æĹŃ":12284,"iders":12285,"ĠæĻļ":12286,"åĲ«æľī":12287,"Ġåħ«":12288,"ĠRod":12289,"ulpt":12290,"åİĨåı²ä¸Ĭ":12291,"ĠLew":12292,"æīĢæľīäºº":12293,"Â®":12294,"åľºæīĢ":12295,"ĠLes":12296,"Ġsam":12297,"å®¡è®¡":12298,"æĶ¯æĴĳ":12299,"ĠåįĬ":12300,"ĠRen":12301,"å®īå¾½":12302,"Ġæīĭæľº":12303,"æ³Į":12304,"AV":12305,"ĠCH":12306,"Ġä¸ľè¥¿":12307,"Ġroles":12308,"Ġcalling":12309,"åĬŀäºĭ":12310,"ç¦ģæŃ¢":12311,"ä¸Ģå¼ł":12312,"çİĭåĽ½":12313,"stream":12314,"å¤§å¤ļ":12315,"vedio":12316,"inson":12317,"æ³¨éĩį":12318,"ĠID":12319,"ĠBand":12320,"py":12321,"è¾¹ç¼ĺ":12322,"éĢīæīĭ":12323,"Ġtag":12324,"Ġshut":12325,"Ġscientific":12326,"ĠRose":12327,"ĠLater":12328,"æĢ»éĥ¨":12329,"Ġoperated":12330,"ĠOxford":12331,"ĠSon":12332,"çĸĳæĥĳ":12333,"Ġequal":12334,"Ġbag":12335,"äºĭå®ŀä¸Ĭ":12336,"ĠStart":12337,"Ġcoverage":12338,"è¶ħè¶Ĭ":12339,"åĬŁå¤«":12340,"ĠOlympic":12341,"wa":12342,"é¥°æ¼Ķ":12343,"achusetts":12344,"èļĢ":12345,"å¹´è¢«":12346,"ĠUnivers":12347,"lines":12348,"hemat":12349,"ĠÂ«":12350,"ä¸Ģæł·çļĦ":12351,"ä¸ĢæĹ¶":12352,"å½¦":12353,"Ġbought":12354,"mat":12355,"Ġlisten":12356,"ĠéĴ±":12357,"åį°åĪ·":12358,"otes":12359,"èįĨ":12360,"Ġcontemporary":12361,"æĺ¾èĳĹ":12362,"æŀ¢":12363,"ĠFox":12364,"ä¹ĭèī²":12365,"Ġdraft":12366,"Ġkeeping":12367,"çļĦä¸ī":12368,"ĠHu":12369,"size":12370,"åĲĳåīį":12371,"å¥ĸåĬ±":12372,"è¯Ģ":12373,"Ġstick":12374,"ĠWatch":12375,"Ġbasketball":12376,"å¤©ç©º":12377,"Ġathlet":12378,"ervative":12379,"worth":12380,"SD":12381,"ĠOtt":12382,"å¦Ĥæŀľä½ł":12383,"ĠÐŁ":12384,"åıĮçľ¼":12385,"ä¸įæĸŃçļĦ":12386,"========":12387,"utely":12388,"éĺ²æ²»":12389,"åįĹéĥ¨":12390,"æ¶ħ":12391,"weight":12392,"rix":12393,"icip":12394,"Ġcolon":12395,"ĠNative":12396,"Ġchain":12397,"åıĸä»£":12398,"anna":12399,"Äį":12400,"Ġhistoric":12401,"Ġstone":12402,"Ġç¬¬åĽĽèĬĤ":12403,"æłĸ":12404,"Ġraise":12405,"Ġpurchased":12406,"åĬŀåŃ¦":12407,"æķħéļľ":12408,"Ġversions":12409,"foot":12410,"èĢģçĪ·":12411,"åŃĲä¸Ĭ":12412,"Ġrepresented":12413,"åĴĮåħ¶ä»ĸ":12414,"night":12415,"fast":12416,"æ»ŀ":12417,"ĠCreek":12418,"å¤§åĬĽ":12419,"Ġagreed":12420,"aded":12421,"åħ¬æĸ¤":12422,"Ġsyn":12423,"Ġdefense":12424,"èĦĸ":12425,"å¸¸åĬ¡":12426,"Ġmixed":12427,"Ð½Ð¾":12428,"å¼ºåĮĸ":12429,"ĠMinnesota":12430,"rete":12431,"Ġdiet":12432,"å·®çĤ¹":12433,"Ġreduced":12434,"ä¹Łå¾Ī":12435,"çļĦè®¾è®¡":12436,"arters":12437,"ĠMir":12438,"Ġswitch":12439,"Ġattrib":12440,"Ġring":12441,"è½»æĺĵ":12442,"ĠRom":12443,"ä¼Ļä¼´":12444,"then":12445,"Ġsucceed":12446,"Ġexperts":12447,"inst":12448,"Ġå¼Ģå§ĭ":12449,"ĠDC":12450,"ĠDutch":12451,"åŁºçĿ£":12452,"çŁ¥éģĵäºĨ":12453,"Ġnomin":12454,"ĠSupport":12455,"orders":12456,"Ġcourses":12457,"æķ´åĲĪ":12458,"ĠåİŁ":12459,"Ġclaimed":12460,"Ġprocesses":12461,"xy":12462,"ĠRon":12463,"å·¥åķĨ":12464,"poses":12465,"amber":12466,"åħ¥åı£":12467,"Ġupper":12468,"Ġenh":12469,"ĠOp":12470,"åĬłåĿ¡":12471,"Ġprogramming":12472,"Ġbeach":12473,"Ġeducational":12474,"apes":12475,"å°ĶçļĦ":12476,"å¥½å¥ĩ":12477,"æīĭéĩĮ":12478,"Ġelections":12479,"æĹħè¡Į":12480,"Ġæį¢":12481,"åĬ£":12482,"Ġmilk":12483,"De":12484,"åĩŃåĢŁ":12485,"åĭī":12486,"åī©ä¸ĭ":12487,"Ð¾Ð¹":12488,"hat":12489,"Ġobjects":12490,"åĬłéĢŁ":12491,"é©°":12492,"ä¾¿å®ľ":12493,"ä¸ªæĢ§":12494,"èº«åŃĲ":12495,"Ġfruit":12496,"ĠExpl":12497,"ĠTO":12498,"ista":12499,"Ġbrings":12500,"è¾Ł":12501,"dney":12502,"TR":12503,"Ġagric":12504,"oti":12505,"æĥħæĬ¥":12506,"lock":12507,"æİīäºĨ":12508,"Ġpayment":12509,"è¶ĬåįĹ":12510,"ä¿¡çĶ¨":12511,"ĠÑĥ":12512,"Ġcovers":12513,"Ġbrands":12514,"Ġupcoming":12515,"æ·±æ·±":12516,"Ġrestaurants":12517,"Ġcomedy":12518,"çļĦæķħäºĭ":12519,"åħ¬æ°ĳ":12520,"Ġarmy":12521,"Ð½Ñĭ":12522,"ĠCirc":12523,"åįĹæĸ¹":12524,"ĠOs":12525,"çī©åĵģ":12526,"Ġexecut":12527,"ç©ºè°ĥ":12528,"Ġexplain":12529,"ĠÃ©":12530,"å§ļ":12531,"value":12532,"å¹²åĩĢ":12533,"åıĳçĶµ":12534,"æ·Ģ":12535,"è§Ħæł¼":12536,"Go":12537,"å¾Ĺä»¥":12538,"çħ§é¡¾":12539,"åĨħå¿ĥ":12540,"pass":12541,"ĠMassachusetts":12542,"è¹Ī":12543,"Ġèµ·":12544,"å¸¦æĿ¥çļĦ":12545,"PR":12546,"72":12547,"è§Ĥå¿µ":12548,"Ġchicken":12549,"Ġstructures":12550,"Ġapproved":12551,"ä¼¸æīĭ":12552,"çĤŃ":12553,"ĠCurrent":12554,"Ġsuppl":12555,"è¿Ļå°±":12556,"æįı":12557,"Ġseconds":12558,"é»Ħèī²":12559,"Ġaccommod":12560,"ä¸įç¦ģ":12561,"Ġprimarily":12562,"AF":12563,"è¿ĲåĬ¨åĳĺ":12564,"ä¸Ģå¸¦":12565,"è¿ĺçľŁ":12566,"è£ķ":12567,"Ġopinion":12568,"BI":12569,"Ġinvestigation":12570,"é£İæĻ¯":12571,"Ġrecognized":12572,"åįłé¢Ĩ":12573,"åĢ¡":12574,"Ġdesigns":12575,"ä¸Ĭåīį":12576,"ĠåĮĹäº¬":12577,"Ġinterpret":12578,"parent":12579,"è®¼":12580,"ĠBall":12581,"éĻĢ":12582,"arks":12583,"Ġjump":12584,"rooms":12585,"Ġkid":12586,"äºĮå¹´":12587,"æŁĲç§į":12588,"ä»¬çļĦ":12589,"èĤĮèĤī":12590,"Ġliterature":12591,"çĹħäºº":12592,"Ġdrama":12593,"æĺİæĺŁ":12594,"åľºçļĦ":12595,"åıĸæ¶Ī":12596,"ĠPersonal":12597,"js":12598,"ĠPay":12599,"çħŀ":12600,"çĻ¾åº¦åľ°åĽ¾":12601,"Ġspeech":12602,"ĠSupreme":12603,"ĠGi":12604,"Get":12605,"section":12606,"çĿĢçļĦ":12607,"çĽĳç®¡":12608,"fil":12609,"ĠExecutive":12610,"AG":12611,"Ob":12612,"åĶ±çīĩ":12613,"å¤´ä¸Ĭ":12614,"åį«æĺŁ":12615,"Ġwinner":12616,"èģĮåĬ¡":12617,"Ġmainly":12618,"Ġcircum":12619,"ĠGallery":12620,"yr":12621,"ĠRoute":12622,"ffect":12623,"Ġèµ·æĿ¥":12624,"ĠEngineering":12625,"ĠFull":12626,"è®ºåĿĽ":12627,"äº§çĶŁçļĦ":12628,"atus":12629,"Ġconven":12630,"è¤Ĳ":12631,"Ġchart":12632,"åĲĪæĪĲ":12633,"EW":12634,"istration":12635,"ä¸¤æ¬¡":12636,"Ġaffected":12637,"ilton":12638,"ä¼ĳéĹ²":12639,"åıĳèĤ²":12640,"Ġdang":12641,"Ġrot":12642,"å¼Ģå¿ĥ":12643,"Ġdecre":12644,"ĠåĩºçīĪæĹ¶éĹ´":12645,"å¹´èµ·":12646,"EG":12647,"Ġfiction":12648,"ĠCapt":12649,"å·´å£«":12650,"Ġlots":12651,"++":12652,"å¹´äºº":12653,"Ġå¼Ģå¿ĥ":12654,"Ġwatching":12655,"ĠConnect":12656,"Ġmixture":12657,"ĠEqu":12658,"Ġcrisis":12659,"ĠNon":12660,"éķľå¤´":12661,"MC":12662,"Ġaccepted":12663,"æĹ¥çļĦ":12664,"ĠPage":12665,"å½ĵéĢī":12666,"å¯¼å¸Ī":12667,"åĲĮå¿Ĺ":12668,"æµģåĬ¨":12669,"ĠAS":12670,"Ġrelatively":12671,"ä¸ľéĥ¨":12672,"Ġteachers":12673,"Ġcerem":12674,"éī´å®ļ":12675,"Ġclearly":12676,"çĽ¸åħ³çļĦ":12677,"ĠLuc":12678,"onym":12679,"ĠStephen":12680,"race":12681,"ç¿ģ":12682,"Ġtwice":12683,"adelph":12684,"Ġprofile":12685,"è¥":12686,"ĠModern":12687,"ĠEnvironment":12688,"Ġreturns":12689,"ä¹Įåħĭåħ°":12690,"Ġestimated":12691,"ĠRun":12692,"åĳ¨æľŁ":12693,"å¼ºçĥĪ":12694,"äºĨåĲĹ":12695,"ĠæľīçĤ¹":12696,"æ³ķåĪĻ":12697,"Ġtitles":12698,"Ġselling":12699,"æĭĮ":12700,"Ġpositions":12701,"èį£èİ·":12702,"Ġholding":12703,"ĠKorea":12704,"Ġproud":12705,"æķħæĦı":12706,"Ġrelax":12707,"ĠBureau":12708,"åĩºèº«":12709,"æĽ´å¥½":12710,"yo":12711,"èĥĸåŃĲ":12712,"åĲ«éĩı":12713,"éĢłåŀĭ":12714,"ĠBad":12715,"lections":12716,"Ġåĥı":12717,"Ġcontest":12718,"Ġhaven":12719,"è¢Ńåĩ»":12720,"ĠçľĭçĿĢ":12721,"æĸ½å±ķ":12722,"Ġpra":12723,"æĶ¶çĽĬ":12724,"æĥħæĦŁ":12725,"åı¯ä»¥åľ¨":12726,"åĪł":12727,"ĠHotel":12728,"Ġguest":12729,"Ġworldwide":12730,"Ġaccompl":12731,"width":12732,"ä¸Ģä¸ĭåŃĲ":12733,"ä½įçļĦ":12734,"æĢĿè·¯":12735,"åįķæĽ²":12736,"935":12737,"Ġthick":12738,"æĿĥçļĦ":12739,"ĠForest":12740,"Ġna":12741,"æŃ¦è£ħ":12742,"çī©ç§į":12743,"ushed":12744,"Ġshel":12745,"æĹłéĻĲ":12746,"Ġcorporate":12747,"Ġhighlight":12748,"trans":12749,"åĳ½åĲį":12750,"éľĩæĥĬ":12751,"çĭŃ":12752,"Ġoptim":12753,"By":12754,"æ²»çĲĨ":12755,"una":12756,"æ¾³å¤§":12757,"éĻĨåĨĽ":12758,"andemic":12759,"ologist":12760,"éĽĨæĪĲ":12761,"å¼ĢåĲ¯":12762,"çĶ¨äºĨ":12763,"Ġä¸Ģå®ļ":12764,"ĠæŃ»":12765,"ä½ĵåĪ¶":12766,"Ġalongside":12767,"Ġtells":12768,"äºĨåı£æ°Ķ":12769,"ä¿¡ä»°":12770,"Ġexercise":12771,"èĲ½åľ¨":12772,"ĠAD":12773,"ç»´çĶŁç´ł":12774,"NS":12775,"Ġfigures":12776,"åħļå§Ķ":12777,"owder":12778,"Ġreaders":12779,"ĠColorado":12780,"Ãł":12781,"è½´æī¿":12782,"ĠGolden":12783,"Ġwaiting":12784,"äººä¸º":12785,"çĽ¸ä¼¼":12786,"æ·»åĬł":12787,"æķĪåºĶ":12788,"Ġconsists":12789,"ç¬¬ä¸ĥ":12790,"law":12791,"Ġå®¶":12792,"ä¸ĢåĿĹ":12793,"ĠâĢĶâĢĶ":12794,"æµĳèº«":12795,"æĻ¯è§Ĥ":12796,"Ġfrequently":12797,"Ġdefault":12798,"ĠAnth":12799,"å®Ľ":12800,"ä½ĵéĩį":12801,"rc":12802,"è¯ĨåĪ«":12803,"Ġpoetry":12804,"æī¿åıĹ":12805,"ĠBa":12806,"style":12807,"user":12808,"ether":12809,"é²ľè¡Ģ":12810,"æľĢæĸ°":12811,"ystem":12812,"Ġgreatest":12813,"çľĭäºĨçľĭ":12814,"Ġagent":12815,"çŃīåľ°":12816,"Ġç§¦":12817,"from":12818,"äº§åĵģçļĦ":12819,"Ġauthorities":12820,"perty":12821,"Ġnewspaper":12822,"Ġwedding":12823,"ĠPhoto":12824,"Ġends":12825,"ĠArm":12826,"ä¸Ńå±±":12827,"Ġmel":12828,"lements":12829,"Ġshopping":12830,"æ½Ń":12831,"TP":12832,"adelphia":12833,"ĠMountain":12834,"Ġmusicians":12835,"ĠCost":12836,"ä¿Ŀåģ¥":12837,"éªĦ":12838,"åĲĦé¡¹":12839,"rance":12840,"Ġcooking":12841,"Ġurban":12842,"rehensive":12843,"æºľ":12844,"èģªæĺİ":12845,"ĠåĪ«äºº":12846,"Ġris":12847,"é£İæļ´":12848,"çļĦå¯¹":12849,"è®©å¥¹":12850,"Ġrailway":12851,"Ġprofessor":12852,"Ġauthority":12853,"çļĦè¦ģæ±Ĥ":12854,"æĿŃå·ŀ":12855,"åī¯ä¸»ä»»":12856,"Ġbes":12857,"Ġapparent":12858,"Ġsolo":12859,"ĠIP":12860,"è¯·æ±Ĥ":12861,"Ġknows":12862,"ĠLady":12863,"æµ·å¤ĸ":12864,"Ġswe":12865,"æ·±åĪ»":12866,"ĠFilms":12867,"è£¹":12868,"Ã¡n":12869,"Ġicon":12870,"è¾ĥä¸º":12871,"æ°ĳä¼Ĺ":12872,"918":12873,"å±ķçİ°":12874,"å§Ķæīĺ":12875,"Ġæľĭåıĭ":12876,"æĳĩäºĨ":12877,"Ġconsequ":12878,"Ġfellow":12879,"Ġwaste":12880,"é¥²":12881,"ç¡«":12882,"å¤ļä¹ħ":12883,"ĠCommunic":12884,"ĠRepresent":12885,"itutional":12886,"Ġcoun":12887,"å®¡æŁ¥":12888,"Ġgenerate":12889,"ĠAR":12890,"Ġextensive":12891,"ĠGuide":12892,"å·²ç»ıè¢«":12893,"ĠDisney":12894,"ä¿¡ä»»":12895,"æĺ¯ä»ĸ":12896,"Ġexcited":12897,"Mod":12898,"oli":12899,"ç§¯ç´¯":12900,"æľªèĥ½":12901,"Ġpor":12902,"Ġinitially":12903,"Ġspending":12904,"ĠSeason":12905,"åĮĪ":12906,"èĬ½":12907,"å¸Ĥéķ¿":12908,"æķ°åįģ":12909,"Ġminimum":12910,"Ġsuggests":12911,"Ġencourage":12912,"Ġåľ°çĲĨ":12913,"Ġadvertising":12914,"Ġregistered":12915,"åįĹåĮĹ":12916,"é©¬æĿ¥":12917,"lyn":12918,"param":12919,"Ġtables":12920,"äººå¤§":12921,"åľ°çĤ¹":12922,"å°Ĭéĩį":12923,"pton":12924,"åĬ¨äºĨ":12925,"Ġfailure":12926,"Ġuns":12927,"ĠPortug":12928,"è¿Ļä»¶äºĭ":12929,"æĪĳåľ¨":12930,"éĹ»è¨Ģ":12931,"Ġemergency":12932,"-{":12933,"çļĦæķ°æį®":12934,"ho":12935,"Ġdatabase":12936,"åľ¨åľ°ä¸Ĭ":12937,"Ġwealth":12938,"âĨĴ":12939,"çļĦåŃĺåľ¨":12940,"Ġchosen":12941,"aska":12942,"Ġè½¦":12943,"Ġstret":12944,"Ġpolitician":12945,"çī²":12946,"ç¾¡æħķ":12947,"ä½ľçī©":12948,"ĠTelevision":12949,"ĠAlexander":12950,"Ġå¥½å¥½":12951,"urd":12952,"Ġæĭ¿":12953,"æĿĢæŃ»":12954,"osophy":12955,"ä¸ĵä¸ļçļĦ":12956,"Ġpurposes":12957,"é£ŁçĶ¨":12958,"ĠConc":12959,"EX":12960,"ĠPot":12961,"Ġresponsibility":12962,"ä¸įæĩĤ":12963,"Ġmm":12964,"Ġairport":12965,"èī¯å¥½":12966,"ĠGro":12967,"æĪ¿åŃĲ":12968,"ç¢±":12969,"æĶ¶å½ķ":12970,"ç»ıæµİåŃ¦":12971,"Ġholiday":12972,"ä»»åĳ½":12973,"ĠCa":12974,"ĠLind":12975,"Ġperformances":12976,"èĬ¦":12977,"Ġarr":12978,"Ġships":12979,"æ¤İ":12980,"è´¢å¯Į":12981,"åĽĽå¹´":12982,"Ã¼r":12983,"Ġacquired":12984,"ĠMult":12985,"Ġenjoyed":12986,"éĥĬ":12987,"itled":12988,"Ġtopic":12989,"Ġç¥ŀ":12990,"933":12991,"uable":12992,"ä¸Ļ":12993,"è¿Ļåľº":12994,"Ð¾Ð³Ð¾":12995,"Ġseasons":12996,"long":12997,"Ġwelcome":12998,"tes":12999,"ĠAND":13000,"éĻĮ":13001,"æŀģåħ¶":13002,"å¾®ç¬ĳ":13003,"Ġupgr":13004,"Ġvisiting":13005,"çļĦç¾İ":13006,"ĠSat":13007,"pload":13008,"Ġhelpful":13009,"osa":13010,"Ġmort":13011,"owa":13012,"Ġsuggested":13013,"èĤª":13014,"onsin":13015,"çļĦä¸Ģéĥ¨åĪĨ":13016,"åĵĪåĵĪåĵĪåĵĪ":13017,"Ġracial":13018,"apping":13019,"ä¸ºæŃ¢":13020,"ç¦»å¼ĢäºĨ":13021,"åĪĽåĬŀ":13022,"æ³¢åĬ¨":13023,"Ġtopics":13024,"Ġfaculty":13025,"produ":13026,"Phone":13027,"ĠSydney":13028,"å¾ĹçŁ¥":13029,"Ġaudio":13030,"Ġç¬¬ä¹Ŀ":13031,"ĠIslands":13032,"uster":13033,"çŁ®":13034,"Ġpainting":13035,"Ġbond":13036,"isconsin":13037,"ĠLow":13038,"ennes":13039,"ĠÐĴ":13040,"Ġton":13041,"elines":13042,"çľĭå¾Ĺ":13043,"åľ¨ç¾İåĽ½":13044,"ä½ķåĨµ":13045,"Ġprovince":13046,"Ġmakeup":13047,"Ġacid":13048,"çļĦè¯´éģĵ":13049,"çĿ¿":13050,"osit":13051,"å¤ªè¿ĩ":13052,"ç¼ĸåĨĻ":13053,"ç¼ĸåı·":13054,"Ġframe":13055,"Value":13056,"ĠGuard":13057,"merce":13058,"æģĲæĥ§":13059,"å¿ĥèĦı":13060,"è±¡å¾ģ":13061,"Ð»Ð¸":13062,"Ġpanel":13063,"ĠCertain":13064,"ĠBru":13065,"åħ¬äº¤":13066,"æĳĬ":13067,"Ġcharges":13068,"çº±":13069,"apore":13070,"teen":13071,"Ġgod":13072,"Ġhearing":13073,"Ġinvolve":13074,"Ġphr":13075,"Ġsoul":13076,"Ġfavour":13077,"Ġmode":13078,"uma":13079,"æĻĴ":13080,"æ°¢":13081,"æĺ¯å¯¹":13082,"å½¼æŃ¤":13083,"åºĶå¯¹":13084,"Ġshares":13085,"ami":13086,"Ġatmosp":13087,"Ġcontrovers":13088,"Ġlatter":13089,"Ġretire":13090,"åĸī":13091,"ĠEnt":13092,"èĦĤèĤª":13093,"å¾·éĩĮ":13094,"æĺ¯ä¸ºäºĨ":13095,"Ġalign":13096,"å»ºç«ĭäºĨ":13097,"ĠShort":13098,"ĠNick":13099,"éķ¿æĹ¶éĹ´":13100,"åĿİ":13101,"63":13102,"ogue":13103,"ç¬ĳäºĨç¬ĳ":13104,"Ġç®Ģ":13105,"åĽŀå½Ĵ":13106,"Ġbrows":13107,"Ġhun":13108,"pa":13109,"å¤§èĩ£":13110,"Ġrooms":13111,"Ġsilver":13112,"Ġä¸ĩ":13113,"è´µæĹı":13114,"ĠAst":13115,"Ġswim":13116,"Ġcauses":13117,"è©":13118,"********":13119,"å¹¿è¥¿":13120,"Ġsac":13121,"Ġ42":13122,"Ġäººåı£":13123,"æĸ¯ç§ĳ":13124,"Ġç¬¬äºĮç«ł":13125,"Ġdetermined":13126,"Ġarchitecture":13127,"çľ¯":13128,"ĠRoll":13129,"å°¬":13130,"æĬĦ":13131,"çŁ³å¤´":13132,"Ġæĺİå¤©":13133,"Ġregions":13134,"Ġstudied":13135,"æľ¬äºº":13136,"ĠPakistan":13137,"åĴ½":13138,"Ġandroid":13139,"ĠYe":13140,"çĸ¼çĹĽ":13141,"Ġexciting":13142,"åľ¨æĪĳ":13143,"ĠæĹ¶":13144,"Ġresulting":13145,"Ġæĺ¾":13146,"verty":13147,"åħ¨éĥ½":13148,"åİŁæĸĻ":13149,"Ġhappens":13150,"æľĢä½İ":13151,"éĿ¢èī²":13152,"å»ºäºİ":13153,"å½ĵæĹ¶çļĦ":13154,"ĠVen":13155,"Ġincident":13156,"ĠNorm":13157,"Ġkick":13158,"å´ĸ":13159,"ä»İæŃ¤":13160,"Ġcarbon":13161,"èĦļæŃ¥":13162,"gely":13163,"aya":13164,"Ġepisodes":13165,"ĠFord":13166,"æĦģ":13167,"Ġgather":13168,"èĶ¬èıľ":13169,"iversary":13170,"Ġwitness":13171,"ante":13172,"Ġdiscussion":13173,"ĠAssembly":13174,"çļĦä¸¤":13175,"ä¸Ģåı¥":13176,"åĬłå¿«":13177,"iÃ³n":13178,"Ġultimately":13179,"bell":13180,"Ġplatforms":13181,"ĠIra":13182,"åĲĥé¥Ń":13183,"ĠMedicine":13184,"å»¶ä¼¸":13185,"page":13186,"Ġaid":13187,"iamond":13188,"Ġportion":13189,"sole":13190,"Ġcontrast":13191,"vi":13192,"çĶ«":13193,"èľĢ":13194,"è°Ń":13195,"ĠDavis":13196,"Ġjustice":13197,"åĪĨç¦»":13198,"\").":13199,"taining":13200,"é¡¾å®¢":13201,"çļĦå°±æĺ¯":13202,"å½°":13203,"åİļçļĦ":13204,"æĳĦåĥı":13205,"Ġè¶ħ":13206,"https":13207,"è¯īè®¼":13208,"ĠNic":13209,"æĿī":13210,"èķ¾":13211,"Ġacting":13212,"Ġrenew":13213,"ĠKnow":13214,"è¥¿å®ī":13215,"Ġfreedom":13216,"thur":13217,"Ġaccounts":13218,"Ġminister":13219,"Ġnor":13220,"èĢĥæł¸":13221,"ĠNa":13222,"inton":13223,"è§Ĩè§ī":13224,"Ġ75":13225,"äºĶåįģ":13226,"çİ¯èĬĤ":13227,"pat":13228,"elle":13229,"Ġjudge":13230,"Ġpoverty":13231,"åı«åģļ":13232,"åĽ½åĨħå¤ĸ":13233,"ä¹¡æĿĳ":13234,"ĠAgain":13235,"ä¸Ľä¹¦":13236,"Ġguests":13237,"Ġä¸ĢçĤ¹":13238,"ĠSn":13239,"æĽ¾åľ¨":13240,"åĩĿèģļ":13241,"ĠWilson":13242,"Ġinstalled":13243,"uls":13244,"æ¾³å¤§åĪ©äºļ":13245,"è¡ĮäºĨ":13246,"æĺİæľĿ":13247,"è©¹":13248,"ĠTal":13249,"Ġintern":13250,"ä¸Ģçº§":13251,"è¿Ĳä½ľ":13252,"Ġè¿Ļæĺ¯":13253,"åĲİèĢħ":13254,"åĸĥ":13255,"è¿Ļä¹Īå¤ļ":13256,"pha":13257,"Ġbranch":13258,"æĻ®æŁ¥":13259,"Ġinfrastructure":13260,"ĠCam":13261,"èĬĤå¥ı":13262,"æīĢè°ĵçļĦ":13263,"æĬĳåĪ¶":13264,"ç³Ł":13265,"ĠHighway":13266,"ĠMach":13267,"Ġminute":13268,"Ġcandidates":13269,"å¸¸çĶ¨":13270,"äº¤ç»Ļ":13271,"Ġbringing":13272,"ĠPhiladelphia":13273,"ĠPerform":13274,"èıĬ":13275,"æ¬£èµı":13276,"ĠClark":13277,"uis":13278,"åĴĮä»ĸ":13279,"å·¥äºº":13280,"Å¡":13281,"èµ¢å¾Ĺ":13282,"Ġcriminal":13283,"Ġdescribe":13284,"Ġnom":13285,"è¿Ľåı£":13286,"è®¤åı¯":13287,"äºĶä¸ª":13288,"Ġaspects":13289,"Ġprocessing":13290,"['":13291,"ç®¡è¾ĸ":13292,"èĪĴæľį":13293,"Ġvirtual":13294,"934":13295,"Ġhorse":13296,"Ġä¸ªäºº":13297,"Ġprogramme":13298,"åħļçļĦ":13299,"è½¬åıĺ":13300,"Ġrough":13301,"çİ°ä»»":13302,"æĶ¶åĪ°":13303,"åīįæĿ¥":13304,"Ġwire":13305,"ĠCreat":13306,"AB":13307,"pet":13308,"ĠPict":13309,"è®²è¿°":13310,"ĠEth":13311,"ls":13312,"Ġarms":13313,"Ġliqu":13314,"ĠåĽ½":13315,"æĦ§":13316,"alo":13317,"æ¯«ä¸į":13318,"Ġdegrees":13319,"Ġentertainment":13320,"çĹ´":13321,"Ġheav":13322,"ĠBang":13323,"iki":13324,"ĠCab":13325,"èĮħ":13326,"Ġwouldn":13327,"èĲ½å®ŀ":13328,"ä½ľåĩº":13329,"è¾Ĳå°Ħ":13330,"othes":13331,"Ġelectronic":13332,"æĺ¯ä»İ":13333,"éĴĻ":13334,"è®¸åı¯":13335,"Ġau":13336,"æ¯Ķäºļ":13337,"è¾¾åĪ°äºĨ":13338,"èĪ±":13339,"ä»ªå¼ı":13340,"è¯Ńæ°Ķ":13341,"ç»ĳ":13342,"ĠOlympics":13343,"Ð²Ð°":13344,"å±¯":13345,"bb":13346,"ä¸įéľĢè¦ģ":13347,"Tube":13348,"ĠSky":13349,"ç¦»åŃĲ":13350,"åĪ©çļĦ":13351,"éĩįå»º":13352,"Ġelev":13353,"åıĪç§°":13354,"é¦ĸéĥ½":13355,"Ġguess":13356,"æıĲç¤º":13357,"ĠMilitary":13358,"Ġprofessionals":13359,"ĠCustom":13360,"Ġalt":13361,"çº§åĪ«":13362,"èªĵ":13363,"åįİå¤ı":13364,"umes":13365,"prene":13366,"opher":13367,"å°±è¯»":13368,"929":13369,"é³ŀ":13370,"Ġmaintenance":13371,"å¤§å¤§":13372,"otal":13373,"Ġinstructions":13374,"ä¹Łä¸įèĥ½":13375,"Ġsan":13376,"æľ¬è´¨":13377,"hetic":13378,"ç¥ŀèī²":13379,"Ġspr":13380,"oses":13381,"Ġmeat":13382,"ä¼łå¥ĩ":13383,"ĠIndepend":13384,"å¥¸":13385,"CE":13386,"EST":13387,"çľĭåĩº":13388,"è¾ĪåŃĲ":13389,"ä¹Łéĥ½":13390,"Ġæĭī":13391,"iral":13392,"ĠBol":13393,"åĪ°è¿ĻéĩĮ":13394,"().":13395,"Ġcro":13396,"oz":13397,"æĸ°åĬłåĿ¡":13398,"endar":13399,"åħ³èĬĤ":13400,"å¸ĪåĤħ":13401,"åģļä»Ģä¹Ī":13402,"Ġtowns":13403,"Ġshift":13404,"åĩºæĿ¥äºĨ":13405,"Ġwalking":13406,"ĠWisconsin":13407,"owntown":13408,"å¤§æ¥¼":13409,"Ġçģ«":13410,"åĵªä¸ª":13411,"Ġletters":13412,"åĨĽåĽ¢":13413,"åĿĿ":13414,"Ġpp":13415,"Ġdiverse":13416,"æŃ¤åĲİ":13417,"å·¥ç¨ĭå¸Ī":13418,"ouri":13419,"ĠåŁºæľ¬":13420,"åĮª":13421,"aints":13422,"Ġbaseball":13423,"æŃ¤äºĭ":13424,"ĠDVD":13425,"olec":13426,"Ġattacks":13427,"ogen":13428,"Ġroof":13429,"essage":13430,"Ġterror":13431,"reprene":13432,"ç§įç±»":13433,"Ġsympt":13434,"æ²¡æľīä»Ģä¹Ī":13435,"çĲĥåľº":13436,"Ġphotograph":13437,"ĠEntertain":13438,"éĢĤå½ĵ":13439,"inch":13440,"ä»ĸè¿ĺ":13441,"bourne":13442,"æĹ¥è¯Ń":13443,"ä¸»å¼ł":13444,"Ġassert":13445,"èº«å½±":13446,"Ġdelivered":13447,"Ġ400":13448,"éĩįå¤į":13449,"Ġseats":13450,"ĠAnton":13451,"There":13452,"ä¸įæ»¡":13453,"Ġplastic":13454,"åĸĺ":13455,"çĻ¾åĪĨ":13456,"ocument":13457,"Ġplenty":13458,"ãĦ":13459,"inding":13460,"ez":13461,"å©ļå§»":13462,"Ġmit":13463,"æ¨±":13464,"åĩºäºĨä¸Ģ":13465,"èĩªä¿¡":13466,"å¥¥æĸ¯":13467,"ä¼ļè¢«":13468,"Ġthoughts":13469,"çĲ¼":13470,"ĠHou":13471,"ä¸ĢåĲĮ":13472,"å¤ıå¤©":13473,"ĠMemorial":13474,"Ġsummar":13475,"nie":13476,"é¢Ħç®Ĺ":13477,"ĠRome":13478,"found":13479,"ĠCode":13480,"Text":13481,"61":13482,"æĪıåī§":13483,"çļĦåħī":13484,"Ġexec":13485,"ä¸Ģçķª":13486,"åĿł":13487,"æ²¡æľīäºº":13488,"ĠEric":13489,"ĠInstead":13490,"Exception":13491,"èģļéĽĨ":13492,"lers":13493,"çļĩåĲİ":13494,"é¢ĨåħĪ":13495,"Ġcomponents":13496,"Ġtaught":13497,"åĮºä¸º":13498,"çĽ¸å½ĵäºİ":13499,"Ġtail":13500,"è¿Ļä¸¤ä¸ª":13501,"Ġlose":13502,"æ¬§éĺ³":13503,"irty":13504,"ni":13505,"Ġimproved":13506,"ĠLiter":13507,"inations":13508,"å¸ĥå±Ģ":13509,"åĮĻ":13510,"éĻ·åħ¥":13511,"åħ¶ä»ĸäºº":13512,"Ġdomestic":13513,"éĿŀæ´²":13514,"Ġyounger":13515,"Ġnarr":13516,"Ġlargely":13517,"ĠCopy":13518,"level":13519,"Ġconfirmed":13520,"çļĦä¸ĸçķĮ":13521,"å¸ĥç½®":13522,"å¯¹æĬĹ":13523,"æ°Ķè±¡":13524,"Ġmut":13525,"adow":13526,"Ġsplit":13527,"å¸®å¿Ļ":13528,"eries":13529,"ĠWars":13530,"ĠFriend":13531,"çıĬ":13532,"ilit":13533,"ç¦Ħ":13534,"ĠThough":13535,"Ġloan":13536,"Ġride":13537,"case":13538,"åģļæ³ķ":13539,"932":13540,"Ġfactor":13541,"çļĦç®¡çĲĨ":13542,"å°ļæľª":13543,"åĺ´è§Ĵ":13544,"Ġgoods":13545,"èĭĳ":13546,"Ġmotiv":13547,"åįģç«ł":13548,"025":13549,"thon":13550,"asts":13551,"ä»ĳ":13552,"å±ķè§Ī":13553,"åĿ¦åħĭ":13554,"åº¸":13555,"cohol":13556,"ä»£çłģ":13557,"Ġentirely":13558,"Ġbread":13559,"Ġresource":13560,"Ġkill":13561,"Ġrul":13562,"åĶī":13563,"ç¬Ķè®°":13564,"izer":13565,"resents":13566,"çļĦèº«ä½ĵ":13567,"Ġcommittee":13568,"931":13569,"Ġrecommendations":13570,"Ġçľĭçľĭ":13571,"ĠObama":13572,"Ġcoal":13573,"æĺ¯ä½įäºİ":13574,"Ġtechnologies":13575,"å½±è§Ĩ":13576,"åľ°éľĩ":13577,"Ġdefend":13578,"Ġstanding":13579,"run":13580,"Ġplot":13581,"greg":13582,"å¹¿ä¸ľçľģ":13583,"But":13584,"star":13585,"èĢĮæĪĲ":13586,"çŃīåĪ°":13587,"Ġhref":13588,"çľ¼éĩĮ":13589,"èĮĥåĽ´åĨħ":13590,"919":13591,"çļĦç»ĵæŀľ":13592,"ĠSoft":13593,"Ġdecide":13594,"sl":13595,"å°´":13596,"ĠBerlin":13597,"Ġlies":13598,"CR":13599,"åĲ»":13600,"åĬĪ":13601,"Ġstorm":13602,"ĠViet":13603,"ĠæĻļä¸Ĭ":13604,"äºīåıĸ":13605,"æľīå¾Īå¤ļ":13606,"person":13607,"Ġpublication":13608,"å±±çļĦ":13609,"ando":13610,"ä¸ĢåĬ¨":13611,"Ġpartnership":13612,"ĠAccess":13613,"itzer":13614,"ĠBrian":13615,"ĠMarsh":13616,"æĹłçĸĳ":13617,"Ġç¬¬ä¸īç«ł":13618,"Par":13619,"icial":13620,"æĺ¯æľĢ":13621,"ĠDonald":13622,"Ġä¹Ŀ":13623,"æľĢåĲİä¸Ģ":13624,"Ġrevenue":13625,"çģµæ´»":13626,"Ġveter":13627,"ä¸įå·²":13628,"ĠæĿ¡":13629,"Ġtests":13630,"ĠAk":13631,"cha":13632,"å°´å°¬":13633,"çĽĳæİ§":13634,"aron":13635,"çģ¿":13636,"Ġ});":13637,"Ġpossibly":13638,"Ġstands":13639,"how":13640,"éļ¾åº¦":13641,"!!!":13642,"928":13643,"Ġconflict":13644,"isa":13645,"%.":13646,"èĵĿèī²":13647,"Ġmanner":13648,"Ġcommitment":13649,"ä¸įå¤§":13650,"Ġè½¬":13651,"å®ļæľŁ":13652,"ĠUsing":13653,"åīįè¾Ī":13654,"ä¼łè¾ĵ":13655,"Ġfabric":13656,"å¤§åŃ¦çĶŁ":13657,"Ð¸ÑĤ":13658,"Ġwilling":13659,"åĨįåĬłä¸Ĭ":13660,"æĿ¥æºĲäºİ":13661,"uters":13662,"æ°´çļĦ":13663,"åħ¥ä¾µ":13664,"å½¢å®¹":13665,"Class":13666,"Ġunknown":13667,"å¹´å¼Ģå§ĭ":13668,"ä¸Ģä½ĵ":13669,"æµªè´¹":13670,"åĽĽå¤§":13671,"Ġinstruction":13672,"ĠKir":13673,"Ġforget":13674,"Ġenhance":13675,"Ed":13676,"æĿĢäºº":13677,"Ġpersonnel":13678,"gian":13679,"iti":13680,"ĠFac":13681,"åĨįè¯´":13682,"ĠCub":13683,"èĵ¬":13684,"Ġfeels":13685,"è¯Ĺäºº":13686,"Ġè°¢è°¢":13687,"Ġiron":13688,"Ġbon":13689,"BM":13690,"ĠSant":13691,"è®¤å®ļ":13692,"å¼Łå¼Ł":13693,"åħĥå¹´":13694,"Ġnone":13695,"ĠGeography":13696,"æĦŁåºĶ":13697,"Ġseeking":13698,"Ġmanufacturing":13699,"Ġretired":13700,"ĠWat":13701,"Ġsimpl":13702,"åĪĽç«ĭ":13703,"nce":13704,"Ġtradition":13705,"éĽĩ":13706,"heim":13707,"å°ĨæĿ¥":13708,"åľŁå£¤":13709,"Ġdates":13710,"ĠDuke":13711,"ĠéĢģ":13712,"åĮĹäº¬å¸Ĥ":13713,"ĠPrize":13714,"ä»Ģä¹ĪæĹ¶åĢĻ":13715,"æĳĩäºĨæĳĩå¤´":13716,"aduate":13717,"Ġflood":13718,"ĠAlbum":13719,"èĹ©":13720,"Ġregularly":13721,"ĠQuest":13722,"Ġcaught":13723,"Ġpepper":13724,"åıįå¤į":13725,"Er":13726,"Ġunion":13727,"æ¦ĤåĨµ":13728,"åĪĨè¾¨":13729,"çļĦæµ·":13730,"ocated":13731,"Ġconclud":13732,"Ġpublis":13733,"ĠLabor":13734,"ĠBib":13735,"å¹³éĿ¢":13736,"æĥ³èµ·":13737,"Time":13738,"count":13739,"æĮª":13740,"ployment":13741,"æ°ĶåĬ¿":13742,"pson":13743,"åįłæį®":13744,"ricts":13745,"ĠStock":13746,"ä¸įèī¯":13747,"zona":13748,"æŀĦå»º":13749,"Ġdecade":13750,"110":13751,"Ġposts":13752,"åĽ´ç»ķ":13753,"alities":13754,"ĠÑĤ":13755,"çŃīçĿĢ":13756,"ĠCru":13757,"åŀĴ":13758,"æĬµæĬĹ":13759,"Ġadults":13760,"å¼ķæĵİ":13761,"åĪ©æ¶¦":13762,"iveness":13763,"927":13764,"åı¯éĿł":13765,"æľĪçļĦ":13766,"omet":13767,"ĠSingapore":13768,"ĠThose":13769,"Ġorganized":13770,"åªļ":13771,"æĹĭè½¬":13772,"ĠPers":13773,"Ġresearchers":13774,"ĠSav":13775,"éĿ¢åĲĳ":13776,"Ġfly":13777,"çĽ´èĩ³":13778,"èĪŀè¹Ī":13779,"atoes":13780,"ĠBrad":13781,"ĠåĬłæ²¹":13782,"èħ»":13783,"Ġfighting":13784,"Ġåľ°æĸ¹":13785,"Ġgender":13786,"ĠDam":13787,"åĩºçĶŁäºİ":13788,"Ġeffectively":13789,"Ġdepth":13790,"Ġmatches":13791,"åĽ½éĺ²":13792,"Ġunable":13793,"åį±å®³":13794,"ĠBuilding":13795,"Ġ39":13796,"racy":13797,"å¨ģå»ī":13798,"een":13799,"vo":13800,"Ġpoems":13801,"åĽŀå¿Ĩ":13802,"ĠJenn":13803,"å¤įåĲĪ":13804,"Ġinn":13805,"è¾¹çļĦ":13806,"ossible":13807,"secut":13808,"âĶĢ":13809,"Ġmir":13810,"æ¶ĪåĮĸ":13811,"BO":13812,"cers":13813,"ä¸»ä½ĵ":13814,"å·®è·Ŀ":13815,"Ġplanet":13816,"anth":13817,"å¤§å£°":13818,"èĢĥå¯Ł":13819,"ä¸Ģå®ļä¼ļ":13820,"é«ĺæķĪ":13821,"çİīç±³":13822,"ĠDream":13823,"ä»Ĩ":13824,"urers":13825,"Ġsuccessfully":13826,"bra":13827,"Ġpandemic":13828,"ç±»åĪ«":13829,"ifer":13830,"Ġcollaboration":13831,"æĺ¯æĢİä¹Ī":13832,"Ġphase":13833,"Ġmenu":13834,"ĠKer":13835,"oup":13836,"SM":13837,"é©³":13838,"åĸ»":13839,"Ġpu":13840,"ifts":13841,"Ġsynt":13842,"Ġreceiving":13843,"åľ¨éĤ£":13844,"åıĳèµ·":13845,"ç£·":13846,"çĶ©":13847,"orters":13848,"èĢį":13849,"Ġsuitable":13850,"ç²¤":13851,"Ġfounder":13852,"Ġessay":13853,"lication":13854,"æĶ¶è´Ń":13855,"ito":13856,"åıĳåĬ¨æľº":13857,"Ġrecon":13858,"ĠEntertainment":13859,"Ġcoordin":13860,"èĨĿ":13861,"iary":13862,"åıĳæĺİ":13863,"ĠStaff":13864,"æīĭä¸ĭ":13865,"Â»":13866,"ĠProduct":13867,"Ġperforming":13868,"é¤Ĳåİħ":13869,"ĠDa":13870,"èĩªæ²»åĮº":13871,"å¼ĤçļĦ":13872,"ori":13873,"Ġscheduled":13874,"éĢĤéĩı":13875,"é¢ł":13876,"Ġseemed":13877,"åīįæĸ¹":13878,"æĮĩæķ°":13879,"å¸ĸ":13880,"ÐºÐ¸":13881,"çĶŁæŃ»":13882,"å®ĹæĹ¨":13883,"Ġoutdoor":13884,"çļĦæĬĢæľ¯":13885,"è´Ńçī©":13886,"Ġlux":13887,"å£¶":13888,"å¿«çļĦ":13889,"Ġorders":13890,"Ġasking":13891,"çĶ¸":13892,"éĺ´éĺ³":13893,"èĤĨ":13894,"ç§»æ°ĳ":13895,"Ġwhatever":13896,"è±¹":13897,"Ġhall":13898,"ĠMean":13899,"Ġç¤¾":13900,"èĢģå¤§":13901,"ĠTok":13902,"ä½Ĩåį´":13903,"æļ®":13904,"Ġfamiliar":13905,"èį¯åĵģ":13906,"å°Ĩä»ĸ":13907,"ĠæŃ¤æĹ¶":13908,"æĢªçī©":13909,"çļĦäººçī©":13910,"çļĦç²¾":13911,"æµģéĩı":13912,"çĨ¬":13913,"éĶ¦æłĩ":13914,"Ġsolar":13915,"appy":13916,"ĠHD":13917,"é¦¨":13918,"Ġfixed":13919,"ĠKeep":13920,"ĠFle":13921,"åıĤèµĽ":13922,"ĠçĽ¸":13923,"Ġæ¥ļ":13924,"çļĦåĲį":13925,"èİ·åıĸ":13926,"æĿ¡ä¾ĭ":13927,"Ġsigns":13928,"Ġnuclear":13929,"åħ¸åŀĭ":13930,"å±ĳ":13931,"ĠHarry":13932,"æ··ä¹±":13933,"åĽ½æ°ĳåħļ":13934,"sex":13935,"Ġå¥½åĲĥ":13936,"ĠUt":13937,"Ġrepresents":13938,"Ġå¤§å®¶":13939,"ĠIl":13940,"æ£į":13941,"æĥŁ":13942,"çĭĦ":13943,"Ġagencies":13944,"ĠæľĢè¿ĳ":13945,"å¯¹åºĶ":13946,"ĠBat":13947,"æĪĲåĬŁçļĦ":13948,"ECT":13949,"enz":13950,"Ġcharged":13951,"åįĥå¹´":13952,"æĦŁè°¢":13953,"Ø§":13954,"çľģä»½":13955,"æĢ»æĶ¶åħ¥çļĦ":13956,"Ġexpensive":13957,"å¹¼åĦ¿åĽŃ":13958,"ĠHollywood":13959,"Ġyellow":13960,"çºº":13961,"çĲª":13962,"çĽĳæµĭ":13963,"ĠSound":13964,"Ġfee":13965,"å¡Į":13966,"Ġcouples":13967,"æĬ¬å¤´":13968,"å¸ĤæĶ¿åºľ":13969,"ĠNiger":13970,"917":13971,"Ġsculpt":13972,"ĠHay":13973,"Ġ$\\":13974,"Ġoccurred":13975,"fol":13976,"ä¸Ĭæľī":13977,"Ġsignificantly":13978,"oln":13979,"tw":13980,"olve":13981,"iot":13982,"åĩ¤åĩ°":13983,"æ³ķè¯Ń":13984,"åıĳè¾¾":13985,"Ð¾Ñģ":13986,"æĶ¯æı´":13987,"Ġeastern":13988,"Ġhosted":13989,"ĠIraq":13990,"å®ŀä¾ĭ":13991,"å°Ķå¾·":13992,"æĭīåħĭ":13993,"ĠAge":13994,"Ġ150":13995,"Ġåħĥ":13996,"æĢ»ä½ĵ":13997,"ardens":13998,"oga":13999,"Ġcolour":14000,"Ġsearching":14001,"çİĭçļĦ":14002,"910":14003,"ĠåĵªéĩĮ":14004,"Ġrecover":14005,"isher":14006,"éĢĶå¾Ħ":14007,"åħ³éĹŃ":14008,"iy":14009,"ĠBudd":14010,"æĶ¹ç¼ĸ":14011,"å¯¹æ¯Ķ":14012,"vy":14013,"åĨĴéĻ©":14014,"ropolitan":14015,"Ġproperly":14016,"èº«é«ĺ":14017,"æĪĳè§īå¾Ĺ":14018,"æĬµè¾¾":14019,"ç¡¬çĽĺ":14020,"ected":14021,"æ¸łéģĵ":14022,"track":14023,"ĠBox":14024,"Ġåı¤":14025,"æķĻåłĤ":14026,"æĿĥå¨ģ":14027,"ĠSP":14028,"ĠHope":14029,"ĠFact":14030,"Ġexpansion":14031,"Ġturns":14032,"ĠHeart":14033,"è¿ĻæĹ¶åĢĻ":14034,"äºĨä¸Ģåı¥":14035,"QL":14036,"Ġsupposed":14037,"ç¾İå¥³":14038,"ĠCambridge":14039,"Ġunless":14040,"Ġauthors":14041,"äºĴåĬ¨":14042,"æĶ¶èİ·":14043,"Ġparticipate":14044,"èĢĮåĲİ":14045,"ç¨įå¾®":14046,"çĥŃæĥħ":14047,"èĢģå¤´":14048,"ML":14049,"Ġconfirm":14050,"Ġtournament":14051,"ĠKansas":14052,"ç¾¤ä½ĵ":14053,"Ġlit":14054,"çĪ·çĪ·":14055,"ĠåĽŀå®¶":14056,"åŀ«":14057,"iform":14058,"å¸ĤåĮº":14059,"ä¸įåİ»":14060,"Ġevalu":14061,"çĦĬ":14062,"åĲĪæ³ķ":14063,"è´Łè´£äºº":14064,"çĶ¨éĢĶ":14065,"Ġä»¥åĲİ":14066,"Ġalleged":14067,"fall":14068,"æī¿è¯º":14069,"è¾Ľèĭ¦":14070,"Ġvo":14071,"Ġtransition":14072,"Ġpure":14073,"Ġpredict":14074,"æĹ¬":14075,"Ġofficially":14076,"çļĦæĪĺ":14077,"Ġhumans":14078,"Ġmanufacturer":14079,"Ġped":14080,"æĬĬä»ĸ":14081,"));":14082,"Ġpoly":14083,"ĠDark":14084,"å¸¦æľī":14085,"Ġordered":14086,"Ġ01":14087,"è®©æĪĳä»¬":14088,"tle":14089,"è®¾å®ļ":14090,"ragon":14091,"åįģä¸Ģç«ł":14092,"74":14093,"åĴĮç¤¾ä¼ļ":14094,"åİ¢":14095,"eper":14096,"Ġperspective":14097,"umer":14098,"Ġputting":14099,"Ġriv":14100,"åī¥":14101,"æĶ¹è¿Ľ":14102,"Ġbroken":14103,"link":14104,"æ¸´":14105,"è¸©":14106,"CS":14107,"Ġassistant":14108,"ĠèĢĥ":14109,"ĠPa":14110,"ride":14111,"pir":14112,"Ġgro":14113,"å¤§ä¼Ĺ":14114,"å¥½å¤Ħ":14115,"äººåĬĽ":14116,"oven":14117,"éĶ¤":14118,"Ġmotion":14119,"èĮİ":14120,"oly":14121,"ä¹ĲéĺŁ":14122,"ĠåĨĻ":14123,"ĠTreat":14124,"With":14125,"Ġä¸ĢèĪ¬":14126,"ĠKat":14127,"æŃ¤æ¬¡":14128,"peror":14129,"çĪ¸çĪ¸":14130,"Ġherself":14131,"lay":14132,"Ġlicense":14133,"å®ªæ³ķ":14134,"ä¸¤å¹´":14135,"ĠTro":14136,"åľ¨ä»ĸçļĦ":14137,"å®¢æ°Ķ":14138,"æıĲåĩºäºĨ":14139,"Ġhundreds":14140,"æ³ķå¸Ī":14141,"ordan":14142,"Ġpreferences":14143,"Ġ55":14144,"åīįåĲİ":14145,"éĴ¦":14146,"åŃ¦åĳĺ":14147,"mo":14148,"Ġmassive":14149,"ĠStone":14150,"color":14151,"Ġexpression":14152,"914":14153,"âĪ":14154,"æĮĩåįĹ":14155,"Ġä¸įéĶĻ":14156,"Ġspaces":14157,"éģĹåĿĢ":14158,"ĠSem":14159,"Ġcircumst":14160,"çļĦå¤ļ":14161,"å¸¸å¸¸":14162,"æ²¸":14163,"Ġobtained":14164,"æľīä¸Ģç§į":14165,"ä¸¤ä¸ªäºº":14166,"ĠRE":14167,"ç§ĳåŃ¦éĻ¢":14168,"Ġnotable":14169,"Ġboat":14170,"å±±åĮº":14171,"Ġattra":14172,"å¼ķè¿Ľ":14173,"Ġachieved":14174,"regon":14175,"Ġhyp":14176,"ĠContact":14177,"çĶµåİĭ":14178,"å®ĮäºĨ":14179,"Ġpassing":14180,"æĪĳåĴĮ":14181,"æĲħ":14182,"ĠCareer":14183,"å·²æľī":14184,"Ġnewly":14185,"Ġadopted":14186,"çĥģ":14187,"Ġsole":14188,"æº¢":14189,"Ġçľ¼":14190,"æĢ»çĲĨ":14191,"Ġobtain":14192,"çļĦäº§åĵģ":14193,"ç¨İæĶ¶":14194,",),":14195,"å®Ŀè´Ŀ":14196,"rat":14197,"è¿Ľå£«":14198,"ä»ĸäºº":14199,"iest":14200,"pool":14201,"ĠHo":14202,"å§¨":14203,"Ġclosely":14204,"ĠAdam":14205,"å¤±åİ»äºĨ":14206,"Ġrub":14207,"ĠÐ°":14208,"Ġvisited":14209,"ä½łè¿Ļ":14210,"çĶº":14211,"raine":14212,"æķĪçĽĬ":14213,"ĠæĪĲ":14214,"ĠPrevious":14215,"ä½łæĢİä¹Ī":14216,"Ġclinical":14217,"æ¸£":14218,"Ġdrivers":14219,"ç§©":14220,"Ġstrategies":14221,"Ġli":14222,"è¯¸å¤ļ":14223,"Ð°ÑĢ":14224,"æ·±åº¦":14225,"åĲı":14226,"aret":14227,"å®ĮæĪĲäºĨ":14228,"ĠMiller":14229,"å±ĤçļĦ":14230,"ĠAmong":14231,"å¸Ĥå§Ķ":14232,"å§ĵåĲį":14233,"ĠAssist":14234,"æĳ§":14235,"Ġdelicious":14236,"ç¾İæ´²":14237,"ĠVe":14238,"Ġdebt":14239,"ĠSilver":14240,"rell":14241,"èĤ©èĨĢ":14242,"Ġinnovative":14243,"math":14244,"comes":14245,"å¹´çºª":14246,"Ġmouth":14247,"ĠLewis":14248,"lights":14249,"cknow":14250,"forcement":14251,"Ġproceed":14252,"Ġfro":14253,"Ġgained":14254,"Ġelimin":14255,"å·¾":14256,"Ġadm":14257,"å¡ŀå°Ķ":14258,"æį®è¯´":14259,"ĠTax":14260,"Ġassociation":14261,"Ġä¸¤ä¸ª":14262,"æĢ§åĪ«":14263,"ä¹ĭè·¯":14264,"Ġsuit":14265,"925":14266,"agues":14267,"profit":14268,"73":14269,"å½¢çĬ¶":14270,"æĴ¼":14271,"ĠåĪļ":14272,"æĪļ":14273,"osite":14274,"ä¼Ĭæĸ¯":14275,"ä¿®è¡Į":14276,"Ġåıĺ":14277,"ĠDaily":14278,"åįķçĭ¬":14279,"è¿Ļéĥ¨":14280,"Ġåıªæľī":14281,"ĠTony":14282,"HL":14283,"ĠAtlantic":14284,"æĭ¿çĿĢ":14285,"erves":14286,"ç§ĳåŃ¦å®¶":14287,"ĠMember":14288,"ÐµÐ½Ð¸":14289,"éĵĿ":14290,"Ġsignal":14291,"922":14292,"æ²§":14293,"çĪ±å¥½":14294,"ĠPrim":14295,"ĠBarb":14296,"æīĵçł´":14297,"Ġfifth":14298,"åį¸":14299,"æĮĩå®ļ":14300,"ç©ºåĨĽ":14301,"FF":14302,"rip":14303,"ĠArizona":14304,"Ġteen":14305,"Ġåıĳçİ°":14306,"ĠMinistry":14307,"Ġlie":14308,"ä¼½":14309,"åİĦ":14310,"èĩ´åĬĽäºİ":14311,"ä¸ĵçĶ¨":14312,"Ġnegoti":14313,"ingly":14314,"æ¯ıæĹ¥":14315,"åħ¥éĢī":14316,"ĠCPU":14317,"Ġformal":14318,"Ġäºİ":14319,"è¯Ńæĸĩ":14320,"ĠControl":14321,"ĠéľĢè¦ģ":14322,"ternoon":14323,"ĠPolish":14324,"ĠRyan":14325,"æĥ©":14326,"Ġrespectively":14327,"ilies":14328,"ä¼łéĢĴ":14329,"Ġprepare":14330,"Ġwat":14331,"isms":14332,"ĠNC":14333,"ĠRevolution":14334,"aki":14335,"estyle":14336,"ä¸įçĿĢ":14337,"ä¸Īå¤«":14338,"å®¿èĪį":14339,"åı³æīĭ":14340,"Ġåı·":14341,"Ġhabit":14342,"Mar":14343,"è°Ĭ":14344,"æ¯ģçģŃ":14345,"æİ¥æĶ¶":14346,"Ġrandom":14347,"çĵ£":14348,"ç¾¤å²Ľ":14349,"æĲı":14350,"éĶ»çĤ¼":14351,"ĠDid":14352,"èµĦè®¯":14353,"Ġexperiment":14354,"è®¤çŁ¥":14355,"bal":14356,"æķĻä¼ļ":14357,"Ġemotional":14358,"df":14359,"éĥ¨ä½į":14360,"Ġfriendly":14361,"Ġç¬¬åĽĽç«ł":14362,"å·´è¥¿":14363,"ĠBrother":14364,"ĠMagazine":14365,"åĽ½æľī":14366,"æļĳ":14367,"è®¤ä¸ºæĺ¯":14368,"åĽŀåºĶ":14369,"Ġreco":14370,"éĢĤçĶ¨äºİ":14371,"åģľè½¦":14372,"Ġcycle":14373,"\"|":14374,"Ġåįģ":14375,"Su":14376,"Ġprompt":14377,"Ġsky":14378,"ĠéŁ©":14379,"acks":14380,"ĠCastle":14381,"71":14382,"Ġwalls":14383,"ä¼łç»ŁçļĦ":14384,"çľ¨":14385,"è¾¾æĪĲ":14386,"å¸ĪçĪ¶":14387,"å·ŀçļĦ":14388,"Ġspin":14389,"æ¨¡åĿĹ":14390,"ĠGreg":14391,"Ġconversation":14392,"Ġtalent":14393,"ĠStudents":14394,"Ġpoet":14395,"åĩºçİ°çļĦ":14396,"Ġprotein":14397,"åĩºä»»":14398,"åĿª":14399,"Ġguard":14400,"æ¡¶":14401,"aud":14402,"ç¼ħ":14403,"çĶŁæĦı":14404,"æŃ¥éª¤":14405,"ĠéļıçĿĢ":14406,"æįŁä¼¤":14407,"å¢ħ":14408,"é«ĺäºİ":14409,"Ġcomprehensive":14410,"ĠOcean":14411,"Ġdivided":14412,"æľ¬åľ°":14413,"å©·":14414,"äº§æĿĥ":14415,"Ġtall":14416,"Ġparticipants":14417,"gorith":14418,"æ±Łæ¹ĸ":14419,"orph":14420,"Ġteach":14421,"éĻ¨":14422,"Ġä¼ģä¸ļ":14423,"yard":14424,"Ġempt":14425,"ç»Ħå»º":14426,"Ġsurf":14427,"ĠFall":14428,"ĠåŃĹ":14429,"å®īéĿĻ":14430,"MI":14431,"é«ĵ":14432,"Ġclubs":14433,"ĠNFL":14434,"èĥ½ä¸įèĥ½":14435,"çĽ´å¾Ħ":14436,"åīįè¿Ľ":14437,"ä¾ĭåŃĲ":14438,"ĠFun":14439,"éļıæĦı":14440,"ĠGarden":14441,"å¤©æīį":14442,"è¿ĳå¹´æĿ¥":14443,"æīģ":14444,"Ġtownship":14445,"è¾ĥå¤§":14446,"ĠHoly":14447,"Ġä½¿çĶ¨":14448,"ĠNations":14449,"å¦Ħ":14450,"åŁºç¡Ģè®¾æĸ½":14451,"TER":14452,"Ġsupports":14453,"çĶµåĬ¨":14454,"Ġmedal":14455,"Ġinvent":14456,"ĠEss":14457,"ĠHistoric":14458,"ç´§ç´§":14459,"æİĪæĿĥ":14460,"ä¼łéĢģ":14461,"Ġpractical":14462,"åħ¨åİ¿":14463,"Ġinfl":14464,"berry":14465,"bles":14466,"Ġongoing":14467,"ĠMarc":14468,"ĠMissouri":14469,"ĠPy":14470,"Ġ41":14471,"ĠON":14472,"Ġcooper":14473,"èĭ±å¯¸":14474,"ĠCrit":14475,"è®½":14476,"Ġtransportation":14477,"hus":14478,"æĿ¥åĪ°äºĨ":14479,"è¯¢éĹ®":14480,"å¤§åİ¦":14481,"éĻ¤éĿŀ":14482,"Ġexplained":14483,"ĠIss":14484,"Ġequival":14485,"');":14486,"ç»ĵè®º":14487,"æ¢¨":14488,"Ġweak":14489,"ĠDead":14490,"çĬ¹å¦Ĥ":14491,"è½¬åĲĳ":14492,"Ġaccurate":14493,"æĪªèĩ³":14494,"åŁĶ":14495,"ĠRef":14496,"Ġmail":14497,"ĠåĴĭ":14498,"ĠSever":14499,"åĨĽå®ĺ":14500,"ĠOak":14501,"Home":14502,"PP":14503,"ĠMoon":14504,"åįłæĢ»æĶ¶åħ¥çļĦ":14505,"Ġmand":14506,"ĠFarm":14507,"å¸Ĥæ°ĳ":14508,"æºĲäºİ":14509,"è¯ķè¯ķ":14510,"Ġje":14511,"éĿĴæĺ¥":14512,"Ġcapable":14513,"äººæ°ĳå¸ģ":14514,"éģĹäº§":14515,"çļĦåŃ¦çĶŁ":14516,"åĮ»å¸Ī":14517,"rency":14518,"éĩĩè´Ń":14519,"Ġadvis":14520,"ä»ĸå¯¹":14521,"éĥ½å¸Ĥ":14522,"ĠçĭĹ":14523,"ä¸ĢçĶŁ":14524,"Ġç¾İåĽ½":14525,"index":14526,"ä¸Ģä»£":14527,"Ġrural":14528,"åįģäºĮç«ł":14529,"é¹ħ":14530,"ĠÐļ":14531,"æĹ¥æĬ¥":14532,"DC":14533,"ç½Ĳ":14534,"ä¸Ģå¤§":14535,"æĺİçĻ½äºĨ":14536,"åľ°è¯´":14537,"Ġtypical":14538,"è°ĪåĪ¤":14539,"æĦī":14540,"ä¸Ńå°ı":14541,"åıªå¥½":14542,"éĽĮ":14543,"åĩłåįģ":14544,"ĠçĶŁæ´»":14545,"iden":14546,"è¿Ļåº§":14547,"emet":14548,"ä»ªåĻ¨":14549,"82":14550,"Ġtea":14551,"ĠDom":14552,"å¸ĪåħĦ":14553,"ä¸İåħ¶":14554,"ç»ĺçĶ»":14555,"ĠMaria":14556,"Ġille":14557,"é©±åĬ¨":14558,"Ġshooting":14559,"RC":14560,"912":14561,"ĠWhich":14562,"Ġguy":14563,"Ġè¡Į":14564,"æľºè½¦":14565,"æįŀ":14566,"ĠManchester":14567,"ãĢģ\"":14568,"Ġprovider":14569,"Ġdoubt":14570,"Ġaffili":14571,"Ġmatters":14572,"æĢ¡":14573,"Ġgraduate":14574,"Ġcrick":14575,"Ġflowers":14576,"Ġgrown":14577,"ä»£è¡¨å¤§ä¼ļ":14578,"926":14579,"Ġåį¡":14580,"Ġsample":14581,"Ġroot":14582,"Ġsummary":14583,"åį´æ²¡æľī":14584,"ĠProm":14585,"éŁ³é¢ĳ":14586,"acter":14587,"åħĪå¤©":14588,"Object":14589,"onia":14590,"Ġfilter":14591,"åĮł":14592,"away":14593,"ĠäºĨæĪĳ":14594,"Ġdiscount":14595,"Ġdrugs":14596,"Ġexperim":14597,"Ġchocolate":14598,"Ġguys":14599,"åĲĪæł¼":14600,"Ġversus":14601,"Ġquiet":14602,"911":14603,"å¤ĦçĲĨåĻ¨":14604,"pace":14605,"ĠHung":14606,"æµı":14607,"æĹ¥åĲİ":14608,"ogether":14609,"ä»¥å¤ĸ":14610,"èµ°åİ»":14611,"OK":14612,"ĠContin":14613,"writer":14614,"Ġgranted":14615,"æħ¨":14616,"Ġæ¯Ķè¾ĥ":14617,"Ġ49":14618,"é«ĺè¾¾":14619,"èĶ½":14620,"83":14621,"boy":14622,"924":14623,"ä¼ļä¸Ĭ":14624,"asty":14625,"Ġmunicipality":14626,"']":14627,"éĢĢä¼ĳ":14628,"center":14629,"ĠHouston":14630,"ĠWord":14631,"Ġfiled":14632,"æ¯ıä¸ªäºº":14633,"Read":14634,"Ġil":14635,"æ²¡éĶĻ":14636,"ä¸ĢçĽ´åľ¨":14637,"å®ŀçļĦ":14638,"ĠAction":14639,"ĠManager":14640,"ĠBir":14641,"å½¢åĬ¿":14642,"çļĦé¦ĸ":14643,"Ġconsumer":14644,"Ġhydro":14645,"æī®æ¼Ķ":14646,"annels":14647,"ç«Ń":14648,"har":14649,"Ġ..":14650,"eta":14651,"ĠMA":14652,"çļĦäººåı£":14653,"wing":14654,"Ġrepair":14655,"å¹²ä»Ģä¹Ī":14656,"éļ§":14657,"è£Ļ":14658,"ĠCertainly":14659,"ä¸Ńéĥ¨":14660,"andy":14661,"Or":14662,"çļĦçĽ®åħī":14663,"Ġlosing":14664,"åħ¶ä¸ŃçļĦ":14665,"Ġlake":14666,"Ġlandscape":14667,"iÄ":14668,"ensed":14669,"ĠUnit":14670,"è¡Ģåİĭ":14671,"Ġdropped":14672,"81":14673,"äº§éĩı":14674,"åħħæ»¡äºĨ":14675,"ÃŃa":14676,"éĤ±":14677,"æ®ĸæ°ĳ":14678,"çļĦåĨħ":14679,"uality":14680,"Ġfacing":14681,"ĠåĲ´":14682,"åĪĽæĦı":14683,"wich":14684,"Ġnob":14685,"Ġexternal":14686,"chestra":14687,"å··":14688,"å¼Ģè®¾":14689,"iami":14690,"ĠWH":14691,"ç«ĸ":14692,"ç§įæĹı":14693,"çŀİ":14694,"åħ±äº«":14695,"ika":14696,"File":14697,"Ġwinners":14698,"921":14699,"aga":14700,"æĪĳçŁ¥éģĵ":14701,"çİ°çĬ¶":14702,"Ġå¸ĮæľĽ":14703,"éļĻ":14704,"Ġinfo":14705,"ĠOregon":14706,"Ġmine":14707,"180":14708,"åľ°è´¨":14709,"cies":14710,"æıĲåĪ°":14711,"Ġconstant":14712,"Ġfeedback":14713,"ĠåĮħ":14714,"perial":14715,"Ġarrested":14716,"è¡ĮæĶ¿åĮº":14717,"èı©":14718,"ĠRight":14719,"oker":14720,"Ġè¿Ļä¸Ģ":14721,"ä½£":14722,"ĠTam":14723,"lar":14724,"Ġoperate":14725,"çĮĽçĦ¶":14726,"æĥ³äºĨ":14727,"åľ¨ä¸Ģä¸ª":14728,"å®ĥæĺ¯":14729,"Ġresolution":14730,"Ġsymptoms":14731,"Ġroy":14732,"ÐµÐ¼":14733,"ĠAndroid":14734,"ige":14735,"çİĩé¢Ĩ":14736,"ibilities":14737,"Ġregul":14738,"çĶŁçĲĨ":14739,"ç¥ŀçļĦ":14740,"Ġlegend":14741,"69":14742,"ä¹¦çĶ»":14743,"åĺŁ":14744,"ĠSenior":14745,"Ġrecognition":14746,"Ġacts":14747,"å¯ĩ":14748,"èĲ¥ä¸ļ":14749,"ĠNAS":14750,"èıĩ":14751,"EA":14752,"Ġpowder":14753,"stract":14754,"ĠRoss":14755,"å±¿":14756,"Ġwithd":14757,"éĶ®çĽĺ":14758,"ä»İæľª":14759,"èİ¹":14760,"Ġbatt":14761,"Ġsettlement":14762,"ova":14763,"Ġinterior":14764,"çĶ·å¥³":14765,"ĠAdministration":14766,"åĨĻçļĦ":14767,"Ġhonest":14768,"Ġboys":14769,"å¾Īå¤ļäºº":14770,"Ġsettings":14771,"æĽ¾ä»»":14772,"ä½İäºİ":14773,"Ġgrade":14774,"ĠåıĮ":14775,"çļĦä¸Ĭ":14776,"Ġä¸ľ":14777,"åĩłåĪĨ":14778,"æķ°æį®åºĵ":14779,"ç©¿çĿĢ":14780,"æŃ¤åĲĮæĹ¶":14781,"ĠTherefore":14782,"Ġæ³¨æĦı":14783,"çļĦè¡Įä¸º":14784,"Ġdomain":14785,"angle":14786,"Ġparish":14787,"Ġçī¹åĪ«":14788,"ĠSquare":14789,"Ġjoy":14790,"Ġsustainable":14791,"ä¿ĺ":14792,"ç§ģäºº":14793,"ä¸Ģæµģ":14794,"ĠRegister":14795,"è¿ĻæĿ¡":14796,"oured":14797,"img":14798,"å²Ĺä½į":14799,"Ġçº¦":14800,"ä¸ŃåĽ½äººæ°ĳ":14801,"incoln":14802,"Ġfees":14803,"çĶŁæĪĲ":14804,"Ġvast":14805,"Ġsubstant":14806,"çľŁäºº":14807,"åķĬåķĬ":14808,"åĻª":14809,"var":14810,"ĠIV":14811,"ĠFormer":14812,"å¤±æľĽ":14813,"æ³¢åħ°":14814,"ãĥ³":14815,"ĠPack":14816,"Ġdesire":14817,"Ġboost":14818,"Ġimpressive":14819,"ĠMedal":14820,"çŃīäºİ":14821,"éĩĩè®¿":14822,"å½ĵåīį":14823,"æĶ¶æĭ¾":14824,"åĪ¶åĵģ":14825,"Ġthemes":14826,"esome":14827,"çļĦåŁºç¡Ģä¸Ĭ":14828,"Ġfinds":14829,"Ġextension":14830,"olt":14831,"Ð°ÑĤ":14832,"stery":14833,"çĽ´æĴŃ":14834,"éŃģ":14835,"Gener":14836,"åį¦":14837,"Ġsuffered":14838,"ĠDoes":14839,"Ġscheme":14840,"Ġhealthcare":14841,"åħ´å»º":14842,"Ġcontaining":14843,"89":14844,"Ġflav":14845,"{\\":14846,"ĠéĻĨ":14847,"Ġconcerned":14848,"Ġä¸įæĥ³":14849,"ĠâĢĭ":14850,"rec":14851,"æķĻèĤ²éĥ¨":14852,"çĽ¸åıį":14853,"Ġmedicine":14854,"ĠKevin":14855,"ĠSystems":14856,"Ġodd":14857,"SU":14858,"Ġnarrow":14859,"èĽĭçĻ½è´¨":14860,"æĸ¯åŁº":14861,"çļĦåĪĨ":14862,"Ġplate":14863,"ĠFinancial":14864,"éº¦åħĭ":14865,"core":14866,"ĠDoctor":14867,"Ġtherapy":14868,"èĻļæĭŁ":14869,"çľŁçļĦæĺ¯":14870,"Ġunderst":14871,"åľ°éģĵ":14872,"è¿Ŀåıį":14873,"Ġassign":14874,"çĲĨäºĭä¼ļ":14875,"éŀŃ":14876,"Ġfranch":14877,"ĠVice":14878,"ĠTai":14879,"ĠSpr":14880,"æ³µ":14881,"ĠVillage":14882,"Ġspeaking":14883,"ĠHispan":14884,"çĽĳå¯Ł":14885,"dden":14886,"Ġvotes":14887,"åı¯ä¸įæĺ¯":14888,"ĠChapter":14889,"Ġcomponent":14890,"Ġfaster":14891,"æľĪèĩ³":14892,"å¡ĳæĸĻ":14893,"ĠBan":14894,"åħ¶æ¬¡":14895,"Ġassets":14896,"Ġcontributions":14897,"äºĨè®¸å¤ļ":14898,"éħ¿":14899,"åı¯ä»¥è¯´":14900,"ĠFinally":14901,"åĭŁ":14902,"å¤©æ°Ķ":14903,"å´İ":14904,"ãĢįãĢģ":14905,"åĵĪå°Ķ":14906,"æ²³æµģ":14907,"çŃ¾è®¢":14908,"æŃ§":14909,"ĠName":14910,"åľ¨çº¿":14911,"æĬķç¥¨":14912,"æĹłè®ºæĺ¯":14913,"ographer":14914,"éķ¿å®ī":14915,"ç»Ħç»ĩçļĦ":14916,"emetery":14917,"Ġbirds":14918,"don":14919,"Ġconstructed":14920,"ä¸ĬåįĪ":14921,"':":14922,"Ġvul":14923,"cycl":14924,"ĠMarg":14925,"çļĦéĩĳ":14926,"ĠPatrick":14927,"RS":14928,"923":14929,"Ġoffices":14930,"æİ¥å£¤":14931,"Ġprominent":14932,"Ġdifferences":14933,"igger":14934,"Ġvess":14935,"At":14936,"æ°¯":14937,"Ġdangerous":14938,"Test":14939,"ĠNether":14940,"ĠDog":14941,"éģŃéģĩ":14942,"Ġclar":14943,"Ġacknow":14944,"Ġbodies":14945,"Ġstopped":14946,",'":14947,"79":14948,"Ġparking":14949,"Windows":14950,"æ¶¡":14951,"æ·±å¤Ħ":14952,"è¿Ļäºĭ":14953,"ĠCapital":14954,"arsh":14955,"çļĦåıĺåĮĸ":14956,"igrants":14957,"è£´":14958,"æŁĲä¸ª":14959,"ä¸ŃåĽ½å¤§éĻĨ":14960,"Ġä½ľèĢħç®Ģä»ĭ":14961,"ĠRa":14962,"ĠTrib":14963,"ĠWinter":14964,"Ġbands":14965,"Ġstyles":14966,"ersion":14967,"Ġfoundation":14968,"ĠAh":14969,"Ġlayer":14970,"Ġcomposed":14971,"Ġinvestors":14972,"ä½łåľ¨":14973,"Ġdrum":14974,"åħ¬å¹³":14975,"åĲ¬äºĨ":14976,"éĹªçĥģ":14977,"ĠCop":14978,"ãĢĭ:âĢľ":14979,"å½ķéŁ³":14980,"esh":14981,"æĭīä¸ģ":14982,"æĺ¯å¤§":14983,"Ġtrail":14984,"Ġdelay":14985,"ĠçļĦè¯Ŀ":14986,"ederation":14987,"é¢Ħè®¡":14988,"åı¦ä¸Ģæĸ¹éĿ¢":14989,"ĠLeon":14990,"èĵī":14991,"åı¤èĢģ":14992,"Ġæľ±":14993,"èĻĲ":14994,"ä¸ĢæĿ¥":14995,"èģĶåĲĪåĽ½":14996,"ç®¡çĲĨçļĦ":14997,"child":14998,"åŁºå±Ĥ":14999,"çļĦå¥³":15000,"eting":15001,"è¿Ĳè½¬":15002,"åĿĩä¸º":15003,"å°±æĬĬ":15004,"ĠPier":15005,"Ġemployee":15006,"å¯ĨåĪĩ":15007,"éĤ®æĶ¿":15008,"ĠCulture":15009,"Ġbuying":15010,"Ġrose":15011,"front":15012,"Ġemployment":15013,"ĠForeign":15014,"è¯ŀçĶŁ":15015,"ä»ĸè¯´":15016,"åĽ¢ç»ĵ":15017,"æ±īè¯Ń":15018,"é¼łæłĩ":15019,"ĠæĹ¥":15020,"éĺĲ":15021,"ĠåıĤèĢĥ":15022,"Ġforg":15023,"OV":15024,"Ġtrading":15025,"Ġwindows":15026,"Ġsoldiers":15027,"æĶ¶è´¹":15028,"Ñī":15029,"Ġabandon":15030,"Ġceleb":15031,"ĠGil":15032,"ä¹ĲåĽ¢":15033,"yers":15034,"ographics":15035,"Ġåı¦å¤ĸ":15036,"Ġæ´Ĺ":15037,"gener":15038,"ells":15039,"Ġwheel":15040,"Ġinjuries":15041,"Ġtough":15042,"ä¸Ģå¼Ģå§ĭ":15043,"ults":15044,"çĳľ":15045,"ĺħ":15046,"ç¬¬åħ«":15047,"ĠSimon":15048,"Ġfishing":15049,"æ¼ĶåĶ±ä¼ļ":15050,"group":15051,"Ġrear":15052,"éľĦ":15053,"å±±èĦī":15054,"å½¢çļĦ":15055,"åĿĩåĮĢ":15056,"èĢ»":15057,"Ġtreated":15058,"é¡·":15059,"Ġexpanded":15060,"çŃīçļĦ":15061,"php":15062,"Ġcapture":15063,"Ġå°Ĩ":15064,"ĠArgent":15065,"Ġstreets":15066,"Ġdollars":15067,"ĠåĽ¾":15068,"åľ¨éĤ£éĩĮ":15069,"ghan":15070,"Ġsurgery":15071,"ä¸¤ä¾§":15072,"../../":15073,"ĠçĽ®åīį":15074,"èįīåİŁ":15075,"Ġlinked":15076,"ouch":15077,"éħ¬":15078,"Ġtrav":15079,"ä¸»ç¼ĸ":15080,"Ġvaluable":15081,"ä¸ºæŃ¤":15082,"ocracy":15083,"ä½łä¸į":15084,"æĸĩåĮĸçļĦ":15085,"ĠLink":15086,"ĠMaryland":15087,"çĽ²":15088,
[...]
